{"defending": 6611, "spends": 16994, "##oise": 17724, "Certainly": 22288, "ransom": 25057, "tinged": 25275, "mysterious": 8198, "spur": 16650, "RNA": 13254, "##\u30ba": 28840, "##eng": 14429, "Sacred": 11373, "giving": 2368, "underside": 19631, "As": 1249, "liquor": 15043, "depart": 20435, "Wolfgang": 14326, "revealed": 3090, "questioned": 8449, "##lace": 17510, "##rops": 25287, "##15": 16337, "brakes": 14656, "Daniels": 13549, "Viktor": 13845, "##\u0902": 28508, "bomber": 11895, "proper": 4778, "##moor": 19216, "leans": 12957, "biography": 9631, "##VB": 18339, "Charles": 1889, "kills": 8567, "##iser": 12943, "bookstore": 27714, "pained": 24794, "##runched": 26640, "carriages": 19486, "possessing": 21171, "lying": 4009, "Bombay": 11888, "expecting": 7805, "comedian": 10475, "audiences": 9569, "location": 2450, "chief": 2705, "colours": 9849, "##lating": 18156, "##\u064e": 28498, "stairway": 27332, "gearbox": 26283, "Beatrice": 16131, "Guam": 17256, "[unused51]": 51, "Cain": 11753, "VI": 7118, "Henrietta": 22807, "'": 112, "##HS": 11420, "sultan": 27246, "cuisine": 13994, "##ck": 2158, "radios": 26150, "decks": 22444, "Rita": 11821, "Maharaja": 24659, "##culture": 19695, "##ic": 1596, "Grade": 6318, "pour": 11480, "Riley": 7024, "document": 5830, "##san": 9995, "Russians": 12677, "sphere": 11036, "Romans": 10935, "##district": 26013, "longtime": 11448, "Palestinians": 23755, "Leonardo": 15358, "##rits": 26846, "patrol": 7489, "Circus": 14537, "ant": 22904, "##ign": 11368, "Rich": 8864, "Newspaper": 21158, "Afro": 20075, "##\u0996": 28545, "##ciation": 15253, "Grange": 20281, "Counter": 23064, "##aver": 18195, "##per": 3365, "thud": 23456, "##etto": 27394, "popping": 22850, "Acheron": 23636, "idea": 1911, "enzymes": 17664, "environments": 10152, "Motion": 12153, "offerings": 16102, "clause": 13620, "Geography": 20678, "flanks": 26435, "glazed": 21856, "criterion": 26440, "\u9580": 1081, "delivering": 13232, "peace": 3519, "Kensington": 19087, "Bill": 2617, "Tech": 7882, "##graphical": 25582, "artillery": 6201, "avail": 28057, "##idae": 5106, "acre": 7583, "##ig": 6512, "experimental": 6700, "raising": 5920, "Lucknow": 26480, "##ane": 6354, "##haman": 24045, "Face": 10289, "chickens": 26199, "\u00e6": 252, "Cameroon": 14292, "##del": 6738, "Rowland": 22473, "web": 5127, "Macon": 23153, "Thank": 4514, "\u00b4": 215, "Watkins": 18190, "Assessment": 19721, "urgency": 21573, "Norway": 4323, "Son": 6913, "Wichita": 20124, "skill": 7864, "cradle": 26822, "\u0648": 592, "Lviv": 26681, "interests": 4740, "##\u093f": 28532, "Four": 3396, "selected": 2700, "ISSN": 26273, "von": 3262, "##\u2218": 28747, "temperate": 18606, "Majesty": 10637, "bays": 15520, "conflict": 4139, "Alison": 12884, "visiting": 5807, "##lore": 21425, "chant": 22058, "\u2088": 819, "##\u0151": 28239, "##hart": 11429, "Muhammad": 6710, "operatic": 26350, "Attack": 13704, "##pot": 11439, "Boyle": 17846, "##vention": 21987, "pinning": 25970, "nerves": 10846, "1818": 12191, "##jima": 17133, "Annual": 8451, "drinking": 5464, "##NC": 15517, "##rass": 19326, "##ono": 23038, "Bavaria": 11632, "##tina": 11681, "Pastor": 19744, "Wade": 11052, "2000s": 8509, "Lost": 6249, "displays": 8609, "Bar": 6523, "##ended": 15399, "Giles": 13627, "ghost": 7483, "might": 1547, "##\u0924": 28515, "##\u0111": 28218, "attacked": 3623, "molecules": 10799, "moaning": 26944, "##RNA": 15654, "Rover": 16823, "bullshit": 17480, "sandstone": 13145, "##\u0144": 19339, "Embassy": 13530, "hilt": 23792, "integrated": 6576, "yards": 3422, "Deep": 7786, "degrees": 4842, "seminary": 17403, "quicker": 21104, "Hayward": 23739, "##nso": 27035, "##gger": 9146, "Dallas": 5043, "##ades": 16913, "associates": 13681, "Ulysses": 25427, "shining": 10825, "Win": 16387, "electronics": 11216, "223": 22803, "looking": 1702, "Hare": 18146, "contains": 2515, "lasted": 5695, "graph": 10873, "##zhen": 21821, "depicting": 10726, "Krak\u00f3w": 16546, "furiously": 22406, "##bner": 19090, "##\u1ebf": 28647, "proposes": 18381, "Sc": 20452, "relegated": 7744, "Living": 7932, "encounter": 8107, "##plane": 10648, "allegiance": 16487, "\u8c37": 1071, "Kara": 14069, "assuming": 11577, "Hanna": 10502, "Romero": 19731, "bursts": 21254, "authorized": 9320, "23rd": 14411, "horror": 5367, "Macau": 17982, "##xing": 24118, "stain": 24754, "##ards": 13584, "Lemon": 27322, "follows": 3226, "duo": 6862, "recreational": 11240, "##ove": 18122, "releases": 6596, "facial": 14078, "##eper": 25136, "Kaufman": 26517, "barony": 26488, "##borne": 16275, "##rima": 19123, "nonetheless": 14642, "Garry": 23735, "Bow": 21107, "rude": 14708, "investments": 12372, "loves": 7871, "write": 3593, "willed": 25369, "blaze": 26124, "321": 26963, "bomb": 5985, "queen": 5746, "presentation": 8685, "wife": 1676, "##aceae": 19519, "White": 2061, "\u041e": 461, "ancient": 2890, "explicitly": 12252, "importance": 4495, "affirmed": 22062, "solid": 4600, "tasting": 21296, "Sabbath": 21952, "clone": 22121, "##\u0575": 28430, "Emery": 28019, "##yev": 16376, "abrupt": 20494, "resembling": 16562, "162": 19163, "Leading": 16425, "Mei": 24563, "##dah": 16662, "mined": 24359, "ace": 20839, "daring": 17402, "Privy": 19913, "print": 5911, "plate": 4885, "Carolina": 2938, "Ari": 10789, "mat": 22591, "##\u098f": 28542, "commit": 10836, "luck": 6920, "##eers": 14350, "heaved": 21766, "escort": 9070, "multinational": 24924, "proving": 15975, "super": 7688, "Merrill": 17247, "prevailing": 21301, "oblivious": 20667, "##plating": 26938, "##ckers": 24138, "severity": 20997, "##ients": 24767, "##rel": 9261, "60th": 22963, "Visiting": 19383, "viable": 15668, "Unified": 22749, "\u1eed": 763, "WCW": 27189, "1642": 27015, "rotting": 25407, "rear": 3876, "70": 3102, "##visor": 22348, "\u2087": 818, "concert": 3838, "mathematician": 13919, "immunity": 17523, "drama": 3362, "dick": 14458, "LA": 10722, "Qur": 25977, "\u00cele": 27756, "Initially": 7245, "starts": 3816, "holding": 2355, "writer": 2432, "Guatemala": 11835, "Which": 5979, "publishes": 12701, "Andhra": 14620, "1993": 1949, "##le": 1513, "pseudonym": 14420, "described": 1758, "Smith": 2159, "faster": 4946, "fossils": 13104, "Hanson": 18334, "Pedro": 7233, "##dr": 23632, "cooled": 13289, "seventeen": 10439, "Carrier": 16983, "##\u4e8c": 28875, "\u2012": 781, "coincided": 20126, "##ray": 6447, "battalion": 7295, "sank": 7095, "Poland": 2870, "girlfriend": 6124, "Adams": 5234, "##zilla": 20366, "salmon": 17646, "189": 22415, "##chess": 27320, "Qin": 22495, "woodland": 14010, "\u00ec": 258, "Cycle": 19991, "splashed": 24514, "wait": 3074, "Penny": 13651, "refurbished": 20413, "La": 2001, "profit": 5022, "Parliamentary": 10628, "##nounce": 25196, "spilling": 19626, "prayer": 8070, "Papal": 26202, "##imo": 12013, "##liptic": 24021, "\u1e33": 731, "lead": 1730, "Malaysia": 5355, "##\u0107": 7128, "Mine": 9139, "gonna": 6100, "thrusting": 24386, "##rial": 13119, "asserted": 14043, "##zen": 10947, "Emil": 17304, "logistics": 18398, "divine": 10455, "##ie": 1663, "##re": 1874, "prefecture": 22041, "suggests": 5401, "results": 2686, "hectares": 8754, "##bilities": 15951, "react": 10573, "Movement": 6257, "Hawaiian": 12314, "##\u021a": 28272, "abandoned": 3928, "##aby": 19127, "beside": 3148, "Michigan": 3312, "Santos": 11064, "Domain": 20237, "##lls": 9872, "Collector": 25493, "shoots": 11981, "##pation": 22578, "gradient": 19848, "##roon": 21467, "##jn": 22923, "doorway": 6535, "RBIs": 26417, "Josiah": 27549, "alterations": 18651, "describes": 4856, "\u0634": 578, "##ffe": 15475, "##\u30d5": 28853, "assaults": 25720, "rice": 7738, "sheep": 8892, "boys": 3287, "Architecture": 9021, "1857": 7763, "walks": 7104, "groups": 2114, "##forcing": 20586, "inadvertently": 23438, "categorized": 22429, "billionaire": 26961, "Deborah": 16507, "##\u6751": 28934, "##vo": 6005, "\u300f": 892, "\u3066": 911, "##'": 28131, "##ics": 4724, "basin": 8434, "sniper": 22209, "naturalist": 23439, "##\u060c": 28469, "sacks": 17177, "##90": 21500, "Isabel": 11726, "generic": 13179, "Kumar": 9392, "##sal": 11794, "script": 5444, "Kingston": 9557, "Pembroke": 23647, "ben": 26181, "\u2096": 829, "##eese": 18749, "##\u0408": 28365, "##skar": 24335, "neighbors": 11209, "##nale": 25668, "complicated": 8277, "\u2227": 856, "informs": 16788, "brushing": 13398, "##etus": 16311, "elections": 3212, "Hit": 15375, "Station": 2874, "desk": 3917, "1937": 3493, "trains": 3918, "shrubs": 20918, "rainforest": 24369, "jazz": 4888, "##vyn": 27347, "discovery": 6004, "Mathematics": 9833, "eliminating": 16520, "pupil": 11602, "universe": 6271, "##ilon": 27599, "Airbus": 23002, "servants": 8960, "##manship": 15924, "##\u044c": 28414, "14": 1489, "##light": 4568, "Dry": 18112, "twenty": 2570, "Kuwait": 13397, "tally": 24912, "said": 1163, "Majority": 23670, "address": 4134, "persisted": 20702, "fearful": 22984, "Hate": 20735, "Susan": 5640, "substituted": 18667, "Moreno": 19388, "warnings": 17823, "Interview": 24731, "Stars": 6200, "bombers": 12555, "Hopkins": 10055, "neighbourhood": 11685, "401": 25182, "healing": 9523, "emeritus": 24055, "region": 1805, "peek": 23945, "Shortly": 6480, "beverages": 25872, "Giving": 22700, "retreated": 11706, "foul": 13209, "budget": 4788, "internship": 27265, "documented": 8510, "Greenville": 23035, "Flags": 14039, "Industry": 7358, "##a": 1161, "Roy": 5396, "leaf": 7404, "experience": 2541, "Whitney": 9567, "##zation": 8569, "Pat": 7195, "##writer": 13814, "Samuel": 4424, "defines": 12028, "workshop": 10819, "feathers": 13311, "##rad": 9871, "{": 196, "decides": 6771, "\u20ac": 836, "teams": 1929, "sacred": 8854, "Monaco": 15422, "overly": 16201, "##\u03be": 28350, "Donna": 11351, "Resurrection": 26461, "##gi": 5389, "##zawa": 18336, "##\u028c": 28292, "express": 6848, "triggered": 13746, "Inverness": 25558, "winter": 3701, "2005": 1478, "##clave": 16768, "Melinda": 27042, "##uron": 22497, "wounds": 8503, "compelled": 15957, "##\u751f": 28949, "treasury": 25919, "addition": 1901, "Wayne": 5489, "listeners": 14861, "possessive": 25254, "numerous": 2567, "##iera": 25579, "\u0bbf": 680, "manipulated": 22061, "preceding": 11139, "watch": 2824, "Harbor": 7835, "stop": 1831, "selfish": 15589, "Coach": 6522, "Alright": 18009, "trends": 14652, "Improvement": 22053, "flick": 22302, "C\u00f3rdoba": 22643, "Murdoch": 21736, "Admiralty": 15563, "##hren": 22165, "cinematographer": 24583, "Constitutional": 12339, "##sk": 5276, "##yan": 6582, "Dmitry": 24513, "160": 7690, "massive": 4672, "impressive": 7757, "Anniversary": 12656, "Instrumental": 17809, "1782": 17995, "southbound": 23285, "Medium": 19250, "crew": 3039, "labeled": 12893, "##\u2191": 28739, "##bers": 11697, "##nya": 15449, "147": 17491, "Protected": 15344, "stiffened": 17068, "##garh": 12981, "##fle": 23445, "Widow": 26634, "##stein": 7879, "sympathy": 12775, "##ness": 1757, "neutrality": 25449, "Book": 3168, "Tessa": 13471, "##ap": 11478, "c": 172, "hazards": 26302, "1720": 26282, "Marty": 12768, "subsidiary": 7049, "bushes": 15479, "Herrera": 26292, "cooked": 13446, "Iowa": 5258, "##id": 2386, "Raw": 14108, "##ML": 19332, "learnt": 22215, "Hague": 15201, "tap": 12999, "demos": 23740, "##rming": 21290, "reduce": 4851, "Walker": 4575, "##\u308c": 28822, "Border": 12331, "satisfying": 18330, "##hic": 11239, "flinched": 20888, "Cape": 4343, "Eat": 21327, "##ocytes": 26431, "Desmond": 17190, "access": 2469, "administrative": 3207, "##IB": 27954, "Se": 22087, "Barnett": 21886, "##dives": 27943, "descended": 9026, "Hollywood": 4613, "zombies": 17715, "missions": 6178, "Gas": 12384, "Close": 11145, "Clyde": 12190, "consensus": 10923, "##pen": 11741, "unrest": 18366, "Silas": 20101, "bowls": 20400, "obviously": 5544, "exploits": 23244, "smoked": 23235, "Sounds": 10560, "dams": 20245, "\u00d8": 241, "Planet": 9522, "##22": 20581, "##uction": 18305, "boulder": 23751, "bother": 8255, "ingredient": 24799, "secrets": 8858, "Hat": 19454, "##\u00edo": 26804, "capsule": 21749, "considers": 10500, "Colonel": 4212, "Crawford": 10433, "appreciated": 12503, "weigh": 18678, "noteworthy": 22076, "Soldier": 14595, "mainline": 25229, "instructed": 10154, "obtained": 3836, "extending": 8177, "Species": 11763, "Warner": 6049, "\u25cf": 872, "yielding": 23731, "##lades": 19872, "automation": 27834, "##urs": 7719, "1861": 6255, "lieutenant": 6403, "homeless": 12501, "##tton": 16495, "fires": 8966, "Enterprise": 9892, "##TP": 17433, "##ducted": 23087, "##rna": 11782, "Sr": 8731, "increased": 2569, "Orthodox": 6133, "Break": 15835, "kicks": 16721, "##umatic": 25930, "Aspen": 23180, "genres": 11688, "##tur": 20362, "chapter": 6073, "spinning": 9754, "Notable": 11017, "visually": 19924, "##ahn": 25963, "thanked": 16490, "Naval": 4715, "##ine": 2042, "##sia": 6370, "angular": 17553, "Biennale": 23754, "markers": 18004, "intrinsic": 27799, "##iary": 18665, "spectral": 20277, "##quito": 21594, "Monroe": 9487, "##ibe": 13374, "up": 1146, "spread": 2819, "Hungarian": 4852, "##inas": 16924, "\u1fc6": 775, "clergyman": 25215, "factor": 5318, "Spectrum": 22046, "papal": 16701, "earlier": 2206, "##am": 2312, "##se": 2217, "wreckage": 24069, "casting": 9616, "Lou": 10111, "Canary": 20462, "##turn": 23238, "rumbled": 24666, "##eron": 28032, "Audi": 22139, "dungeon": 23801, "whether": 2480, "strength": 3220, "Warren": 5407, "Eleanor": 10392, "Cooperation": 17612, "fines": 25488, "civilians": 9112, "broadly": 14548, "protocols": 19755, "##gable": 24363, "historic": 3432, "singers": 9500, "pardon": 19015, "Rite": 23787, "production": 1707, "##raphic": 27229, "##dron": 21844, "Lama": 21795, "pursuit": 9542, "Neolithic": 22756, "Macintosh": 26162, "midway": 20271, "getting": 2033, "Landing": 14737, "##amed": 25282, "company": 1419, "registration": 9630, "woman": 1590, "orchestras": 23252, "##lette": 21958, "##avi": 21704, "pounds": 6549, "facilities": 3380, "aired": 4086, "corruption": 8065, "##ped": 3537, "Rome": 3352, "##eering": 15536, "##ordination": 24546, "stairwell": 24668, "partnership": 5210, "bark": 12001, "Webb": 10894, "Arizona": 4565, "##ifice": 26718, "protests": 7853, "##uti": 16065, "##arra": 25203, "appear": 2845, "bleak": 26481, "Bordeaux": 17441, "presentations": 20531, "manufacturing": 5863, "banging": 25200, "seasonal": 13286, "##t": 1204, "piercing": 15659, "\u00e4": 250, "exposed": 5490, "Goes": 15150, "Mughal": 19333, "continuing": 5542, "horse": 3241, "1986": 2177, "dock": 11020, "crossed": 3809, "##pute": 22662, "expedition": 6084, "Logistics": 25486, "405": 26904, "new": 1207, "Steps": 27913, "##gg": 9705, "##dden": 19221, "track": 1854, "remote": 6456, "will": 1209, "org": 8916, "patches": 14879, "##\u0434": 28396, "\u0924": 612, "Mint": 21192, "blood": 1892, "scoring": 3859, "ZIP": 26248, "angrily": 14887, "MW": 13277, "Edison": 18221, "##mere": 14554, "coating": 20911, "ceiling": 5265, "flees": 28031, "wilderness": 15211, "Mistress": 20909, "##\u0282": 28288, "Sardinia": 23833, "Cup": 1635, "##nington": 24288, "Duncan": 6809, "Cove": 13765, "Bon": 17182, "Sienna": 22624, "Disaster": 23873, "##tian": 11969, "Monastery": 14098, "crazy": 4523, "Retired": 14454, "leaving": 2128, "##ennial": 16009, "storylines": 25869, "##amia": 26817, "Countries": 19510, "Missing": 20801, "Merry": 15871, "unclear": 10527, "##quest": 16437, "##ca": 2599, "Dunedin": 24377, "amendments": 19696, "##\u0582": 28436, "##\u099b": 28548, "Derry": 18797, "##%": 28129, "abolition": 18304, "lame": 25492, "Ramos": 20508, "\u10dc": 702, "\u306a": 913, "##\u2033": 28700, "sodium": 15059, "recommendation": 13710, "Crew": 11144, "Perkins": 13968, "##rians": 19896, "alloy": 20107, "orchards": 27034, "councils": 13298, "alternatives": 18815, "\"": 107, "##ckey": 19254, "##\u06d2": 28507, "disappointment": 10866, "##board": 4015, "##ific": 19814, "bush": 13771, "##hanna": 24638, "bankrupt": 19004, "##ovo": 18105, "pin": 10473, "botanical": 20764, "\u516c": 991, "investment": 5151, "Back": 4388, "##coat": 17518, "##rb": 26281, "preview": 24409, "apps": 23875, "\u6b63": 1045, "maternal": 11476, "trustees": 14052, "82": 5787, "chapters": 9611, "top": 1499, "beginning": 2150, "Oak": 8957, "Shield": 11452, "emergence": 15351, "investor": 16321, "CO\u2082": 22140, "##nex": 24321, "##suke": 16431, "hurry": 10275, "saloon": 22905, "flute": 10284, "Damn": 8441, "decommissioned": 15440, "##NP": 14576, "humanities": 26419, "vase": 26100, "Mitsubishi": 21450, "defiance": 27071, "1770": 18980, "IF": 13729, "desirable": 17483, "bedside": 21685, "bitterly": 21115, "scrub": 20712, "##curement": 23505, "Kill": 11404, "Sterling": 12319, "Washington": 1994, "##\u207f": 28711, "Turkey": 4439, "ripe": 27087, "repairs": 10528, "defendants": 18047, "ranch": 10804, "Osaka": 13586, "##EF": 14663, "Surrey": 9757, "fluids": 24024, "\u094b": 633, "leverage": 24228, "gasp": 12271, "hosts": 5654, "##mates": 12070, "##dong": 17091, "sweating": 21234, "pistols": 24389, "Ted": 6564, "Gothic": 8328, "Manning": 13489, "influence": 2933, "Guns": 18270, "##china": 22952, "\u00d7": 240, "##uge": 22584, "Valle": 22474, "fear": 2945, "muscle": 6484, "##ync": 27250, "drops": 8949, "##bol": 15792, "##ob": 12809, "lair": 27359, "##irk": 15725, "##master": 6532, "indirectly": 18814, "##lihood": 26596, "Archer": 12244, "##mington": 21199, "needs": 2993, "flank": 12509, "##worm": 25633, "##dress": 18380, "Finals": 9801, "image": 3077, "warehouse": 11130, "diabetes": 17972, "til": 27216, "monitoring": 9437, "institute": 8918, "stem": 8175, "##\u09a5": 28552, "Ready": 13635, "motives": 18686, "Benin": 23552, "cooling": 12147, "AMC": 24810, "dusk": 24494, "father": 1401, "arranger": 16163, "Barber": 16785, "symmetry": 16558, "knife": 4937, "\u02c8": 384, "responds": 17550, "Rosenberg": 23171, "dedicated": 3256, "##lue": 19224, "silhouette": 27316, "##cted": 8436, "Byzantine": 8377, "1816": 12497, "Monument": 12267, "stint": 12249, "##ello": 13323, "wax": 17318, "disciples": 21429, "plan": 2197, "##pt": 6451, "terminus": 7132, "##loom": 13853, "##ibly": 15298, "raped": 16567, "apologize": 12529, "observed": 4379, "Electrical": 13779, "crisis": 5532, "##hard": 9421, "Emerson": 12836, "##it\u00e9": 27751, "Dad": 4708, "auspices": 22105, "accountant": 23195, "withdraw": 10570, "Fair": 6632, "Reserves": 24635, "retain": 8983, "originates": 18025, "laden": 23164, "aux": 24544, "Alexandria": 10142, "Brandon": 8464, "lower": 2211, "cave": 5812, "overhead": 9008, "##quet": 10457, "proliferation": 23766, "Baku": 17987, "Chen": 8742, "Caroline": 7515, "##mett": 23355, "Mix": 7347, "recording": 2730, "tower": 3590, "racist": 18848, "##achal": 26992, "retiring": 8970, "collided": 19060, "charm": 11967, "received": 1460, "Sin": 14009, "Souls": 22571, "Sean": 5499, "Rama": 15078, "achieve": 5515, "Butler": 7280, "Rare": 25574, "##\u092f": 28523, "##luk": 17086, "differently": 11677, "ha": 5871, "##duced": 20196, "Czechoslovakia": 13028, "environment": 3750, "Handbook": 18267, "disturbance": 19019, "precursor": 15985, "Gonna": 19642, "limp": 15905, "Town": 2779, "Forward": 15322, "rugby": 4896, "discontinued": 8779, "styling": 23809, "Serie": 9689, "transporting": 19920, "north": 1564, "Quantum": 25231, "amused": 12003, "Highland": 12103, "##\u2020": 28694, "lack": 2960, "##aring": 10832, "Mrs": 2823, "retirement": 4406, "Messiah": 27664, "McCain": 20884, "45th": 27743, "competitor": 13047, "Hindu": 7083, "Lights": 13951, "##oa": 12985, "ed": 5048, "\u2015": 784, "Mirror": 13861, "telescope": 16737, "economies": 21553, "##zle": 21907, "##ntal": 21739, "fixture": 15927, "amidst": 20746, "Ha": 11679, "cultures": 8708, "attach": 25337, "Month": 17545, "showered": 27155, "continents": 21876, "Ng": 26057, "Saul": 18600, "Herb": 20780, "Moscow": 4116, "Best": 1798, "negotiate": 14169, "##ji": 3454, "##chtenstein": 23561, "Wexford": 25783, "rumors": 12287, "##dal": 6919, "semifinals": 11499, "entrance": 3448, "Mexican": 4112, "wound": 5785, "organic": 7878, "concludes": 15382, "anniversary": 5453, "##BL": 13360, "tumor": 14601, "##\u25a0": 28765, "Ramon": 19437, "Rate": 24442, "relieve": 16775, "Tavern": 25829, "Bear": 8073, "##bay": 22771, "Besides": 4981, "straightened": 11161, "Passenger": 20252, "give": 1660, "shield": 7292, "Ok": 23330, "drawing": 4619, "equals": 22455, "owe": 12972, "produces": 6570, "Knowles": 25384, "bothering": 18230, "wetlands": 20432, "ARIA": 21356, "neared": 22853, "##vies": 24848, "Walk": 10065, "horizontally": 26126, "trap": 8598, "##tat": 19756, "urges": 27169, "marriages": 13554, "wrong": 2488, "compiling": 24615, "##llas": 23975, "Prof": 11644, "properly": 7513, "\u4eba": 985, "Marxist": 16583, "##erman": 14170, "squadrons": 13352, "establishment": 4544, "pulls": 7561, "Tide": 27604, "Emeritus": 18212, "gripping": 15436, "##hof": 15317, "bids": 23733, "##us": 1361, "pro": 5250, "##ri": 2047, "sweetheart": 14266, "Getting": 14709, "##eye": 23183, "Lounge": 26135, "Bell": 4720, "asserts": 21306, "Kris": 21478, "expands": 27903, "mechanics": 11556, "Strauss": 17448, "Allies": 14254, "Farm": 6865, "regeneration": 25517, "poker": 15772, "##former": 23763, "Kind": 15994, "##ebrates": 27713, "##\u042d": 28390, "risked": 24925, "sees": 5302, "Three": 2677, "Rossi": 20154, "Batman": 8622, "##net": 6097, "akin": 21584, "railway": 2529, "trivial": 23594, "nobody": 8582, "Willie": 9676, "scooted": 27306, "medal": 3086, "every": 1451, "Juventus": 25334, "builder": 15369, "contracts": 8216, "elder": 8110, "\u00f5": 267, "##eria": 16386, "Claudio": 22363, "##\u10e0": 28607, "Manufacturing": 17023, "bull": 12200, "##ilized": 15892, "##g\u00e9": 21645, "Certain": 16482, "eye": 2552, "##ug": 9610, "anthology": 12315, "\u2116": 840, "##nosis": 27078, "##sburg": 9364, "Harper": 8135, "eve": 23491, "Tucson": 18740, "drop": 3968, "eighty": 14654, "recent": 2793, "photographer": 8152, "elaborate": 9427, "##lop": 13200, "Live": 3374, "Dog": 8166, "Leaf": 21901, "applicant": 27414, "760": 27746, "harmony": 12659, "take": 1321, "undertaking": 20686, "helmet": 10815, "##urable": 27984, "##family": 21390, "##wari": 20441, "Katy": 19513, "Mother": 4872, "Career": 17062, "##\u05d5": 28450, "##vigator": 22315, "bases": 7616, "transform": 11303, "windows": 3751, "mid": 2286, "sings": 12792, "##\u00e9n": 12640, "II": 1563, "Cecilia": 20391, "Hotels": 25704, "squinted": 18654, "imposed": 9520, "Ellis": 8161, "rod": 14628, "names": 2666, "rape": 9372, "bare": 6038, "downloads": 26477, "however": 1649, "Glamorgan": 26725, "suspected": 6321, "\u592a": 1011, "played": 1307, "Marshall": 5137, "##mans": 14761, "\u044b": 502, "1955": 3115, "##heart": 19233, "illustrator": 15249, "drown": 22592, "Los": 2238, "applicants": 20434, "##\u0428": 28389, "Jeremiah": 18789, "##\u1e29": 28632, "Gaga": 26936, "consecutive": 4776, "Paige": 18179, "##\u062c": 28479, "erotic": 16263, "angled": 20423, "drive": 2797, "coated": 16055, "colder": 24444, "monastery": 7197, "Leader": 7308, "baritone": 16177, "admiration": 18368, "Renault": 15234, "Talon": 22879, "Shade": 20956, "SBS": 23798, "Mars": 7403, "commodity": 23883, "##mony": 27027, "E": 142, "roadway": 20722, "\u05e9": 557, "fascinated": 17136, "vocal": 5563, "athletics": 11645, "curled": 7787, "\u1d49": 712, "Any": 6291, "surfaces": 9902, "convoys": 26626, "dragging": 12482, "##kus": 26688, "Reyes": 12823, "reference": 3835, "Alabama": 5359, "Depot": 15525, "disappears": 18441, "Palermo": 20250, "##ogram": 28012, "Barbara": 5934, "o": 184, "knockout": 13251, "\u0565": 516, "Cooperative": 22892, "##bley": 26672, "##ediatric": 24795, "instructor": 10332, "than": 1190, "coding": 19350, "rig": 25462, "##wing": 7635, "Norris": 16309, "Waiting": 16602, "withdrawn": 9512, "##apon": 26655, "##laid": 16898, "Patti": 25598, "##rsey": 19930, "##\u30df": 28857, "feud": 15081, "EP": 4493, "##\u092c": 28520, "Wakefield": 17039, "1954": 3183, "##vere": 25243, "\u03a0": 407, "solely": 9308, "##CE": 10954, "shooting": 4598, "Shoes": 27564, "##nics": 21157, "Flint": 17741, "##uary": 18487, "##racy": 23557, "##gam": 17634, "##iff": 11093, "Quran": 23593, "IN": 15969, "Greenwich": 14323, "soil": 5384, "critic": 5959, "Actor": 7617, "Idol": 15632, "Variations": 26257, "exploit": 19685, "Evans": 5826, "##linear": 24984, "exports": 15765, "Advisory": 9433, "Fitzgerald": 13550, "Russo": 18182, "propeller": 17358, "##yd": 19429, "stage": 2016, "##derman": 17951, "Senegal": 17419, "facilitated": 21582, "Armand": 22276, "##blivion": 26962, "Political": 6679, "Survival": 26849, "jolt": 26078, "Maria": 3406, "explained": 3716, "sum": 7584, "Artistic": 19503, "recreation": 12729, "##\u00f3w": 6781, "Navajo": 24954, "prefers": 21042, "##mond": 10151, "##otype": 27172, "majors": 19796, "configurations": 25209, "Italian": 2169, "24th": 13722, "##eak": 23783, "##mia": 8191, "The": 1109, "var": 15661, "Acad\u00e9mie": 23705, "##\u6c5f": 28943, "Dorset": 16180, "Tiger": 8134, "barely": 3742, "cottages": 22264, "knots": 9399, "##UR": 19556, "##BF": 26447, "table": 1952, "forcibly": 23129, "Augustus": 11740, "Cincinnati": 7304, "Zachary": 21202, "##ner": 2511, "encouragement": 17568, "was": 1108, "Founder": 16505, "Juniors": 24150, "Coronation": 22137, "Weston": 12946, "brother": 1711, "Thomson": 11141, "##latt": 23524, "##ater": 19987, "Maritime": 11081, "melt": 16399, "\u3080": 920, "AND": 16716, "again": 1254, "battleships": 24392, "tangled": 15736, "64": 3324, "snack": 23029, "##rt": 3740, "far": 1677, "##ided": 10517, "loose": 5768, "Comedy": 8909, "Quaker": 20536, "##lora": 24171, "1690": 27899, "Ho": 9800, "Qualifier": 15408, "##kovi\u0107": 18571, "WR": 26476, "wearing": 3351, "floated": 14146, "##awa": 10946, "unincorporated": 7420, "foot": 2555, "##sexual": 24352, "Brasil": 23381, "U2": 26148, "legged": 17082, "\u02b2": 377, "domain": 5777, "Heavyweight": 10251, "plaque": 12592, "attended": 2323, "##cer": 14840, "veto": 27484, "##ilities": 27968, "\u1f70": 772, "Opposition": 16475, "##\u30a8": 28828, "Assault": 24572, "tornado": 13914, "##claim": 16659, "##gth": 27116, "##itor": 15419, "Maxim": 25217, "pinned": 11973, "Mat": 25702, "loyalty": 10075, "clashes": 19708, "Queensland": 4548, "##hdi": 26946, "##\u02b2": 28298, "Delhi": 6175, "##im": 4060, "gameplay": 11716, "professors": 14427, "##\u1e0d": 28628, "S": 156, "professionally": 12486, "##aro": 14452, "Worth": 12554, "generator": 14622, "Weekly": 8922, "wonders": 21346, "Grammar": 11803, "unofficial": 12695, "Ottoman": 5568, "##ddington": 24103, "advisory": 13372, "rows": 10389, "##io": 2660, "bureau": 18561, "Hospital": 3355, "crouched": 15062, "version": 1683, "concealed": 14914, "laborers": 27245, "falling": 4058, "##luck": 23251, "derivatives": 18952, "C\u00e9sar": 21730, "##don": 3842, "Being": 6819, "200": 2363, "Bulletin": 17842, "External": 22841, "Ware": 22846, "shoved": 6958, "##Z": 5301, "##BS": 9782, "instruments": 5349, "floral": 22504, "##AV": 26390, "folk": 5191, "settled": 3035, "Ribbon": 21686, "\u0414": 452, "##itting": 26927, "Archipelago": 26951, "Lorraine": 14378, "##yer": 7904, "avant": 18595, "metre": 7545, "##erick": 19997, "exact": 6129, "My": 1422, "Common": 6869, "Lancaster": 10054, "##rified": 24269, "Articles": 21191, "Stefan": 8882, "##school": 21050, "memoirs": 18171, "bachelor": 8091, "straight": 2632, "enterprise": 10614, "Edge": 10403, "Males": 7689, "Clan": 14288, "concessions": 23308, "match": 1801, "##iant": 13789, "bandwidth": 22965, "breaks": 7610, "Fund": 6606, "1776": 14447, "##ndra": 17394, "##th": 1582, "mimic": 27180, "\u02bc": 381, "\u06af": 601, "##G": 2349, "Cups": 21671, "Garner": 26971, "availability": 11731, "Ethan": 5386, "179": 22166, "\u0105": 281, "Deck": 26769, "trip": 3868, "##ship": 6607, "41st": 27203, "eyes": 1257, "processor": 14538, "##\u05d8": 28453, "Griffin": 9212, "eruption": 19049, "Parts": 16633, "Stalin": 13406, "Seven": 5334, "hopeful": 19953, "Orders": 23958, "##nch": 11273, "Web": 9059, "Kolkata": 13895, "Allie": 18067, "pound": 10074, "lush": 19302, "assigns": 27043, "##screen": 17721, "depicts": 11268, "##uns": 17096, "##ga": 2571, "Scarlet": 17137, "communism": 23154, "Velvet": 21499, "Cornish": 19130, "228": 24618, "132": 14588, "Squadron": 3837, "##\u1d47": 28613, "forward": 1977, "owning": 21554, "1650": 24182, "meta": 27154, "counts": 10664, "Drummond": 20978, "1715": 25127, "##erson": 18608, "Winner": 7387, "Province": 2715, "##hardt": 16464, "##oga": 23282, "idle": 24530, "sideways": 13158, "CA": 8784, "entrusted": 19469, "Rogue": 20481, "Loyola": 23828, "Linnaeus": 23866, "flickered": 16945, "##iferous": 25093, "litre": 18736, "enter": 3873, "##rosis": 21556, "expansion": 4298, "convinced": 5857, "Princess": 4738, "sibling": 26563, "attorneys": 19724, "\u00e7": 253, "##vet": 21095, "layout": 9726, "puppet": 16797, "planted": 8100, "speed": 2420, "crossover": 18847, "##ua": 6718, "##tude": 17684, "Cross": 3156, "##victed": 26893, "Honey": 12632, "extensive": 4154, "1990": 1997, "discouraged": 25761, "##ln": 21615, "explosion": 7552, "watts": 22469, "listened": 7327, "ineligible": 25311, "certainty": 17140, "Talking": 17940, "resonance": 20370, "Layton": 25765, "showing": 4000, "nominee": 10333, "##wry": 24522, "sighed": 4756, "assurance": 23296, "##solidate": 28078, "shrink": 26406, "advantages": 13300, "debut": 1963, "welcomed": 10977, "thin": 4240, "monthly": 7868, "partially": 6320, "##elly": 23083, "apprenticeship": 24074, "newspapers": 6195, "##thin": 24365, "Tao": 25225, "conception": 17890, "##l": 1233, "ears": 4942, "authority": 3748, "theoretical": 10093, "exploration": 10016, "feeds": 15044, "\u05d3": 538, "pulp": 20467, "Crafts": 26460, "Jung": 13279, "muted": 25088, "cleaned": 12370, "nightmares": 18118, "clawed": 25299, "delight": 13657, "Reconnaissance": 18371, "counties": 6292, "structures": 4413, "##RS": 8900, "system": 1449, "CONCACAF": 24710, "##mogeneous": 28008, "accuracy": 10893, "Scale": 20334, "mail": 6346, "##eyer": 22142, "260": 13888, "Peacock": 26102, "##rease": 15691, "Featured": 27207, "salary": 10326, "slate": 15989, "##loss": 20831, "occasional": 7957, "Leone": 13774, "Sunset": 16800, "raced": 7850, "remarkably": 19957, "derived": 4408, "provided": 2136, "verdict": 16023, "##ented": 22666, "Wait": 7911, "Maryland": 4624, "mood": 6601, "remains": 2606, "Lansing": 24725, "##dus": 15307, "bank": 3085, "Salvador": 10479, "Dee": 9115, "180": 7967, "\u2022": 794, "Albums": 9106, "belongings": 21924, "Quarterly": 19516, "competence": 26613, "building": 1459, "humming": 23474, "know": 1221, "bends": 27107, "##ros": 5864, "fi": 20497, "##latine": 27325, "##lasp": 25552, "prostitution": 17192, "Dukes": 22813, "triumph": 14558, "##inian": 17054, "##phere": 13591, "Door": 15087, "expertise": 11717, "wizard": 16678, "Princes": 22227, "##\u300a": 28780, "\u017c": 337, "##herence": 21634, "Temeraire": 27030, "wrote": 1724, "\u092e": 619, "fifteen": 5147, "Role": 17094, "unarmed": 26809, "hurdles": 20928, "##phological": 26920, "female": 2130, "kindergarten": 15001, "Hesse": 17416, "##MF": 18586, "unfamiliar": 17546, "Dusty": 23246, "##ions": 5266, "[unused28]": 28, "gesture": 8982, "Ptolemy": 26262, "Maya": 9738, "Print": 27833, "trainer": 11277, "Salle": 20005, "waterfall": 16962, "double": 2702, "whirled": 18370, "##udo": 18109, "decreasing": 18326, "Bugs": 25417, "operator": 6650, "##cuted": 26357, "EA": 23616, "Portugal": 5288, "1951": 3280, "Lumpur": 19083, "Guthrie": 21727, "sinks": 27004, "##bad": 8330, "Silver": 4826, "##\u0627\u062f": 25717, "##\u057d": 28433, "##nding": 17038, "increasingly": 5672, "Direction": 17055, "Institut": 18531, "ordinance": 26585, "##rapped": 27279, "reception": 7602, "intensely": 22695, "##viator": 26680, "mocked": 27304, "Gypsy": 22153, "##mount": 15364, "Mozambique": 17311, "draw": 3282, "##oh": 10559, "grouping": 23291, "##ators": 11664, "technological": 12675, "John": 1287, "1836": 9875, "Savoy": 17438, "##ii": 6904, "veteran": 8230, "Davidson": 12109, "##sius": 20478, "Clancy": 27637, "sticks": 13963, "rectangular": 10848, "shrimp": 23982, "35": 2588, "Rudy": 19658, "delayed": 8088, "\u1d4f": 714, "##written": 16674, "balloon": 15758, "##erry": 16463, "##plex": 21790, "Demons": 25501, "##\u00e6": 28200, "##inet": 27411, "Film": 2352, "##lashes": 26056, "Oliver": 5638, "mixture": 7759, "relies": 17918, "##eiro": 20894, "##lique": 21492, "broker": 24535, "sketch": 12333, "Foley": 18412, "##pate": 16963, "clinical": 7300, "##bres": 22954, "He": 1124, "organise": 25906, "furnishings": 26690, "pH": 20149, "##anga": 21842, "outpost": 26411, "NSW": 11557, "##hashi": 21230, "conquest": 10627, "##orax": 25632, "##38": 23249, "##ake": 9899, "Rankings": 22732, "##LT": 26909, "considering": 6103, "terminated": 12830, "##ulate": 9732, "ascent": 19079, "corresponds": 15497, "Kaladin": 25111, "\uff0f": 1101, "176": 20039, "Berg": 16218, "BS": 21948, "shallow": 8327, "earliest": 5041, "##gai": 21347, "Ellington": 23884, "coloring": 25887, "Adelaide": 6908, "Secretary": 2909, "checked": 6488, "streams": 9136, "opera": 4677, "Bridget": 20907, "##dington": 18169, "gates": 8257, "##mons": 17199, "##lants": 23288, "susceptible": 19464, "Especially": 11008, "##sler": 21318, "pressures": 16390, "pulse": 8561, "form": 1532, "prepared": 4029, "Know": 9224, "Want": 8631, "appoint": 18016, "unique": 3527, "##\u03bf\u03c2": 26352, "server": 9770, "shelters": 18833, "##ief": 19436, "scientist": 7482, "submitted": 7402, "Czechoslovak": 23409, "Frost": 12194, "depot": 11475, "devastated": 14778, "hey": 23998, "opener": 17622, "grammar": 12616, "features": 1956, "blond": 8781, "Daisy": 11291, "Philipp": 22765, "Limerick": 16729, "category": 4370, "withdrew": 6367, "goats": 21235, "##til": 19621, "smoking": 9987, "##sitic": 27702, "##\u1fd6": 28678, "2001": 1630, "slapped": 11176, "Sara": 6936, "##iting": 21412, "Nottingham": 11330, "Top": 3299, "steered": 26386, "Rap": 21196, "Pasha": 15392, "##lows": 26044, "\u0406": 446, "bargain": 19445, "##nga": 12253, "prosecution": 12369, "##\u592a": 28904, "wetland": 27775, "operation": 2805, "\u00f6": 268, "##nal": 7050, "caught": 2347, "turrets": 23422, "drivers": 7016, "85": 4859, "rulers": 11507, "##nap": 27864, "conference": 3511, "##eil": 13593, "mumbled": 11599, "\u0399": 401, "Sept": 20456, "edible": 24525, "##missible": 27119, "killings": 18259, "vertex": 22132, "##u": 1358, "internal": 4422, "specialised": 18768, "##ltry": 21001, "Juan": 4593, "##enburg": 13233, "##anger": 27290, "Eurovision": 12968, "shiver": 14004, "husbands": 23197, "\u013e": 304, "Maud": 24351, "studies": 2527, "behaviors": 16711, "containing": 4051, "##comb": 17701, "##reaked": 28051, "neurons": 16993, "Response": 24187, "reversal": 27183, "##yk": 17252, "whatever": 3451, "##\u0442": 28404, "##play": 11044, "##k": 1377, "killing": 3646, "altitude": 7761, "Metropolitan": 5458, "Manfred": 20882, "spacecraft": 12568, "Elder": 11199, "Recent": 13989, "##\u2090": 28720, "Sicilian": 25150, "##qui": 18276, "##pha": 20695, "Vocals": 9826, "\u01b0": 343, "Della": 14435, "Bay": 2410, "claws": 11222, "slowing": 20098, "marketing": 6213, "\u00f3": 265, "advances": 11823, "Walton": 14862, "Craig": 6422, "Township": 3671, "\u010c": 284, "##vic": 15901, "freak": 14406, "strangled": 23776, "Memories": 19917, "conferences": 9759, "feminine": 13385, "orientation": 10592, "defining": 13682, "950": 22173, "bucks": 26429, "Aria": 12900, "Ritchie": 22299, "##mmy": 16211, "##nish": 21816, "Hooper": 26638, "syrup": 27662, "Jungle": 17009, "Dominion": 17609, "decomposition": 25898, "##\u00f4": 28206, "Welles": 26146, "expressed": 4448, "contested": 6839, "hillside": 25068, "Hodge": 26201, "Worship": 27978, "hum": 21820, "solidarity": 22352, "apprentice": 17092, "December": 1382, "ultra": 18737, "##aunt": 24747, "pseudo": 23563, "##reis": 19766, "##nio": 22772, "##\u1ed1": 28654, "##stan": 13946, "impulse": 18623, "##pled": 13229, "Take": 5055, "exile": 8879, "pathway": 13548, "bow": 7125, "weaken": 25772, "Stockton": 20865, "##ime": 10453, "transfers": 16845, "##urance": 18054, "speculated": 16392, "Frontier": 13984, "##dded": 19409, "##ulates": 20267, "neutron": 25636, "debates": 15949, "retrospective": 18675, "Gustav": 13829, "1994": 1898, "##\u30d0": 28851, "Rotterdam": 16508, "Thankfully": 25375, "dying": 5694, "consideration": 9486, "Corps": 3158, "##ala": 5971, "variety": 2783, "##shi": 5933, "via": 2258, "courts": 5333, "##ham": 2522, "containers": 17769, "\u0540": 514, "##peculative": 25908, "aiming": 14485, "modified": 5847, "depictions": 23507, "critique": 20113, "##\u03ba": 28347, "victims": 5256, "rematch": 19824, "##ans": 5443, "Lone": 19511, "stumble": 24545, "vessels": 5956, "##cher": 6072, "##\u10d0": 28601, "participates": 18557, "##\u06af": 28504, "##ION": 24805, "continuous": 6803, "spirit": 4840, "1984": 2219, "Rodr\u00edguez": 15006, "##ox": 10649, "reprised": 25236, "ports": 9267, "assists": 8407, "Roach": 25483, "enables": 13267, "nape": 26808, "280": 13760, "##ments": 4385, "confesses": 25528, "##\u5b80": 28908, "\u0578": 522, "Luciano": 27636, "##jk": 17187, "felt": 1464, "name": 1271, "##grapher": 14334, "prevent": 3843, "Hart": 7103, "\u207f": 810, "\u00bd": 223, "South": 1375, "consisting": 4721, "##mos": 11828, "bruises": 20514, "arrow": 11473, "treats": 20554, "Galileo": 23926, "Maharashtra": 12626, "Brand": 12381, "##\u5317": 28886, "integrate": 18831, "concerning": 6995, "\u0626": 564, "##uria": 19700, "Sam": 2687, "Ai": 19294, "wasn": 1445, "counsel": 12654, "polar": 15281, "initiative": 7191, "Emilio": 20555, "away": 1283, "##uben": 27076, "fatalities": 23515, "Pauline": 16473, "68": 5599, "Larry": 5931, "theatrical": 9033, "nobility": 12276, "Slovene": 19778, "##\u00e2": 28198, "eighteen": 8105, "chaplain": 19715, "claimed": 2694, "##witch": 18548, "protecting": 8547, "picking": 8184, "##ano": 7428, "movie": 2523, "sisters": 5919, "##lain": 15858, "##\u03b1": 15561, "Dawson": 10994, "Ein": 23922, "cottage": 11218, "vegetable": 17690, "Orl\u00e9ans": 27094, "##lino": 26340, "##dt": 12518, "escorting": 27108, "##ir": 3161, "wandering": 14848, "Understanding": 21300, "##erse": 22184, "sewer": 27635, "306": 27724, "needing": 12038, "Appointed": 23598, "Dalton": 12599, "Soundtrack": 22349, "Image": 15065, "##lude": 12906, "\u017d": 338, "acquaintance": 20125, "Helsinki": 12471, "canonical": 21768, "cells": 3652, "##oodoo": 25053, "cubic": 12242, "##ib": 13292, "Greenwood": 17999, "##bler": 16551, "##wildered": 27827, "##ried": 13422, "##udd": 22940, "Budapest": 10895, "##mie": 9745, "##oux": 24060, "regular": 2366, "##fy": 13268, "buried": 3126, "##andra": 19799, "mac": 23639, "##owa": 24611, "glancing": 11849, "##kling": 18278, "Baltic": 11306, "squeezing": 16863, "##came": 22865, "Chatham": 17815, "royalty": 20020, "Brett": 12161, "Flying": 7769, "##clamation": 17405, "\u0446": 497, "##tom": 18778, "##bas": 16531, "Norfolk": 7240, "##lid": 17299, "observation": 8310, "Territories": 18057, "GA": 20173, "caused": 2416, "BYU": 26319, "sip": 11456, "Pepper": 19278, "surf": 20114, "contention": 21374, "Fall": 6760, "metabolism": 20443, "sobs": 24523, "dice": 26104, "mounts": 22136, "Districts": 18803, "exiting": 26513, "Auschwitz": 27405, "replay": 18723, "conferred": 16104, "Honorary": 9351, "##cts": 15585, "##zine": 25593, "##aris": 26464, "##NL": 20734, "Radio": 2664, "consistently": 10887, "Inn": 9859, "fool": 8906, "Dental": 24487, "torpedo": 11029, "SPD": 26765, "\u30ec": 971, "fielded": 23142, "throwing": 6558, "##ost": 15540, "##\u1d48": 28614, "Pomeranian": 19006, "Pop": 7312, "Kildare": 27274, "ourselves": 9655, "##dices": 28092, "algae": 20964, "Voice": 7900, "Tottenham": 19494, "Muse": 26221, "M\u00e9xico": 20697, "##icit": 22308, "Oldham": 19684, "politically": 10966, "##hall": 8897, "abbreviation": 25732, "successively": 27754, "##chord": 27874, "Cass": 17500, "flexibility": 18605, "Sparks": 20759, "Satan": 18166, "##lung": 24356, "##vision": 12959, "##ks": 4616, "##gnate": 21772, "stress": 6600, "muffled": 17032, "choosing": 11027, "Okinawa": 15777, "Haas": 25730, "Tax": 13429, "##urly": 25859, "F": 143, "\u0622": 561, "exchange": 3670, "gaining": 8289, "contractor": 14825, "##ropic": 27098, "toilet": 12356, "##koto": 27710, "profile": 6168, "explored": 10581, "Upon": 4352, "Paraguay": 14345, "##kla": 27752, "Antrim": 27117, "poking": 24337, "##ups": 17210, "Brien": 9620, "robin": 16763, "lightning": 9605, "shops": 7116, "Representative": 7725, "pledged": 18215, "pepper": 18700, "pie": 16288, "Deutsche": 12054, "##\u0218": 28271, "organized": 3366, "Accordingly": 22801, "##war": 7200, "bi": 16516, "excess": 10116, "Stefano": 21802, "chick": 22282, "overthrow": 18310, "plays": 2399, "sponsored": 5988, "Calais": 25804, "colleges": 7632, "##tor": 2772, "Lecturer": 24378, "Levant": 27728, "aboard": 7161, "copies": 4034, "quantities": 12709, "trial": 3443, "charity": 6630, "amalgamated": 22131, "enhancing": 23327, "topping": 27001, "fireplace": 14356, "Latvia": 12593, "Behind": 8291, "provisions": 8939, "Archived": 10667, "##amon": 25902, "##lesh": 27548, "##urage": 26800, "\u0642": 586, "lip": 4764, "studios": 8522, "Almost": 8774, "##zzi": 15284, "##xham": 23384, "communicated": 27263, "included": 1529, "##yoshi": 18724, "exclusively": 7097, "ceremonies": 11605, "Ottawa": 7711, "ch": 22572, "##lante": 26093, "\u65b9": 1032, "manager": 2618, "unto": 23165, "High": 1693, "sober": 20040, "Baxter": 15291, "conscious": 9701, "##lamour": 23823, "##zee": 26328, "harvest": 15390, "toward": 1755, "promising": 10480, "Marianne": 21659, "Scholar": 17052, "lit": 4941, "classic": 5263, "fiercely": 17494, "\u01ce": 344, "attached": 4309, "##ja": 3174, "##\u0627\u0646": 21273, "##rying": 18224, "Bertrand": 22554, "handwriting": 27964, "CF": 18802, "finish": 3146, "##card": 10542, "Not": 1753, "Commodore": 14053, "1661": 26981, "##\u3057": 28797, "Nigel": 13026, "##ister": 11419, "gold": 2284, "cops": 11396, "##fully": 5834, "bricks": 15453, "elongated": 19564, "drawn": 3795, "Brazilian": 5468, "gravel": 11898, "nominal": 16251, "##\u304a": 28790, "debating": 27066, "de": 1260, "Collective": 22380, "Norma": 22796, "Casimir": 27839, "Professor": 2986, "##any": 18266, "sleek": 23996, "independence": 4574, "clit": 19393, "##graphs": 21217, "Pan": 6991, "##\u0456": 28418, "spun": 6964, "proteins": 7865, "node": 14372, "gap": 7275, "Donaldson": 25825, "##und": 6775, "\u4e0a": 978, "Manager": 7165, "park": 2493, "##enary": 22119, "##\u0627": 28475, "sorrow": 17359, "Medal": 3803, "greatest": 4459, "orbit": 8895, "##\u0623": 28472, "WWE": 11729, "Tina": 12106, "Through": 4737, "##cise": 14636, "##yers": 20835, "##pulsion": 20057, "residence": 4662, "Earle": 26773, "releasing": 8210, "Bucharest": 14806, "doesn": 2144, "Dorothy": 9771, "##\u042e": 28391, "Order": 2864, "##\u0303": 28311, "##\u03cd": 28362, "poured": 8168, "lawyers": 10630, "exploited": 20903, "tightly": 6852, "volunteer": 8676, "next": 1397, "discusses": 16900, "picturesque": 27667, "Circuit": 7887, "bakery": 23986, "tactical": 12394, "##\u2260": 28755, "\u0993": 640, "##@": 28146, "##ghty": 27390, "uh": 14863, "found": 1276, "Ancient": 7622, "Tudor": 16528, "erect": 15685, "Mandy": 19599, "pairs": 7608, "fertile": 16332, "##fueling": 25661, "never": 1309, "grandson": 7254, "\u0159": 317, "economist": 14893, "discomfort": 19614, "races": 3117, "subdivisions": 25238, "Rail": 8654, "Music": 1953, "nodding": 13393, "conducting": 9239, "244": 27160, "##\u30ec": 28864, "Tampa": 9720, "##uang": 25530, "\u2086": 817, "##ishly": 21120, "Edwards": 6847, "##itate": 22536, "Nuclear": 11560, "A1": 18967, "512": 27445, "moths": 16297, "banker": 15304, "##rse": 15955, "statutes": 24026, "Ferdinand": 9422, "##escu": 22102, "Dublin": 5062, "wreck": 13573, "##erty": 17845, "struggles": 11998, "weddings": 24536, "rap": 12488, "cannabis": 23089, "##ee": 3051, "##vant": 14194, "destroyer": 11871, "Alternate": 14234, "##opus": 17298, "wholesale": 20767, "shoulders": 3221, "deported": 19414, "##ira": 5132, "Conway": 15452, "##oth": 12858, "\u00fb": 273, "screens": 12472, "##fted": 20619, "##\u0986": 28540, "golden": 5404, "Napier": 23471, "invisible": 10062, "Tears": 9846, "Territory": 7442, "dove": 15811, "##harf": 16608, "definitely": 5397, "##\u0938": 28529, "judged": 13680, "##azar": 25329, "seller": 18275, "Casa": 17154, "Bethlehem": 21078, "relocate": 22036, "Ponce": 23349, "Kimberly": 26564, "composer": 3996, "roster": 9197, "Herald": 9707, "Din": 17228, "Spencer": 6511, "equation": 8381, "Trade": 5820, "##US": 13329, "reluctant": 12061, "Kendra": 14328, "corresponding": 7671, "##cluded": 23498, "Le": 3180, "[unused77]": 77, "monsters": 11339, "Burr": 27473, "[unused74]": 74, "sucked": 8286, "Waterford": 19081, "Anthony": 4140, "Leaves": 21825, "commemorated": 20858, "Traditional": 12144, "mixed": 3216, "anybody": 11183, "fact": 1864, "liberated": 22241, "\u0639": 583, "Yellow": 8278, "Extension": 20838, "Principal": 8013, "Large": 10236, "Texans": 25904, "##\u0baa": 28576, "Below": 12219, "CS": 24821, "qualification": 8969, "Following": 2485, "Shirley": 11281, "Romano": 24897, "romantic": 6376, "decreased": 10558, "157": 18611, "##uk": 7563, "Hang": 19869, "Parker": 5597, "##ling": 1979, "OS": 11570, "\u3084": 923, "Matches": 20380, "inch": 4305, "nursery": 17840, "Virtual": 18486, "headquartered": 9514, "Chinatown": 24812, "##um": 1818, "Prime": 3460, "radial": 17172, "productivity": 18222, "puzzle": 13544, "calming": 27047, "reduces": 13822, "Fortunately": 18101, "Kit": 18284, "omitted": 17852, "Funding": 24811, "drain": 13734, "funding": 4198, "indie": 12665, "lizard": 20730, "Andrew": 3217, "gear": 6990, "##ao": 9513, "raid": 8818, "##ability": 6328, "Peruvian": 16289, "bowl": 7329, "Lesley": 26801, "working": 1684, "adapt": 16677, "Bravo": 19465, "##ison": 7614, "##nnes": 24147, "Sisters": 9361, "##published": 26296, "##ld": 5253, "Leslie": 8521, "exchanged": 10476, "##aic": 22950, "composition": 5239, "cannot": 2834, "Cole": 4922, "Thirteen": 20404, "Personnel": 19821, "grape": 17291, "##nz": 19411, "marred": 27767, "##sco": 11428, "collapse": 7546, "nickel": 20403, "##jiang": 16172, "1907": 4796, "##\u00f3": 7774, "passport": 14171, "Baptiste": 18529, "engagements": 23048, "Britain": 2855, "14th": 5740, "142": 17048, "Bryn": 21746, "\u00b3": 214, "mostly": 2426, "grinding": 17959, "Diet": 22327, "shouted": 6031, "grin": 5207, "pile": 8501, "attested": 20000, "whispering": 15181, "ripping": 18841, "sentences": 12043, "##rrigan": 27613, "imports": 20171, "continue": 2760, "Resistance": 15598, "anxiety": 10507, "##\u0f44": 28589, "##lands": 6754, "Pulitzer": 18887, "Liberals": 16951, "Easy": 12167, "##29": 26752, "thumb": 7446, "Find": 15944, "Leisure": 26090, "$": 109, "Josie": 16169, "##iles": 12846, "Hercules": 16496, "##mu": 13601, "hostility": 19981, "traction": 20922, "rounds": 5720, "analogous": 21960, "requested": 6792, "Butch": 19504, "casualties": 8487, "scenario": 12671, "Munich": 6947, "##aded": 17535, "Quarterfinals": 13582, "unlawful": 26079, "[unused17]": 17, "Orchestra": 4590, "occurrence": 15299, "##grass": 13754, "ambiguous": 22405, "faces": 4876, "direction": 2447, "333": 23335, "##GB": 13745, "outbreak": 8010, "Companies": 13134, "Congregational": 26544, "matter": 2187, "##uveau": 27377, "Shore": 11301, "Lexi": 17174, "startling": 22425, "##\u2015": 28686, "##dek": 27170, "21st": 6880, "Turn": 12128, "##rate": 5498, "##rred": 16145, "countries": 2182, "\u1ec7": 749, "27": 1765, "headed": 2917, "ministers": 9813, "##lake": 13238, "1825": 11377, "cultivated": 13783, "closed": 1804, "Jubilee": 14842, "sophomore": 14982, "Graeme": 24149, "Faces": 25246, "magistrate": 20261, "realism": 18990, "masters": 11573, "Honolulu": 17652, "imp": 24034, "\u0965": 636, "Knowing": 14881, "##uilt": 20833, "poisoning": 17539, "piles": 20849, "College": 1531, "RAF": 6733, "amphibious": 20966, "\u30af": 940, "Parry": 24602, "violent": 5973, "awaited": 21520, "##logue": 12733, "timing": 11491, "Calvin": 11110, "\u0291": 373, "Trophy": 5891, "##bbled": 14437, "##lson": 15590, "##cock": 11157, "resemble": 13262, "##halt": 24537, "Elsie": 27737, "\u09a6": 650, "El": 2896, "voltage": 10323, "##ler": 2879, "disco": 19959, "graphic": 9429, "##45": 21336, "##yne": 10941, "Be": 4108, "Chelsea": 8979, "targeted": 9271, "Peace": 5370, "Mayor": 4643, "slap": 15933, "##blast": 27184, "##cible": 16240, "Trustees": 15340, "alliances": 25012, "Benedictine": 23494, "##\u0290": 28293, "##uc": 21977, "Missouri": 4499, "Boxing": 16876, "headline": 21188, "laugh": 4046, "Pearl": 7585, "Louisiana": 5060, "pitcher": 8092, "curb": 15786, "happened": 2171, "openly": 9990, "##\u30eb": 28863, "blended": 22357, "sponsor": 10767, "##ector": 20302, "defects": 20705, "ornaments": 28034, "clouds": 8435, "parts": 2192, "\u0932": 622, "##do": 2572, "Genevieve": 26905, "Christy": 23788, "dominated": 6226, "algorithms": 14975, "firm": 3016, "cum": 16040, "##arina": 21119, "liturgical": 22628, "transmission": 6580, "dead": 2044, "Chorus": 16415, "109": 11523, "blazing": 20013, "Natural": 6240, "challenge": 4506, "198": 21801, "Wigan": 16471, "Intercontinental": 24501, "country": 1583, "##rban": 23092, "pills": 17029, "Institutes": 24496, "Sebastian": 6220, "bubbles": 22389, "##apa": 26519, "Consul": 23184, "79": 5899, "SF": 18659, "Panama": 8392, "existence": 3796, "##non": 9158, "Moment": 24334, "##smith": 11195, "##ikos": 25529, "##cademia": 18161, "##\u2098": 28726, "velocity": 10537, "imposing": 17884, "sale": 4688, "##rack": 21580, "##fica": 24685, "Conquest": 24885, "Algeria": 11347, "##dn": 22834, "Angelo": 12622, "gritted": 18512, "##\u1ed5": 28656, "inventory": 14952, "Competition": 8579, "Grammy": 8645, "Penguins": 24801, "##noon": 28122, "##eep": 17059, "##scope": 15300, "sire": 21558, "castles": 19282, "Bombardment": 16157, "emphasizes": 22663, "Humboldt": 20960, "le": 5837, "[unused80]": 80, "##ski": 5437, "Sub": 12859, "Imperial": 4849, "organised": 6967, "newborn": 24820, "@": 137, "asteroid": 13708, "##\u03b2": 28339, "Holland": 7465, "ashore": 17487, "Councils": 27498, "carved": 7470, "##vied": 26889, "Sport": 7331, "consequently": 14007, "library": 3340, "##WC": 16697, "Imagine": 22449, "Sunny": 17321, "Put": 11913, "wireless": 12784, "##cci": 19557, "##erd": 25081, "sue": 25762, "##rella": 23482, "\u10d0": 698, "VP": 23659, "##Ds": 26436, "##gratulations": 25891, "\u05d9": 544, "##\u00ee": 28202, "##\u00a5": 28160, "star": 2851, "##ivity": 6366, "honorable": 20491, "1806": 12681, "implementing": 16381, "##dre": 11114, "##nse": 19054, "Alexander": 2792, "##wei": 24078, "Annabelle": 28016, "pilgrimage": 17385, "Kazakhstan": 11816, "petty": 19701, "##rera": 25508, "##wson": 27294, "Walden": 28020, "\u4e09": 977, "solar": 6644, "MLB": 10872, "212": 19538, "agreed": 2675, "definitions": 16687, "glaciers": 25625, "topped": 9065, "Officer": 4124, "##VA": 12152, "constituted": 12810, "##41": 25892, "era": 3386, "##rals": 16179, "cups": 13624, "playing": 1773, "flee": 10556, "inside": 1656, "apple": 12075, "##\u00c8": 28186, "shuttle": 14450, "##\u0917": 28511, "calcium": 15355, "Curran": 21428, "Homeland": 21725, "obey": 17088, "##color": 21829, "1953": 3185, "woke": 7994, "##rne": 12275, "\u0f53": 688, "Irene": 13524, "Yuan": 13049, "relations": 4125, "Can": 2825, "1850": 7493, "Remix": 8076, "grabbed": 3182, "celebrate": 8294, "Krishna": 10892, "arising": 19528, "Growing": 20612, "disgusted": 20524, "##kill": 16249, "Climate": 13540, "farmland": 17790, "##cal": 7867, "exhaled": 17280, "laid": 3390, "##uring": 6660, "nak": 20084, "##destine": 27543, "Carter": 5007, "##ord": 6944, "##ttered": 16616, "quest": 12485, "databases": 19908, "##eds": 15513, "managers": 11493, "capacities": 23522, "Includes": 25051, "##sance": 27346, "encourage": 8343, "##lion": 12489, "##tosis": 26156, "Mongolia": 14388, "Free": 4299, "\uff01": 1096, "##fia": 18771, "describe": 5594, "##smos": 18818, "executing": 26789, "##bridge": 6152, "##mbe": 17329, "Mar\u00eda": 9842, "Invasion": 20209, "Clock": 20957, "##urus": 14022, "Wanna": 17837, "Toni": 17752, "##\u1d62": 21041, "editions": 7307, "Madeleine": 21096, "quantity": 11978, "disconnected": 27425, "##tors": 5067, "Soci\u00e9t\u00e9": 22290, "authorization": 25279, "formed": 1824, "beach": 4640, "##RO": 21564, "Fields": 11628, "Game": 3497, "##\u02b0": 28297, "apples": 22888, "studying": 5076, "Markets": 28023, "pornography": 22912, "\u09b2": 658, "estimated": 3555, "##bit": 9208, "socks": 16601, "healthcare": 12520, "##ddler": 25372, "##\u0431": 28393, "Argentine": 8106, "W\u00fcrttemberg": 17565, "Diocese": 7169, "tents": 19544, "##rov": 12316, "Flood": 19590, "##\u2021": 28695, "powered": 5605, "##UI": 22054, "Rivers": 10262, "hail": 26943, "immigrated": 18598, "Jaenelle": 22755, "interstate": 20905, "collecting": 9370, "fund": 5841, "dwellings": 18495, "Lord": 2188, "chair": 2643, "##\u00e3o": 9290, "health": 2332, "lad": 19122, "Seahawks": 23572, "burials": 27111, "##miring": 27693, "storm": 4162, "Wasn": 23720, "Administrator": 19483, "##oi": 8136, "booking": 26059, "Hewitt": 21258, "constituents": 27808, "same": 1269, "Joe": 2658, "Him": 15619, "1779": 18870, "sustained": 8505, "##eding": 17141, "invented": 8620, "##\u4e00": 28869, "vital": 9301, "Mari": 17978, "\u0443": 494, "helmets": 26472, "Cardinals": 9951, "lacrosse": 21135, "Aug": 16892, "riot": 14807, "dubious": 26287, "##CT": 16647, "rare": 4054, "paler": 28089, "Abraham": 7752, "ridiculous": 9944, "medalist": 15257, "functioned": 22937, "guessed": 11474, "Thatcher": 23300, "Airlines": 8570, "##sten": 15874, "Said": 11455, "anonymous": 12631, "##uest": 27648, "##els": 5999, "##\u00df": 21426, "rail": 4356, "Alistair": 26618, "##bing": 6791, "Bernardo": 23333, "Bihar": 17301, "Middleton": 19059, "feasible": 25667, "##raction": 27612, "Grand": 2224, "organs": 11932, "Register": 4273, "terminal": 6020, "##nikov": 28036, "electors": 23241, "hymns": 24014, "tiles": 13947, "##lou": 24491, "automobiles": 23338, "##ceae": 8814, "without": 1443, "##ba": 2822, "Administrative": 14275, "Fan": 16061, "elevation": 6252, "exceptional": 12688, "Subcommittee": 23717, "patient": 5351, "minors": 21675, "Mafia": 18070, "signalling": 25498, "Warm": 26252, "lesions": 26052, "Chaos": 17613, "Modern": 4825, "##\u0bc1": 28584, "poem": 5510, "wed": 26055, "exceeding": 18291, "unison": 21658, "sewing": 27535, "ducked": 14245, "dependence": 20917, "Stick": 24953, "##\u0636": 28487, "colonies": 8990, "incidents": 10563, "Paula": 14153, "cartoons": 15669, "##bson": 18824, "Alzheimer": 24278, "orchestrated": 26383, "usually": 1932, "Fine": 4730, "##hala": 19456, "tournaments": 8446, "accusing": 18001, "149": 18513, "Soap": 26019, "802": 26758, "17": 1542, "planets": 12458, "tempted": 17749, "Independence": 7824, "242": 24899, "[": 164, "##RT": 10460, "implying": 22203, "##ta": 1777, "Huntington": 17390, "##\u30e5": 28860, "experimented": 22988, "Entertainment": 4549, "Noble": 13396, "##wat": 20543, "Macdonald": 21274, "Active": 17244, "Pass": 9157, "owns": 8300, "Forestry": 23077, "peculiar": 15404, "##\u0648": 28496, "Ontario": 3717, "compounds": 10071, "tried": 1793, "\u017e": 339, "Zane": 6359, "164": 19290, "Ignoring": 27853, "##ivers": 25105, "Adults": 15584, "modeled": 15320, "##sian": 11890, "institution": 5375, "Table": 11389, "##emon": 25027, "popular": 1927, "##\u2665": 28772, "##haling": 16036, "comments": 7640, "135": 11498, "Em": 18653, "An": 1760, "Byron": 12371, "patrolling": 27883, "##\u0997": 28546, "Puerto": 5304, "ancestry": 11626, "Syrian": 8697, "viola": 16221, "matched": 10260, "road": 1812, "Croix": 20719, "Sur": 17078, "obeyed": 25314, "assign": 27430, "League": 1453, "figuring": 27862, "reigned": 23457, "137": 15679, "cent": 9848, "partnered": 12690, "assured": 8642, "Bathurst": 24231, "clutch": 17456, "375": 19397, "##pliant": 27898, "Theater": 5978, "lately": 10634, "Lucia": 13625, "lays": 22307, "laughed": 3348, "##cos": 13538, "Regular": 14381, "fingertips": 12441, "Montr\u00e9al": 23687, "Irish": 2600, "green": 2448, "beds": 9884, "##ganized": 24087, "leadership": 3645, "sustain": 16974, "##\u028b": 28291, "garage": 7419, "\u1d50": 715, "Paterson": 20843, "vs": 5016, "intellectuals": 19798, "Sandra": 13114, "##tically": 23817, "##uses": 14225, "eyeing": 21593, "Giuseppe": 12752, "folding": 13748, "##\u0395": 28319, "##min": 7937, "innocent": 7386, "satirical": 18703, "offshore": 13885, "##voked": 18891, "fed": 7672, "Cannes": 15451, "SP": 16625, "Limited": 5975, "##nous": 23901, "promises": 11323, "bottle": 5346, "rhyme": 27063, "inevitable": 14014, "Earl": 4008, "##cu": 10182, "Marguerite": 16197, "Eye": 9329, "Prize": 3449, "warship": 26957, "##ution": 12964, "##\u026a": 28283, "animal": 3724, "Beacon": 23881, "##ej": 21024, "Looking": 8540, "##edia": 18246, "\u0bcd": 682, "\u0f0b": 684, "national": 1569, "Gymnasium": 19431, "heap": 19943, "NRL": 22685, "Bah\u00e1": 15216, "Apocalypse": 22949, "Nicky": 21999, "\u09a4": 648, "Internal": 13545, "##ification": 5783, "between": 1206, "Wendy": 13013, "1771": 22683, "escapes": 13481, "##oast": 20219, "climate": 4530, "Somebody": 18490, "Math": 15112, "tales": 11297, "Buffalo": 6911, "##lumber": 26993, "Perfect": 12174, "Copper": 20657, "such": 1216, "request": 4566, "Fresh": 15756, "1935": 3588, "Organizations": 25684, "poetry": 4678, "11th": 5573, "haunted": 13526, "sound": 1839, "##ites": 7571, "1863": 6293, "Laboratories": 23874, "kg": 4023, "substantial": 6432, "303": 21786, "wired": 26473, "loosened": 24973, "universally": 23578, "##elo": 19773, "152": 15722, "Olive": 17971, "Watford": 24019, "Village": 4671, "Lucian": 19618, "raids": 11426, "Alessandro": 19334, "275": 18783, "guaranteed": 13008, "portrait": 7494, "launching": 12611, "camouflage": 25752, "spectrum": 10122, "##qua": 13284, "Titan": 18696, "##mbre": 20347, "precedent": 22275, "##ccelerator": 26154, "hopeless": 24858, "##iscovered": 24968, "Wyoming": 10513, "buying": 9241, "Goa": 16235, "Bowman": 21502, "##lume": 26241, "mon": 19863, "cello": 11742, "partnerships": 15605, "workshops": 10158, "paramilitary": 25349, "Quinn": 8447, "##ivation": 16617, "\u306e": 915, "##que": 3530, "Boy": 4596, "##bus": 7441, "cycles": 13874, "Corporation": 3436, "##hos": 15342, "slam": 15606, "Co": 3291, "Pig": 23350, "##cloth": 25940, "##arians": 26559, "Lucivar": 23567, "##fled": 19036, "astonished": 26136, "Lightning": 13479, "focal": 17811, "Wing": 5517, "114": 12620, "##om": 4165, "carriage": 9362, "##\u2010": 28681, "males": 3508, "##ering": 5938, "RAAF": 25391, "70s": 19025, "Expedition": 12143, "##SF": 19261, "sourced": 26442, "Ra": 16890, "SK": 17447, "##gun": 11652, "##ju": 9380, "barrage": 24125, "earned": 2829, "##bly": 4999, "caution": 15597, "##isch": 16253, "Gran": 13529, "admitting": 19931, "resigned": 4603, "##aca": 16604, "dare": 9164, "Cam": 14805, "##yclic": 24974, "so": 1177, "honoring": 24793, "protested": 11472, "60s": 22891, "##lly": 6071, "assumed": 4260, "squeezed": 7293, "inputs": 22743, "Sting": 23082, "##lsson": 22481, "Madness": 24843, "hadn": 2018, "Beer": 16380, "Nurse": 17418, "seize": 16414, "WHO": 23750, "302": 24412, "Girls": 4808, "Royals": 17692, "##rose": 10127, "##KA": 18135, "Quentin": 16909, "shout": 12941, "##pta": 21919, "necessarily": 9073, "##fie": 17569, "##\u044b": 28413, "passion": 7615, "frustration": 9074, "##\u00a7": 28161, "movements": 5172, "Yesterday": 21997, "##mite": 20185, "victory": 2681, "therapeutic": 20340, "concerto": 25657, "They": 1220, "commence": 25824, "##ash": 10733, "spirituality": 27491, "loan": 4891, "##\u2116": 28735, "##\u1d64": 28624, "Albany": 10128, "silly": 10729, "Task": 11513, "postal": 14889, "##ision": 15575, "perched": 19104, "involved": 2017, "www": 7001, "electromagnetic": 19805, "drilling": 18218, "organizer": 22007, "shivering": 22397, "drainage": 12779, "court": 2175, "\u05b6": 530, "trillion": 27005, "schemes": 12006, "##cular": 11702, "1976": 2402, "parallels": 21287, "165": 14383, "calculating": 23172, "Thousands": 26159, "\u2153": 842, "Shadow": 8111, "##\u018f": 28262, "\u00e2": 248, "##OD": 15609, "fluorescent": 26163, "Cash": 10511, "reconcile": 23297, "overlooked": 18459, "slice": 16346, "participants": 6635, "classical": 4521, "##his": 27516, "Copyright": 22359, "bait": 21012, "knocks": 24895, "\u308a": 927, "##\u03b9": 28346, "##gu": 13830, "stationary": 19255, "##eh": 10486, "solvent": 27624, "cage": 10096, "instituted": 15833, "81": 5615, "##phus": 21060, "##55": 25491, "enabling": 12619, "reminds": 16816, "Toyota": 11801, "\u0103": 280, "\u09a7": 651, "Well": 2119, "##roi": 21418, "[unused7]": 7, "advance": 4657, "closes": 15336, "##eth": 8767, "##uild": 19118, "##DI": 17243, "Thorpe": 22237, "fears": 10434, "desktop": 18813, "threaten": 16757, "##gging": 10932, "Saddam": 27091, "Suburban": 24909, "##\u05e1": 28461, "Poles": 17410, "##ali": 10584, "monks": 10547, "grow": 4328, "Russell": 5023, "doctoral": 12308, "Jeanne": 15157, "now": 1208, "assassinated": 17493, "##UP": 18124, "prostitutes": 23779, "Chester": 8459, "##lenching": 26873, "selling": 4147, "##titis": 27659, "surprised": 3753, "lessons": 8497, "succeed": 9381, "vocational": 18341, "drug": 3850, "watershed": 13920, "shoulder": 2342, "bruised": 20617, "pursue": 6799, "dangerously": 24529, "parasite": 25706, "surface": 2473, "affiliated": 6559, "##ria": 3464, "accomplished": 8587, "Que": 27328, "pilots": 8486, "gangster": 27101, "Buenos": 8883, "spanning": 14827, "bacteria": 10548, "##gement": 20512, "provincial": 5586, "Philosophy": 8714, "Mk": 15900, "writes": 6474, "cooperative": 14561, "occurred": 3296, "Sheikh": 13609, "Margaret": 4811, "##bor": 12207, "frigate": 17201, "emerged": 5338, "Judges": 21312, "##ting": 1916, "##ologists": 16511, "runner": 6057, "##hers": 20765, "[unused49]": 49, "Got": 7348, "platforms": 6833, "##dified": 22293, "##lad": 23850, "trembled": 15529, "single": 1423, "NW": 24641, "##ley": 1926, "Thus": 4516, "democracy": 9076, "Daly": 20058, "Augusta": 14050, "##cor": 19248, "Burnley": 25670, "penned": 18790, "Headquarters": 9101, "Shen": 26197, "Off": 8060, "basic": 3501, "##yu": 9379, "##\u0413": 28369, "Fantasy": 10037, "invitation": 8727, "unacceptable": 24726, "supplies": 5508, "industrial": 3924, "opportunities": 6305, "pains": 24782, "##crates": 24460, "toy": 10929, "Fisheries": 21817, "Seal": 19200, "transmissions": 25436, "Ms": 6980, "##vier": 15339, "disclosed": 23617, "distributed": 4901, "predecessor": 8283, "Report": 7178, "mounted": 5378, "##ological": 7542, "Employment": 18340, "Henley": 22935, "Rene": 26978, "##\u7530": 28950, "anyway": 4050, "refer": 5991, "##\u00f6": 19593, "fees": 9942, "symphony": 19395, "get": 1243, "Parks": 10112, "##ad": 3556, "##toire": 19101, "AG": 14731, "argument": 6171, "Judy": 12248, "architectural": 6645, "Kid": 9847, "Ingrid": 24665, "For": 1370, "marriage": 2742, "size": 2060, "Si": 14159, "Citation": 17028, "chiefly": 17118, "Becca": 24538, "##WI": 25190, "Semifinals": 15723, "##\u00e8ne": 18265, "Host": 15919, "Holmes": 8775, "Germany": 1860, "Frances": 10327, "##genic": 19438, "no": 1185, "wrapping": 13261, "Critics": 10320, "appointed": 1923, "Alliance": 5643, "Madras": 13302, "original": 1560, "decided": 1879, "Anton": 9809, "tight": 3600, "awakened": 23182, "##rwick": 25431, "##ined": 9044, "prosperity": 16286, "historical": 3009, "218": 22723, "\u05de": 548, "villain": 14081, "Jasmine": 15912, "Colour": 25809, "that": 1115, "lighthouse": 13416, "Gardner": 11817, "occasions": 6070, "evolutionary": 14745, "snatched": 14779, "kill": 2311, "##ais": 15837, "accordingly": 17472, "offense": 10027, "Bus": 8947, "##cis": 21349, "myths": 21557, "##GE": 16523, "Ni": 27453, "Joanne": 27829, "##\u041b": 28376, "##GP": 17095, "forensic": 21330, "munitions": 27682, "surroundings": 11342, "oath": 12749, "Eagles": 8507, "Urdu": 12655, "##bro": 12725, "Watts": 15215, "\u03b7": 424, "enduring": 21585, "##sio": 23652, "swamp": 16407, "temperatures": 7479, "Tennis": 9968, "\u85e4": 1069, "dollars": 5860, "severe": 5199, "Charge": 24510, "secured": 6561, "RFC": 15274, "completing": 7332, "##ctor": 9363, "Clerk": 16483, "##guchi": 17471, "\u3086": 924, "##pur": 4093, "Savage": 12160, "Second": 2307, "mistaken": 14184, "greeted": 11196, "##mo": 3702, "exciting": 11215, "upstairs": 8829, "clever": 13336, "tentatively": 22285, "##late": 8052, "supplemented": 22625, "mathematics": 6686, "credited": 5175, "Barr": 21715, "##pass": 11229, "celebrated": 5719, "Christchurch": 16893, "##ket": 22523, "mythical": 22766, "\u05b0": 527, "especially": 2108, "Valencia": 13697, "baking": 26377, "##heus": 25212, "strongly": 5473, "faced": 3544, "proximity": 10013, "obstacle": 20382, "20th": 3116, "Zhu": 16920, "bang": 21260, "Imam": 21765, "##sique": 24808, "speaking": 3522, "##lew": 23513, "Dow": 26535, "Ken": 5928, "Cliff": 12483, "philosophy": 5027, "extends": 8559, "pivotal": 22927, "responsible": 2784, "midst": 13337, "Parisian": 27436, "##buster": 27338, "trying": 1774, "Floyd": 12450, "weights": 17981, "regiments": 11988, "Fuel": 18935, "Chin": 19935, "sweat": 7920, "Metz": 27606, "bandage": 27856, "greatly": 5958, "\u02b3": 378, "Reagan": 11546, "\u1f50": 771, "among": 1621, "Asylum": 24492, "\u306f": 916, "locations": 4541, "##wyn": 10349, "southernmost": 24608, "went": 1355, "divorced": 8963, "Jess": 12419, "tells": 3301, "ledge": 21340, "orbits": 22508, "Me": 2508, "##poli": 23311, "Residence": 18774, "Teresa": 12575, "afforded": 25520, "Spy": 19212, "flying": 3754, "au": 12686, "Cartoon": 22450, "##eter": 24951, "mating": 16982, "behalf": 6261, "##mamoto": 24301, "\u30a8": 935, "elected": 1809, "Ghana": 9446, "hunter": 11151, "philosophers": 20692, "##\u00e9rard": 27234, "encoding": 18922, "##zed": 5305, "blend": 13390, "bombed": 20812, "habitats": 10902, "Cycling": 18934, "Pam": 15259, "##idge": 15091, "##MI": 14038, "frowned": 6804, "saw": 1486, "205": 17342, "derby": 25851, "fancy": 13305, "\u010d": 285, "Mark": 2392, "\u308b": 928, "Wilhelm": 8725, "230": 11866, "columnist": 14219, "angered": 22296, "comune": 24382, "amassed": 24592, "##\u0626": 28474, "##valence": 25388, "Parties": 26023, "facilitate": 11000, "supportive": 17847, "Arcade": 22697, "##jong": 25507, "helps": 6618, "##\u09ae": 28558, "Pack": 14667, "Middlesbrough": 23917, "opens": 7086, "tossed": 6953, "##pace": 12204, "##ale": 7531, "embroidered": 26807, "Johnson": 2921, "Rowan": 15568, "\u0575": 520, "jobs": 5448, "##rock": 10411, "pleasant": 10287, "##IL": 17656, "##llin": 23824, "\u1f41": 770, "nuclei": 27349, "module": 13196, "chemistry": 8117, "meadow": 20558, "Windsor": 9864, "sanctuary": 11563, "\u03a7": 411, "##\u00edn": 7326, "Mendoza": 19406, "printed": 5757, "Tuesday": 9667, "geographical": 11610, "Belinda": 27700, "succession": 8705, "extended": 2925, "swim": 11231, "Certified": 25777, "min": 11241, "##ood": 13465, "Steele": 13083, "medicinal": 24712, "frontman": 25063, "Port": 3905, "##like": 10318, "Musa": 27389, "maneuvers": 27559, "##ise": 4862, "##nning": 15918, "##uckle": 19046, "ou": 20796, "trunks": 23752, "reducing": 7914, "better": 1618, "Alberta": 7153, "##harine": 20415, "index": 7448, "winner": 2981, "Ling": 20815, "Zen": 18933, "Reality": 18510, "1833": 11004, "paintings": 4694, "wildly": 13999, "currently": 1971, "Di": 12120, "river": 2186, "perpendicular": 24267, "##ten": 5208, "degradation": 18126, "Brad": 7796, "##SM": 16450, "wood": 3591, "Guards": 9696, "dresser": 19257, "foothills": 21864, "Quick": 18911, "handing": 13712, "Jimmie": 27806, "##rr": 11096, "illegitimate": 19710, "##\u03b7": 28344, "##tar": 6817, "##thouse": 24037, "\u0bb5": 678, "biting": 13602, "expulsion": 20854, "wide": 2043, "Cornelius": 18604, "back": 1171, "smash": 24881, "Everest": 26885, "##ories": 24508, "Schneider": 15934, "\u5149": 990, "Enough": 13966, "After": 1258, "##dates": 20388, "##nded": 21160, "##yn": 5730, "outreach": 20253, "##\u0391": 28315, "instance": 5374, "places": 2844, "\u03b9": 426, "productions": 7481, "pertaining": 22383, "##ghan": 23136, "helicopter": 7948, "rise": 3606, "addressing": 13735, "periodical": 25907, "priorities": 21249, "Aside": 14727, "fortified": 14149, "\u039c": 404, "ranks": 6496, "##iracy": 19128, "dresses": 15402, "[unused92]": 92, "damaged": 4938, "dose": 13753, "Special": 3139, "Erwin": 24652, "J": 147, "##PO": 23329, "confirms": 26064, "linguist": 26914, "##otics": 24262, "stealing": 11569, "\u00e3": 249, "cellular": 14391, "Innocent": 21399, "promotion": 4166, "snorted": 16015, "##nast": 27897, "enters": 7603, "opted": 12243, "Baby": 6008, "hunters": 13202, "paper": 2526, "Metacritic": 15168, "Intel": 15397, "Resolution": 15338, "none": 3839, "cathedral": 8846, "##horse": 16336, "nutrition": 20121, "identity": 4193, "waist": 5111, "##dging": 13556, "Oceania": 22537, "Sessions": 18003, "\u5973": 1013, "##ista": 11663, "footage": 8145, "legends": 14218, "governors": 17620, "Sunrise": 23900, "diseases": 8131, "##yam": 17485, "##raga": 24036, "1980s": 3011, "Ross": 5104, "Mechanical": 15433, "Rebels": 26058, "waved": 6577, "##unch": 14480, "\u093e": 628, "Africa": 2201, "job": 2261, "writing": 2269, "Dinamo": 24780, "Shields": 21059, "Kitchen": 18988, "pausing": 25494, "Exactly": 18342, "organize": 11021, "flatly": 27337, "steam": 5543, "grove": 28011, "odds": 10653, "graves": 14489, "\u025b": 358, "Dyke": 28055, "selective": 14930, "Candy": 16045, "\u58eb": 1008, "##ers": 1468, "More": 3046, "wider": 6815, "totaling": 24224, "wheat": 11773, "razor": 20015, "bacterium": 27136, "Duchess": 12856, "Abdullah": 14677, "adaptation": 6350, "Claremont": 26537, "##rots": 27460, "tag": 9235, "\u09a5": 649, "turnover": 23804, "her": 1123, "##A": 1592, "swept": 6769, "\u771f": 1061, "spoiled": 22048, "Coke": 19630, "embassy": 12318, "Has": 10736, "findings": 9505, "##lates": 23591, "locomotives": 7499, "Middlesex": 14040, "recruiting": 16226, "Bowl": 5308, "Lev": 27257, "tenant": 19197, "Massacre": 20507, "##ser": 6906, "##lown": 23054, "Paris": 2123, "suite": 9555, "Payne": 13802, "indicator": 19738, "peers": 14097, "Bold": 19096, "Wills": 23480, "[unused37]": 37, "penny": 24585, "\u207b": 809, "brownish": 21233, "##ady": 16196, "##icus": 14191, "##chi": 4313, "\u03c4": 437, "fee": 7216, "\u0127": 296, "Congo": 8695, "Hans": 6458, "Manual": 9128, "litigation": 18184, "##tien": 20760, "custody": 9948, "##ices": 18117, "ex": 4252, "Kapoor": 18321, "DE": 18581, "seek": 5622, "manufacture": 10032, "characters": 2650, "##eni": 21462, "clip": 13500, "comedic": 24504, "##eva": 12853, "Malcolm": 8491, "finishing": 4416, "customs": 10148, "##FF": 17515, "rescue": 5431, "customer": 8132, "Danish": 4979, "tactics": 10524, "Dolores": 23952, "Eduard": 22373, "Hassan": 13583, "Shannon": 10822, "voluntarily": 19446, "##athed": 21549, "saved": 4987, "Enrico": 24331, "conceptual": 20046, "interrupting": 25602, "##tary": 16198, "Z\u00fcrich": 16592, "species": 1530, "1978": 2406, "Rai": 20089, "##ropolis": 26776, "differentiation": 23510, "Manchester": 4280, "##erial": 19860, "lend": 23559, "##\u305f": 28801, "ways": 3242, "tongue": 3661, "Tasmania": 12484, "Lars": 17468, "##7th": 24151, "##[": 28147, "Lund": 24232, "mounting": 17361, "##\u03a0": 28328, "\u1fe6": 777, "Dong": 16675, "engraved": 17788, "appears": 2691, "fraud": 10258, "hailed": 17932, "parliamentary": 6774, "Ashes": 23853, "##plied": 18148, "##rta": 16242, "Production": 6401, "divided": 3233, "perspective": 7281, "Cindy": 16774, "##\u015f": 18272, "Darryl": 25389, "##eric": 26237, "Numbers": 19661, "touchdown": 7575, "58": 4650, "Philadelphia": 3562, "folks": 13918, "##kowski": 17445, "funded": 6264, "acknowledged": 8646, "Hilton": 16347, "jail": 7237, "Lenny": 20740, "parole": 21122, "ankle": 10845, "##urning": 24049, "##\u03a9": 28334, "initial": 3288, "##tok": 18290, "Lo": 10605, "scare": 13671, "Tasmanian": 23584, "How": 1731, "Surely": 13410, "Nair": 25233, "Location": 26316, "eyed": 7074, "instant": 6879, "##\u90ce": 28968, "lungs": 8682, "\u0106": 282, "Likewise": 18872, "##ximal": 23984, "statement": 4195, "laboratories": 17296, "Say": 8652, "Kali": 22576, "dragon": 7556, "##irn": 23905, "Crown": 5373, "##\u00fcck": 24116, "hints": 23531, "Kaplan": 25666, "Southeastern": 18983, "##pole": 16293, "pouring": 13587, "Unable": 18097, "nearer": 23205, "##wasaki": 28069, "##classical": 23974, "modification": 15156, "zipper": 26074, "\u05db": 545, "Auckland": 8279, "##/": 28139, "basement": 8078, "##fying": 16877, "\u0441": 492, "Bacon": 17887, "beating": 5405, "furious": 10927, "Hispanic": 6098, "##brae": 25171, "Benedict": 12334, "Francesco": 11400, "278": 27832, "##rance": 10555, "Patrick": 3938, "Katherine": 9179, "Royce": 15466, "restore": 9176, "field": 1768, "##ning": 3381, "Warwickshire": 19876, "surfaced": 16713, "Dodge": 14205, "##dalgo": 27128, "anthropology": 20233, "Plastic": 26759, "accounting": 11438, "##ples": 15377, "raging": 21348, "Pieter": 26609, "blocked": 8192, "inland": 11054, "thirteen": 7704, "rate": 2603, "intervene": 20406, "theater": 5184, "Martial": 24800, "Index": 10146, "draining": 21892, "12": 1367, "humor": 8594, "Piedmont": 20970, "52": 3882, "Edward": 2594, "fifth": 3049, "Edinburgh": 5238, "##lessly": 8709, "respects": 18788, "vote": 2992, "inconsistent": 22410, "83": 6032, "Bari": 25788, "purpose": 3007, "##\u1e45": 28635, "shared": 3416, "certificate": 10890, "feeling": 2296, "##pin": 6709, "Friedman": 19942, "landmarks": 21308, "Meiji": 25897, "amusing": 21124, "nmi": 25587, "Fusion": 27573, "##nac": 22636, "jaw": 5139, "favorable": 11169, "##flow": 12712, "##xi": 8745, "warning": 5183, "Nat": 15857, "##ial": 2916, "Liz": 8719, "##ezer": 23762, "spent": 2097, "propose": 17794, "ho": 16358, "##ferno": 24215, "Afghan": 13099, "faction": 10673, "scored": 2297, "predict": 17163, "payments": 10772, "war": 1594, "passengers": 4861, "Classical": 10018, "UAE": 18925, "assigned": 3346, "campaigns": 7827, ">": 135, "Play": 6060, "Stanton": 16766, "Educational": 11423, "##zar": 8950, "Swift": 13897, "changes": 2607, "lunch": 5953, "##\u05b7": 28441, "Independent": 4949, "##cue": 27138, "inform": 12862, "y": 194, "##lma": 16882, "##NE": 22680, "absently": 24420, "Gram": 19891, "arrive": 6657, "Rivera": 14556, "pilgrims": 23348, "##mot": 21277, "##ett": 5912, "##\u03bc": 28349, "Joint": 7885, "activists": 10254, "random": 7091, "##fi": 8702, "Macy": 22957, "websites": 12045, "Sand": 16377, "delivers": 19603, "behavioral": 18560, "Editorial": 23640, "dance": 2842, "prior": 2988, "1983": 2278, "followers": 8618, "##olis": 25694, "here": 1303, "##lterweight": 22901, "Ain": 12088, "##lial": 25737, "Qatar": 12778, "mandated": 17983, "194": 21720, "1758": 17922, "##\u00f3s": 24127, "Twenty20": 24785, "##tre": 7877, "Petersen": 25245, "rat": 11631, "Monsieur": 25599, "pairing": 25942, "##olly": 21383, "Ju": 23915, "##to": 2430, "afterward": 11343, "melodies": 20134, "undercover": 20486, "System": 3910, "Livingston": 14648, "surveillance": 10900, "manual": 9506, "enrollment": 10803, "Cairo": 11086, "##chichte": 25124, "vines": 20047, "Indian": 1890, "Del": 9352, "##ject": 16811, "capitalist": 22886, "administer": 23972, "##tal": 6163, "ankles": 16344, "codes": 9812, "impaired": 20606, "Kirk": 11667, "##EA": 12420, "Universe": 9121, "##lis": 6137, "dissolved": 7944, "Marvin": 14165, "paperback": 16885, "weekday": 18730, "classmate": 26562, "largest": 2026, "1747": 27614, "Decision": 27935, "##\u2026": 28697, "##\u30e0": 28858, "glow": 8656, "##quisition": 18540, "Gracie": 20653, "##hov": 24922, "##Es": 27485, "fishing": 5339, "combines": 14215, "##tha": 7702, "License": 24689, "##ssy": 15074, "services": 1826, "grateful": 9473, "protesters": 14339, "originally": 2034, "##r\u00e9": 13240, "Gus": 13067, "Audience": 23590, "Detroit": 4908, "Indo": 11501, "63": 5519, "##isi": 26868, "Diploma": 16333, "franchise": 5801, "Dot": 25584, "##ses": 8830, "imperial": 7749, "##0s": 13031, "##fo": 14467, "investigative": 19043, "##itzer": 23257, "Lafayette": 15335, "filled": 2709, "work": 1250, "Blessed": 16850, "##ipur": 26164, "##ads": 19321, "visible": 5085, "dizzy": 21441, "contacted": 12017, "Shrine": 20703, "##\u4e95": 28876, "inheritance": 13998, "entering": 5273, "Forest": 4089, "cinemas": 27081, "##ctors": 22711, "reply": 7163, "##more": 4982, "hates": 18457, "##collegiate": 23791, "Plays": 23625, "gesturing": 25250, "[unused90]": 90, "000": 1288, "Penguin": 16563, "##\u03bb": 28348, "##ians": 5895, "make": 1294, "Toronto": 3506, "Popular": 10106, "##\u1ef9": 28669, "1900s": 17446, "Kick": 27596, "ocean": 5969, "Ortiz": 21922, "##uintet": 19473, "developing": 4297, "testify": 22366, "Connor": 6121, "Somalia": 15350, "nationwide": 9708, "Konstantin": 26956, "say": 1474, "##ical": 4571, "Escape": 17822, "1931": 3916, "##ggles": 28068, "Men": 3401, "tore": 9626, "##\u0192": 28263, "Program": 4659, "Meredith": 10534, "Northampton": 16873, "devised": 15724, "preserving": 16593, "nicknamed": 10446, "##wart": 18320, "wars": 8755, "sobbing": 22568, "##Ms": 25866, "adjustments": 27939, "doctors": 8114, "##eson": 20071, "define": 9410, "applying": 11892, "Neo": 14521, "mode": 5418, "##\u1ee9": 28663, "format": 3536, "chaotic": 22911, "mascot": 14623, "107": 10428, "Outside": 9572, "##iman": 25512, "##ight": 11381, "cylindrical": 20684, "##\u27e8": 28775, "sole": 6753, "mile": 2837, "Clare": 11148, "unbeaten": 22594, "Animation": 15048, "##ift": 17368, "charities": 18844, "Teen": 15948, "##oku": 23226, "\u0621": 560, "shrug": 13786, "##lani": 21690, "machine": 3395, "##eti": 26883, "visitors": 5496, "##on": 1320, "##C": 1658, "premises": 10330, "Bradshaw": 26608, "circumstances": 5607, "physicist": 14646, "un": 8362, "Denmark": 5140, "ancestral": 17040, "labor": 5530, "resided": 12621, "Realm": 21248, "simple": 3014, "transforming": 20892, "\u3051": 901, "##ian": 1811, "##ieu": 21114, "Integrated": 18926, "##numbered": 25681, "hide": 4750, "##phe": 27801, "demolition": 14295, "architects": 10939, "acquisitions": 23345, "Classics": 14387, "IEEE": 16206, "Carole": 27422, "sites": 3911, "Veronica": 14070, "Forgotten": 26286, "##static": 27372, "drastic": 27735, "comfortably": 20542, "destination": 7680, "##mission": 11234, "sheet": 6837, "Sarah": 3696, "tossing": 16824, "approximation": 22519, "Marching": 26080, "Yates": 22260, "marshal": 23963, "##rave": 22116, "##As": 23390, "public": 1470, "dinner": 4014, "Oilers": 22243, "Rosario": 19274, "##rges": 24173, "Celebration": 22677, "hooks": 21717, "Whether": 13197, "Dar": 23612, "\u5ddd": 1023, "bullying": 21619, "dared": 15983, "\u0259": 357, "dreamed": 14728, "##enia": 23179, "prefer": 9353, "\u0937": 625, "regarded": 4485, "streamed": 20273, "wraps": 21738, "##\u0146": 28234, "Tolkien": 26396, "\u0930": 621, "Neil": 6003, "diverted": 19901, "departed": 7361, "creditors": 26814, "Adele": 20322, "Also": 2907, "clash": 18751, "##ver": 4121, "##X": 3190, "Punjab": 8907, "##ard": 2881, "Engineers": 8665, "##dak": 24122, "238": 24370, "grimly": 26008, "##ryn": 15023, "inquired": 28110, "pending": 15498, "Midwest": 14661, "monitor": 8804, "##innamon": 23339, "Robertson": 9693, "pumps": 17309, "##nut": 12251, "Always": 10672, "208": 19980, "##\u0427": 28388, "resources": 3979, "##ys": 6834, "##N": 2249, "severed": 18177, "patted": 12009, "Lonely": 18782, "pathways": 19530, "formal": 4698, "\u00ff": 277, "programs": 2648, "Bonnie": 12414, "##\u09a4": 28551, "Carnegie": 11298, "informal": 12492, "sprawled": 23671, "##tov": 25918, "Nature": 7009, "coaches": 8648, "reputation": 5244, "airfield": 11897, "dwarf": 13076, "##sby": 13341, "##lemma": 23397, "Computing": 20463, "##ogged": 24009, "dire": 23683, "\u03ac": 414, "curriculum": 9403, "Hayes": 10011, "##\u0129": 28227, "enforce": 17542, "encompassing": 21143, "##ota": 16339, "off": 1228, "Original": 7267, "##tony": 25843, "Salon": 17420, "amenities": 23134, "closest": 7064, "##\u1d2c": 28609, "##taking": 17181, "history": 1607, "efforts": 3268, "\u1ee7": 760, "accusations": 14144, "theorem": 10384, "BA": 12465, "shipping": 8629, "norms": 19600, "wonderful": 7310, "vice": 4711, "##bal": 7767, "lobes": 27645, "1785": 18425, "inclination": 24753, "##hy": 7889, "sort": 3271, "##if": 8914, "Lie": 15030, "session": 4912, "declining": 14828, "marijuana": 18816, "Toward": 27674, "##usion": 17268, "favorites": 25735, "ah": 18257, "behind": 1481, "Vinci": 26781, "49ers": 19531, "electric": 3651, "acquired": 2888, "alive": 3534, "Torre": 24757, "Telugu": 12321, "mortality": 14471, "languages": 3483, "##nesia": 23032, "Building": 4334, "restoring": 18306, "Utrecht": 19789, "floor": 1837, "construct": 9417, "Burma": 11023, "##nders": 24373, "gently": 4588, "Barnard": 24669, "Godfrey": 19635, "##taining": 26174, "\uff08": 1097, "groom": 23799, "##\u0144ski": 15713, "##\u0647": 15389, "concurrently": 18061, "Way": 4714, "regularly": 4857, "##leo": 26918, "##star": 10058, "unnoticed": 25649, "Home": 3341, "seminars": 19898, "insect": 15754, "Provincial": 9087, "##\u0255": 28277, "Height": 21621, "portrays": 18801, "Noctuidae": 28065, "##met": 11006, "Gentleman": 25623, "Vision": 11724, "Advocate": 20418, "Bulgaria": 7599, "##ceps": 28062, "Layne": 24926, "##\u30a4": 28826, "hasn": 8186, "animation": 8794, "Heaven": 7830, "SAS": 25828, "##gata": 18708, "##rm": 9019, "##join": 25665, "1890s": 14066, "Buccaneers": 24751, "Kitty": 16834, "XI": 10252, "##cards": 18464, "cameras": 8457, "glimpse": 12513, "creations": 25987, "nor": 4040, "unpublished": 22255, "presenter": 10483, "cheer": 18456, "attempt": 2661, "weapons": 3595, "cycle": 5120, "alleged": 6351, "##unt": 8355, "account": 3300, "explain": 4137, "hairs": 14087, "ceremony": 4502, "festivals": 7731, "cinema": 7678, "confirming": 21295, "##tree": 14750, "Within": 5360, "missionary": 10263, "throat": 2922, "astronaut": 27149, "exhibits": 10877, "##hore": 18443, "\u05d1": 536, "shell": 5963, "integral": 10226, "Past": 11415, "Pick": 20984, "Nightingale": 26007, "cushion": 26701, "##meister": 27582, "Monitor": 24803, "brutally": 26125, "##\u30cf": 28850, "natural": 2379, "##ings": 5018, "##iens": 23461, "Wow": 11750, "followed": 1723, "Relegated": 17997, "##zled": 21524, "##spersed": 28107, "fortifications": 15542, "classmates": 22150, "##urers": 24990, "freely": 10297, "Luca": 16730, "Adult": 11635, "Trip": 18752, "##wear": 14719, "##\u0444": 28406, "Ko": 19892, "shaft": 9202, "##n\u00e1": 24073, "1774": 18838, "spiral": 14061, "trading": 6157, "oxide": 17151, "\u0997": 643, "Avenue": 3194, "gymnasium": 17602, "code": 3463, "attributed": 6547, "lifetime": 7218, "ran": 1868, "substrates": 26794, "Clube": 28070, "partition": 16416, "##UN": 27370, "appropriately": 26620, "pages": 5097, "##dh": 17868, "Lois": 17002, "Programming": 21076, "Artists": 8428, "users": 4713, "Mercy": 14130, "##alk": 23074, "We": 1284, "Ball": 7708, "documentaries": 17221, "Street": 1715, "struggled": 6325, "Dick": 6416, "##x": 1775, "190": 11876, "assignments": 15799, "##took": 24144, "##hua": 12491, "Bella": 12787, "##vana": 25860, "mates": 16195, "##obe": 21367, "bail": 17076, "signed": 1878, "Bangor": 24236, "Producers": 24189, "Wrong": 20337, "overall": 2905, "##iously": 15160, "forgiveness": 19827, "carpenter": 25169, "##\u300f": 28785, "##ulf": 19284, "Shan": 20642, "Basel": 14562, "Dogs": 16406, "Alley": 20570, "##balt": 26443, "Serbia": 6689, "Ji": 13997, "AR": 22133, "Phone": 26385, "Guild": 9922, "insurance": 5986, "lights": 4204, "surprisingly": 12283, "expanded": 3631, "1805": 13403, "Joshua": 8777, "posterior": 16530, "Malone": 17571, "humour": 19311, "structured": 15695, "##ete": 16618, "cocktail": 23305, "Ernesto": 24918, "Cultural": 6651, "beneficial": 16250, "##lius": 14968, "##dged": 17363, "thou": 22626, "athletes": 7653, "mound": 14858, "lone": 14936, "Trinity": 6626, "Rhodesia": 22228, "##lem": 14183, "Essex": 8493, "care": 1920, "mountainous": 15806, "etched": 22526, "sliding": 7989, "diaspora": 25947, "Straits": 24884, "policies": 5502, "Adventure": 10903, "##mmer": 10951, "Doing": 27691, "Nepali": 26246, "diplomacy": 24500, "##shore": 16324, "homestead": 24857, "Credit": 14032, "mall": 8796, "crept": 13462, "meaningful": 17119, "Dave": 4111, "Bowie": 15413, "converting": 17821, "##cut": 12734, "Dude": 22995, "excluding": 14243, "swift": 15085, "mainly": 2871, "stench": 24218, "##vening": 24248, "\u03bd": 430, "italics": 24042, "consulted": 18881, "Hern\u00e1ndez": 22844, "east": 1746, "conversation": 3771, "eating": 5497, "##ews": 17540, "##\u00fcnster": 27077, "\u2192": 845, "Colony": 11522, "damned": 10688, "reef": 18939, "##pe": 3186, "##tech": 22218, "missing": 3764, "##olt": 17772, "Villa": 8064, "native": 2900, "##lard": 26531, "##\u0bbe": 28582, "##lah": 10358, "shapes": 10724, "punch": 9592, "minor": 3137, "\u1ea5": 740, "puts": 8165, "Bournemouth": 25468, "Dancing": 13234, "mechanism": 6978, "Gomez": 21411, "Wisconsin": 4486, "Therefore": 6589, "##orn": 8456, "##mma": 12917, "##lu": 7535, "Confederacy": 21885, "Associated": 12835, "42": 3565, "FL": 23485, "Trent": 7524, "Howe": 13724, "broad": 4728, "Uzbekistan": 18245, "slope": 9877, "aircraft": 2163, "Jet": 13784, "##\u2018": 28688, "affinity": 18859, "Falcon": 13893, "peaceful": 9441, "Riding": 15862, "Orient": 20032, "Travis": 9787, "gifts": 9794, "brutal": 12800, "lands": 4508, "##aja": 22558, "##oman": 27085, "Nina": 9394, "##last": 19268, "##citing": 24254, "Finnish": 6389, "rent": 9795, "adults": 6323, "Spiritual": 23509, "rhythm": 6795, "themes": 6621, "\u026a": 362, "attachment": 15708, "##hrill": 24657, "##rouse": 26413, "trust": 3496, "talks": 7430, "##weed": 14315, "instrumentation": 19391, "Alfa": 27099, "oppression": 23309, "Dev": 18433, "##aka": 11747, "ship": 2062, "kilometres": 2850, "manufacturer": 7400, "##bation": 19632, "Martian": 23194, "semantic": 27921, "stable": 6111, "stuff": 4333, "screaming": 7406, "bat": 7693, "Felipe": 18263, "Including": 25951, "[unused46]": 46, "sleepy": 23024, "Brittany": 12875, "Wonderful": 20361, "criteria": 9173, "Brock": 14389, "counterpart": 14132, "wrists": 12294, "Baden": 12311, "##enberg": 11588, "hopes": 7816, "spokesman": 15465, "celebrities": 13073, "Peak": 10088, "resistance": 4789, "##gue": 7222, "##azi": 19888, "petitioned": 25042, "Early": 4503, "Organisation": 14213, "##eorological": 22272, "Pietro": 16413, "##sson": 6598, "comet": 27492, "##far": 14794, "turkey": 25138, "Eliminated": 20490, "wagons": 15643, "deception": 22551, "moaned": 12732, "carried": 2446, "crashing": 13423, "directly": 2626, "##IP": 11410, "Medici": 25650, "##wala": 27222, "Funny": 16819, "microphone": 16976, "450": 10181, "university": 2755, "1948": 3027, "prove": 5424, "Wilkinson": 17255, "\u2265": 864, "im": 13280, "finances": 18488, "enforcement": 7742, "smell": 4773, "tattoo": 13271, "landlord": 21406, "##\u3053": 28795, "traditionally": 7440, "cousins": 14904, "##oted": 21493, "kicker": 27219, "Bingham": 27721, "Ultimate": 11618, "##des": 4704, "herbs": 19933, "Leaning": 24838, "insisting": 25504, "##\u30f3": 28866, "##venge": 25173, "\u03ae": 416, "##aux": 10172, "##rrow": 8674, "Estates": 23023, "European": 1735, "##licing": 22548, "lunar": 15383, "Myanmar": 12820, "##burst": 22224, "##tany": 26504, "MAC": 25424, "##za": 3293, "leaning": 6784, "competitors": 10388, "urine": 19968, "##IS": 6258, "replacing": 5861, "##igi": 24874, "##nner": 27106, "danger": 5170, "proclaimed": 9950, "Declaration": 14308, "mantle": 19435, "straining": 24089, "##\u03a6": 28331, "topology": 22411, "Luckily": 20044, "Conversely": 24433, "lamps": 15248, "Conference": 3047, "Wang": 7014, "topics": 7662, "ta": 27629, "1800": 9558, "sandwich": 14327, "##rative": 15306, "##roke": 20265, "\u00e0": 246, "newcomer": 25551, "Dunbar": 25688, "Johanna": 24031, "weighed": 13025, "Additional": 8154, "Vietnam": 4357, "Sloane": 18823, "metric": 12676, "exotic": 13640, "Stella": 12126, "emigrated": 11384, "Castile": 16560, "head": 1246, "Former": 6963, "Guinness": 18517, "soccer": 5862, "##uerre": 27707, "##\u00e7a": 15331, "Pamela": 18477, "Dan": 4317, "Eastwood": 27181, "Tate": 9727, "federally": 26129, "coast": 3153, "Ham": 13030, "\u05b8": 532, "##city": 9041, "scrambled": 13988, "##our": 6334, "Catholicism": 17164, "Georges": 10792, "unnatural": 25126, "##rug": 27744, "flames": 8150, "w": 192, "Damian": 22945, "applause": 24670, "Practice": 14354, "decorative": 12300, "reviewer": 12827, "surged": 20420, "##sat": 28027, "numerical": 18294, "Ramirez": 25261, "Davey": 22618, "Hitler": 7579, "incomplete": 13975, "##mba": 10806, "definitive": 18379, "attained": 12961, "##\u2500": 28763, "Above": 12855, "jokes": 13948, "knee": 5656, "legend": 7051, "uploaded": 23661, "Card": 10103, "##ropriations": 24594, "##:": 28140, "##ppe": 20564, "agriculture": 6487, "stacks": 24879, "psychiatrist": 20926, "Bayern": 23517, "est": 12890, "Fairfax": 19175, "heating": 11187, "affiliation": 13494, "robbed": 22330, "fined": 18136, "File": 25647, "mammals": 12905, "cancer": 4182, "Malay": 12808, "Fashion": 13215, "##birth": 16190, "lyrical": 18799, "tracking": 10066, "##nier": 12682, "stressed": 13713, "pulses": 27631, "ritual": 9181, "Venetian": 16574, "##sen": 3792, "bitter": 9178, "trees": 2863, "undead": 21979, "##icked": 27545, "##vasive": 25007, "barrister": 24145, "dated": 5422, "classroom": 10229, "fairy": 11210, "advisors": 26223, "Long": 3261, "me": 1143, "reduction": 7234, "stay": 2215, "unlike": 6199, "Falcons": 16952, "##pable": 20786, "confessed": 14900, "##j": 3361, "Nine": 7357, "Jennifer": 7184, "liable": 21988, "##con": 7235, "Fuck": 10259, "Punjabi": 18787, "Jules": 11011, "forcefully": 25875, "entries": 10813, "##giri": 25899, "frantic": 17657, "1889": 5825, "\u2212": 851, "Herbert": 6717, "##hong": 15564, "assault": 5937, "##alis": 14200, "##\u0995": 28544, "##reator": 26284, "accord": 22973, "expressions": 11792, "comprising": 9472, "lumber": 17306, "motorcycles": 21552, "poison": 11539, "PD": 27802, "##tracts": 26193, "grabbing": 10810, "Cummings": 22982, "1999": 1729, "Leeds": 7383, "Depression": 11442, "##dation": 13759, "1824": 11638, "clearing": 8650, "boiling": 17913, "aristocracy": 26076, "respiratory": 19192, "##sboro": 27019, "hosting": 9882, "##ill": 7956, "driving": 3759, "travelled": 7372, "immensely": 27590, "transferred": 3175, "##yx": 19367, "Lindsey": 18781, "##omi": 18882, "##tudes": 22764, "earnings": 18155, "widened": 8344, "procedures": 8826, "graphical": 23885, "Acts": 13720, "##\u5bbf": 28911, "##tters": 18899, "Papua": 13361, "simplified": 11654, "notorious": 14140, "ion": 14469, "another": 1330, "brewery": 17876, "Reading": 8003, "##quished": 24552, "##utnant": 27739, "##\u0261": 28280, "Canyon": 10084, "fifty": 5547, "tractor": 20224, "wit": 20787, "##cess": 22371, "##sumption": 16937, "Finch": 19143, "Re": 11336, "##medical": 20489, "##hana": 17013, "##ogy": 15741, "chuckled": 10072, "Laurent": 15356, "##rity": 12298, "intermittent": 27946, "opinions": 11089, "Para": 23994, "1865": 6127, "dry": 3712, "definition": 5754, "Lords": 9880, "##ock": 5559, "Neal": 11003, "Cicero": 26070, "##ibility": 7706, "[unused78]": 78, "cockpit": 14803, "##rop": 12736, "toxicity": 25954, "Protection": 8063, "considerably": 9627, "##cey": 18865, "##got": 18855, "##fication": 11531, "certificates": 21487, "##\u05dc": 28456, "flight": 3043, "Thunder": 10798, "podium": 15464, "Ash": 8603, "compose": 18742, "\u0282": 367, "significant": 2418, "pen": 8228, "15": 1405, "Hansen": 13666, "Winning": 24627, "Magdalena": 27971, "magic": 3974, "##\u05b8": 28442, "character": 1959, "platform": 3482, "##chemist": 27239, "dissipated": 25149, "sexually": 13014, "illness": 6946, "transports": 21951, "##ual": 4746, "interview": 3669, "Salvation": 22781, "\u062a": 568, "Finalist": 24814, "101": 7393, "##\u611b": 28921, "Dom": 16727, "contained": 4049, "Kerman": 27671, "insides": 20751, "Eugene": 8889, "justification": 22647, "Petty": 18468, "##uki": 17041, "November": 1379, "Pure": 16665, "Data": 7154, "sheer": 12027, "Clinic": 18601, "##watch": 21200, "Despite": 2711, "tie": 5069, "forming": 5071, "Minor": 8187, "Resort": 15579, "##oint": 21506, "##miya": 25553, "\u6c34": 1048, "##gonal": 22976, "Riders": 17662, "##pella": 22517, "\u00a1": 200, "\u2502": 870, "Sports": 3692, "attempting": 6713, "Married": 20092, "gag": 21102, "firing": 7142, "Uttar": 15670, "Gregor": 18123, "Summers": 22596, "growl": 13818, "Dodgers": 13839, "extend": 7532, "##bir": 18710, "uk": 26006, "Armstrong": 8800, "##cultural": 19418, "Blu": 15223, "XIII": 16214, "searching": 6205, "silicon": 22818, "Hooker": 25102, "[unused10]": 10, "Reaper": 23696, "meant": 2318, "1969": 2540, "Establishment": 24813, "1977": 2449, "game": 1342, "##rieve": 27055, "##kawa": 11921, "biographies": 26785, "ranking": 5662, "Thornton": 15260, "##chair": 22908, "golfer": 23564, "gathering": 7410, "##\u5409": 28893, "qualifying": 6045, "1856": 8309, "sensation": 8710, "Suit": 27331, "Lisbon": 12007, "listening": 5578, "Saunders": 16029, "expressway": 26185, "##ilizer": 25833, "Simone": 14591, "##KS": 25370, "became": 1245, "variously": 18995, "herb": 22245, "##ther": 8420, "Duval": 27281, "##ground": 10328, "Vista": 14600, "Thessaloniki": 25878, "misery": 17490, "Gabe": 13123, "go": 1301, "holds": 3486, "##zon": 9515, "Pony": 26755, "##ea": 4490, "knights": 15480, "Gilmore": 25624, "satellites": 16176, "##feng": 27875, "barrier": 9391, "##rilla": 18792, "##pling": 11624, "until": 1235, "Kathryn": 22404, "Hui": 22107, "spider": 12545, "risk": 3187, "Clifford": 14363, "deportation": 27605, "sometime": 9961, "lawyer": 4545, "bring": 2498, "torch": 16328, "predecessors": 17543, "##chev": 21578, "##ddle": 13002, "candles": 15560, "outlets": 11994, "Z": 163, "auditions": 27503, "profound": 14511, "##geon": 21565, "melted": 12755, "Courts": 16624, "Honduras": 14950, "fauna": 18335, "borrow": 20055, "revenue": 7143, "##xin": 16594, "redesignated": 16210, "Gujarat": 15019, "demonstrates": 17798, "unmistakable": 27360, "Ana": 9954, "##break": 16596, "50": 1851, "helped": 2375, "reminding": 17235, "Larsen": 22111, "computational": 19903, "smoothly": 16193, "\u30c6": 951, "facility": 3695, "##copic": 22258, "masonry": 20860, "UV": 26331, "doubts": 14351, "mornings": 19622, "Karl": 5728, "##game": 18350, "covert": 25015, "Sanchez": 17738, "housekeeper": 26458, "MPs": 13904, "Industrial": 7080, "Libya": 13135, "Plantation": 22849, "##roads": 16038, "committee": 3914, "1860s": 16840, "utilizes": 24242, "##stown": 13594, "se": 14516, "Senior": 4308, "Fortress": 17661, "convent": 13727, "1928": 3825, "Chronicle": 11047, "\u0457": 509, "##hale": 11941, "dynamics": 14189, "Sloan": 20675, "Rochester": 10425, "offences": 22847, "Crusaders": 24174, "corrected": 13808, "240": 11202, "marker": 13537, "additional": 2509, "slaughter": 20723, "sits": 7250, "wave": 4003, "rotation": 9967, "linking": 11723, "originating": 16394, "\u0219": 350, "##rlene": 25140, "Panel": 20339, "successful": 2265, "outer": 6144, "Pie": 26424, "##ary": 3113, "landscapes": 14026, "organizing": 11640, "legs": 2584, "recipient": 7668, "Away": 9252, "tucked": 9094, "##ibes": 20195, "##stic": 5668, "proportions": 21136, "##fic": 21361, "##cket": 21633, "Kingdom": 2325, "Seville": 20768, "destroys": 22955, "oral": 9619, "##pie": 15418, "##bek": 17327, "pharmacy": 22759, "\u09b9": 661, "thirteenth": 17889, "##mized": 26740, "heads": 4075, "##\u0bb0": 28579, "destroyers": 14821, "Humans": 22143, "Rally": 15094, "predatory": 24519, "\u4f8d": 989, "be": 1129, "##oe": 7745, "bid": 6875, "Met": 19415, "##oka": 9865, "polymer": 21176, "##\u09be": 28566, "translates": 17391, "##ttering": 20809, "##ontaine": 27656, "scowled": 18705, "comics": 9767, "##gene": 27054, "##aria": 11315, "Scouting": 22768, "##oke": 9143, "destroy": 5535, "mushroom": 25590, "honorary": 7316, "dumb": 14908, "teens": 15050, "softened": 17650, "denotes": 16699, "##\u2190": 28738, "endemic": 6850, "whatsoever": 20748, "##ott": 15719, "##read": 11613, "talking": 2520, "##ifer": 25052, "females": 3032, "suppressed": 14336, "events": 1958, "bind": 15600, "reel": 24548, "##\u10dc": 28605, "Rand": 16731, "realise": 21035, "Settlement": 19097, "##\u00e1rez": 21823, "youths": 23149, "##\u014b": 28236, "Transformers": 25267, "compiled": 9064, "criticizing": 23707, "Nichols": 16661, "association": 3852, "##nger": 11576, "foreigners": 16714, "discussed": 6352, "singer": 2483, "Nikola": 28010, "grossed": 18758, "explaining": 10100, "disability": 13996, "pocket": 4480, "Paolo": 14712, "pacing": 17218, "Chang": 11497, "##ma": 1918, "swelled": 24201, "consecrated": 12636, "##OX": 24569, "standardized": 18013, "##\u0f62": 28594, "hurts": 15483, "\u0636": 580, "Agents": 28052, "apply": 6058, "greater": 3407, "##28": 24606, "##mentary": 27533, "##lla": 3848, "protective": 9760, "fail": 8693, "2d": 25712, "devotion": 14740, "##jo": 5077, "##dium": 10876, "minimum": 5867, "1908": 4536, "Erin": 11845, "tenor": 9969, "below": 2071, "##ele": 11194, "arrondissement": 26592, "##bahn": 15675, "##eu": 14272, "industrialist": 24916, "confidential": 25557, "##junct": 20327, "\u042e": 473, "skater": 21827, "into": 1154, "titles": 3727, "##worth": 4189, "##mination": 9204, "1710": 26699, "##otte": 25722, "stomped": 24299, "Autonomous": 16742, "twisted": 6061, "Ping": 27163, "moving": 2232, "Persia": 17746, "breach": 13275, "Hope": 5977, "Jace": 10216, "shoe": 12228, "Patriots": 12366, "Material": 26877, "Plains": 12386, "units": 2338, "install": 17812, "Slowly": 13060, "##\u571f": 28899, "1888": 6079, "classification": 5393, "theorist": 27620, "Olivier": 15061, "311": 26277, "Provinces": 23478, "##\u02e2": 28308, "##bloid": 27109, "cooperation": 7395, "song": 1461, "Garrett": 9412, "pioneer": 8578, "expectations": 11471, "##zes": 11846, "Putin": 24489, "##rise": 17789, "summoned": 12114, "\u0647": 591, "modern": 2030, "##\u039b": 28324, "scratch": 14515, "##\u0291": 28294, "##tated": 20213, "Collins": 6266, "h": 177, "evidenced": 23526, "DVDs": 25061, "##tage": 11535, "##itating": 20563, "President": 1697, "737": 24413, "##ends": 22367, "its": 1157, "proves": 17617, "Po": 18959, "ignorant": 24636, "##ias": 7346, "fine": 2503, "hardened": 15870, "BMW": 13439, "##e": 1162, "inflicted": 18567, "##zone": 19315, "##pop": 18299, "##rma": 10841, "Small": 6844, "Audrey": 14707, "Stones": 15165, "unfolded": 27118, "##lattered": 26355, "\u0917": 608, "Elijah": 14581, "Turtle": 26024, "varieties": 10003, "worry": 3994, "transformations": 26139, "##iques": 18853, "publish": 10086, "Winston": 9982, "Irvine": 17297, "##viation": 27444, "Martha": 8996, "Canadians": 17524, "fractured": 25555, "##tano": 26445, "\u02bf": 383, "##rky": 15538, "Picture": 10041, "##olm": 25363, "utility": 10345, "department": 2853, "Airborne": 16607, "maintained": 4441, "permits": 15267, "leak": 19299, "commended": 27083, "benches": 21726, "Moran": 19823, "Chess": 11503, "allocated": 11117, "##rley": 12586, "monkey": 16019, "##nka": 22294, "[unused73]": 73, "Convent": 24376, "pulmonary": 26600, "shy": 12076, "concerns": 5365, "reared": 26235, "##world": 13070, "##evo": 23663, "hanging": 5205, "place": 1282, "CD": 2891, "Historian": 21316, "##ivable": 25768, "salad": 19359, "##ika": 7223, "##entry": 26666, "##\u3093": 28823, "fairly": 6751, "Mina": 22787, "deployed": 6925, "purposes": 4998, "Hugh": 6016, "sage": 26518, "hitter": 20836, "prop": 21146, "systemic": 27410, "##uku": 25455, "[unused93]": 93, "%": 110, "Working": 9612, "Speaking": 14072, "inviting": 16067, "##\u02e1": 28307, "industries": 7519, "weed": 24195, "downfall": 27002, "Pakistani": 9651, "##oof": 19329, "Strip": 18534, "warehouses": 26783, "Baroque": 12869, "intact": 9964, "Darwin": 11555, "Cao": 13872, "Operations": 7273, "110": 6745, "##suming": 19951, "impatiently": 22086, "##bed": 4774, "farmer": 9230, "##rdo": 16525, "fewer": 8307, "##\u0447": 28409, "\u013d": 303, "##shire": 6662, "effects": 3154, "humid": 15120, "cares": 16903, "what": 1184, "retrieve": 13139, "Kane": 8119, "EC": 16028, "Casablanca": 27786, "Kosovo": 11494, "Polar": 25848, "##gio": 10712, "Came": 23878, "fork": 13097, "##\u062b": 28478, "involvement": 6083, "##urous": 25576, "division": 2417, "millions": 9215, "##\u7af9": 28958, "buzzing": 22601, "Physics": 8937, "flexible": 13156, "Staffordshire": 18187, "Squad": 14346, "Maj": 18285, "\u209a": 832, "fixed": 4275, "##lux": 24796, "peninsula": 10720, "texture": 16117, "Isn": 12357, "##head": 3925, "thinner": 26263, "##quer": 19061, "\u01a1": 342, "Harry": 3466, "hangs": 19565, "##iki": 12635, "Yan": 14932, "Sons": 9946, "decree": 11903, "##sm": 6602, "##\u056f": 28428, "courthouse": 15608, "Barton": 13235, "##aran": 27177, "carry": 3564, "northbound": 23328, "Biography": 20599, "denominations": 18857, "sequence": 4954, "Letter": 14549, "Mighty": 17434, "##ncy": 7232, "##\u4f50": 28881, "##wamy": 27785, "meat": 6092, "Aaron": 6619, "##formatics": 27960, "1834": 10586, "wrath": 23127, "Rovers": 9740, "##logists": 17246, "imagined": 7683, "Design": 4800, "##cating": 14829, "Wally": 19650, "score": 2794, "broke": 2795, "##ptic": 8956, "Nadu": 10657, "exits": 18387, "splits": 22141, "privately": 9045, "##itarian": 12403, "benefit": 5257, "##SR": 16396, "ll": 1325, "Pontifical": 27164, "tidal": 17958, "cabin": 6493, "Matilda": 19381, "##pent": 22083, "##bha": 24167, "##L": 2162, "naming": 10505, "##iciency": 23864, "endured": 17861, "streets": 4324, "Reformation": 16746, "Bahamas": 18242, "swing": 8046, "##imeter": 19998, "premise": 20197, "Patel": 22545, "Darren": 12413, "eligible": 7408, "##ump": 15629, "stubborn": 15437, "1936": 3419, "\ud55c": 1093, "Archie": 13581, "Case": 9060, "kicking": 10710, "dialed": 23597, "##rio": 8558, "##ully": 16125, "133": 15118, "Considering": 23243, "Chaplin": 26065, "##mit": 9084, "##bana": 21182, "commentaries": 26094, "praise": 9010, "departure": 6267, "Scots": 12364, "contempt": 18875, "boiler": 17587, "Betsy": 24903, "Hades": 26015, "Afterwards": 13611, "##fight": 22805, "Norwood": 25365, "Nazis": 13525, "inventions": 26627, "##gni": 22152, "Alonso": 18918, "believed": 2475, "shoreline": 20953, "conditional": 21152, "gateway": 19154, "justified": 16489, "asylum": 15345, "Romney": 21350, "inspire": 21792, "##I": 2240, "franchises": 25429, "trolley": 27546, "astronomical": 20771, "priced": 23812, "compiler": 26012, "fountain": 12325, "GB": 17909, "Homestead": 25073, "nationals": 17160, "##cated": 11603, "unpaid": 27134, "\u0218": 349, "1838": 9702, "involves": 6808, "fingers": 2220, "blacksmith": 26450, "exempt": 19220, "##lock": 6726, "Kings": 6560, "jury": 7141, "harshly": 23236, "Campus": 8838, "Irving": 12581, "loaded": 8243, "##EN": 11680, "Peggy": 15607, "routine": 9285, "advantage": 4316, "##\u043e\u0432": 24625, "##final": 25154, "drowned": 14100, "debts": 14689, "cramped": 25484, "mutant": 21392, "yelled": 7089, "##ige": 13417, "Dust": 20180, "##boa": 22126, "\u00e9tat": 24948, "105": 8359, "ballots": 18458, "Pay": 22531, "##raith": 21980, "countless": 15696, "Mali": 17168, "##mei": 27750, "Gibraltar": 12410, "##yang": 13490, "browser": 19089, "Daytona": 19634, "Truck": 19965, "coded": 25799, "starting": 2547, "reflect": 7977, "Langley": 20794, "##oping": 16391, "560": 23386, "Luton": 19136, "lively": 21088, "abruptly": 9354, "sauce": 14313, "Cerambycidae": 13449, "linguistic": 13633, "closely": 4099, "##\u20ac": 28731, "Team": 2649, "yearly": 13502, "leather": 5439, "donation": 14324, "##ely": 17328, "judgement": 21261, "butt": 11259, "Mecklenburg": 24345, "Andre": 12971, "##ittle": 26775, "Lamb": 16978, "Persian": 3886, "failures": 16676, "\u1e63": 736, "ya": 11078, "##lvin": 25416, "Inland": 26336, "##believable": 26438, "##tinuum": 25379, "##nie": 5213, "1847": 8841, "##\u53e3": 28890, "stake": 8219, "suffering": 5601, "managing": 7204, "fumbled": 21909, "Benz": 19107, "##\u017e": 28261, "battalions": 11592, "reflex": 27820, "shields": 18254, "pounding": 9683, "progresses": 25541, "Sue": 11728, "restraint": 21769, "##berry": 6614, "Savannah": 11304, "sports": 2865, "##cote": 21596, "\u2099": 831, "##anna": 11762, "Recovery": 23682, "Christophe": 26921, "##rada": 22077, "Pendleton": 27406, "##rief": 24683, "saves": 14419, "shimmering": 25378, "##riated": 22356, "Jo": 8125, "##wai": 20264, "##\u00e1il": 20938, "grand": 5372, "Honours": 14670, "##ures": 10374, "Bonus": 21916, "##\u9580": 28974, "W": 160, "if": 1191, "Ballad": 27309, "Enterprises": 16949, "Standing": 9996, "believing": 9313, "Yoga": 25035, "##uf": 16205, "Scotia": 9418, "refined": 16686, "Charter": 11171, "Sands": 18869, "imagery": 14210, "##naire": 24730, "Chow": 24349, "##igan": 10888, "##igh": 21523, "socialism": 20560, "1971": 2507, "Angels": 8728, "unless": 4895, "##uve": 19581, "Lulu": 24702, "sample": 6876, "Gloucestershire": 16832, "creep": 24090, "bass": 2753, "watches": 12642, "possess": 10192, "Belgarath": 23380, "live": 1686, "stalking": 23281, "ditch": 15916, "physical": 2952, "oversaw": 14658, "##stituting": 23346, "##agh": 19947, "Child": 6405, "stumbled": 9624, "Luftwaffe": 19027, "Beach": 3808, "warm": 3258, "hotel": 3415, "\u02e3": 388, "but": 1133, "rely": 11235, "Hadley": 23953, "Soon": 5398, "##itative": 24936, "Tau": 27046, "gliding": 25545, "##tius": 18392, "\u5409": 1000, "##eum": 14136, "alcoholic": 16149, "motif": 17853, "##mum": 16268, "##MD": 18219, "##ryan": 25641, "##gratory": 24521, "\u0f58": 690, "ringing": 13787, "Board": 2464, "Sweden": 3865, "Maxwell": 10593, "Stacey": 21807, "Andy": 4827, "honoured": 17682, "Simpsons": 20726, "213": 21640, "backed": 5534, "\u0397": 399, "torture": 8831, "ugly": 10126, "##ional": 12115, "Carthage": 24326, "certified": 7720, "##cchi": 27992, "Confederate": 7730, "Rooney": 27238, "records": 3002, "##hao": 22235, "##quire": 15174, "Sears": 20590, "##ffington": 26147, "negatively": 21598, "timeline": 21169, "##31": 22639, "##rer": 14906, "provider": 11482, "Brunswick": 8857, "rides": 13863, "collegiate": 14532, "##litz": 15516, "cents": 18748, "Results": 16005, "Creek": 3063, "meditation": 16910, "displayed": 6361, "n": 183, "Examination": 26947, "flashlight": 16319, "##rsen": 22972, "firefighters": 27552, "stationed": 8651, "fragments": 11062, "modular": 24407, "##D": 2137, "distract": 16989, "player": 1591, "stuffed": 12084, "Albania": 10278, "villains": 20246, "labs": 21973, "##sun": 23294, "##aton": 21113, "cylinders": 20732, "##\u65b0": 28924, "##KO": 16585, "##nta": 13130, "1100": 24450, "##tral": 16010, "Slade": 19466, "soldiers": 2803, "Eaton": 18909, "feed": 4877, "Ricky": 11173, "psychological": 9189, "Korea": 3577, "projecting": 20266, "##zhi": 23239, "agencies": 6421, "\u0574": 519, "Tell": 4630, "##cano": 17519, "pots": 21917, "##ranged": 19587, "directory": 22605, "\uff1a": 1102, "squares": 16004, "spire": 23887, "distinct": 4966, "60": 2539, "##ylon": 22099, "[unused4]": 4, "shark": 15623, "Derrick": 21281, "Jacksonville": 13326, "enjoying": 8965, "cracked": 9549, "Lines": 12058, "##tai": 13564, "stables": 19239, "pirates": 14978, "##\u6771": 28935, "Derek": 6749, "plus": 4882, "Beth": 6452, "Promise": 18432, "Stadium": 3339, "terrified": 10444, "bulk": 9634, "worn": 5624, "Geographic": 15472, "##uard": 21320, "Lincoln": 4617, "relates": 15286, "\u0bb2": 677, "carries": 7450, "1807": 13518, "wicked": 13273, "Dialogue": 26004, "##\u1f70": 28674, "##ball": 5892, "diplomat": 11608, "[unused52]": 52, "non": 1664, "vehicles": 4011, "Week": 6237, "scorer": 11766, "defences": 18422, "##rca": 23433, "##ment": 1880, "##ID": 9949, "Beside": 21637, "1921": 4085, "UHF": 21962, "##wire": 24952, "turns": 3587, "Racing": 6770, "Goals": 14238, "nostrils": 16212, "Appalachian": 21464, "##pina": 27822, "##\u1e25": 28630, "Marvel": 8370, "##isse": 19202, "##spiration": 21240, "Waste": 27124, "##\u05bc": 28444, "run": 1576, "repeats": 19811, "Norte": 22095, "states": 2231, "##ab": 6639, "49": 3927, "relation": 6796, "[unused36]": 36, "Skinner": 18835, "shrub": 16965, "diary": 12997, "witches": 15400, "cards": 4802, "NO": 24819, "##ered": 5686, "terribly": 18049, "nationalism": 16767, "1849": 8688, "Lighthouse": 21432, "neighbour": 23634, "1917": 3734, "applicable": 13036, "Witch": 14057, "convinces": 21227, "pair": 3111, "##pia": 15748, "snakes": 14986, "Bee": 16385, "engineered": 16419, "homosexuality": 18160, "##ald": 18728, "instincts": 17477, "Heidi": 23669, "Leary": 25654, "fielding": 26110, "Courtney": 14675, "soundtrack": 5945, "Preston": 8083, "gross": 10272, "Montevideo": 24942, "export": 10107, "Palatinate": 20824, "Race": 6398, "Chesapeake": 22907, "confirm": 12434, "posture": 18229, "shadowy": 26117, "##leen": 21180, "Zhang": 9132, "Ultimately": 16266, "winger": 18962, "disabilities": 16292, "rejected": 5164, "Cara": 16185, "turtle": 19570, "Catalina": 25106, "freaked": 25818, "euros": 25921, "##emann": 26958, "Singing": 23836, "##diation": 25971, "##sky": 4969, "striking": 8261, "Whoever": 20834, "import": 13757, "sighted": 22124, "Dai": 23084, "1829": 11527, "mount": 11885, "225": 15684, "positioning": 23208, "beef": 14413, "Materials": 19591, "##\u0161i\u0107": 23571, "1874": 7079, "##va": 2497, "principles": 6551, "Bachelor": 6143, "##UC": 21986, "cursed": 11118, "##\u0250": 28274, "s": 188, "\u20b9": 838, "challenger": 24997, "driven": 4940, "##anu": 19762, "arrived": 2474, "subway": 14790, "setup": 18011, "##\u064a": 16070, "flattened": 17454, "##vue": 19038, "placed": 1973, "\u06d2": 604, "##ows": 11997, "Andrei": 19668, "Holding": 14382, "##tails": 23871, "57": 4667, "Shakespeare": 7647, "##bell": 14545, "Private": 7219, "##ur": 2149, "approach": 3136, "monarchy": 14358, "suffix": 18042, "Breaking": 20048, "Animal": 10854, "vicinity": 9748, "Bartholomew": 21622, "snake": 8925, "##nist": 22158, "medication": 15683, "##ats": 9971, "1912": 4080, "Caucasus": 17570, "colt": 23506, "explorers": 26026, "Usually": 12378, "jam": 17462, "Lac": 23929, "Beast": 11868, "announcer": 16007, "gender": 5772, "##brook": 8489, "##\u0987": 28541, "toys": 12967, "##bound": 8346, "Pier": 17006, "compelling": 18397, "hug": 8363, "\u0531": 513, "\u0169": 327, "Having": 5823, "threats": 8657, "UN": 7414, "Federal": 3467, "Lyon": 10067, "skipped": 18002, "betray": 23240, "six": 1565, "seeking": 5788, "confinement": 24478, "##tep": 21747, "Left": 8123, "##nik": 7923, "Powerplant": 25390, "Forrest": 17367, "AK": 25808, "##fast": 27704, "rib": 23298, "commissions": 15239, "Centro": 19927, "tense": 8901, "equipment": 3204, "preceded": 11983, "##coming": 9331, "##rash": 16543, "Jennings": 14631, "Salvatore": 18746, "##sford": 20176, "unconventional": 27668, "theatre": 4041, "chartered": 17064, "Synod": 22013, "##hee": 19989, "readings": 17813, "\u03bb": 428, "plague": 13824, "Antonio": 4464, "##ev": 6348, "package": 7305, "emotion": 7471, "tragedy": 12343, "tips": 10538, "`": 169, "1809": 13055, "##gma": 14721, "Gould": 15617, "substantially": 12613, "amplitude": 25437, "polling": 20990, "tilting": 26954, "##enham": 22014, "vendor": 26111, "##LR": 26161, "separation": 8865, "Hilda": 23927, "tumbled": 19749, "areas": 1877, "That": 1337, "tray": 12389, "Malawi": 19597, "plaza": 19075, "##ides": 8959, "1842": 9790, "safer": 15033, "Rutherford": 19936, "\u300d": 890, "Philippines": 4336, "##gering": 27910, "##\u1ecd": 28653, "uprising": 13034, "Capital": 6299, "Organ": 20383, "##narl": 27831, "minimize": 20220, "nave": 13521, "Dane": 15312, "canyon": 18964, "healthy": 8071, "Nokia": 24547, "inhabited": 9375, "\u05ea": 558, "unwilling": 17026, "listener": 23392, "Hellenic": 25792, "Marks": 16875, "faded": 7771, "##ist": 1776, "##lo": 2858, ".": 119, "models": 3584, "Gareth": 22100, "tourists": 9061, "tons": 5606, "\u0940": 630, "temptation": 23483, "coughed": 20720, "wedge": 22432, "glacier": 19121, "##pired": 23709, "insisted": 6744, "awareness": 6885, "wall": 2095, "##hol": 14084, "Command": 5059, "##\u0445": 28407, "enjoys": 16615, "coverage": 5811, "culminated": 18048, "##yeh": 27494, "##chor": 22811, "##\u03c4": 28355, "Criminal": 10382, "absorb": 18055, "successes": 14792, "##quatorial": 23416, "Problems": 23855, "Omar": 13569, "present": 1675, "Spot": 28091, "Cumberland": 12454, "##ynamic": 27500, "Speaker": 9911, "hid": 11269, "##mberg": 23701, "es": 13936, "unveiled": 11770, "Hills": 5377, "Chief": 2534, "Scandinavian": 18936, "amusement": 10367, "disbanded": 8285, "finest": 10812, "##lusion": 17855, "arbitration": 26538, "##\u05b4": 28438, "surely": 9929, "Wednesday": 9031, "satisfactory": 26192, "successfully": 4358, "Kerala": 8627, "kin": 15190, "screw": 13084, "Sumatra": 19679, "##\u00da": 28195, "##\u00c1": 28180, "##ny": 3382, "Delaware": 8056, "couple": 2337, "dominant": 7065, "stand": 2484, "stations": 2930, "Sites": 27010, "x": 193, "five": 1421, "proportional": 15122, "RPG": 27143, "fit": 4218, "\u0996": 642, "Hours": 13819, "##men": 2354, "430": 21268, "Swan": 11956, "advancing": 11120, "##ike": 13012, "vertices": 20803, "##lum": 7776, "253": 25894, "boy": 2298, "Xi": 20802, "pose": 14131, "life": 1297, "1895": 5639, "##reak": 22362, "##voke": 14638, "intake": 14741, "[unused54]": 54, "##shot": 21879, "loaned": 13607, "\u5bae": 1017, "Yin": 23845, "Southampton": 11881, "\u056b": 517, "explosives": 16454, "renamed": 3286, "mine": 2317, "Rudolf": 12995, "Mans": 18180, "##bei": 16791, "Systems": 6475, "\u013c": 302, "##ndes": 25091, "soaked": 13495, "##ll": 2339, "Mar": 9751, "realization": 13192, "Freddie": 16393, "Note": 5322, "Joseph": 2419, "Color": 13066, "Unless": 12998, "##\u2079": 28709, "Medieval": 15902, "minerals": 15362, "Angeles": 2460, "posed": 14114, "horns": 13011, "wavelength": 22335, "stresses": 26183, "distances": 12424, "Cheng": 17525, "enemies": 6380, "Baronet": 9023, "strings": 8409, "predictable": 24017, "delegation": 11703, "Controller": 28104, "##\u0110": 28217, "##ester": 12831, "kinds": 7553, "hire": 11562, "clapped": 19734, "##each": 17269, "actually": 2140, "Wedding": 18622, "##ibel": 23764, "join": 2866, "Rev": 6750, "developments": 9093, "1830": 9200, "Gotham": 25418, "##\u30de": 28856, "##zia": 12432, "FA": 6820, "ring": 3170, "Zhou": 15330, "##lium": 14635, "organism": 17102, "##ology": 4807, "Hobart": 14496, "installment": 20669, "trained": 3972, "Navarre": 23411, "seen": 1562, "1801": 12561, "Elections": 15875, "founded": 1771, "##cky": 23143, "Brigham": 25278, "teenager": 10674, "voices": 6000, "\u0629": 567, "##lay": 6622, "nickname": 8002, "##iler": 25614, "southern": 2359, "stays": 12543, "Sylvester": 21855, "toe": 12514, "##cked": 13303, "notices": 15749, "sculptures": 11101, "Stadion": 25297, "connect": 7543, "bury": 16712, "commencement": 26103, "strengthened": 14544, "##uter": 18614, "bit": 2113, "icons": 22493, "complaints": 11344, "Jamaica": 8822, "concession": 18750, "tone": 3586, "Lawrence": 4898, "slippery": 27562, "smoothed": 19472, "##used": 11031, "##fighting": 24663, "aspects": 5402, "\u3001": 885, "technical": 4301, "##R": 2069, "##ber": 3169, "Gordon": 4345, "harmless": 22134, "onward": 17765, "##\u2014": 28685, "\u00d3": 238, "At": 1335, "sources": 3509, "phrases": 16954, "##as": 2225, "compressed": 18273, "209": 21040, "bear": 4965, "Sister": 9536, "##mpus": 26696, "##ion": 1988, "horizontal": 10012, "##agon": 19867, "##abi": 23156, "fronts": 25036, "generation": 3964, "27th": 15757, "living": 1690, "\ufb01": 1094, "interactive": 12196, "battlefield": 13777, "##rig": 17305, "XVI": 18406, "Harbour": 10770, "Fresno": 22885, "##set": 9388, "cartoon": 11540, "Tim": 4446, "stamped": 23245, "##oning": 10087, "##\u3068": 28805, "soluble": 28043, "##llis": 15310, "##son": 2142, "hierarchy": 14486, "exhaustion": 17049, "##21": 18202, "fibre": 26226, "Thorn": 22428, "Archives": 12422, "##rch": 10340, "locate": 12726, "\u00d1": 237, "illustrate": 20873, "Vincent": 5665, "willingly": 19711, "ducks": 24488, "##ayman": 25939, "interval": 14235, "before": 1196, "\u0449": 500, "portion": 3849, "Jimmy": 4479, "Her": 1430, "##aroo": 25956, "catch": 3963, "advocate": 9411, "straw": 15235, "##lana": 20592, "financially": 14396, "farming": 7718, "\u0395": 398, "congestion": 22860, "hollow": 11134, "WC": 16857, "fortress": 9270, "floods": 15501, "Wisdom": 22960, "Metropolis": 26693, "exaggerated": 18088, "http": 8413, "movement": 2230, "##tative": 18216, "##shes": 26816, "##\u0414": 28370, "amendment": 12669, "##zef": 26086, "blinding": 22350, "##berger": 13184, "Shelton": 24616, "catching": 9256, "Foot": 13929, "[unused91]": 91, "Economic": 6051, "##\u9752": 28976, "1872": 7052, "proud": 6884, "upwards": 15726, "trail": 5126, "licensing": 15469, "Museo": 21674, "##berries": 22630, "stunt": 18151, "Susannah": 22470, "##icker": 23666, "Kamal": 24586, "deciding": 11354, "poked": 17969, "treatments": 14115, "Tracks": 11444, "realizing": 10459, "Property": 13563, "smack": 25767, "Davis": 3635, "\u015b": 319, "scratched": 15844, "annexed": 13706, "Mo": 12556, "Myrtle": 27557, "loudly": 9733, "shortest": 22710, "##34": 23124, "statutory": 17302, "days": 1552, "significantly": 5409, "\u2074": 802, "washed": 8589, "##\u041d": 28378, "##\u0926": 28516, "[unused41]": 41, "Revolutionary": 9013, "Randall": 13001, "builds": 17850, "##wan": 5491, "las": 17496, "pitchers": 26970, "think": 1341, "greeting": 15908, "\u53e3": 997, "abnormal": 22832, "True": 7817, "##ooby": 27404, "provide": 2194, "##lage": 19640, "na": 9468, "succeeds": 24219, "Jeep": 19146, "searched": 8703, "##self": 19303, "actors": 5681, "quarterback": 9119, "Gwen": 11746, "sneaking": 23879, "syndicated": 15128, "laughing": 5574, "pools": 13546, "morphology": 22740, "water": 1447, "voiced": 7350, "Betty": 8998, "##ille": 8683, "Goal": 20338, "specialty": 13858, "Weiss": 19375, "dreams": 6149, "Tabitha": 23856, "situation": 2820, "disturb": 26886, "\u5cf6": 1022, "\u0394": 397, "##\u6d77": 28945, "##\u91d1": 28972, "##isation": 5771, "corrupt": 14644, "Hayden": 14344, "Evangelical": 14716, "Pasadena": 20458, "Connecticut": 5432, "##kushima": 27974, "varying": 9507, "Amir": 22135, "heroes": 10962, "##pler": 20687, "Burton": 9395, "awful": 9684, "Arabia": 8945, "garde": 19484, "honor": 3874, "1755": 23588, "##\u099a": 28547, "ceased": 6445, "eagle": 13387, "neck": 2455, "rid": 9297, "absent": 10040, "Goldberg": 20029, "earnest": 21304, "##xe": 16056, "newsletter": 24343, "incoming": 16248, "brains": 16570, "signature": 8250, "##otic": 14426, "Python": 23334, "Swiss": 4614, "disputed": 11807, "constitution": 7119, "\u0129": 297, "##zza": 22221, "##ledge": 19693, "Berkshire": 16427, "1802": 13847, "Bye": 17774, "##ynn": 20906, "competitions": 6025, "Structure": 25341, "graduation": 7477, "Jets": 13136, "Process": 18821, "##life": 14430, "talk": 2037, "house": 1402, "microwave": 21865, "##uba": 24672, "outskirts": 13100, "appropriate": 5806, "##tler": 17966, "##wning": 18469, "\u05e1": 551, "\u014d": 312, "attending": 6546, "duties": 5078, "Official": 9018, "##xia": 19767, "Alternative": 13069, "##eville": 25458, "1400": 22612, "##leading": 28007, "Q": 154, "maybe": 2654, "Faculty": 6694, "film": 1273, "secretly": 10173, "##birds": 13244, "Doo": 27588, "medial": 27598, "Khan": 4340, "##\u1ea9": 28644, "##ugh": 6289, "##_": 28151, "281": 25567, "fought": 3214, "calf": 23256, "Alejandro": 17904, "##\u4e0a": 28871, "\u1ea1": 738, "Alexandre": 18094, "##AC": 8101, "MBE": 22247, "##hasa": 22533, "torment": 25944, "Amnesty": 25072, "coin": 9584, "Cha": 24705, "referring": 7455, "##quin": 12934, "reconstructed": 15755, "televised": 14463, "Collin": 24565, "begin": 3295, "##rsing": 25351, "Louis": 2535, "gains": 12535, "attracts": 19119, "Yiddish": 21965, "##oko": 26793, "\u03b4": 421, "BWV": 26735, "##\u1f41": 28672, "Than": 16062, "permitted": 7485, "##usk": 24493, "##ette": 6347, "attend": 4739, "Nation": 7039, "slightly": 2776, "crops": 8592, "elegant": 12002, "plant": 2582, "Tobacco": 25159, "##stillery": 28042, "\u0431": 476, "[unused94]": 94, "Slim": 22191, "##lash": 9936, "1620": 27241, "ABA": 24958, "##\u85e4": 28962, "celebrating": 14118, "sur": 8910, "corps": 9389, "methodology": 18576, "tuned": 17169, "Corporal": 21221, "Micro": 27730, "invaders": 22864, "##uri": 8212, "silent": 3826, "larvae": 9923, "shuffled": 20390, "Magnum": 27385, "fantastic": 14820, "phenomenon": 9501, "lighter": 9310, "male": 2581, "insanity": 23186, "deposits": 10009, "competitive": 6591, "##lve": 23534, "Makes": 24746, "influences": 7751, "Forces": 4791, "reefs": 24934, "Agency": 5571, "suppose": 6699, "##ov\u00e1": 23234, "Jayne": 27469, "Users": 24222, "handling": 8130, "Loves": 25447, "Napoleonic": 20395, "anguish": 25096, "moderate": 8828, "##tals": 22159, "barrel": 8482, "scenery": 19335, "\u0117": 290, "Education": 2531, "Didn": 10265, "folds": 17373, "differed": 21286, "polite": 13827, "Occasionally": 22616, "Museums": 27070, "hesitation": 13941, "##ogel": 27732, "##\u05b0": 28437, "##ryl": 19944, "Carly": 19879, "skinned": 22003, "publishing": 5550, "1892": 5889, "mint": 22532, "Instruments": 25832, "Arm": 24446, "\u90ce": 1075, "##ahi": 22332, "\u0442": 493, "satin": 24229, "Clapton": 27849, "twins": 10519, "\u0623": 562, "##lee": 6894, "##mas": 7941, "##view": 7334, "Banks": 10117, "tear": 7591, "##ible": 5225, "Briggs": 16338, "mold": 21532, "Sarajevo": 19788, "Kahn": 21145, "Internet": 4639, "Ships": 21016, "brass": 10488, "Ahead": 21735, "MI": 26574, "ecstasy": 25651, "crews": 11233, "strangely": 16352, "##opsis": 26756, "stalls": 21923, "##ado": 9359, "Cry": 15586, "##ctions": 13945, "Pirate": 24291, "##tti": 6154, "\u015f": 321, "motion": 4018, "spoke": 2910, "##ec": 10294, "ii": 25550, "view": 2458, "bilateral": 20557, "slashed": 26551, "balls": 7318, "[unused16]": 16, "Towns": 24503, "##Works": 28039, "acquisition": 7626, "##biotic": 22400, "sending": 5416, "design": 1902, "##HC": 15779, "hut": 16148, "comprises": 8302, "love": 1567, "program": 1788, "Garcia": 10233, "Lenin": 18804, "forum": 13912, "##law": 9598, "##lor": 10885, "Leaving": 17003, "ODI": 23882, "propagation": 25934, "copyright": 11409, "helping": 4395, "Throughout": 7092, "##night": 11683, "sick": 4809, "Quarter": 12664, "##bio": 25959, "##roc\u0142aw": 26524, "Patriot": 22817, "##gold": 26684, "Mile": 13138, "yielded": 18826, "##actic": 19102, "404": 27993, "##arte": 26579, "threshold": 11810, "differs": 13242, "Beat": 11938, "stepfather": 24133, "Lovers": 23260, "con": 14255, "Booth": 15551, "##IX": 19678, "##xy": 16844, "framing": 23431, "assemblies": 24798, "hit": 1855, "averages": 22284, "worshipped": 25610, "##\"": 28126, "adopting": 17827, "Lublin": 20588, "##vel": 12559, "missed": 4007, "MLS": 17388, "communications": 6678, "signing": 6086, "Garion": 12696, "refrigerator": 20035, "Keyboards": 23446, "Caesar": 11720, "collar": 9704, "##roft": 27421, "Restaurant": 17925, "compatibility": 25400, "Endowment": 25045, "tends": 12246, "650": 14166, "##chayat": 21753, "mutually": 22376, "Names": 13313, "critics": 4217, "Fortune": 14555, "##ous": 2285, "curse": 9188, "notoriety": 26002, "Source": 5313, "##st": 2050, "##\u2228": 28751, "Performance": 6724, "Hearts": 12290, "##eka": 19413, "1500": 10204, "Titus": 20460, "Moose": 25183, "retreating": 19182, "beers": 23147, "\u0251": 354, "rats": 13475, "Smile": 21278, "clock": 4705, "southward": 25256, "Reece": 27208, "Southern": 2685, "Reconstruction": 20750, "tonnes": 10992, "exhibit": 8245, "Hidden": 19595, "ingredients": 13288, "drifting": 16708, "suitcase": 17655, "trance": 21724, "Bram": 22924, "##lved": 25043, "suited": 10891, "##guard": 12188, "##rby": 26803, "advisor": 10292, "Raja": 10291, "fragment": 17906, "##opy": 22753, "Lock": 18292, "pauses": 21438, "commissioned": 4156, "pastoral": 16905, "freestyle": 11370, "tender": 8886, "Under": 2831, "Guide": 7500, "##\u025b": 28279, "USL": 24927, "uniforms": 11620, "##32": 17101, "metabolic": 25158, "Harris": 4951, "Lakshmi": 23691, "Reds": 13694, "##current": 21754, "candidacy": 18364, "Sharma": 15324, "partisan": 17696, "##cliff": 25927, "purse": 8530, "Richie": 15028, "Singer": 10636, "[unused33]": 33, "Cody": 13667, "[unused22]": 22, "departments": 7844, "##charya": 24396, "##BI": 24963, "impressions": 25263, "storing": 27580, "tighter": 12567, "Phi": 14890, "aim": 6457, "jack": 24498, "##cs": 6063, "1963": 2826, "remix": 9879, "Solomon": 8848, "recipes": 23492, "tiger": 13778, "mock": 14660, "Visa": 21009, "##postle": 21953, "##renched": 17902, "##hibition": 16485, "Sixth": 12979, "##\u0927": 28517, "Collingwood": 21867, "option": 5146, "September": 1347, "##tized": 26300, "horrific": 26651, "buyers": 19682, "Madrid": 6331, "Kentucky": 4875, "Watt": 20862, "privileged": 24758, "catalog": 14438, "specialized": 7623, "##DP": 13339, "attractions": 14312, "outright": 14484, "\u30d7": 962, "##yotes": 26833, "Presents": 21680, "##natch": 25703, "##ms": 4206, "Historical": 6794, "concentrated": 7902, "offence": 16273, "Holloway": 23060, "##gression": 24032, "##eptide": 27105, "Siemens": 24824, "Ph": 7642, "rejects": 22961, "##\u306e": 28808, "blocking": 11016, "##angay": 23001, "Muir": 25952, "\u65b0": 1031, "flickering": 22387, "ensembles": 24957, "Sainte": 18247, "caress": 24765, "Universit\u00e9": 25955, "gradually": 6044, "##\u5e73": 28918, "retaining": 13223, "Tipperary": 18521, "##oam": 23270, "##hal": 7654, "AB": 16151, "colony": 6417, "Gaming": 21161, "crop": 10809, "vomit": 26979, "equity": 12288, "trembling": 10409, "##ption": 18225, "townland": 26594, "celebration": 7978, "loops": 17806, "Mirage": 27288, "##ium": 3656, "musical": 2696, "Disc": 14856, "##riars": 27639, "##din": 7126, "Exhibition": 9336, "##cene": 15127, "stops": 6260, "regarding": 4423, "##ingham": 11524, "##\u2229": 28752, "##be": 3962, "Groove": 26291, "Show": 3237, "##\u307f": 28812, "Virgin": 6567, "eaten": 8527, "caring": 12605, "Finland": 5776, "##\u1eef": 28666, "Cheyenne": 19095, "messenger": 17957, "\u6728": 1038, "Franklin": 5270, "1898": 5381, "Mumbai": 8601, "stove": 18362, "##bruck": 27824, "##\u2192": 28740, "Walt": 10495, "lagoon": 25237, "friends": 2053, "socialist": 11181, "acids": 13087, "prospects": 19743, "antenna": 14843, "Either": 11940, "AA": 10419, "Sailor": 24588, "thriller": 11826, "colloquially": 27963, "Dundee": 14796, "##pps": 21509, "Titanic": 24342, "screened": 12468, "m": 182, "##rani": 23851, "bargaining": 25656, "Silesia": 24204, "encountered": 8181, "declares": 20651, "tea": 5679, "Monica": 8958, "##rand": 13141, "communicating": 23968, "1850s": 17513, "166": 20104, "formally": 5708, "Too": 6466, "Reference": 19714, "incidence": 21014, "climbed": 5998, "##ycle": 21172, "1949": 3224, "masses": 12980, "Pulling": 22706, "Holiday": 10450, "1830s": 22286, "\u304a": 897, "ban": 8214, "Valentine": 10002, "Hurricane": 10270, "subfamily": 11548, "purely": 12098, "remastered": 23109, "470": 23146, "Rockets": 24249, "##\u09aa": 28556, "Mississippi": 5201, "##cute": 23987, "##work": 5361, "depression": 7560, "Styx": 24336, "competing": 6259, "migrant": 25496, "Santa": 3364, "Bart": 13045, "Marathon": 12719, "##\u21d2": 28743, "notes": 3697, "##\u307e": 28811, "congregation": 9201, "fence": 8617, "Eve": 6721, "##ull": 11781, "Democrats": 7834, "Urban": 6972, "Region": 4171, "Kyoto": 16083, "positive": 3112, "##\u014d": 4587, "##odus": 25405, "palms": 9797, "##\u0418": 28374, "Movie": 8275, "##`": 28152, "taken": 1678, "Sultan": 7931, "Level": 9583, "##\u209b": 28728, "##jord": 17335, "##\u0392": 28316, "fatal": 11874, "Army": 1740, "quote": 15882, "hindwings": 17383, "combat": 4127, "46": 3993, "##tised": 25048, "Mouse": 15179, "waits": 24344, "##laced": 25094, "lesbian": 15026, "entity": 9127, "flared": 15671, "##bi": 5567, "##ich": 7255, "fulfill": 14414, "sent": 1850, "religions": 13239, "##tts": 18072, "Roth": 12379, "##enko": 19177, "viewed": 6497, "Ordinary": 24564, "Salzburg": 19802, "even": 1256, "Peck": 24327, "assertion": 26878, "Sheila": 15829, "declaration": 11156, "Ezio": 25689, "Yorkshire": 6426, "Prairie": 13891, "contributed": 4415, "master": 3283, "Germanic": 15886, "##onized": 25331, "legislation": 5626, "Indonesian": 8644, "regime": 6716, "riders": 9958, "behavior": 4658, "Flemish": 16276, "Wolff": 26243, "programmed": 18693, "Alexei": 23378, "heel": 12781, "Tsar": 22565, "murdering": 23637, "##ncies": 9885, "bosses": 27086, "shirt": 2969, "##\u05ea": 28468, "##mined": 15842, "F1": 22341, "deepened": 22047, "Ewing": 26987, "alleviate": 27295, "torpedoes": 20430, "drag": 8194, "Heavy": 10580, "circled": 15591, "Pomerania": 20152, "Oscar": 7248, "##\u0ba4": 28575, "##ka": 1968, "begun": 4972, "diversity": 9531, "##different": 27537, "##ucci": 15072, "confronts": 18975, "Maltese": 20093, "owl": 19976, "of": 1104, "Mesa": 18506, "##hel": 18809, "cigar": 23261, "##acher": 25750, "captained": 17251, "Ranch": 14481, "scream": 7015, "##ronology": 18327, "twentieth": 9976, "##ibi": 21883, "Robot": 20354, "##ngled": 25675, "Des": 14177, "Rocket": 17100, "##\u1d50": 28618, "##\u0923": 28514, "##la": 1742, "##will": 17274, "##ruly": 23377, "downstairs": 10304, "meeting": 2309, "##tein": 7242, "##bra": 6766, "Oracle": 19265, "Guru": 14857, "Seriously": 18725, "cartridge": 16542, "##vignon": 24724, "##vade": 27923, "sediments": 22872, "##hed": 8961, "flagship": 10818, "Sanctuary": 15206, "##lining": 13260, "inequality": 18610, "Shia": 22735, "Someone": 6518, "##rol": 13166, "Robbins": 19462, "##cribed": 13098, "resulted": 3657, "mirrored": 25056, "##rno": 11791, "##ann": 11657, "\u7af9": 1065, "diesel": 8887, "lecturer": 10635, "##kka": 19610, "KC": 23702, "PM": 14123, "Palace": 5130, "Angry": 24991, "##tone": 4793, "showcase": 17045, "Patriarch": 17334, "Information": 4219, "##xes": 21210, "tavern": 19444, "##PL": 27258, "Silesian": 22374, "##wicz": 15428, "##ixel": 28076, "##\uff08": 28990, "Polish": 3129, "Darius": 15552, "[CLS]": 101, "##grading": 20407, "Oct": 14125, "##\u017d": 28260, "304": 26714, "flashing": 13294, "##pio": 27931, "##kley": 19490, "Elementary": 5395, "imaginary": 18298, "+": 116, "Parade": 12850, "##plified": 18580, "boxers": 21353, "\u1d48": 711, "##twined": 23141, "started": 1408, "Cyprus": 9460, "1660": 19306, "Tel": 11341, "Turks": 13126, "foolish": 14723, "axle": 19100, "##grove": 14606, "bad": 2213, "##joy": 18734, "\u03c6": 439, "corner": 2655, "ordinary": 6655, "Intelligence": 7829, "exploitation": 15880, "Omega": 17648, "PMID": 21936, "intervals": 14662, "##itch": 18963, "handed": 3541, "squared": 23215, "engaged": 4349, "\u03c1": 434, "dot": 15645, "leased": 12222, "Maximilian": 20416, "displaying": 15959, "blankets": 15971, "Appeal": 13969, "vibrant": 18652, "terminating": 26702, "triangular": 14894, "compare": 14133, "##ype": 16726, "extract": 16143, "destroying": 9769, "republican": 22679, "impending": 19625, "USD": 14180, "seat": 1946, "creativity": 17980, "multiple": 2967, "Mia": 9103, "##chard": 16657, "Apr": 23844, "1909": 4818, "##mour": 27942, "Season": 5623, "tsunami": 24212, "Engineering": 3939, "news": 2371, "Flores": 18827, "##zda": 26604, "##ville": 2138, "intriguing": 27529, "Islands": 3503, "bike": 8295, "SA": 13411, "##chs": 17704, "Beau": 21477, "##mott": 27374, "Yacht": 27508, "Word": 10683, "Westwood": 24023, "obtain": 6268, "Cherry": 11328, "##\u2c7c": 28777, "Marco": 8571, "lifts": 14302, "Stein": 14981, "vassal": 28080, "costly": 18372, "435": 27079, "Northwest": 8358, "constantly": 7480, "##boat": 8545, "small": 1353, "LLC": 11847, "upheld": 17923, "diver": 23448, "periodic": 18084, "bouncing": 18302, "longing": 17767, "##nery": 16227, "##gler": 14849, "Burmese": 15080, "##nacle": 21946, "thriving": 22522, "real": 1842, "##ference": 16792, "##ky": 3781, "message": 3802, "##eck": 14021, "##fare": 14154, "Mai": 17551, "##jid": 26151, "exists": 5903, "screening": 11954, "supervised": 14199, "courtesy": 15897, "HQ": 17426, "educators": 24937, "##zhou": 10753, "Nassau": 15272, "storage": 5092, "intending": 18077, "##base": 14017, "Sioux": 17680, "personally": 7572, "chunk": 24384, "Singapore": 4478, "totals": 25255, "##cture": 22355, "simulation": 14314, "##onte": 22994, "participating": 7828, "1922": 3988, "simpler": 17633, "##firmed": 22750, "Mira": 20290, "##riel": 16753, "marking": 10079, "Channel": 4076, "##anda": 16724, "moved": 1427, "##lyn": 8068, "##disciplinary": 26096, "unchanged": 16684, "Circle": 7933, "reforms": 8931, "Coffee": 16182, "##cend": 25981, "##nburg": 16050, "educate": 18584, "##sher": 15410, "##\u1e43": 28634, "Handicap": 25597, "Standard": 6433, "Brewery": 23418, "polls": 15995, "I": 146, "##lover": 22894, "Calvert": 27949, "Sales": 15689, "lobe": 25163, "Davenport": 17352, "##lot": 7841, "Gulf": 5634, "spear": 14690, "##body": 14637, "embarrassing": 17810, "Sidney": 11441, "launches": 21285, "rink": 23444, "Arkansas": 6147, "homeland": 14764, "##ins": 4935, "people": 1234, "##truct": 23055, "Union": 1913, "Bloomberg": 25638, "Sony": 8028, "grunted": 15637, "##\u03ad": 28336, "losing": 3196, "delay": 8513, "compositions": 9116, "Talbot": 15547, "beginnings": 19304, "isn": 2762, "peeked": 20221, "brackets": 22019, "couch": 5943, "psychic": 14181, "308": 27201, "NGO": 23170, "##jack": 19617, "##\u00eb": 13420, "##aws": 19194, "stuck": 5342, "hazard": 22699, "randomly": 19729, "special": 1957, "##dia": 7168, "bottles": 11282, "Amazing": 16035, "##activated": 21797, "CSI": 25011, "Fulham": 23973, "lurched": 24319, "03": 5347, "##!": 28125, "##borg": 9402, "substances": 15804, "paternal": 16063, "Mariners": 21652, "##\u91ce": 28971, "##traction": 27539, "##mic": 7257, "##chet": 17374, "Joachim": 18473, "##ntino": 18618, "z": 195, "Joaquin": 26261, "Vinnie": 27213, "1752": 27852, "##itte": 25608, "forces": 2088, "##\u0947": 28535, "##lars": 23502, "Prasad": 19039, "Deacon": 23452, "Works": 5853, "comment": 7368, "reflecting": 11636, "[unused21]": 21, "cook": 9834, "offers": 3272, "Cinema": 10371, "chancellor": 15046, "remind": 11484, "##iva": 12416, "##oughs": 25500, "Shepherd": 13444, "##U": 2591, "##h": 1324, "hardcover": 27214, "##kaya": 23898, "obscured": 26771, "decline": 6246, "Eliot": 17324, "Plant": 9646, "##rica": 15353, "cyclist": 15387, "familiar": 4509, "Spokane": 24193, "##bian": 12324, "##erus": 27955, "Graphic": 24318, "smelled": 9317, "##ggs": 15493, "Chart": 6900, "##nee": 23063, "Frankie": 12991, "ochreous": 26187, "buys": 27302, "yellowish": 19238, "Bible": 5905, "do": 1202, "announced": 1717, "creators": 19894, "Vice": 4070, "Casey": 8700, "inward": 23120, "##TL": 20156, "Antwerp": 14492, "collect": 7822, "Cover": 17087, "brilliant": 8431, "CBC": 13979, "Doyle": 11296, "##ility": 13378, "Susie": 26796, "ear": 3811, "entirely": 3665, "bold": 9009, "##dom": 9277, "##league": 28102, "pillows": 19607, "nephew": 7502, "parks": 8412, "sore": 15939, "set": 1383, "breath": 2184, "Motors": 13931, "Distribution": 19806, "plagued": 19543, "cardiac": 17688, "Ice": 6172, "##\u2153": 28737, "policy": 2818, "tries": 4642, "forgive": 10737, "Cars": 16644, "Riverside": 14109, "##cion": 16012, "1881": 6411, "along": 1373, "Glenn": 9172, "drew": 3583, "achieved": 3890, "Andrews": 8946, "smells": 16533, "needle": 13864, "##al": 1348, "DB": 24044, "fabricated": 27615, "North": 1456, "Ira": 21109, "##settled": 23242, "money": 1948, "entry": 3990, "insulting": 27296, "Crowley": 22804, "Freeway": 23596, "Send": 25929, "Jeremy": 6983, "desires": 15827, "##toria": 14155, "##aia": 20991, "##ntation": 24832, "awesome": 14918, "cure": 11200, "1804": 13419, "##WS": 18019, "inhabit": 23778, "Wharton": 27256, "Revue": 27657, "leaking": 27742, "Bernardino": 23547, "upset": 5737, "clad": 14439, "##MG": 14666, "Auxiliary": 18102, "##\u00eda": 7171, "##pressing": 24956, "interpret": 19348, "##ducing": 17484, "Hero": 9390, "Ernst": 10624, "##lena": 23675, "outfits": 24526, "Financial": 7748, "Easton": 23908, "carving": 20505, "##\u00fb": 28209, "smirk": 15861, "campaigned": 17200, "bug": 15430, "##rter": 27618, "craft": 8315, "fierce": 9250, "Seconds": 25849, "paid": 3004, "upside": 16888, "prison": 3315, "29th": 17333, "##hend": 24788, "fuels": 23769, "15th": 5617, "Search": 12646, "270": 14162, "um": 15276, "Govt": 27327, "##in": 1394, "##AF": 12303, "drums": 3323, "consist": 8296, "##az": 10961, "##zione": 23316, "dramas": 18282, "angry": 4259, "\u05b9": 533, "newscasts": 27718, "somewhere": 4476, "managed": 2374, "##loop": 22344, "Shark": 24143, "decrease": 9711, "flap": 23841, "Nickelodeon": 23025, "##\u05d2": 28447, "Volume": 6849, "curious": 8193, "battery": 7105, "##rift": 17761, "close": 1601, "##51": 24050, "ul": 23449, "Sherlock": 21897, "doll": 13559, "Scout": 9240, "canvas": 11246, "broken": 3088, "##rc": 19878, "stories": 2801, "goes": 2947, "##\u4eba": 28878, "zone": 4834, "##tle": 5034, "arranged": 4768, "PGA": 14743, "Decree": 27235, "rogue": 21010, "indigenous": 6854, "Normandy": 13652, "##top": 9870, "lock": 5842, "piano": 3267, "Cornwall": 10248, "merchants": 11278, "Nigerian": 11960, "\u03af": 417, "##logical": 7810, "suppress": 17203, "preserves": 20421, "##ifiable": 20643, "container": 12461, "texted": 27807, "##smopolitan": 27848, "RA": 26547, "##SD": 15203, "wondered": 4205, "growled": 8518, "Il": 9190, "Yerevan": 26082, "1852": 8414, "fitness": 12691, "##aker": 17051, "##aul": 18318, "ignited": 25092, "bay": 5952, "##rot": 10595, "witnesses": 10313, "internally": 19266, "Brighton": 10162, "tailed": 15376, "worm": 19686, "Lionel": 14957, "diamonds": 16031, "##pathy": 12233, "solved": 13785, "Exit": 19588, "removes": 22391, "IS": 19432, "Sitting": 17660, "toilets": 24719, "850": 16577, "##dor": 8380, "##sses": 26895, "sights": 17504, "Beirut": 16136, "laying": 10377, "chalk": 23410, "Assembly": 2970, "Lombard": 26416, "transformed": 8272, "Spence": 24589, "gaps": 18249, "Babu": 23475, "##B": 2064, "Artist": 7633, "##zai": 27919, "Carol": 8430, "Bradford": 9784, "nonprofit": 15773, "##lerical": 25744, "\u1d58": 719, "subsequent": 4194, "Beatles": 11581, "##FS": 17691, "Wheeler": 14003, "Schools": 5722, "##uch": 9827, "##tries": 22734, "Protocol": 17580, "Composition": 20819, "Herman": 11495, "Voyage": 24131, "difficulties": 7866, "Andrea": 8326, "Similar": 12250, "touches": 13193, "Tan": 13880, "[UNK]": 100, "squadron": 5780, "occupy": 12774, "homosexual": 17377, "##sfield": 17386, "affect": 6975, "backbone": 25776, "evolved": 7601, "##sities": 28060, "Bright": 13603, "Safe": 19770, "\u0947": 632, "CEO": 5058, "translated": 4957, "##sdale": 20537, "##evi\u0107": 16491, "highlands": 27929, "deliver": 7852, "collaboration": 5294, "Rage": 21603, "Bring": 15646, "Shah": 7686, "Buddha": 12166, "##ritz": 19671, "civilian": 6688, "##tium": 19509, "Noah": 6727, "2010": 1333, "##lass": 17223, "##frey": 24740, "lodged": 22422, "intellectual": 8066, "Weeks": 23519, "##lge": 21463, "gathered": 5260, "Named": 15084, "posthumously": 13165, "reggae": 21402, "Hangul": 22064, "Incorporated": 25800, "158": 18960, "Entry": 15214, "something": 1380, "\u201c": 789, "Cell": 17369, "mate": 6642, "facing": 4749, "Defence": 6231, "Arrow": 16174, "##\u09b6": 28562, "Internationale": 25807, "Holden": 9792, "M\u0101ori": 15929, "Old": 2476, "Clinton": 6652, "Horses": 24989, "Wen": 23158, "understood": 4628, "##utical": 19748, "##rcerer": 25989, "relate": 15123, "integrating": 26975, "vampire": 3980, "disappear": 10489, "\u1f76": 773, "validity": 17782, "town": 1411, "?": 136, "##\u03c8": 28359, "magician": 22334, "nearby": 2721, "Though": 3473, "##t\u014d": 24995, "prevalent": 15950, "\u0411": 449, "dynamic": 9652, "Yugoslavia": 8575, "deadline": 17638, "hissed": 11406, "##minated": 23713, "\u611b": 1028, "\u2261": 862, "Silence": 12939, "##formed": 17747, "##book": 6470, "Armoured": 20568, "##omorphic": 23174, "Cathy": 19732, "reactive": 26844, "##mat": 21943, "##fting": 16364, "##\u90e8": 28970, "##\u00fan": 26784, "brushes": 25511, "Assistant": 5414, "##\u201e": 28693, "phone": 2179, "longest": 6119, "Gamma": 23039, "\u02e2": 387, "charitable": 12474, "NYC": 17520, "cancelled": 7618, "##ora": 6533, "Customs": 17050, "patrons": 14645, "burst": 6007, "productive": 13909, "##roved": 16011, "##\u05e2": 28462, "Salisbury": 14268, "motor": 5968, "##tting": 19162, "##\u6797": 28937, "1950s": 4057, "efficiently": 19723, "FIBA": 14073, "celebrity": 10948, "distracted": 11353, "Leaders": 20880, "presumed": 15504, "##\u039c": 28325, "clinched": 23782, "classics": 18046, "Tribe": 15987, "bags": 8483, "##mio": 18248, "\u011f": 293, "responses": 11317, "liability": 15509, "tertiary": 16371, "ink": 12816, "him": 1140, "grazing": 16747, "determine": 4959, "##\u0622": 28471, "remaining": 2735, "wolf": 6164, "Silent": 15013, "hated": 5687, "##oper": 19807, "##pra": 20488, "##put": 16156, "##ographer": 23528, "\u045b": 512, "hydrogen": 9986, "##ports": 21673, "##mi": 3080, "Scarborough": 20102, "\u0408": 447, "betrayed": 12546, "##CI": 19747, "##chester": 17824, "Flowers": 14122, "So": 1573, "lie": 4277, "Magic": 6734, "analyzed": 17689, "##span": 27894, "vascular": 26557, "possibly": 3566, "renowned": 7985, "ice": 2854, "##acing": 18715, "##weet": 24887, "##iform": 20226, "equestrian": 27940, "##log": 13791, "Cowboy": 21391, "flush": 14991, "parallel": 5504, "configuration": 9566, "310": 18333, "Rogers": 6836, "Rough": 19479, "40th": 17583, "kingdom": 6139, "email": 10632, "##leader": 20547, "creeping": 20949, "2007": 1384, "##nacht": 27416, "\u4ec1": 987, "plural": 14920, "parameter": 17816, "##\u09a6": 28553, "worthless": 26121, "1947": 3138, "CP": 20360, "##ride": 17731, "\u00eb": 257, "Stock": 9924, "indicated": 4668, "##KE": 22441, "##iji": 23784, "biggest": 4583, "##piece": 9641, "##oso": 22354, "abducted": 22586, "wrestlers": 15381, "Landmark": 18405, "accreditation": 21653, "manner": 4758, "jewellery": 26682, "comprehensive": 8232, "crush": 11321, "##lat": 16236, "incident": 4497, "graduate": 4469, "prostitute": 21803, "##reshing": 27129, "##jer": 21569, "mission": 2862, "scripts": 15690, "adverse": 16798, "Translation": 19996, "Cottage": 20948, "loomed": 27401, "##\u2032": 28699, "genus": 2804, "Yugoslav": 12433, "##bah": 25547, "When": 1332, "7": 128, "trench": 19374, "##igate": 25342, "##isan": 21599, "2011": 1349, "Unit": 6115, "excluded": 12728, "regards": 12747, "clear": 2330, "corners": 8993, "U": 158, "messing": 26746, "##\u3066": 28804, "Style": 13023, "##riot": 23326, "submerged": 14203, "ray": 7586, "continually": 15395, "Bloom": 19169, "Packers": 16458, "Sally": 8595, "agitated": 24346, "Republican": 3215, "wealth": 6968, "strictly": 10802, "logging": 17844, "comparing": 15089, "pitching": 15943, "Ruiz": 21175, "Pieces": 23231, "flirting": 23667, "trophies": 26530, "Star": 2537, "Mortal": 26001, "wartime": 13425, "##lities": 16652, "##bee": 11891, "##\u2264": 28757, "##aa": 22118, "hurting": 12199, "precedence": 26923, "Sage": 15204, "Engineer": 8252, "\u0986": 637, "##nko": 17075, "lengthy": 12628, "beauty": 5295, "interviews": 7397, "computing": 12783, "appointments": 16323, "93": 5429, "[unused67]": 67, "##\u1ef3": 28668, "Dewey": 22213, "##roy": 9166, "##nchen": 27683, "heir": 8048, "##kar": 6610, "Lincolnshire": 17699, "##pheric": 24551, "Buster": 21526, "technicians": 25032, "controllers": 25747, "screenplay": 10850, "##\u66f8": 28929, "Willis": 12886, "treatise": 20594, "##tisfaction": 25734, "Telecommunications": 23356, "##olic": 14987, "pounder": 22809, "keyboardist": 23075, "Bollywood": 17155, "serious": 3021, "Nippon": 21206, "##nary": 24917, "important": 1696, "Rica": 11585, "operas": 15441, "##itude": 13691, "Doll": 25137, "pillow": 10352, "painters": 15233, "slick": 16715, "coats": 19582, "accused": 4806, "##mism": 20279, "hourly": 24308, "hundreds": 5229, "prestige": 19846, "hockey": 4700, "championships": 6430, "Regis": 25510, "##dd": 13976, "##writing": 17729, "##rcia": 24579, "##\u05de": 28458, "[unused15]": 15, "autism": 26969, "Ellison": 23736, "fired": 4294, "insults": 27115, "Investigation": 15701, "Lai": 25489, "##\u1d63": 28623, "Brain": 15240, "parent": 6486, "philosophical": 11388, "published": 1502, "Meanwhile": 5459, "##imate": 15774, "backward": 8740, "undertake": 17778, "[unused34]": 34, "arrival": 4870, "McBride": 20738, "hind": 24856, "Fulton": 18196, "##ders": 10097, "\u1e24": 727, "Comics": 7452, "Shelley": 16738, "detected": 11168, "descriptive": 27938, "balcony": 12025, "Centers": 22347, "##utes": 20311, "dam": 6961, "switch": 6878, "##hima": 16340, "WA": 22751, "Jase": 20160, "laughs": 12375, "\u043b": 486, "Pratt": 13528, "recounted": 25546, "1926": 4082, "shouts": 17371, "adviser": 14269, "nasty": 13392, "mask": 7739, "Turbo": 23344, "##\u767d": 28951, "mastering": 14451, "##erie": 15148, "rally": 11158, "Tall": 19900, "##path": 16606, "##nine": 20677, "Save": 12596, "##grade": 24633, "actor": 2811, "Ty": 5331, "reconstruction": 10442, "territorial": 10120, "ranges": 9123, "doing": 1833, "Ernest": 8075, "Nadia": 15686, "##rgy": 17292, "Marin": 20076, "ruin": 10677, "Pink": 10763, "##geny": 21004, "Recorded": 13048, "\u2500": 869, "plc": 23892, "1767": 23714, "##dgson": 26229, "Sykes": 26382, "stalled": 22789, "1964": 2668, "investigators": 17718, "boasts": 24372, "average": 1903, "Sharif": 22645, "\u1ef1": 765, "##\u2044": 28701, "patriotic": 22435, "136": 16222, "Baton": 22178, "ethanol": 27236, "trusted": 9373, "##nny": 15863, "contributes": 17705, "integration": 9111, "Chinese": 1922, "mute": 26782, "physiology": 25445, "##structure": 25198, "leaders": 3478, "discarded": 16041, "plantations": 16666, "price": 3945, "##aque": 23911, "operations": 2500, "Milano": 23933, "##ef": 11470, "warrior": 8229, "figures": 3736, "clubhouse": 27973, "clusters": 13687, "##ography": 9543, "guarding": 18648, "\u0902": 605, "1945": 2481, "Hot": 4126, "situated": 3629, "Amazon": 9786, "Painter": 15502, "eminent": 17115, "Wanted": 20601, "##graded": 18590, "Ke": 26835, "goal": 2273, "ponds": 20054, "crawled": 12625, "Sanskrit": 11399, "aware": 4484, "Juliet": 14143, "##ficient": 19568, "Birch": 25295, "rejoined": 14944, "crying": 6675, "Vehicle": 19357, "Ezra": 17275, "Emperor": 3637, "Bears": 10169, "shrines": 26723, "merged": 4564, "Tales": 9931, "Atomic": 18662, "lined": 7265, "phylogenetic": 28084, "##ulet": 20117, "##53": 24239, "approaches": 8015, "postgraduate": 19932, "built": 1434, "Called": 20469, "1761": 23514, "##rado": 22146, "\u307f": 919, "Coca": 19906, "Israeli": 4878, "Ren": 16513, "Except": 9656, "Audio": 14065, "Turin": 14283, "##\u00e9ration": 27686, "##\uff09": 28991, "misconduct": 26879, "\u66f8": 1036, "Dame": 8022, "Anya": 24221, "##ckney": 24614, "Abu": 8158, "Grove": 8051, "Moor": 20973, "Hugo": 9110, "206": 20278, "Hawke": 28064, "##graph": 15241, "driver": 3445, "exit": 6300, "Boom": 19287, "##iable": 24474, "nods": 11294, "dismantled": 18640, "monitors": 16884, "Galen": 23295, "1853": 8562, "##kai": 10098, "Jared": 7927, "##TH": 24162, "worms": 23357, "307": 27663, "Babe": 20210, "backpack": 13846, "Baron": 5483, "Caf\u00e9": 21036, "##cross": 17414, "nm": 19137, "preparations": 13751, "genetically": 21989, "contacts": 10492, "Hop": 12965, "##zuka": 27779, "haunting": 24844, "universities": 5659, "episcopal": 24451, "##int": 10879, "files": 7004, "realm": 9695, "\u044f": 506, "investigator": 17805, "Landscape": 20544, "those": 1343, "challenges": 7806, "Relief": 13436, "##vis": 9356, "knives": 14726, "Party": 1786, "leader": 2301, "Martinez": 16247, "minute": 2517, "##roach": 20073, "hinted": 24094, "##heads": 12970, "##zier": 22815, "##\u2077": 28707, "parody": 13129, "hovered": 19594, "chained": 25953, "involving": 5336, "Sources": 22656, "H\u2082O": 27995, "sufficiently": 13230, "obstacles": 16503, "complained": 10790, "meals": 13077, "Theodore": 10408, "media": 2394, "acknowledging": 25568, "smaller": 2964, "##phones": 16215, "meanwhile": 17527, "##delity": 18860, "attends": 27150, "deserve": 10026, "Tyrone": 20314, "Perth": 8986, "common": 1887, "aliens": 14498, "##hropic": 27544, "Chennai": 12451, "Olympics": 2932, "hereditary": 17676, "##\u2013": 28684, "1989": 2056, "eyebrows": 8039, "Family": 3921, "Sa": 17784, "##ac": 7409, "cattle": 6937, "##\u00ce": 28189, "rock": 2067, "Slam": 14923, "##augh": 23825, "created": 1687, "abuse": 6704, "##\u00e8me": 25266, "ties": 7057, "struggle": 5637, "##wise": 15868, "Breakfast": 20289, "##tyn": 27156, "IBM": 9768, "Atkins": 23196, "##\u044e": 28416, "jewelry": 12731, "assumes": 16956, "Yes": 2160, "Lion": 9679, "expose": 16479, "Evan": 9034, "bag": 3821, "##chy": 8992, "twist": 11079, "composed": 2766, "daddy": 21993, "contingent": 17286, "sacrificed": 22353, "172": 19639, "agricultural": 5035, "Ethiopia": 11132, "adult": 4457, "##yke": 27142, "##evich": 21075, "broadcasters": 27271, "Amongst": 24693, "resembled": 16807, "observatory": 23014, "caller": 25780, "contrasting": 25516, "Den": 14760, "Midlands": 13869, "Canadiens": 23454, "layered": 23978, "##nden": 28004, "weeks": 2277, "Wilson": 3425, "##c\u00e9": 27891, "OK": 10899, "Meet": 16053, "textile": 14817, "Paralympic": 19099, "1864": 6113, "##lar": 5815, "chances": 9820, "##coon": 18201, "Judicial": 19078, "faithful": 12969, "Assistance": 20778, "[unused58]": 58, "\u0162": 324, "toured": 6740, "evacuated": 13776, "##urney": 24339, "##\uc528": 28983, "heroin": 22856, "brighter": 18044, "force": 2049, "##ement": 14529, "Wien": 25505, "develops": 11926, "##\u1ec7": 28651, "Sahara": 21465, "wipe": 14182, "Tanner": 13369, "merger": 7256, "hike": 25401, "jewel": 23160, "seals": 19551, "Foundation": 2974, "feedback": 13032, "removing": 9305, "extent": 6102, "\u00ab": 208, "##\u304d": 28792, "Brussels": 9062, "##powering": 26703, "##day": 6194, "strained": 12448, "Still": 4209, "##fish": 6529, "were": 1127, "##tion": 2116, "Upper": 5454, "Bend": 15913, "##cy": 3457, "##als": 7264, "\u0100": 278, "Development": 3273, "Wendell": 27628, "Bowen": 17220, "doubted": 13216, "petition": 10077, "Goddard": 25064, "##\u0283": 28289, "cute": 10509, "Rather": 11056, "literally": 6290, "Mini": 14393, "buttons": 11760, "battled": 21600, "Geological": 14802, "scheduled": 4533, "##kh": 9862, "##ppa": 13059, "distributor": 19371, "exploring": 12138, "planned": 2919, "##ate": 2193, "320": 14116, "conclusions": 16421, "sulfur": 20450, "Cure": 27121, "maintenance": 5972, "Vermont": 8472, "Exodus": 23451, "wasting": 20930, "##\u0173": 28254, "innovative": 10034, "Roma": 13120, "troops": 2830, "darkness": 4542, "##mulating": 24297, "McGee": 24539, "Weber": 13718, "proportion": 10807, "banquet": 25234, "oriented": 7779, "Ultra": 17781, "M": 150, "##\u067e": 28501, "trace": 8332, "tram": 14172, "rope": 8090, "dipped": 13916, "Dead": 5620, "Hard": 9322, "vacation": 12020, "verbs": 17992, "##orium": 25285, "obtaining": 11621, "fitting": 11732, "Saturn": 15476, "narratives": 26712, "fallen": 4984, "Link": 11193, "stems": 12878, "Straight": 18296, "##ice": 4396, "\u03cd": 444, "dormitory": 25565, "committed": 4762, "les": 8241, "##\u00be": 28177, "Wish": 18861, "PC": 7054, "unpredictable": 24213, "medicine": 5182, "##runner": 14627, "routing": 19044, "asking": 4107, "breathing": 4943, "##inen": 19865, "##ever": 17791, "Alicia": 16914, "shirts": 11710, "##\u1f78": 28676, "haul": 16238, "preferences": 20935, "##scence": 16353, "mm": 2608, "38": 3383, "##trata": 26649, "mutations": 17157, "Wilder": 22001, "incarcerated": 27437, "frequently": 3933, "Finally": 4428, "\u27e9": 883, "consortium": 17619, "member": 1420, "nothing": 1720, "Additionally": 5533, "chemicals": 13558, "expectation": 19351, "Overall": 8007, "cortex": 21284, "##rington": 22530, "Gupta": 22560, "NZ": 23412, "##kis": 15860, "exploding": 24172, "grinning": 12332, "disposal": 14364, "hurling": 18409, "\u0272": 363, "depends": 9113, "recalls": 19120, "##naming": 27947, "reflects": 11363, "wages": 13588, "prepare": 7034, "##furbishment": 27538, "transformation": 9047, "##hawk": 19952, "accommodation": 11822, "Marta": 22930, "rubble": 19468, "dried": 9490, "Jon": 5703, "myth": 12849, "car": 1610, "##dman": 22535, "mole": 26365, "Nevertheless": 8094, "Lithuania": 9602, "pupils": 7035, "Madhya": 22959, "prevailed": 21691, "sewage": 23198, "suspect": 8095, "woven": 19187, "excelled": 25749, "Parliament": 2901, "##un": 3488, "Sudan": 10299, "##;": 28141, "adventures": 12108, "disc": 6187, "Glass": 9357, "##vations": 22553, "##DC": 15556, "implications": 14755, "##uckled": 26737, "grass": 5282, "##quencing": 27276, "Lopez": 13253, "explanation": 7108, "##runch": 22715, "wolves": 11260, "heart": 1762, "##zac": 25616, "tropical": 5065, "##iding": 26313, "nicely": 22857, "thence": 26972, "##ean": 7766, "interception": 19231, "need": 1444, "\u30e9": 968, "biologist": 24742, "##\u013e": 28232, "painful": 8920, "chip": 11451, "Need": 12528, "Impact": 13788, "##planes": 24983, "fatty": 24862, "\u01d2": 346, "proceeded": 8621, "uncommon": 14124, "##oshi": 22437, "Indie": 25789, "Dayton": 15321, "allowance": 25916, "shakes": 11075, "Arroyo": 28061, "Cynthia": 16754, "reviews": 3761, "stared": 2729, "value": 2860, "##iliated": 21896, "\u3072": 917, "##ncia": 22313, "exhibited": 7799, "tattoos": 20867, "gum": 19956, "Spaniards": 23068, "prisoners": 5419, "crowds": 13484, "##girl": 17001, "pamphlet": 22461, "coordinates": 12570, "##\u0259": 28278, "rich": 3987, "243": 25465, "overnight": 12292, "##\u2248": 28754, "##generate": 26038, "encompassed": 27072, "##town": 3305, "Elliott": 9657, "trapped": 7333, "senior": 2682, "\u00da": 242, "devotees": 27145, "pads": 21910, "Microsoft": 6998, "Greens": 22412, "1757": 25146, "caravan": 25490, "##nob": 22360, "##headed": 14443, "relevant": 7503, "SSR": 22916, "##air": 8341, "Higher": 7715, "alone": 2041, "rookie": 11416, "##ailed": 17239, "##trate": 18775, "solitary": 15801, "residing": 6604, "##table": 8637, "cu": 16408, "##pack": 27569, "Nova": 6584, "Helens": 27068, "fracture": 22869, "Macquarie": 26828, "Solo": 11977, "induced": 10645, "##quila": 21005, "##bow": 14251, "Ser": 19536, "photographers": 21083, "##ite": 3150, "##pad": 20425, "Abel": 17931, "Haitian": 23595, "ended": 2207, "edge": 2652, "analyze": 19774, "[unused60]": 60, "save": 3277, "##iability": 26468, "##osis": 11776, "Sharpe": 24566, "nesting": 24056, "uniform": 6029, "##eves": 19316, "District": 1574, "conveyed": 23777, "alternate": 7551, "masked": 19970, "prompted": 9249, "reservations": 20624, "sacked": 14736, "##rdes": 20500, "##CS": 12122, "issuing": 16141, "Horizon": 20218, "rating": 5261, "\u0927": 614, "Woodward": 20825, "##manned": 25820, "joins": 9649, "chuckle": 16305, "Atari": 20694, "##inga": 28050, "aggression": 16843, "Sundance": 22012, "Skating": 23094, "##vious": 18854, "helpful": 14739, "Sinclair": 11957, "magnificent": 14524, "\u0641": 585, "funk": 19657, "rounded": 7982, "inquiry": 12064, "HP": 18444, "1950": 3067, "stimulus": 21950, "Odd": 22161, "illustrated": 8292, "condition": 3879, "##rows": 20876, "diocesan": 26937, "integer": 18157, "##\u0639": 28490, "##way": 2787, "monastic": 19742, "galaxies": 26341, "molecule": 14730, "Neumann": 25450, "channels": 6412, "Brigadier": 12159, "##nial": 21364, "##plate": 16671, "mix": 5495, "Denver": 7068, "creek": 10791, "##est": 2556, "Mayer": 15326, "\u014f": 313, "relay": 9316, "Portal": 27455, "##kal": 14046, "comprised": 11561, "entertainment": 5936, "##TA": 9159, "\u0126": 295, "##ographic": 9597, "hardcore": 16883, "Its": 2098, "\u0417": 455, "archbishop": 19026, "capabilities": 9816, "screams": 12264, "abundance": 15569, "enormous": 7883, "##\u0635": 28486, "shuddered": 14423, "reigning": 17942, "synonymous": 25239, "##CO": 15678, "warmed": 18694, "##\u5b50": 28907, "##ums": 17167, "Noel": 12309, "Carla": 18301, "Nepal": 7795, "Gaelic": 11319, "##orra": 27583, "Facebook": 9078, "circus": 16134, "Hartley": 23053, "Cooper": 5588, "Dual": 27791, "running": 1919, "atom": 18858, "relocation": 21179, "##queduct": 26934, "statistical": 11435, "MG": 22459, "##hit": 17481, "Frog": 25573, "powder": 10794, "##able": 1895, "USB": 20453, "emails": 24853, "##suse": 24784, "desperation": 17398, "Normally": 17623, "occupations": 27837, "texts": 6685, "posting": 15537, "##alty": 21733, "\u0f7c": 697, "divisions": 5760, "Code": 6741, "Ashton": 14202, "SAT": 26203, "visit": 3143, "##rk": 4661, "\u30d1": 959, "##ality": 17839, "lectures": 9548, "garments": 24938, "##chemistry": 18533, "\u0425": 468, "telephone": 7314, "Gaius": 21305, "admits": 15077, "allowed": 2148, "##mura": 14535, "256": 18440, "Category": 13696, "Colbert": 26866, "messages": 7416, "Dark": 4753, "frog": 13670, "lump": 16401, "##coa": 20535, "##ener": 24475, "deposition": 23042, "Mussolini": 25086, "scowl": 21840, "AAA": 13807, "##\u0435\u0432\u0438\u0447": 25525, "eats": 24347, "motions": 16628, "adjustment": 23427, "##\u4e8b": 28874, "tumbling": 25441, "mature": 9881, "compatible": 12173, "Fury": 14615, "normal": 2999, "rental": 13519, "##ish": 2944, "dancing": 5923, "1930": 3630, "title": 1641, "##NR": 16107, "remembered": 3801, "##\u1d57": 28621, "##amine": 19577, "##\u0638": 28489, "localities": 22028, "##ack": 8741, "repaired": 14129, "arises": 20251, "expenditure": 24106, "##\u05b9": 28443, "##\u05df": 28459, "Auguste": 22826, "out": 1149, "IRA": 16561, "forts": 17725, "fireworks": 19612, "audience": 3703, "surround": 16858, "clashed": 25144, "Eagle": 8122, "phosphate": 19273, "conspiracy": 10758, "##acon": 24825, "delivery": 6779, "##hor": 13252, "enjoy": 5548, "##kening": 27736, "Wood": 5296, "Tom": 2545, "mandolin": 21142, "button": 6324, "baby": 2963, "##\u2087": 28714, "##hame": 25948, "##sham": 20241, "blows": 14977, "##umi": 14088, "##grim": 21956, "\u0baa": 673, "stalked": 16895, "Wellington": 8017, "##wara": 11525, "Wise": 16089, "Birthday": 16168, "rehabilitation": 14178, "##\u03b4": 28341, "Croatian": 7491, "[unused35]": 35, "wondering": 6123, "arrangements": 7371, "jewels": 21743, "centered": 8663, "lo": 25338, "S\u00e1nchez": 16549, "##held": 17674, "ridden": 17698, "55": 3731, "tolerance": 15745, "Continuing": 20699, "##\u58eb": 28901, "\u2660": 876, "images": 4351, "Nash": 10544, "solo": 3444, "explorer": 16171, "insistence": 22669, "branch": 3392, "\u30a2": 931, "scouts": 21417, "Faith": 8463, "##adia": 21403, "gain": 4361, "##uad": 18413, "casually": 13725, "strides": 24901, "palace": 5717, "dislike": 20662, "##uctive": 24914, "##ims": 25936, "\u1f00": 768, "breaths": 13278, "sampling": 18200, "jet": 8319, "discovers": 9149, "e": 174, "circulating": 25655, "successors": 20475, "Michel": 8372, "doctorate": 10277, "yell": 15935, "##ens": 5026, "##ag": 8517, "##rrier": 20133, "preserved": 6018, "slender": 11226, "Cristina": 24644, "scared": 5528, "Railways": 9058, "##eted": 27860, "steadily": 11383, "tanks": 6977, "##ax": 7897, "notebook": 17189, "##nova": 14570, "poster": 14525, "Shaun": 17946, "ideology": 14270, "Rob": 6284, "##pped": 10438, "Liu": 8411, "##\u6cb3": 28944, "discuss": 6265, "##hak": 21893, "Randolph": 13290, "flow": 4235, "OH": 18719, "\u039b": 403, "##zam": 20123, "photograph": 10110, "Risk": 19547, "sidewalk": 12447, "introduced": 2234, "appeals": 15996, "Cretaceous": 19605, "knock": 7466, "Winkler": 22382, "##frame": 16548, "blacks": 14892, "workforce": 17034, "1796": 14342, "reinforced": 11331, "##\u5c0f": 28912, "kindness": 18569, "sacrifices": 20597, "duck": 13520, "clarity": 19041, "##illiers": 27566, "mouse": 10322, "##ring": 3384, "elevations": 20341, "2009": 1371, "jumper": 25563, "harbour": 11614, "##cognition": 27176, "possible": 1936, "Base": 5524, "##\u00e1": 5589, "##xen": 25926, "inhaled": 16957, "##gau": 20130, "##yama": 11418, "colored": 6805, "endangered": 11532, "radiated": 25822, "motivated": 13241, "##mber": 10615, "holiday": 7946, "Heat": 9653, "straightforward": 21546, "Baba": 15602, "wins": 4646, "Sonic": 16202, "Budget": 19179, "##hammer": 21427, "upon": 1852, "##gation": 10716, "\u043a": 485, "Twin": 12213, "destiny": 16988, "over": 1166, "cultivation": 13958, "##ancipation": 25305, "screen": 3251, "##pox": 26466, "continent": 10995, "forest": 3304, "provinces": 7112, "bald": 18035, "##vide": 22650, "##sponsible": 26408, "coward": 24362, "1680": 27723, "##gen": 4915, "##hot": 12217, "criticized": 5711, "scholars": 5716, "Institutions": 26343, "freeze": 16020, "##rite": 10587, "##rts": 13245, "##dic": 13328, "Tong": 19354, "exceeds": 26553, "systematic": 12818, "##RE": 16941, "Lehigh": 25912, "lurking": 28018, "Empress": 11672, "margin": 7464, "aging": 14195, "possibility": 5417, "famous": 2505, "1896": 5645, "experiences": 5758, "brow": 8001, "wells": 16998, "Mary": 2090, "lasts": 17503, "Comes": 18566, "\u017a": 335, "organization": 2369, "##vos": 22287, "minorities": 16130, "legacy": 10261, "established": 1628, "Browning": 21197, "Regina": 13046, "settle": 7098, "aunt": 8524, "soloist": 19171, "Rule": 11575, "spontaneous": 20061, "defenders": 15024, "##wed": 11547, "Full": 8896, "dean": 14445, "##ature": 17337, "respond": 6297, "##m": 1306, "Government": 2384, "dunes": 23207, "167": 17866, "Decca": 23545, "Territorial": 14984, "supports": 6253, "jurisdictions": 18923, "Penelope": 21129, "liar": 22569, "##gets": 22785, "45": 2532, "##sef": 21762, "drugs": 5557, "61": 5391, "majority": 2656, "Hood": 10776, "toxic": 12844, "Harcourt": 25272, "[unused53]": 53, "##\u30c6": 28844, "genera": 11974, "##hler": 14460, "##coach": 26851, "journey": 5012, "##nk": 6773, "Shooting": 19439, "merge": 14713, "Guerrero": 18079, "##CU": 23520, "Teaching": 15846, "Truth": 9907, "##\u2663": 28771, "yet": 1870, "Figure": 15982, "vector": 9479, "Hebrew": 6235, "librarian": 18280, "injected": 21881, "identical": 6742, "dialogue": 8556, "Roller": 27957, "Wolves": 16484, "Mall": 11123, "##key": 9144, "Bomber": 20707, "Marcia": 25663, "Until": 5226, "stream": 5118, "##gia": 9037, "##ME": 14424, "signatures": 17926, "Carroll": 10668, "Count": 5704, "continuously": 10861, "June": 1340, "museum": 3480, "Loss": 22008, "startled": 10057, "reversed": 11802, "Look": 4785, "enclosure": 19904, "Stay": 9999, "diagram": 18217, "lethal": 14969, "Methodist": 8580, "80s": 17008, "globally": 18526, "recognise": 18986, "##idated": 27893, "captures": 21540, "shortly": 3992, "Naomi": 13042, "experiment": 7886, "##pressed": 15716, "\u00b0C": 5702, "##eo": 8209, "flooding": 9420, "badly": 6118, "perfection": 17900, "jeans": 5831, "##vary": 24022, "##ayne": 24562, "algorithm": 9932, "UNESCO": 12588, "relegation": 9647, "##raw": 28115, "Melody": 14653, "Vatican": 12232, "Force": 2300, "##ING": 15740, "encompasses": 14474, "TNA": 21940, "Blaze": 27740, "Gilbert": 7175, "drying": 19264, "skating": 12718, "##rds": 15093, "Silicon": 24264, "trim": 13373, "measurements": 12307, "em": 9712, "investigations": 11041, "Gibson": 9096, "Busch": 16773, "\u1ed1": 752, "##ron": 3484, "streaming": 11403, "##iah": 15963, "\u6c0f": 1047, "anterior": 16557, "insert": 22884, "Porter": 8885, "Ninth": 19066, "recaptured": 26819, "Duffy": 19352, "##lene": 11936, "leopard": 27865, "invites": 20384, "perspectives": 22168, "Canberra": 13400, "Row": 14706, "Founded": 10288, "[unused19]": 19, "Legends": 15704, "Heidelberg": 17880, "##dering": 24455, "Deer": 19712, "crumpled": 21695, "##belt": 24394, "Moving": 13091, "Operation": 5158, "forbidden": 12031, "America": 1738, "##cum": 19172, "sons": 3824, "incorporate": 13639, "fourth": 2223, "##\u09b8": 28563, "Infrastructure": 22791, "Energy": 5514, "Effects": 23009, "tugged": 10531, "##ife": 24603, "breast": 7209, "##quez": 12018, "footsteps": 10139, "##pard": 18573, "manage": 5494, "facts": 9193, "hunger": 10023, "##udder": 23007, "suggested": 3228, "##bracing": 26348, "ambitions": 21681, "principal": 3981, "##fusion": 17149, "##cking": 12944, "##onium": 23772, "##cker": 8638, "exceed": 13908, "operative": 13035, "##ntly": 15275, "Trees": 20857, "vols": 24086, "##pelling": 24542, "tapped": 10316, "examination": 8179, "hunted": 15991, "protagonists": 24541, "Mellon": 24587, "\u6708": 1037, "1870": 6339, "Snake": 16335, "\u03a9": 413, "creatures": 7207, "Yorker": 20998, "##rge": 12272, "installing": 27432, "Northeastern": 23362, "Ram\u00edrez": 27953, "Wagner": 10171, "illustration": 17011, "##\u011b": 28222, "embrace": 10249, "Manson": 23685, "##uid": 16423, "Flow": 25549, "histories": 19160, "##chanted": 21874, "Conservation": 8749, "Counties": 12259, "Lennox": 23157, "subordinate": 16469, "encoded": 12544, "systems": 2344, "banished": 24109, "Aristotle": 18727, "Miriam": 18131, "Magazine": 4341, "coasts": 23278, "milling": 27814, "##sing": 4253, "##\u00ab": 28165, "pavement": 15823, "Lucan": 22776, "requests": 11458, "artistic": 6037, "|": 197, "enemy": 3437, "diocese": 9856, "Europeans": 13810, "annexation": 21352, "consort": 19518, "barn": 9328, "lonely": 12494, "Ye": 15821, "lied": 10118, "##ulon": 23643, "towering": 23441, "Bobby": 5545, "project": 1933, "integers": 27264, "defended": 7607, "cavity": 19421, "##chaft": 19309, "Lucien": 11809, "Manny": 17381, "Goodwin": 21693, "##ggy": 14720, "lake": 3521, "skinny": 19244, "fold": 11203, "nausea": 22882, "Launch": 26738, "widowed": 26369, "crap": 11074, "dei": 21357, "##load": 9607, "perimeter": 14573, "Evening": 11718, "deposited": 14735, "seduce": 26317, "##cine": 15459, "Managing": 16522, "Elton": 20837, "personalities": 13497, "##aves": 13799, "##ava": 15677, "Worst": 25120, "##rising": 25443, "teachings": 12815, "recounts": 26214, "princess": 9309, "heavy": 2302, "Lorenzo": 12662, "sensitivity": 15750, "investing": 23379, "\u25a0": 871, "comparison": 7577, "soprano": 11264, "##eel": 19032, "king": 2226, "##ure": 3313, "particle": 11287, "Comparative": 25741, "\u6c35": 1049, "quantum": 9539, "scary": 13952, "hardness": 26902, "94": 5706, "Sing": 13315, "FAA": 18496, "element": 5290, "\u539f": 996, "##red": 4359, "Moroccan": 18754, "eagerly": 19379, "##ceptor": 25979, "Gathering": 26532, "harmonic": 23650, "sounds": 3807, "neo": 15242, "Troy": 9454, "##mona": 24507, "strands": 15060, "To": 1706, "tremble": 23148, "batch": 15817, "business": 1671, "Christina": 12870, "bells": 12552, "Honestly": 23686, "bonds": 10150, "##pathic": 21745, "MA": 9960, "intended": 3005, "constructed": 3033, "understands": 21744, "Corbin": 26968, "##rive": 17389, "\u05e6": 554, "supplying": 19229, "problematic": 20405, "##bies": 16751, "1899": 5493, "Sweeney": 23306, "##fried": 13762, "airplane": 15478, "Piano": 8802, "1794": 13506, "Rancho": 20864, "like": 1176, "Championship": 1935, "A": 138, "7th": 4766, "rains": 19267, "Caribbean": 6562, "flooded": 10276, "##gis": 25019, "lateral": 11937, "Mills": 7784, "Cologne": 12312, "Maynard": 24518, "##free": 26743, "anarchist": 23301, "culminating": 18174, "\u306b": 914, "D": 141, "displacement": 15167, "##cycle": 19964, "witness": 7737, "authenticity": 24738, "Catholic": 2336, "citizens": 4037, "firmly": 7487, "giggling": 25108, "\u1fd6": 776, "##\u30ca": 28848, "Wren": 19088, "tend": 6613, "1A": 26637, "##\u0f66": 28596, "Crystal": 9048, "##\u30ea": 28862, "utilized": 12750, "slaughtered": 26071, "Jewel": 23624, "Who": 2627, "bikes": 20852, "confront": 15034, "##ned": 3540, "industry": 2380, "accordance": 10274, "Labor": 6314, "39th": 25235, "Uncle": 7612, "Peoples": 19448, "rainfall": 10465, "Bernie": 16932, "##calated": 27810, "##ona": 7637, "stature": 23432, "murmured": 6574, "Rufus": 20635, "##\u03b5": 28342, "Padma": 26922, "Han": 7699, "Diamond": 8549, "##ished": 9980, "##\u09bf": 28567, "friend": 1910, "businessman": 6414, "fucking": 8750, "Vilnius": 22440, "connections": 6984, "Yves": 21436, "elbows": 14228, "##ogist": 25976, "##vington": 26251, "MacKenzie": 28116, "gestured": 11596, "glances": 13363, "440": 18629, "Black": 2117, "roof": 3664, "\u1e28": 729, "manipulation": 18776, "##pticism": 26265, "##ssi": 19828, "musicians": 4992, "##TT": 20174, "Sino": 21572, "##\u677e": 28936, "III": 2684, "Farmers": 19506, "##PD": 15481, "doom": 26375, "slowly": 2494, "##lter": 18041, "substitution": 24393, "backstage": 25679, "Takes": 26713, "##riff": 17387, "##tica": 11761, "sixteenth": 16704, "Shreveport": 26565, "parents": 2153, "\u1e45": 733, "skeptical": 21333, "sighs": 22447, "training": 2013, "##iper": 26734, "Marquette": 27228, "Swindon": 24792, "##\u30ab": 28830, "vowels": 16506, "poor": 2869, "1781": 17870, "Kincaid": 27623, "shareholder": 20769, "##hta": 26489, "##oop": 24064, "and": 1105, "Carson": 9563, "Jonas": 10693, "measured": 7140, "Gustavo": 27956, "##\u00f1ez": 24066, "##der": 2692, "Across": 14754, "sanity": 24188, "Director": 2524, "information": 1869, "Lead": 10440, "equipped": 5440, "##zz": 16771, "##tones": 11488, "police": 2021, "Gene": 9066, "Dominican": 9903, "number": 1295, "Bishop": 3167, "alert": 10427, "teen": 13964, "cannon": 12136, "##ffling": 20709, "Issues": 21213, "Normal": 14508, "softer": 21002, "##izing": 4404, "Jesse": 7133, "Municipality": 7427, "phase": 4065, "\u5341": 994, "equality": 11986, "row": 5105, "##graphy": 8944, "visa": 12083, "Martina": 26254, "##\u0930": 28524, "##ose": 6787, "scan": 14884, "##\u03c2": 18143, "##rata": 15471, "perfectly": 6150, "recover": 8680, "glasses": 7537, "anticipated": 11526, "replaces": 22974, "\u044e": 505, "\u4eac": 984, "\u4e8c": 982, "bore": 8475, "land": 1657, "Had": 6467, "glove": 20155, "##NA": 11185, "center": 2057, "140": 8183, "mechanisms": 10748, "tensed": 16027, "Switzerland": 4507, "##\u00a8": 28162, "aftermath": 11026, "necklace": 13828, "sexual": 3785, "noisy": 24678, "handful": 8973, "Ritter": 25846, "HMS": 6666, "finely": 24915, "##\u2085": 28712, "##dit": 17903, "certainly": 4664, "blonde": 9853, "Try": 13665, "##dio": 13447, "princes": 18043, "\u0420": 463, "##uating": 20807, "##ranton": 27601, "ridges": 18431, "contraction": 24827, "Paradise": 10638, "yer": 27497, "Ranking": 13332, "excavations": 16444, "negative": 4366, "##haw": 14431, "molecular": 9546, "one": 1141, "compared": 3402, "nationality": 11242, "New": 1203, "##fe": 8124, "Wilderness": 16436, "stunned": 10119, "Chapman": 11554, "clockwise": 26668, "Low": 8274, "##af": 9823, "\u30ba": 947, "completely": 2423, "cars": 3079, "flopped": 27878, "removed": 2856, "enthusiasm": 12430, "##truder": 24993, "committees": 11208, "correlation": 18741, "Alex": 3230, "33rd": 22906, "Balkan": 18903, "angle": 6341, "cannons": 20090, "Theological": 14029, "recession": 23780, "##iring": 14641, "greenish": 26953, "##mento": 26173, "\u0428": 471, "##art": 9349, "prolonged": 16639, "Trading": 22263, "Granada": 17644, "##rika": 21513, "Event": 16223, "##\u1e24": 28629, "It": 1135, "announce": 15810, "Worlds": 15746, "example": 1859, "Osborne": 17802, "##stone": 6078, "##FA": 8842, "untouched": 25135, "##sonic": 19500, "miserable": 14531, "McGrath": 25975, "years": 1201, "##fect": 11916, "cable": 6095, "socio": 20650, "1869": 7354, "modifications": 13334, "Rabbit": 17435, "potato": 17947, "bounced": 13990, "ventral": 27037, "debated": 16087, "accordion": 22827, "controller": 14668, "NY": 5883, "\u067e": 598, "through": 1194, "##river": 26999, "catalogue": 13571, "Soviet": 2461, "K\u00f6ppen": 22414, "\u1d64": 722, "forecast": 24647, "##Y": 3663, "fury": 10842, "Membership": 25280, "Your": 2353, "1886": 6332, "dug": 8423, "##ass": 11192, "j": 179, "1882": 6543, "divorce": 8126, "Euro": 11854, "route": 2438, "attribute": 19795, "Sabrina": 24250, "undertaken": 10510, "##\u00f4ne": 21719, "reaction": 3943, "##iden": 26859, "##gle": 6415, "Yourself": 26379, "contemplated": 25835, "##zie": 15039, "goin": 23831, "voice": 1490, "gossip": 16378, "Jen": 16705, "Honors": 25796, "darker": 9934, "##ares": 18828, "##iator": 26264, "##\u529b": 28885, "Khorasan": 25961, "securities": 19313, "stimulate": 26225, "Czech": 4833, "coupling": 22728, "Weaver": 17263, "Logan": 5652, "##\u0940": 28533, "gay": 6463, "Diane": 12225, "##ing": 1158, "##xial": 27361, "##\u305d": 28800, "1940s": 7177, "\u1d63": 721, "coined": 13674, "##maging": 26772, "transitional": 23512, "Karnataka": 12247, "Reddy": 20772, "interesting": 5426, "ventured": 22542, "Declan": 17552, "performance": 2099, "##bury": 4109, "flipping": 21547, "evacuation": 15346, "##yal": 18543, "edited": 5045, "Amendment": 10060, "rain": 4458, "##NI": 27451, "##aling": 13248, "port": 4104, "Metro": 6431, "Joey": 9300, "##iidae": 19793, "##urge": 27793, "04": 5129, "promoter": 17110, "##kes": 9029, "##\u1d56": 28620, "summer": 2247, "hormone": 21055, "38th": 24399, "##powerment": 25603, "Earth": 2746, "shareholders": 16741, "antique": 17186, "neon": 24762, "routines": 27393, "listen": 5113, "##ew": 5773, "tomato": 26422, "betrayal": 16793, "graphs": 21562, "Action": 6605, "entrepreneurs": 21607, "##aper": 19655, "##rum": 5697, "##tin": 6105, "lattice": 19843, "##VD": 23935, "##fters": 26967, "cautiously": 16828, "Bree": 24479, "miracle": 14173, "Tripoli": 24227, "swap": 24295, "##\u03ac": 28335, "heard": 1767, "fiscal": 12087, "##zio": 13409, "Kevin": 4101, "resurrected": 26529, "Misty": 19323, "Columbus": 8555, "sect": 21354, "\u10dd": 703, "bathing": 19971, "funeral": 6594, "count": 5099, "Highways": 27204, "highlight": 13426, "accurately": 14702, "##\u0f7c": 28600, "cotton": 7825, "Exchange": 7855, "tile": 15305, "##ating": 3798, "grant": 5721, "Sentinel": 18474, "reunited": 11909, "excited": 7215, "to": 1106, "##vez": 21755, "restriction": 18760, "##iv": 11083, "##\u09a7": 28554, "colleague": 11864, "Jamie": 5518, "trials": 7356, "##azed": 27625, "Sawyer": 14564, "Corridor": 21740, "reassuring": 23310, "##lini": 21472, "replica": 16498, "Pact": 27175, "\u03a8": 412, "Rosie": 16853, "Rules": 8385, "called": 1270, "sensations": 24783, "\u2202": 849, "speech": 4055, "scenarios": 18414, "Commandant": 22291, "Grades": 26439, "##figured": 18930, "traditions": 7181, "Stage": 6160, "[unused12]": 12, "##\u0540": 28424, "3rd": 2973, "bands": 4393, "##det": 26514, "Amy": 6279, "##ude": 10308, "Garth": 23988, "##dez": 15125, "##aud": 16631, "prohibition": 19113, "##tite": 23723, "\u00f4": 266, "##pus": 10306, "Zimbabwe": 11395, "Warfare": 22394, "\u30a6": 934, "obituary": 25917, "State": 1426, "##\u02bf": 28304, "Study": 8690, "punching": 21899, "Dec": 13063, "Cowboys": 13009, "groaned": 9393, "##git": 24632, "communication": 4909, "parishes": 12131, "1749": 27828, "Vladimir": 8591, "embarrassment": 15285, "Tango": 25978, "Wales": 2717, "##croft": 12012, "irrigation": 14448, "Software": 10331, "\u6b66": 1046, "structural": 8649, "manufacturers": 9263, "theologian": 19392, "1871": 6899, "Shrewsbury": 19561, "Fairbanks": 27591, "Problem": 21710, "Odessa": 21613, "Member": 3844, "##ho": 5114, "cocked": 13555, "lime": 18669, "arousal": 21019, "##esi": 18766, "spying": 26470, "trousers": 16555, "##\u1ee7": 28662, "##weiler": 23768, "Cal": 11917, "pastor": 11616, "combine": 12479, "Cochrane": 24763, "Leave": 11255, "application": 4048, "roughly": 4986, "Kurdish": 16441, "##field": 2427, "##hood": 5914, "##MS": 7182, "rage": 8045, "dome": 10945, "Birth": 20729, "thoughtful": 17873, "terrorism": 12010, "##rchy": 17908, "##EI": 27514, "##GA": 10583, "Roberto": 10599, "##ymph": 25698, "liberty": 15470, "prosperous": 20308, "barriers": 14317, "##ometric": 23930, "Griffith": 14672, "nature": 2731, "##out": 3554, "remainder": 6311, "Barbados": 18010, "lyricist": 24379, "shaved": 23116, "##sies": 23434, "resulting": 3694, "periods": 6461, "clan": 7019, "geology": 18170, "##dding": 15977, "readiness": 25922, "Lilly": 15482, "Eternal": 21342, "Gale": 19820, "##holes": 21212, "protest": 5641, "##back": 4197, "Cut": 15411, "##proof": 20324, "##\u05d9": 28454, "utilize": 17573, "\u304b": 898, "inappropriate": 17073, "amber": 18376, "##\u021b": 28273, "##cription": 27530, "liberal": 7691, "Rain": 10463, "Plain": 13823, "am": 1821, "##olo": 12805, "Ring": 8467, "specimen": 11678, "finalists": 15333, "contracting": 26706, "##\u00e9es": 21272, "execute": 16621, "length": 2251, "portfolio": 12256, "da": 5358, "drawings": 9484, "##\u014c": 28237, "indirect": 16673, "##rith": 24969, "seeing": 3195, "Trial": 12819, "Facility": 19341, "evenings": 18051, "1959": 3003, "Stephanie": 11952, "Hits": 12852, "forested": 16044, "unsuccessfully": 11586, "Ali": 4149, "informing": 24388, "##sberg": 19945, "anticipation": 11468, "boat": 3499, "Stone": 4118, "grants": 9295, "brutality": 28024, "L\u00f3pez": 13629, "##kini": 25009, "adorned": 21054, "1644": 26180, "filtering": 26299, "licking": 20238, "aka": 10908, "exercises": 11536, "sneak": 14647, "Fairy": 18643, "fantasy": 7369, "takeoff": 22149, "Typical": 23125, "grins": 22317, "ensemble": 9525, "##ogo": 26205, "##HT": 18784, "##FL": 12281, "robots": 16013, "Antarctic": 10053, "composing": 18031, "continued": 1598, "##shu": 16138, "junior": 4635, "jungle": 11800, "##ark": 23822, "ago": 2403, "margins": 18717, "##tier": 14175, "##olin": 27719, "Koreans": 27757, "rebuilt": 6669, "pet": 11109, "Alma": 15717, "Everton": 19433, "ecosystem": 19534, "##iae": 21845, "shall": 4103, "thirds": 12704, "distress": 13632, "hull": 10207, "Roberts": 6444, "##hino": 21918, "dusty": 19769, "Tyler": 6952, "Tanzania": 12037, "Retrieved": 4996, "##inate": 14248, "##&": 28130, "trick": 7959, "engage": 8306, "Baker": 5779, "All": 1398, "advocated": 11971, "Institute": 2024, "guess": 3319, "heaven": 9775, "##esh": 10654, "archive": 12406, "contaminated": 21636, "synthesizers": 26000, "Zhao": 16749, "boundary": 5904, "Them": 23420, "nodded": 2471, "##egan": 18886, "##36": 22997, "##ceiving": 24271, "height": 3976, "Chiefs": 12359, "mountain": 3231, "groundbreaking": 27983, "Fed": 26356, "##rrie": 19480, "##ust": 8954, "atmosphere": 6814, "Ensemble": 12618, "blasted": 20527, "Weir": 20931, "freshwater": 13800, "\u1d4d": 713, "##ero": 10771, "Tribal": 24252, "recommendations": 11859, "##iano": 16265, "Lok": 14444, "Routledge": 23331, "Hyde": 11878, "Slave": 23425, "Root": 26131, "fascination": 21926, "Sabine": 20081, "episodes": 3426, "aspect": 7631, "Nissan": 17574, "dumped": 14632, "Loving": 24141, "persistent": 15970, "plateau": 14404, "400": 3434, "from": 1121, "Dixie": 20578, "Branch": 6541, "Stoke": 13953, "scraping": 27088, "Office": 3060, "br": 9304, "##mbo": 13685, "Viola": 18007, "suspiciously": 23837, "benefited": 21495, "discretion": 21435, "Economy": 14592, "Devil": 8201, "Reed": 7527, "Tunisian": 25594, "##\u0f53": 28591, "clown": 25778, "##cane": 27313, "1837": 9443, "Linden": 26268, "meal": 7696, "fascist": 22402, "claiming": 6330, "##stead": 21018, "\u30ea": 969, "##y": 1183, "Panzer": 18753, "narrator": 12790, "migrate": 25572, "[unused97]": 97, "Warsaw": 7760, "Bremen": 17339, "difference": 3719, "boyfriend": 6508, "Boulder": 21266, "Everything": 5268, "glared": 9090, "##thorpe": 22194, "##pository": 24454, "236": 26361, "##nees": 27075, "##gling": 10134, "Comet": 28088, "153": 17777, "publisher": 6654, "ballads": 25303, "siblings": 9302, "Publications": 12524, "stalk": 27438, "whore": 20239, "251": 25101, "##\u1f50": 28673, "Charlie": 4117, "countered": 19347, "##ym": 17162, "Seems": 25686, "\u060c": 559, "Mean": 25030, "\u00b1": 212, "districts": 4210, "Woody": 17709, "confirmation": 15468, "##tham": 14988, "anger": 4470, "##iers": 11528, "tracing": 19225, "only": 1178, "##vern": 24472, "pod": 23015, "##sting": 19584, "##puram": 19246, "##oja": 26840, "hugging": 19558, "##bard": 27191, "caressed": 23744, "turret": 15781, "##eno": 26601, "##wave": 17159, "Destiny": 16784, "convenience": 16670, "allocation": 18205, "populace": 25087, "include": 1511, "counting": 11128, "##fest": 17695, "Luc": 13174, "fitted": 6609, "lineup": 10545, "##cherous": 26330, "Indiana": 4456, "Barracks": 20526, "periodicals": 25640, "flood": 7870, "lingering": 16329, "farm": 3922, "Ramsay": 21178, "Evaluation": 27845, "Saratoga": 25867, "Let": 2421, "airline": 8694, "You": 1192, "bolted": 19532, "dye": 23966, "Fellow": 6229, "Ariel": 17214, "international": 1835, "Ministers": 15102, "##park": 14967, "##cilla": 23694, "Macedonia": 11504, "Kerr": 15587, "MV": 23061, "Sale": 21862, "vows": 18095, "marshes": 23832, "##bic": 15421, "rushing": 8248, "wild": 4098, "helicopters": 13614, "youth": 3298, "\u30c9": 954, "Post": 3799, "amazement": 24100, "Keith": 6162, "##isco": 21097, "ibn": 10452, "##rri": 14791, "##gly": 18901, "consent": 9635, "##nged": 18288, "##izations": 20412, "\u2191": 844, "##uo": 11848, "Riga": 19813, "Bangalore": 14560, "##gro": 21932, "paints": 28022, "Story": 5145, "variables": 10986, "##rama": 21571, "dashed": 19647, "Pradesh": 7530, "democratic": 9327, "satisfied": 8723, "resolution": 6021, "outward": 16923, "325": 21380, "Rowing": 21480, "Butcher": 25991, "hats": 20096, "chromosome": 18697, "Spirits": 27761, "Zoe": 11929, "superiors": 26917, "serve": 2867, "shivered": 14422, "Stratford": 19011, "m\u00b3": 14813, "unit": 2587, "loving": 9207, "71": 5729, "Tamara": 24251, "##gating": 18401, "##oken": 27443, "##ico": 10658, "##rrick": 27511, "Open": 3353, "by": 1118, "wedding": 4655, "Forum": 8576, "Somehow": 13039, "coincide": 21439, "##atus": 16582, "rector": 15893, "##gogue": 26021, "Mart\u00edn": 18060, "##bbs": 20763, "##ughty": 18313, "Guggenheim": 22310, "##allo": 20797, "Todd": 6365, "Ch\u00e1vez": 26745, "injunction": 25905, "Presbyterian": 10091, "1995": 1876, "Ronald": 8565, "Igor": 15293, "##bre": 9730, "Gina": 18943, "##rey": 12210, "\u2082": 813, "Butterfly": 21494, "##\u00de": 28197, "sperm": 20479, "etc": 3576, "Trail": 6938, "Forbes": 10754, "Roxy": 26507, "runoff": 21814, "Spike": 12901, "Manila": 9002, "##rst": 9731, "Blair": 10378, "Ankara": 22206, "##RD": 23354, "graphics": 9043, "\u03ce": 445, "blessed": 15865, "Danny": 5595, "Drive": 6877, "Buck": 11505, "##mind": 22448, "\u0430": 475, "humanity": 9011, "\u3064": 910, "Claude": 7695, "Marino": 18940, "##gnition": 25763, "\u0650": 596, "\u0254": 355, "\u092c": 617, "rabbits": 25164, "Parma": 20967, "##ughter": 26760, "century": 1432, "##rator": 11412, "##lev": 23403, "##PP": 20923, "\u266d": 880, "Carlos": 5124, "XII": 15434, "##cre": 13782, "publicly": 6783, "\u041b": 458, "Katz": 22795, "constant": 4836, "subset": 18005, "dazed": 24528, "suspended": 6232, "magnet": 24197, "acres": 3913, "##\u00a2": 28158, "Op": 9126, "involve": 8803, "admiral": 15822, "celebrations": 12746, "NC": 14056, "Kuala": 16343, "##nett": 16302, "Route": 3320, "risks": 11040, "##taire": 25482, "Personal": 13907, "unitary": 26217, "sprint": 12766, "Denise": 16160, "kindly": 21559, "##ather": 17586, "Yamaha": 27275, "##unta": 19529, "##idy": 25382, "##\u1ed3": 28655, "##phone": 9293, "Rodgers": 16532, "McDonald": 9092, "parachute": 22021, "Banking": 20863, "\u221a": 854, "##wati": 26986, "avid": 21976, "##ergic": 26949, "principle": 6708, "wine": 4077, "##bourne": 10526, "##SA": 8055, "\u02b7": 379, "##rophe": 24658, "##u\u00e9": 22476, "moon": 5907, "lord": 7692, "Matter": 21773, "robbery": 15522, "Floor": 22774, "##tling": 13756, "rifles": 12385, "Serbian": 5881, "##nus": 9299, "tax": 3641, "intersection": 6326, "sensor": 15228, "substitute": 7359, "77": 5581, "slides": 15766, "##\u30b8": 28838, "immune": 11650, "Norwich": 12867, "altar": 9625, "##hetto": 17643, "beamed": 25176, "Automatic": 24842, "mosques": 26054, "##rich": 10886, "content": 3438, "##\u05d6": 28451, "##imes": 15370, "Two": 1960, "collaborations": 19575, "##tted": 16787, "Drop": 19909, "##FM": 17938, "integrity": 12363, "oven": 19645, "termed": 12201, "Pakistan": 3658, "according": 2452, "gleaming": 20353, "rebounds": 11174, "##lins": 17828, "173": 21121, "##ska": 9289, "Flower": 14742, "endorsed": 11889, "vague": 14673, "DD": 23232, "Speed": 10856, "joining": 4577, "##\u0915": 28510, "Watson": 7422, "##\u0f58": 28593, "wanna": 16445, "nightmare": 12178, "##eim": 20369, "gasped": 8140, "slash": 26632, "rooted": 16906, "Mabel": 21264, "product": 3317, "##au": 3984, "##utile": 26555, "##rrer": 26875, "Cameron": 6681, "##genus": 27651, "parted": 10155, "entrepreneur": 12035, "Wilmington": 18150, "##combe": 14231, "Carver": 24714, "##luded": 27567, "communist": 8356, "individuals": 2833, "intend": 13938, "Kappa": 17833, "healed": 15884, "filing": 16504, "##aco": 17312, "69": 5691, "Advancement": 23827, "prophecy": 19214, "\u2079": 807, "chef": 13628, "casts": 27486, "denial": 16926, "winged": 16282, "hardware": 8172, "Telephone": 22580, "maid": 13487, "Algiers": 25571, "aluminum": 14349, "sociology": 17083, "Empty": 17179, "Shelby": 16080, "##rgent": 14527, "Defense": 5262, "GDP": 14781, "Dub": 20691, "##rdon": 22528, "##flections": 26871, "timber": 7148, "gases": 17202, "votes": 3667, "2006": 1386, "nervous": 5604, "l": 181, "verse": 8062, "Vega": 17165, "militant": 19850, "##yme": 26911, "Yale": 7534, "Honour": 16451, "##ivision": 28096, "##enbach": 23091, "letting": 5074, "Thursday": 9170, "subsp": 28124, "##ogen": 19790, "Fountain": 19873, "elemental": 24789, "cloud": 7180, "CR": 15531, "##ador": 21784, "\u015e": 320, "read": 2373, "chase": 9839, "##gible": 12192, "Harlem": 15557, "\u05e4": 553, "##can": 7804, "lung": 13093, "dressed": 4462, "slept": 7362, "P": 153, "Science": 2444, "Donald": 5554, "##feld": 7355, "Noelle": 25425, "considered": 1737, "populated": 10240, "characteristic": 7987, "##green": 24448, "Bolshevik": 27904, "cites": 20417, "##hesia": 27300, "##\u02c8": 28305, "Head": 3763, "##lity": 11796, "endure": 19646, "Kenya": 7469, "pause": 8557, "includes": 2075, "Native": 4363, "sexes": 24549, "Autumn": 13154, "##payers": 27452, "MacArthur": 21045, "Expeditionary": 19345, "injury": 3773, "Hailey": 23923, "empty": 3427, "Lockheed": 18904, "los": 12724, "Corey": 19521, "Yemen": 14466, "bunker": 23674, "Bianca": 19772, "graduated": 3024, "rules": 2995, "fat": 7930, "Dominique": 19553, "versa": 21003, "##ivating": 19012, "settler": 21345, "science": 2598, "##sul": 24661, "##nts": 5240, "noir": 25766, "stained": 9729, "IDF": 27140, "\u00bb": 221, "\u0906": 606, "Infantry": 4155, "lever": 20097, "Bath": 10567, "Emerald": 24464, "basins": 26404, "himself": 1471, "##ada": 7971, "dessert": 20392, "filly": 27090, "climb": 6767, "Europa": 12348, "##\u00fas": 22521, "demanding": 9504, "controversial": 6241, "vertically": 22026, "##hur": 26033, "##orse": 18649, "race": 1886, "Evelyn": 13110, "pays": 15539, "Review": 4960, "token": 22559, "hunt": 8263, "annoyed": 12049, "##uate": 20043, "aid": 4256, "##\uc0ac": 28982, "Shankar": 18695, "authentic": 16047, "Origin": 18999, "Banner": 18985, "VHS": 18808, "mollusk": 13641, "disorder": 8936, "##boarding": 24631, "each": 1296, "##metric": 13689, "cadet": 22602, "##inator": 24682, "##oid": 7874, "Roman": 2264, "Winnipeg": 11070, "favourite": 9122, "Champion": 4445, "corporations": 12584, "Lowe": 14830, "compass": 23962, "##pelled": 24015, "lobby": 9722, "filter": 12123, "gown": 12042, "bills": 10020, "##\u044f": 14800, "multi": 4321, "##tsky": 26244, "\u0142": 306, "maritime": 12657, "540": 22120, "##form": 13199, "Nightmare": 26247, "sorry": 2959, "beast": 8839, "aloud": 13934, "James": 1600, "Testament": 9873, "Carl": 4804, "wires": 15923, "hostile": 10518, "Beaumont": 17227, "Agatha": 26854, "lingered": 18942, "SV": 21479, "bites": 17905, "blending": 27104, "##omo": 18445, "##\u0119": 28221, "Olympia": 18279, "third": 1503, "##type": 15177, "##idal": 13293, "padded": 22862, "##chenko": 18599, "Liberal": 4561, "chairman": 3931, "hang": 7311, "Samantha": 11421, "shocking": 19196, "Guardians": 21444, "##\u3044": 28787, "republic": 13911, "Tang": 10215, "nut": 22664, "Regulations": 24124, "interventions": 22496, "##ble": 2165, "Mouth": 27363, "radical": 8276, "Brazil": 3524, "mainstream": 7965, "Swansea": 17057, "Costello": 23093, "string": 5101, "devices": 5197, "daily": 3828, "garrison": 10609, "accumulation": 23168, "stick": 6166, "##ance": 3923, "\u1ee5": 759, "labour": 8596, "##bil": 15197, "morale": 22407, "Anita": 13173, "1903": 5066, "[unused87]": 87, "Eden": 10253, "##sed": 5591, "Speedway": 12081, "XML": 24868, "adorable": 27627, "counters": 27633, "##oly": 23415, "Colt": 10717, "outcome": 9386, "lowered": 6069, "##rit": 7729, "always": 1579, "snapping": 17332, "story": 1642, "##redo": 20792, "tracked": 13183, "Scene": 15555, "density": 3476, "##uds": 23218, "Strategy": 18050, "simulated": 27210, "spurred": 26222, "Helena": 10196, "\u751f": 1056, "Gone": 12289, "250": 4805, "friction": 16630, "confess": 20989, "recruits": 16231, "Minh": 21481, "contamination": 20908, "investigating": 11950, "defence": 6465, "Daphne": 18175, "\u2071": 801, "##dox": 15942, "##made": 12540, "##lane": 10303, "panicked": 17708, "##\u1ec1": 28648, "installation": 8205, "consistency": 20904, "truck": 4202, "Brass": 20982, "literary": 4618, "makers": 12525, "##onal": 24059, "demonstrated": 7160, "downstream": 14102, "Schumacher": 24656, "Mon": 22401, "hooded": 25076, "sounded": 4234, "MHz": 11511, "their": 1147, "Period": 16477, "##wide": 15665, "##ckle": 19053, "fantasies": 25147, "Complete": 12735, "firearms": 16025, "novel": 2281, "Grandpa": 18103, "Rights": 5399, "documentary": 4148, "candidate": 3234, "ministry": 8382, "1960s": 3266, "Qi": 24357, "Judiciary": 25932, "standards": 4473, "stroking": 15992, "ITV": 12019, "calling": 3516, "##ija": 18158, "ballot": 10713, "Tourism": 12067, "Volunteers": 19340, "##loc": 27089, "##\u00ed": 6212, "collections": 6286, "##ster": 4648, "benefits": 6245, "attitude": 7533, "Superintendent": 12987, "instrumental": 6338, "Elle": 17915, "spectacle": 25396, "290": 18374, "compression": 14928, "banned": 7548, "##throp": 21850, "Albanian": 9104, "door": 1442, "##otes": 27468, "##erina": 18866, "##tino": 20064, "##GI": 21065, "aggressively": 27933, "patent": 8581, "hiatus": 14938, "##EM": 15577, "firms": 9780, "##tic": 2941, "Laboratory": 8891, "granting": 16078, "MiG": 25107, "flats": 18181, "transmitter": 11991, "##haus": 13842, "Crash": 21229, "data": 2233, "Belmont": 18672, "192": 18868, "Sung": 21375, "##mpo": 24729, "Funk": 20019, "##aley": 25910, "contrasts": 26856, "##tamine": 27621, "##found": 27794, "Zoo": 13899, "Conan": 17727, "legendary": 9445, "##rane": 18194, "dual": 7058, "updated": 8054, "Qualification": 26298, "##lient": 19526, "warned": 6926, "Wiltshire": 18188, "Digital": 6082, "dispatch": 27209, "##keeping": 14692, "Marius": 21915, "dishes": 10514, "command": 2663, "Severn": 27908, "##rudge": 27577, "promise": 4437, "##\u6b66": 28939, "sparkling": 18439, "1763": 19877, "##kt": 21270, "assistants": 19902, "throbbing": 18767, "made": 1189, "##\u2030": 28698, "nobleman": 20444, "Hughes": 7638, "##amble": 16033, "##verted": 17534, "unfinished": 16623, "##beat": 14262, "chords": 22098, "##ttle": 16257, "finds": 4090, "Inc": 3561, "evolve": 23530, "##aster": 20517, "##itution": 27067, "##MX": 22941, "##rmal": 25635, "Rey": 12952, "beautifully": 19758, "Collegiate": 14329, "##\u0f7a": 28599, "passenger": 4059, "sentiments": 27282, "schools": 2126, "Mongolian": 19210, "##ulp": 20510, "Nor": 16162, "my": 1139, "wives": 11798, "CB": 18893, "dotted": 22641, "Sick": 27056, "sets": 3741, "specimens": 9985, "##S": 1708, "littered": 28006, "Marissa": 25367, "##\u98df": 28977, "##eval": 17885, "cube": 22034, "ought": 11454, "sir": 6442, "She": 1153, "Guy": 6173, "Hindi": 9001, "Arts": 2334, "invested": 11285, "Easter": 11244, "nineteen": 14834, "Tirana": 27759, "declined": 5799, "metal": 2720, "lacking": 11744, "##10": 10424, "##TS": 11365, "squeeze": 11633, "keeps": 7634, "thought": 1354, "deficiency": 21344, "remedy": 23615, "##ict": 17882, "apology": 13382, "Bryce": 21528, "sing": 6928, "preferring": 24075, "\u098f": 639, "Milan": 6390, "\u0418": 456, "##\u0430": 10286, "matches": 2697, "celestial": 25432, "ABS": 20066, "ng": 21174, "##acy": 15347, "##\u00b7": 28172, "resides": 11719, "##\u02bc": 28302, "law": 1644, "numbering": 16538, "differing": 18470, "\u0434": 479, "##pies": 15108, "FCC": 15121, "##ily": 5264, "Canterbury": 9763, "\u1e5b": 735, "Guinea": 6793, "Alto": 17762, "light": 1609, "happier": 21617, "supervision": 10955, "merchant": 6800, "feminist": 12080, "clinging": 19728, "packs": 16777, "si": 27466, "Amanda": 7872, "warfare": 9405, "##bb": 13834, "ram": 26084, "poisonous": 26106, "Nolan": 13761, "symbols": 9282, "credit": 4755, "successor": 5714, "tuning": 19689, "92": 5556, "##due": 21405, "everyday": 11236, "R\u00edo": 21683, "Matt": 3895, "##\u2660": 28770, "ribbon": 14253, "advertising": 6437, "Prevention": 18461, "alleging": 26099, "##\u5973": 28906, "##\u0965": 28539, "batter": 27584, "##aft": 17495, "\u2098": 830, "Georgia": 3260, "Jorge": 10780, "decades": 4397, "##bidae": 20761, "Bahadur": 24290, "##lman": 12151, "del": 3687, "canceled": 13825, "\u00f0": 262, "##tribution": 14970, "##tives": 27230, "Otherwise": 15853, "clicked": 14376, "Petroleum": 20396, "Alongside": 26589, "##\u548c": 28895, "##ech": 11252, "Ambrose": 16579, "Nobel": 10412, "800": 4645, "nests": 19759, "##nated": 25206, "Debbie": 17431, "Beaver": 16626, "Scientist": 22985, "84": 5731, "Edna": 23273, "indicate": 5057, "\u0416": 454, "Goodbye": 15938, "Wilcox": 26813, "Consider": 25515, "appeared": 1691, "frightened": 10551, "congress": 16821, "partners": 6449, "\u041a": 457, "\u661f": 1035, "terrorists": 17219, "Rico": 6526, "intercourse": 26864, "\u00c9tienne": 26276, "frankly": 27642, "signals": 7981, "Various": 9311, "attacker": 19114, "##rth": 11687, "##rings": 23961, "\u00c1ngel": 25257, "Carpenter": 13190, "naturally": 8534, "cartridges": 26274, "gig": 17799, "spherical": 21279, "resignation": 7809, "\u042f": 474, "requirement": 8875, "documentation": 14371, "##RB": 22672, "Jasper": 15805, "options": 6665, "Air": 1806, "Mormon": 15887, "Ares": 27489, "Gail": 20374, "ill": 5178, "analog": 13022, "Syracuse": 11775, "Romanesque": 18895, "Warrington": 25687, "lashes": 17366, "##sion": 8427, "Photo": 21906, "demanded": 5648, "Agent": 9341, "Fang": 18602, "##kovic": 22953, "\u01d4": 347, "bodies": 3470, "Secondary": 7934, "Lyons": 17728, "Clubs": 18812, "McDonnell": 25847, "appearing": 5452, "Attendance": 6868, "##changing": 23286, "Travel": 7938, "hazardous": 20981, "Marcus": 6042, "Class": 3699, "Fool": 21935, "Petit": 21386, "seated": 8808, "##finery": 23011, "Thought": 15255, "Colin": 6381, "procedure": 7791, "reasoned": 27763, "##\u0406": 28364, "falls": 4887, "\u208a": 821, "walkway": 22010, "times": 1551, "commuter": 17397, "enslaved": 25781, "##bage": 22070, "pop": 3618, "things": 1614, "Jong": 20950, "pinyin": 10307, "##run": 10607, "Dora": 23758, "217": 22196, "dismissed": 6714, "##idas": 23358, "McLaughlin": 26721, "Rank": 25949, "spill": 16412, "Lawson": 15205, "Prix": 4781, "680": 26838, "proceeds": 11283, "Supply": 17153, "sympathetic": 13493, "##neck": 19517, "##port": 4342, "##nza": 12541, "scrap": 16720, "Bert": 15035, "##\u1e5b": 28637, "artificial": 8246, "Allmusic": 16446, "Wilkins": 25302, "##angelo": 27638, "Elite": 13995, "##rsch": 20627, "##MR": 21148, "Real": 5230, "Soviets": 16359, "##HP": 18104, "demographic": 17898, "##ek": 4820, "attractive": 8394, "##\u6238": 28922, "[unused99]": 99, "generally": 2412, "##orms": 25972, "Hole": 16535, "Vincenzo": 27854, "biological": 7269, "Meyer": 11545, "evaluate": 17459, "hearing": 4510, "elimination": 10466, "supposed": 3155, "##rient": 27286, "Northeast": 12079, "##vered": 19190, "1648": 25020, "induction": 18293, "traumatic": 23057, "##cumenical": 26240, "Poems": 13820, "##heses": 18769, "Already": 16599, "##press": 11135, "Zurich": 16142, "suffers": 18907, "reinforcements": 15132, "accredited": 12032, "Online": 10523, "##\u00e1k": 24154, "allotted": 27135, "123": 13414, "640": 21451, "paths": 10843, "##hiro": 17427, "Subsequent": 20499, "baseball": 3866, "##ascism": 26492, "dreadful": 25671, "Raymond": 7139, "sway": 21931, "##tment": 22668, "boring": 12533, "##riya": 16383, "Islamic": 4769, "smug": 23106, "evident": 10238, "about": 1164, "preface": 24601, "poll": 9590, "##ak": 3715, "Fifteen": 20902, "residues": 25513, "rapper": 11333, "Group": 1990, "tide": 12600, "enjoyment": 22345, "Dare": 22471, "conservation": 7472, "##upation": 26392, "alternatively": 25276, "airport": 3871, "##\u3081": 28814, "Frey": 21921, "##sunderstanding": 27187, "90s": 18476, "Spa": 23665, "observers": 15793, "Touch": 13637, "hung": 4629, "favour": 7511, "complexity": 12133, "##awed": 21449, "counseling": 22138, "narrowed": 7604, "##m\u00e9": 25729, "Reservation": 21542, "Crosby": 14841, "##rz": 11819, "##\u01b0": 28265, "dropped": 2434, "strong": 2012, "overcome": 9414, "weak": 4780, "separating": 15352, "vibration": 20401, "##eller": 13703, "Rolling": 8782, "\u09aa": 653, "Terrace": 17654, "Olaf": 22745, "##ntina": 23805, "seminar": 28067, "charged": 4601, "Thorne": 14872, "Dortmund": 26770, "Eighth": 17561, "Server": 18950, "Content": 27551, "Grandma": 16245, "Oriental": 13078, "Rupert": 15288, "addiction": 15658, "weird": 6994, "Theo": 15840, "Cheshire": 14242, "hers": 4364, "monkeys": 22413, "sprawling": 27541, "pursed": 24292, "disguise": 15699, "own": 1319, "emblem": 19423, "Tacoma": 25588, "Connolly": 23110, "electro": 24266, "Sonny": 14236, "CHAPTER": 8203, "##hr": 8167, "turned": 1454, "Graduate": 11045, "##tock": 15960, "Rose": 3831, "##\u0126": 28225, "Laurie": 17470, "storms": 14041, "According": 1792, "sky": 3901, "predator": 19653, "depiction": 16940, "Freedom": 6483, "conduct": 5880, "study": 2025, "dominating": 24778, "used": 1215, "Places": 5068, "backwards": 11316, "124": 13743, "##\u00c9": 28187, "Espa\u00f1a": 23453, "Eastman": 27251, "Miles": 7726, "Commons": 7554, "Neville": 15562, "Library": 3371, "Richard": 2055, "##\u3082": 28815, "jersey": 14953, "##pping": 13044, "spears": 27490, "high": 1344, "Legacy": 15512, "Worker": 26455, "Presidential": 9643, "bodily": 23006, "combined": 3490, "##ku": 4786, "Ridley": 23013, "##lov": 14185, "##points": 21521, "Grey": 6285, "recycled": 25677, "Lowell": 16367, "Bet": 26615, "##inge": 27048, "##isk": 13189, "##\u2012": 28683, "geographically": 26160, "##ors": 3864, "funds": 4381, "pension": 12966, "devote": 26344, "Via": 15709, "##uni": 19782, "Trick": 27069, "marathon": 14147, "Florida": 2631, "Sovereign": 24600, "organist": 19209, "cabinet": 6109, "determined": 3552, "guitars": 7789, "Fox": 3977, "metals": 13237, "Ames": 22501, "curator": 16072, "[unused86]": 86, "shipment": 25464, "Administration": 4918, "sarcastically": 26708, "Drake": 7431, "inclusion": 10838, "##\u0906": 28509, "proponent": 25046, "##ls": 3447, "paradigm": 26213, "foil": 20235, "Gretchen": 23886, "goalkeeper": 10159, "flashback": 27836, "kn": 18325, "Law": 2601, "waterfront": 22975, "summers": 14921, "Como": 25143, "Kiev": 12220, "hurricane": 10610, "Hip": 12803, "monopoly": 18356, "Newfoundland": 12033, "doctrine": 9978, "Committee": 2341, "cab": 10347, "Formerly": 18426, "Hatch": 25945, "bony": 26647, "antagonist": 19173, "##ilton": 21970, "##eanut": 23629, "apron": 22859, "fuselage": 13959, "rescuing": 27409, "[unused38]": 38, "##sko": 20428, "Aleksandr": 26955, "##\u0254": 28276, "##hesive": 23838, "##ygiene": 21431, "motioned": 13325, "##ahan": 14063, "Brandenburg": 17440, "204": 21355, "##won": 16732, "vigorously": 24943, "Ma": 7085, "G\u00f3mez": 21550, "outnumbered": 25346, "hospitality": 21604, "Lea": 12958, "jaws": 19946, "bitten": 21381, "expect": 5363, "\u092d": 618, "fabric": 8113, "volumes": 6357, "##place": 11256, "auxiliary": 13817, "apart": 3966, "succeeding": 13605, "mocking": 21701, "##rud": 25980, "text": 3087, "Congressional": 12537, "Burn": 16915, "cursing": 25002, "Owen": 6761, "Heritage": 5560, "22": 1659, "Check": 23114, "archaeologists": 24104, "##tled": 16271, "dig": 11902, "brigadier": 23965, "Ventures": 25386, "constitute": 12500, "pressing": 7675, "precious": 9692, "Arnold": 7296, "##nis": 7221, "upgrades": 20889, "anatomy": 19768, "##\u00ae": 28167, "grasp": 10598, "formerly": 3147, "##uous": 8163, "Domestic": 21057, "##\u03c0": 28352, "resource": 9100, "Coral": 20385, "ceded": 21698, "flock": 24117, "impact": 3772, "survival": 8115, "##\u0394": 28318, "manuscript": 8323, "rails": 17116, "##roth": 21941, "babe": 17943, "Eureka": 23695, "184": 21421, "##inia": 25397, "crawl": 14869, "Eddy": 18998, "niche": 20545, "African": 2170, "Oz": 16075, "##eran": 19776, "##dened": 20639, "inserted": 13137, "squirrel": 25817, "Alvin": 18577, "Davies": 8746, "Typhoon": 26490, "bathroom": 5056, "targeting": 15141, "stairs": 4377, "##\u0131": 12262, "Texas": 2245, "Ten": 5157, "meter": 8227, "Jerusalem": 6167, "Atl\u00e9tico": 18034, "sad": 6782, "spots": 7152, "Midway": 20389, "Tory": 18377, "reconciliation": 21482, "crude": 14699, "seemed": 1882, "pitches": 21271, "1887": 6225, "[unused88]": 88, "spaces": 6966, "millennium": 17928, "Julie": 7129, "Tara": 10235, "##voy": 12716, "##cedural": 27433, "exclusion": 18434, "##sent": 27408, "slipping": 12186, "reader": 9728, "Artillery": 7211, "adjusted": 10491, "##\u221e": 28749, "Yo": 14941, "spices": 25133, "halftime": 26077, "research": 1844, "##lya": 25928, "cry": 5354, "##oris": 25758, "##own": 13798,
[...]
