{"\u30e0": 1725, "##ili": 18622, "deteriorated": 20111, "hormone": 18714, "\u300d": 1642, "##nsed": 27730, "hitting": 7294, "##lat": 20051, "reflections": 16055, "nero": 19212, "browns": 13240, "judges": 6794, "##ising": 9355, "##iani": 25443, "suffered": 4265, "daemon": 12828, "dismissal": 15322, "urgently": 25478, "##nad": 25389, "grandchildren": 13628, "term": 2744, "##pus": 12207, "beta": 8247, "liaison": 14975, "residue": 21755, "[unused283]": 288, "frail": 25737, "nicholls": 27043, "\u2f65": 1634, "[unused303]": 308, "grotesque": 27707, "##ting": 3436, "##bi": 5638, "mermaid": 22322, "michaels": 17784, "painter": 5276, "promising": 10015, "\u8c9d": 1952, "##cier": 19562, "beloved": 11419, "##lde": 17920, "##lves": 20899, "kira": 15163, "##sca": 15782, "[unused128]": 133, "seventeen": 9171, "bomber": 9472, "sperm": 18047, "mosques": 21922, "334": 29562, "##irs": 18894, "moaning": 22653, "##\u4e4b": 30275, "##tyle": 27983, "##hesive": 21579, "sultan": 7544, "computing": 9798, "schneider": 15159, "frey": 20068, "powers": 4204, "bharatiya": 24243, "alarms": 29034, "cookie": 17387, "abbott": 14455, "##hma": 22444, "inconsistent": 20316, "policies": 6043, "goddess": 7804, "probable": 15596, "spy": 8645, "coulter": 28293, "ieee": 15368, "escorting": 23831, "begs": 27591, "tones": 12623, "britannia": 24677, "eighties": 27690, "friendships": 28956, "valentine": 10113, "spanned": 18212, "ensuing": 13831, "healed": 15027, "partition": 13571, "vicar": 12340, "goose": 13020, "siberia": 16881, "croatian": 7963, "rue": 13413, "##tries": 21011, "denominations": 17384, "constructive": 26157, "emissions": 11768, "nu": 16371, "deciduous": 22411, "conceal": 19819, "1656": 28434, "[unused610]": 615, "##rites": 28884, "functioning": 12285, "policemen": 19809, "approached": 5411, "convinced": 6427, "persia": 16667, "qui": 21864, "magistrates": 23007, "##bow": 18912, "philology": 29286, "ben": 3841, "##tooth": 19392, "putnam": 20230, "slang": 21435, "leger": 26523, "cars": 3765, "prefecture": 7498, "pune": 16920, "centimetres": 13935, "slides": 14816, "heir": 8215, "cinematographer": 19245, "benito": 23595, "engine": 3194, "skaters": 24789, "fairs": 21947, "enrichment": 27226, "##zic": 27586, "##ku": 5283, "capitalism": 16498, "sparkled": 28092, "\u05db": 1252, "laugh": 4756, "barrel": 8460, "modelling": 19518, "straining": 21366, "##ssler": 23385, "##amy": 24079, "star": 2732, "107": 10550, "betsy": 22396, "##riam": 25557, "paul": 2703, "guido": 20239, "stench": 21555, "malaga": 27382, "352": 28906, "\u05d6": 1247, "motives": 17108, "circulation": 9141, "ed": 3968, "makeup": 5789, "dynasties": 23014, "##1": 2487, "worked": 2499, "44": 4008, "patti": 22732, "\u674e": 1877, "brew": 24702, "##nagar": 14346, "es": 9686, "##per": 4842, "georgie": 20280, "moran": 17866, "##anger": 25121, "planetary": 17700, "pang": 20657, "[unused778]": 783, "liberal": 4314, "##12": 12521, "##ctric": 22601, "mature": 9677, "1867": 7517, "##ssen": 14416, "##encia": 27742, "1955": 3982, "nickname": 8367, "messina": 27270, "hints": 20385, "batman": 8942, "clear": 3154, "gaming": 10355, "brand": 4435, "click": 11562, "eddy": 16645, "koln": 28306, "murdered": 7129, "##sty": 21756, "##kou": 24861, "[unused252]": 257, "1890": 6193, "wembley": 16538, "mayors": 21941, "##rna": 12789, "rockwell": 25235, "convincing": 13359, "##\u91cc": 30488, "\u83ef": 1942, "##ckey": 29183, "lim": 18525, "colonies": 8355, "realizes": 10919, "\u4eee": 1761, "##\u03c6": 29736, "\u0640": 1290, "grumbled": 17030, "sunrise": 13932, "progressed": 12506, "facilitate": 10956, "ib": 21307, "dysfunction": 28466, "##\u5fe0": 30378, "borrowed": 11780, "hail": 16889, "##eum": 14820, "78": 6275, "vital": 8995, "frescoes": 23360, "laws": 4277, "59": 5354, "belonged": 6272, "uranium": 14247, "proves": 16481, "weeping": 19750, "##scribe": 29234, "crotch": 28629, "easton": 21636, "involving": 5994, "brianna": 25558, "ign": 16270, "aqueduct": 24016, "victorious": 13846, "responsive": 26651, "339": 28977, "carolina": 3792, "[unused492]": 497, "##zy": 9096, "##iary": 17302, "##rrie": 22155, "recalling": 21195, "sampling": 16227, "##lter": 21928, "allowed": 3039, "##yang": 12198, "atlantis": 16637, "hadn": 2910, "jump": 5376, "accordingly": 11914, "variance": 23284, "rigorous": 20001, "##ccus": 27631, "anticipated": 11436, "##\u30d2": 30245, "30": 2382, "despair": 13905, "constituted": 11846, "festivities": 21206, "listings": 26213, "##word": 18351, "find": 2424, "sing": 6170, "inclined": 13050, "actors": 5889, "##ular": 7934, "proficient": 27029, "##cre": 16748, "uv": 23068, "weeks": 3134, "philanthropist": 15246, "jonathan": 5655, "##ied": 6340, "index": 5950, "wilde": 18575, "##ado": 9365, "calculation": 17208, "maternal": 11062, "[unused585]": 590, "constructions": 21913, "become": 2468, "fling": 27655, "##ower": 25114, "sherlock": 20052, "physiology": 16127, "receiving": 4909, "rhyme": 20622, "##zko": 29002, "rare": 4678, "1915": 4936, "culminating": 16979, "nail": 13774, "vista": 13005, "chip": 9090, "strongly": 6118, "mai": 14736, "prose": 12388, "##olt": 27914, "seth": 6662, "butte": 25024, "ongoing": 7552, "[unused135]": 140, "change": 2689, "symmetry": 14991, "dispose": 27764, "\u30d2": 1719, "425": 23285, "\u30b5": 1705, "texas": 3146, "94": 6365, "locomotive": 8098, "singers": 8453, "ensured": 16316, "encounters": 11340, "slowing": 18068, "##bert": 8296, "name": 2171, "wow": 10166, "baku": 16807, "atlantic": 4448, "inflammatory": 20187, "duplicate": 24473, "melvin": 20993, "maison": 26420, "real": 2613, "infinite": 10709, "stage": 2754, "homestead": 14473, "loading": 10578, "growling": 22413, "\u0993": 1352, "compassion": 15398, "guard": 3457, "brilliant": 8235, "##\u6751": 30404, "insist": 18292, "##ctus": 22675, "luxurious": 20783, "bahrain": 15195, "cuts": 7659, "##genic": 16505, "elect": 11322, "diaz": 12526, "rm": 28549, "comfortably": 18579, "sipping": 24747, "investigated": 10847, "smackdown": 22120, "gingerly": 26961, "[unused743]": 748, "##iting": 15402, "caracas": 21675, "photographs": 7008, "##nett": 15361, "##kin": 4939, "##dd": 14141, "monitors": 15410, "##rdan": 26992, "rna": 12987, "misunderstood": 28947, "cookies": 16324, "pilasters": 26752, "prior": 3188, "drinking": 5948, "pupil": 11136, "rocks": 5749, "curling": 11599, "exclaimed": 12713, "embracing": 23581, "amusing": 19142, "suggested": 4081, "occupation": 6139, "##lp": 14277, "provincial": 4992, "perry": 6890, "renal": 25125, "preaching": 17979, "cervical": 28711, "invading": 17657, "gardener": 19785, "distracted": 11116, "gamble": 18503, "[unused389]": 394, "iraqi": 8956, "220": 10545, "movements": 5750, "height": 4578, "327": 28469, "municipalities": 7602, "wins": 5222, "sealing": 23038, "##ci": 6895, "flynn": 13259, "patted": 11930, "spur": 12996, "##ation": 3370, "breathed": 8726, "\u99ac": 1980, "ann": 5754, "wrist": 7223, "pear": 28253, "apple": 6207, "[unused338]": 343, "\u5206": 1775, "stew": 20717, "refugees": 8711, "cassandra": 15609, "reliable": 10539, "[unused279]": 284, "assimilation": 27574, "cheney": 23745, "aryan": 26030, "##\u53e4": 30315, "inferior": 14092, "domains": 13100, "assigned": 4137, "sank": 7569, "poppy": 19745, "singular": 13048, "remixed": 17574, "recipes": 19328, "maternity": 23676, "meditation": 13804, "brilliance": 28850, "crown": 4410, "pack": 5308, "rift": 16931, "woodstock": 21028, "##rling": 22036, "receipts": 28258, "significant": 3278, "relaxation": 23370, "[unused531]": 536, "##tam": 15464, "nine": 3157, "franks": 21310, "##lho": 28061, "rate": 3446, "mothers": 10756, "answered": 4660, "muster": 20327, "boston": 3731, "walnut": 18489, "domino": 23968, "##graphy": 12565, "constraint": 27142, "##nn": 10695, "caitlin": 27555, "nana": 17810, "collaborative": 12317, "discarded": 15105, "aura": 15240, "##\u2660": 30150, "finds": 4858, "134": 15170, "##mad": 25666, "calling": 4214, "##iter": 21646, "70": 3963, "adrenaline": 14963, "rude": 12726, "ralph": 6798, "manson": 21440, "epithet": 19626, "palatinate": 18990, "mr": 2720, "edmonton": 10522, "##\u0e2d": 29957, "borg": 28709, "[unused89]": 90, "node": 13045, "overall": 3452, "liking": 16663, "archaeological": 7611, "##bolt": 22803, "essence": 11305, "classroom": 9823, "##\u00a7": 29650, "##aver": 22208, "clemens": 27277, "expanding": 9186, "keeping": 4363, "bottoms": 24196, "motors": 9693, "flora": 10088, "psychological": 8317, "[unused833]": 838, "sprang": 15627, "neil": 6606, "march": 2233, "huffington": 26149, "carolyn": 15611, "expansive": 25145, "[unused94]": 95, "caucasian": 23368, "##\u00ac": 29655, "[unused941]": 946, "municipal": 4546, "##hun": 17157, "magna": 20201, "##ulia": 20922, "fearless": 22518, "1701": 26059, "antennae": 28624, "[unused465]": 470, "attend": 5463, "roadside": 25131, "paw": 22195, "verve": 29230, "##\u116e": 30014, "48": 4466, "cm": 4642, "##\u5f35": 30370, "traditionally": 6964, "reunification": 28044, "##uro": 10976, "coke": 14492, "hilt": 21184, "girlfriends": 27408, "cues": 23391, "tendencies": 20074, "abbess": 28010, "cupped": 13740, "coil": 17085, "whistled": 26265, "cpi": 28780, "manitoba": 10512, "[unused51]": 52, "148": 16459, "weird": 6881, "eastward": 17318, "allocation": 16169, "##mous": 27711, "scottish": 4104, "03": 6021, "maximus": 21692, "donaldson": 23164, "nominal": 15087, "touched": 5028, "protesters": 13337, "norma": 20692, "allies": 6956, "classical": 4556, "hermann": 12224, "depictions": 20818, "notable": 3862, "twists": 21438, "calcium": 13853, "doorstep": 26581, "perennial": 14638, "yelling": 13175, "[unused214]": 219, "airs": 14369, "sikh": 17246, "walled": 17692, "interrupting": 22602, "reptiles": 20978, "[unused367]": 372, "foster": 6469, "materials": 4475, "garion": 12523, "steaming": 19986, "rite": 14034, "##vis": 11365, "##ll": 3363, "reissued": 14805, "##meter": 22828, "##ations": 10708, "drops": 9010, "##stis": 29472, "##uce": 18796, "mathews": 23287, "irregular": 12052, "flowering": 10902, "4th": 4343, "digging": 10443, "exciting": 10990, "communists": 13009, "##urst": 29402, "separate": 3584, "resist": 9507, "rhino": 24091, "barns": 25684, "kazakh": 25907, "ignorant": 21591, "reproduced": 22296, "##rring": 18807, "sr": 5034, "virtues": 21560, "augsburg": 24362, "bert": 14324, "severed": 16574, "archive": 8756, "match": 2674, "soviet": 3354, "##nie": 8034, "tentacles": 24719, "glad": 5580, "lawson": 14577, "##\u09a4": 29898, "traits": 12955, "##nin": 11483, "zen": 16729, "mat": 13523, "benji": 27231, "[unused221]": 226, "lying": 4688, "rochester": 10541, "playfully": 22608, "[unused870]": 875, "compete": 5566, "blade": 6085, "tyler": 7482, "loan": 5414, "enclosed": 10837, "##horn": 9769, "aisle": 12485, "##ule": 9307, "superintendent": 9133, "ties": 7208, "fun": 4569, "summons": 24814, "waiter": 15610, "##ulate": 9869, "intervention": 8830, "ticking": 28561, "carries": 7883, "qualify": 7515, "lauren": 10294, "waters": 5380, "##\u1112": 30005, "##abas": 27537, "astronomer": 15211, "propose": 16599, "pillars": 13766, "168": 16923, "wu": 8814, "[unused123]": 128, "hewitt": 19482, "cash": 5356, "ancestral": 14947, "universities": 5534, "dots": 14981, "illness": 7355, "aristocracy": 22706, "scully": 25686, "certificates": 17987, "radius": 12177, "##bread": 27035, "##space": 23058, "ne": 11265, "racecourse": 15948, "rangers": 7181, "##tian": 10772, "gotham": 22814, "my": 2026, "turns": 4332, "##ot": 4140, "stryker": 25429, "##sling": 28886, "##mar": 7849, "[unused176]": 181, "ju": 18414, "##\u2154": 30110, "insides": 19008, "priests": 8656, "[unused284]": 289, "configurations": 22354, "everton": 18022, "hive": 26736, "##ager": 17325, "basis": 3978, "##rner": 18703, "bombings": 20109, "technology": 2974, "ruins": 8435, "barber": 13362, "##court": 13421, "labourers": 24043, "##ng": 3070, "lafayette": 14425, "android": 11924, "blacks": 10823, "believed": 3373, "##ima": 9581, "constable": 12294, "mushrooms": 23827, "saxe": 24937, "fury": 8111, "\u2079": 1543, "astonishing": 26137, "freyja": 7075, "torpedoes": 18544, "prima": 21111, "finely": 22126, "donation": 13445, "precedence": 23359, "relations": 4262, "breakaway": 26321, "\u2228": 1603, "calmed": 20869, "reconcile": 21063, "##feng": 24383, "satisfy": 13225, "escorted": 13127, "atheist": 23503, "evaluate": 16157, "need": 2342, "clock": 5119, "paradise": 9097, "babylon": 17690, "compares": 22963, "bypass": 11826, "transatlantic": 26617, "isles": 14195, "arrondissement": 20522, "rumours": 19200, "shrewsbury": 18174, "bulldogs": 15120, "compressed": 16620, "deities": 17091, "charismatic": 23916, "minnesota": 5135, "[unused612]": 617, "calgary": 10112, "keating": 25865, "elusive": 26475, "penned": 17430, "##den": 4181, "cubs": 12469, "jay": 6108, "##ip": 11514, "etat": 17997, "ortega": 25859, "##tus": 5809, "bryson": 26845, "uae": 17641, "fathers": 11397, "kneeling": 16916, "safer": 13726, "##elis": 29282, "medicine": 4200, "gnu": 27004, "elle": 15317, "##45": 19961, "peter": 2848, "yokohama": 20507, "##mmer": 15810, "funk": 11962, "fielder": 25000, "legend": 5722, "microscope": 24635, "francisco": 3799, "anger": 4963, "myers": 13854, "butcher": 14998, "\u771f": 1921, "pastures": 24813, "endings": 21306, "##ngen": 25997, "lord": 2935, "[unused112]": 117, "required": 3223, "touching": 7244, "##50": 12376, "##\u8fb6": 30482, "gets": 4152, "currents": 14731, "##enia": 19825, "statements": 8635, "1801": 12410, "katrina": 16864, "bully": 20716, "bleeding": 9524, "ourselves": 9731, "waiting": 3403, "honestly": 9826, "billed": 14843, "##\u8cb4": 30479, "##bbe": 19473, "substitution": 20885, "grove": 7676, "evacuated": 13377, "morton": 11164, "irina": 25404, "apocalyptic": 27660, "motivation": 14354, "navarre": 21260, "payload": 18093, "vols": 18709, "occasionally": 5681, "manchu": 26650, "outdoor": 7254, "##\uff1f": 30520, "electorate": 13694, "1986": 3069, "troop": 10123, "material": 3430, "hamilton": 5226, "confrontation": 13111, "bodily": 20445, "notice": 5060, "oclc": 12258, "161": 17365, "longest": 6493, "militant": 16830, "understood": 5319, "celebrating": 12964, "[unused573]": 578, "beyond": 3458, "##icide": 21752, "ghost": 5745, "interpreted": 10009, "##gged": 15567, "desperately": 9652, "return": 2709, "##sley": 8002, "##rol": 13153, "county": 2221, "behind": 2369, "broad": 5041, "fat": 6638, "sweetheart": 12074, "torso": 15190, "##\u0131": 11722, "chatham": 16727, "cops": 10558, "chaotic": 19633, "retail": 7027, "beneficial": 15189, "nepal": 8222, "deployment": 10813, "lamp": 10437, "mouse": 8000, "165": 13913, "triangular": 14023, "##ui": 10179, "lydia": 14076, "sutherland": 14274, "nationale": 17360, "1917": 4585, "144": 14748, "##\u043d\u0430": 19865, "scarred": 21985, "28th": 15538, "intervals": 14025, "##athan": 29246, "genesis": 11046, "##\u057e": 29782, "piano": 3682, "##ains": 28247, "rn": 29300, "upstream": 13909, "politely": 16954, "huge": 4121, "vi": 6819, "##weight": 11179, "vatican": 12111, "engraved": 16328, "emphasizes": 20618, "crashed": 8007, "##boats": 19468, "invincible": 25018, "[unused457]": 462, "##bution": 29446, "baden": 12189, "yearly": 12142, "[unused312]": 317, "indus": 27746, "530": 23523, "\u0f0d": 1425, "##una": 9521, "##stan": 12693, "illegal": 6206, "bassist": 9858, "rumbling": 26670, "meteor": 23879, "leader": 3003, "##ischen": 24488, "270": 13756, "ceased": 7024, "doors": 4303, "carthage": 21959, "contests": 15795, "experiences": 6322, "shuffling": 24770, "walks": 7365, "designation": 8259, "nt": 23961, "##ike": 17339, "\u5e1d": 1838, "rebelled": 25183, "21st": 7398, "effectiveness": 12353, "sara": 7354, "titans": 13785, "excavations": 14018, "regarding": 4953, "category": 4696, "neurons": 15698, "allah": 16455, "carriage": 9118, "held": 2218, "##\u09a5": 29899, "incidence": 18949, "512": 24406, "crushing": 14527, "hurry": 9241, "##kia": 21128, "frederic": 15296, "guadalupe": 23529, "[unused699]": 704, "pronounced": 8793, "##\u4e5f": 30276, "wilkins": 22745, "savior": 24859, "\u3057": 1657, "##chio": 23584, "\u4e8b": 1751, "tow": 15805, "muller": 12304, "provides": 3640, "##rook": 25399, "##ning": 5582, "##\u044e": 29757, "classified": 6219, "##\u79be": 30453, "1710": 23841, "##sier": 20236, "loads": 15665, "delle": 24121, "anglo": 7819, "bedrock": 28272, "traveling": 7118, "##athic": 20972, "241": 22343, "precinct": 18761, "subtropical": 11935, "##iq": 18515, "##\u6cd5": 30427, "##rds": 17811, "mistakes": 12051, "casting": 9179, "lending": 18435, "##runa": 26605, "grenada": 29153, "restoring": 16487, "edison": 17046, "betray": 20895, "volga": 26459, "cuisine": 12846, "resulting": 4525, "beast": 6841, "intent": 7848, "##\u0f63": 29971, "substitute": 7681, "\u0294": 1139, "zone": 4224, "crocodile": 21843, "asahi": 29465, "##\u2015": 30053, "##gy": 6292, "mute": 20101, "constrained": 27570, "##mise": 28732, "colonization": 18962, "##eca": 19281, "307": 24559, "conner": 17639, "##\u0640": 29832, "alvaro": 24892, "cowan": 25752, "warehouses": 23319, "\u2033": 1532, "official": 2880, "parade": 7700, "flash": 5956, "prussian": 10734, "##iae": 19001, "fired": 5045, "kenyan": 20428, "elevation": 6678, "##57": 28311, "royal": 2548, "[unused455]": 460, "kings": 5465, "francaise": 18427, "stairs": 5108, "emotionally": 14868, "mavericks": 28330, "##rco": 29566, "tufts": 25252, "[unused914]": 919, "frequent": 6976, "saving": 7494, "bruins": 18159, "exams": 13869, "1774": 17593, "[unused755]": 760, "sawyer": 13975, "globally": 16452, "forefront": 22870, "##athing": 22314, "sheridan": 13243, "fond": 13545, "[unused657]": 662, "##rks": 19987, "paradigm": 20680, "##koff": 26126, "eastbound": 24773, "##\u5e73": 30365, "freaked": 22783, "oaks": 13396, "smeared": 25400, "tyrone": 18770, "salaries": 20566, "effects": 3896, "illicit": 25049, "wilcox": 23926, "sighed": 5489, "should": 2323, "humorous": 14742, "junior": 3502, "accompany": 12673, "determines": 16463, "phosphate": 17344, "reinforce": 19444, "##channel": 26058, "imprisonment": 10219, "\u266f": 1628, "hungry": 7501, "leaflets": 27306, "shamrock": 28782, "villa": 6992, "##14": 16932, "jock": 23407, "trek": 10313, "advancement": 12607, "enrollment": 10316, "removes": 20362, "layne": 22452, "##gu": 12193, "follow": 3582, "influence": 3747, "mentioned": 3855, "insane": 9577, "iranian": 7726, "playwright": 11170, "availability": 11343, "##vio": 25500, "botanical": 13194, "cornwall": 10387, "rouse": 27384, "1683": 27414, "rained": 28270, "##itical": 26116, "islander": 12544, "columnist": 13317, "omaha": 12864, "carly": 18431, "##ique": 7413, "ethanol": 22886, "generals": 11593, "soo": 17111, "warn": 11582, "jeanne": 14537, "scotch": 18937, "ljubljana": 21588, "adversary": 27248, "randall": 12813, "dali": 29095, "valued": 11126, "folded": 6999, "voss": 24878, "overland": 21400, "grupo": 26678, "enthusiasm": 12024, "##\u2095": 30093, "##ib": 12322, "highway": 3307, "ecosystems": 20440, "friars": 24037, "ucla": 12389, "guam": 16162, "##stream": 21422, "manor": 6952, "lauded": 26507, "##iff": 13355, "pierced": 16276, "1749": 24704, "1959": 3851, "rocked": 14215, "pending": 14223, "string": 5164, "saul": 16897, "bacterium": 24024, "starbucks": 29500, "fought": 4061, "fluent": 19376, "utrecht": 18361, "171": 18225, "how": 2129, "proposes": 17146, "harmonic": 19452, "ibm": 9980, "quickly": 2855, "##llar": 17305, "alliance": 4707, "analysis": 4106, "xvi": 16855, "##lana": 16695, "picking": 8130, "slip": 7540, "homework": 19453, "emerged": 6003, "headquarters": 4075, "vocalist": 8032, "herman": 11458, "\u044c": 1207, "skirts": 18184, "rash": 23438, "intimately": 29024, "##uaries": 22579, "volcano": 12779, "tribute": 7050, "protected": 5123, "floyd": 12305, "indoors": 24274, "dyed": 28432, "##bla": 28522, "##\u0280": 29693, "brest": 22451, "##hs": 7898, "books": 2808, "##\u6728": 30401, "accumulated": 14830, "footed": 28856, "scholars": 5784, "os": 9808, "##zee": 23940, "2": 1016, "liu": 8607, "dir": 16101, "\u03c8": 1178, "[unused334]": 339, "rush": 5481, "cake": 9850, "##hman": 13890, "mutual": 8203, "unchanged": 15704, "sylvie": 26009, "breaker": 24733, "##\u2261": 30134, "fly": 4875, "flourish": 24299, "impacted": 19209, "sleeve": 10353, "spat": 14690, "ardent": 25314, "distal": 29333, "unwilling": 15175, "##bah": 24206, "boring": 11771, "##abia": 29039, "tucking": 25056, "184": 19681, "\u028c": 1134, "freddy": 19343, "symbolism": 22050, "##pg": 26952, "gravel": 11127, "aiding": 24791, "pew": 29071, "bordeaux": 16384, "complementary": 21053, "##aire": 14737, "nape": 23634, "seeking": 6224, "introductory": 23889, "fragrance": 24980, "kennedy": 5817, "inaugurated": 11070, "trailing": 12542, "profoundly": 28089, "epilogue": 24297, "para": 11498, "\u3089": 1685, "anthony": 4938, "rebounds": 11049, "stumble": 21811, "pollard": 25513, "##\u9053": 30483, "directing": 9855, "##ver": 6299, "ignition": 17446, "video": 2678, "judge": 3648, "pitchers": 23232, "andreas": 12460, "erskine": 27139, "bandits": 19088, "sockets": 27540, "dmitry": 22141, "attain": 18759, "[unused374]": 379, "##stand": 21515, "\u0438": 1188, "syriac": 24109, "##law": 14919, "backseat": 19978, "flu": 19857, "thierry": 26413, "##\u3086": 30209, "philippines": 5137, "featured": 2956, "barclay": 23724, "uhf": 20131, "walsh": 11019, "salvage": 18340, "##pop": 16340, "##\u2193": 30114, "1942": 3758, "pig": 10369, "##rmi": 28550, "##cision": 28472, "telangana": 23764, "generation": 4245, "stirred": 13551, "capturing": 11847, "1690": 24765, "graf": 22160, "##trick": 22881, "[unused752]": 757, "pembroke": 21457, "gradually": 6360, "mischief": 25166, "ro": 20996, "##glass": 15621, "populace": 22508, "##gger": 13327, "maurice": 7994, "##\u00a1": 29644, "adventurer": 29506, "##zily": 28431, "sainte": 16947, "[unused645]": 650, "fewer": 8491, "screened": 12238, "mania": 29310, "##\u2083": 11622, "minnie": 26188, "suite": 7621, "krishna": 10871, "castillo": 19371, "1697": 28690, "##\u00b1": 29657, "poked": 16826, "puppet": 13997, "herself": 2841, "##gled": 11533, "lexington": 14521, "borneo": 15688, "scenery": 17363, "zachary": 19474, "eager": 9461, "justin": 6796, "##ragan": 28905, "cunningham": 13652, "preferences": 18394, "lanka": 7252, "grover": 25242, "##\u5185": 30299, "migrants": 16836, "##oll": 14511, "1904": 5692, "##\u222a": 30132, "spain": 3577, "linda": 8507, "##icient": 20132, "engulfed": 24692, "263": 25246, "grinned": 6973, "lucille": 28016, "##dalen": 26414, "motorsports": 20711, "202": 16798, "storytelling": 20957, "defenders": 12534, "##gues": 22967, "1737": 26738, "clapping": 27104, "conform": 23758, "##ties": 7368, "##uated": 16453, "##crest": 25313, "benefits": 6666, "mainly": 3701, "##\u9752": 30501, "coasts": 20266, "##truct": 18300, "cellar": 15423, "##gies": 17252, "stops": 6762, "italics": 19408, "##man": 2386, "bahamas": 17094, "##stems": 29189, "gender": 5907, "reviewing": 15252, "component": 6922, "convenience": 15106, "[unused670]": 675, "architect": 4944, "barney": 15377, "middlesbrough": 21655, "##say": 24322, "spaceship": 25516, "[unused392]": 397, "kits": 18628, "##\u767a": 30440, "##ai": 4886, "##nable": 22966, "exodus": 16388, "knit": 22404, "337": 28489, "booker": 16674, "insider": 25297, "\u0643": 1293, "\u0456": 1213, "remembrance": 19451, "[unused231]": 236, "##del": 9247, "crusade": 16282, "atrocities": 23482, "exercise": 6912, "skipper": 23249, "##\u0436": 29743, "##sse": 11393, "evenly": 18030, "airports": 13586, "rays": 9938, "##\u0f0b": 29960, "##rogen": 22991, "##illa": 9386, "##ttering": 19567, "glued": 22805, "clergyman": 22232, "italian": 3059, "pearce": 19560, "##mie": 9856, "##fields": 15155, "supplements": 25654, "ict": 25891, "[unused326]": 331, "ginger": 14580, "##\u2082": 8229, "walter": 4787, "hampton": 11615, "doe": 18629, "##isto": 20483, "miss": 3335, "mural": 15533, "[unused195]": 200, "system": 2291, "##jas": 17386, "colonists": 15526, "grady": 19011, "presley": 17229, "offers": 4107, "resources": 4219, "wrapped": 5058, "##ede": 14728, "generators": 16937, "somali": 16831, "ir": 20868, "prism": 26113, "noses": 27518, "##zell": 24085, "beaufort": 23622, "accountants": 29114, "##dler": 21222, "autonomy": 12645, "careers": 10922, "ufc": 11966, "340": 16029, "sous": 27411, "bangladeshi": 24267, "fraction": 12884, "kinship": 27866, "inches": 5282, "startling": 19828, "cowboy": 11762, "craig": 7010, "##\u3044": 30173, "##rdon": 28176, "hyundai": 25983, "stem": 7872, "\u09ad": 1369, "lining": 14834, "cry": 5390, "##grave": 12830, "route": 2799, "products": 3688, "patrice": 29527, "entropy": 23077, "positively": 13567, "necessity": 13185, "reared": 23295, "wheelbase": 29141, "seo": 27457, "strive": 29453, "messed": 18358, "sg": 22214, "cp": 18133, "guardians": 14240, "sincere": 18006, "samples": 8168, "[unused801]": 806, "\u03b1": 1155, "muted": 22124, "##cted": 10985, "clutches": 29497, "ronnie": 11688, "##kell": 18690, "pad": 11687, "sixteenth": 14683, "craven": 21232, "pretoria": 25366, "##\u09b8": 29912, "willie": 9893, "arrived": 3369, "violin": 6710, "amusement": 9778, "austro": 16951, "brewer": 18710, "consume": 16678, "journalist": 4988, "autobiography": 10828, "brows": 11347, "##kaya": 20718, "disposed": 21866, "sorting": 22210, "##lm": 13728, "shrugs": 23822, "##card": 11522, "1842": 10008, "farrell": 16248, "ones": 3924, "1": 1015, "snaps": 20057, "##antly": 15706, "credible": 23411, "##tze": 23102, "quinlan": 28451, "[unused897]": 902, "accessible": 7801, "vancouver": 6930, "##lidae": 21595, "prototype": 8773, "rains": 15811, "legislators": 22680, "##\u110f": 30002, "layla": 19786, "manually": 21118, "##idge": 13623, "pal": 14412, "mandolin": 17687, "customized": 28749, "perfume": 17013, "upstate": 29530, "##\u02d0": 23432, "##dan": 7847, "catfish": 23723, "portion": 4664, "hodges": 19772, "luigi": 15153, "[unused481]": 486, "nuevo": 22250, "93": 6109, "##pod": 27633, "support": 2490, "aircraft": 2948, "favor": 5684, "cheap": 10036, "fourteen": 7426, "kitchen": 3829, "bonnet": 24367, "##\u3053": 30181, "243": 22884, "bombed": 18897, "psalms": 26130, "protested": 11456, "versatile": 22979, "bays": 13933, "delaware": 8452, "##\u30e0": 30251, "numbered": 8597, "1779": 17616, "##yce": 29297, "choose": 5454, "##mini": 25300, "wasted": 13842, "mt": 11047, "##wald": 11191, "\u4fe1": 1767, "dat": 23755, "claimed": 3555, "exited": 15284, "ji": 10147, "curves": 10543, "##rine": 11467, "##ota": 17287, "offices": 4822, "##edo": 26010, "@": 1030, "##\u03bf\u03c5": 26789, "keen": 10326, "revolving": 24135, "ser": 14262, "blackmail": 25044, "volunteered": 14382, "hood": 7415, "cocaine": 16034, "660": 20982, "unbelievable": 23653, "##osh": 17369, "professor": 2934, "##inho": 29344, "##night": 15864, "conventional": 7511, "catering": 18640, "judgments": 26186, "und": 6151, "1648": 22533, "1922": 4798, "rituals": 13549, "##tiv": 29068, "techniques": 5461, "109": 11518, "feud": 13552, "cartel": 21680, "exposed": 6086, "markham": 26197, "salvador": 10582, "worldwide": 4969, "\u535a": 1786, "receipt": 24306, "[unused461]": 466, "optional": 11887, "implications": 13494, "bangkok": 12627, "nostrils": 15325, "apron": 20376, "kia": 27005, "prix": 5431, "acre": 7456, "send": 4604, "247": 23380, "##\u00a2": 29645, "##ed": 2098, "pursuits": 23719, "founding": 4889, "oxidation": 19577, "accommodations": 26167, "essex": 8862, "[unused203]": 208, "##lster": 29576, "courtesy": 14571, "##iard": 14619, "monks": 9978, "##sberg": 11711, "##hil": 19466, "##erin": 23282, "##bbing": 23200, "vault": 11632, "atv": 29108, "dinosaurs": 18148, "jeans": 6312, "severn": 24753, "[unused739]": 744, "squad": 4686, "simpsons": 19047, "##lative": 26255, "venue": 6891, "##\u09b7": 29911, "academics": 15032, "\"": 1000, "vine": 15351, "##mpt": 27718, "dice": 18740, "terrific": 27547, "\u02bc": 1146, "versus": 6431, "lam": 16983, "strangely": 13939, "##coll": 26895, "am": 2572, "[unused113]": 118, "seafood": 23621, "sight": 4356, "pleas": 22512, "cult": 8754, "\u03c7": 1177, "proceeded": 8979, "invisible": 8841, "centralized": 22493, "rom": 17083, "alfa": 22989, "22": 2570, "gone": 2908, "drowning": 14759, "plural": 13994, "ax": 22260, "listen": 4952, "reliefs": 27670, "##\u00a4": 29647, "technical": 4087, "scholarship": 6566, "cornered": 25878, "deploy": 21296, "segunda": 19071, "considerations": 16852, "admission": 9634, "[unused3]": 4, "##zaki": 18637, "sooner": 10076, "bottom": 3953, "##sby": 14478, "songwriting": 14029, "##rch": 11140, "worst": 5409, "composing": 16572, "shadow": 5192, "hospitality": 15961, "booklet": 19271, "##mus": 7606, "kay": 10905, "always": 2467, "profession": 9518, "helmut": 24515, "fifties": 25942, "##up": 6279, "##lei": 23057, "\u062a": 1273, "respect": 4847, "##wall": 9628, "##\u0f60": 29969, "dipping": 23427, "\u026b": 1120, "dundee": 14252, "verdi": 20580, "isaiah": 18850, "blind": 6397, "booth": 9065, "purification": 28406, "##estra": 26199, "disguised": 17330, "jolted": 28801, "says": 2758, "##vat": 22879, "cricketer": 9490, "\u2097": 1566, "##gano": 29451, "##fight": 20450, "6": 1020, "bitten": 19026, "80": 3770, "pollen": 22482, "algiers": 22947, "elena": 9060, "clockwise": 22839, "bled": 23919, "bolivia": 11645, "pinyin": 9973, "knee": 6181, "acids": 12737, "ottomans": 17774, "concourse": 28571, "inquisition": 24638, "##dorff": 26559, "brotherhood": 12865, "[unused357]": 362, "leash": 26834, "##ella": 8411, "allmusic": 10477, "##hc": 16257, "##yal": 21095, "##ocene": 25793, "demon": 5698, "residency": 14079, "pumping": 14107, "##\u30c6": 30239, "sake": 8739, "##ving": 6455, "scoffed": 26326, "##cht": 10143, "forehead": 6130, "exploring": 11131, "ld": 25510, "flyers": 16217, "mira": 18062, "##\u05d3": 29791, "consolidated": 10495, "##the": 10760, "teammates": 13220, "greenwood": 16827, "##gling": 18483, "##\u1d64": 30044, "heavier": 11907, "benedictine": 21139, "rotate": 24357, "tactic": 19717, "experiments": 7885, "finch": 16133, "1920s": 6641, "apollo": 9348, "exceed": 13467, "disused": 26958, "fires": 8769, "referee": 5330, "##iya": 8717, "regardless": 7539, "rosewood": 29528, "[unused593]": 598, "miner": 18594, "ca": 6187, "##ion": 3258, "monastery": 6408, "\u6211": 1855, "##j": 3501, "wait": 3524, "kung": 18577, "elaborated": 25187, "descent": 6934, "penguins": 18134, "prize": 3396, "##nov": 16693, "andre": 7213, "revue": 17480, "##grapher": 18657, "##duk": 28351, "sunset": 10434, "\u6c35": 1894, "compulsory": 14770, "##coming": 18935, "##\uff08": 30513, "##ntine": 26730, "1935": 4437, "invented": 8826, "eyebrow": 9522, "sailed": 7434, "missiles": 10815, "##rter": 19418, "royce": 14789, "drum": 6943, "\u571f": 1801, "##ajan": 28869, "almond": 26011, "echoed": 10187, "[unused193]": 198, "sung": 7042, "hopped": 17230, "hire": 10887, "[unused720]": 725, "valentin": 24632, "communities": 4279, "[unused218]": 223, "fancy": 11281, "##nb": 27698, "raphael": 12551, "inducted": 8120, "easter": 10957, "ventured": 20510, "chanting": 22417, "accidentally": 9554, "hold": 2907, "192": 17613, "234": 22018, "identify": 6709, "dora": 21008, "##vin": 6371, "sculpture": 6743, "restore": 9239, "1989": 2960, "frantic": 15762, "\u2088": 1555, "##uda": 14066, "dye": 18554, "gal": 14891, "rowland": 20539, "##yed": 20821, "melting": 13721, "regrets": 23161, "structure": 3252, "sophia": 9665, "hastily": 15789, "chronicles": 11906, "ordinance": 16692, "libertarian": 19297, "yiddish": 20112, "anchors": 24674, "til": 18681, "blasts": 25829, "##\u062d": 29820, "lena": 14229, "sprawling": 24199, "whisper": 7204, "charts": 6093, "mutually": 20271, "compilation": 6268, "##yte": 17250, "##na": 2532, "animation": 7284, "fiona": 13073, "district": 2212, "supports": 6753, "efficacy": 21150, "bicycle": 10165, "dried": 9550, "finishes": 12321, "mandated": 16714, "enthusiasts": 20305, "appropriately": 23263, "locals": 10575, "slipping": 11426, "##hak": 20459, "reference": 4431, "##ffey": 24513, "gene": 4962, "wrestler": 10706, "refer": 6523, "tensions": 13136, "impatience": 28011, "##fire": 10273, "resident": 6319, "\u09ac": 1368, "fake": 8275, "##encies": 15266, "hindwings": 15998, "##tive": 6024, "##eo": 8780, "redhead": 26705, "eurasian": 23399, "##\u30a7": 30223, "test": 3231, "drop": 4530, "icao": 18055, "herds": 28822, "intentions": 11174, "tracking": 9651, "toast": 15174, "##kson": 26579, "halt": 9190, "butler": 7055, "##ggio": 20650, "##zio": 12426, "cambodian": 24417, "oakland": 9182, "depressed": 14777, "unidentified": 20293, "loomed": 24358, "symmetric": 19490, "##flies": 24019, "rumble": 15658, "##vic": 7903, "payment": 7909, "##pal": 12952, "patented": 16719, "##\u793a": 30449, "tyres": 24656, "uk": 2866, "mouth": 2677, "explosive": 11355, "##nne": 10087, "baird": 20866, "warming": 12959, "manufacturing": 5814, "guyana": 18786, "feng": 19004, "hunter": 4477, "##cchi": 25955, "vigor": 24474, "garden": 3871, "dealt": 9411, "\u884c": 1945, "##hic": 16066, "novelty": 21160, "proponent": 22488, "holland": 7935, "walton": 14290, "reserved": 9235, "oceania": 20526, "turbo": 15386, "bertie": 20743, "automated": 12978, "iroquois": 23015, "questions": 3980, "iphone": 18059, "##\u3080": 30205, "##ej": 20518, "##sc": 11020, "slight": 7263, "\u0282": 1129, "restraint": 19355, "este": 28517, "leads": 5260, "regiments": 10435, "ducks": 14875, "sabine": 18578, "headache": 14978, "compensate": 19079, "##anto": 21634, "cabin": 6644, "terre": 25170, "ariel": 16126, "##iving": 14966, "umm": 26114, "##zhi": 19436, "screams": 11652, "cultural": 3451, "amplifiers": 28633, "papa": 13008, "tuberculosis": 15877, "354": 27878, "turmoil": 17930, "contract": 3206, "literacy": 8433, "shoe": 10818, "nearest": 7205, "##culture": 14561, "forbid": 27206, "##4": 2549, "scrolling": 28903, "servants": 8858, "household": 4398, "##dance": 25514, "eagles": 8125, "riding": 5559, "pedestrian": 14662, "##dent": 16454, "ut": 21183, "##camp": 26468, "stealing": 11065, "vox": 29450, "operatives": 25631, "grams": 20372, "montrose": 24990, "successor": 6332, "\u6c11": 1892, "posthumously": 12770, "cook": 5660, "##tension": 29048, "thirds": 12263, "distribute": 16062, "##\u03bd": 16177, "##kus": 22332, "invites": 18675, "voting": 6830, "porte": 25927, "##book": 8654, "willingness": 19732, "trials": 7012, "taller": 12283, "##lub": 27959, "railing": 15747, "##ilia": 27861, "1851": 8792, "##arus": 29133, "##net": 7159, "##rcle": 21769, "slicing": 26514, "\u0639": 1288, "plainly": 24250, "stiffened": 16090, "priory": 14284, "johnson": 3779, "academies": 20994, "restored": 5854, "##lco": 22499, "struggles": 11785, "\u060c": 1268, "twitched": 16767, "##\u0995": 29889, "diagram": 16403, "screens": 12117, "imagining": 16603, "subordinate": 15144, "blankets": 15019, "##yles": 26274, "frustrated": 10206, "visited": 4716, "[unused491]": 496, "vulgar": 29364, "##bang": 25153, "swedish": 4467, "[unused140]": 145, "##ste": 13473, "tools": 5906, "armchair": 29372, "adorable": 23677, "straightening": 27508, "alan": 5070, "gradient": 17978, "\u00d7": 1095, "[unused582]": 587, "environment": 4044, "2002": 2526, "[unused844]": 849, "veteran": 8003, "difficulties": 8190, "spit": 13183, "store": 3573, "transmissions": 21670, "willed": 22705, "traced": 9551, "ma": 5003, "tunnel": 5234, "dissolution": 12275, "1897": 6347, "##g": 2290, "repeal": 21825, "cb": 17324, "stephan": 15963, "680": 23944, "[unused986]": 991, "chopped": 24881, "wherein": 16726, "personal": 3167, "spectacle": 21177, "1692": 28622, "industry": 3068, "##rf": 12881, "possibility": 6061, "[unused479]": 484, "parliament": 3323, "variety": 3528, "managerial": 24465, "scheme": 5679, "poisoning": 16149, "wears": 11651, "erik": 10240, "generous": 12382, "highs": 26836, "hindi": 9269, "##ag": 8490, "##ezer": 25733, "fallout": 23902, "activities": 3450, "elton": 19127, "bowen": 16208, "lesley": 23920, "1719": 28162, "##+": 29622, "complications": 12763, "buckingham": 17836, "poured": 8542, "doctoral": 11316, "hereford": 21136, "redevelopment": 15582, "helping": 5094, "115": 10630, "1772": 17483, "pba": 21563, "overlook": 27590, "suppress": 16081, "kentucky": 5612, "accidental": 17128, "extreme": 6034, "configured": 26928, "circling": 18519, "##ikh": 28209, "carl": 5529, "1920": 4444, "slammed": 7549, "##bil": 14454, "##caster": 25490, "pga": 14198, "scare": 12665, "weathered": 28445, "lie": 4682, "lucas": 6326, "##lide": 24198, "regret": 9038, "syndicated": 13889, "swirled": 19171, "lanes": 10914, "ways": 3971, "[unused932]": 937, "ares": 23631, "[unused510]": 515, "scholar": 6288, "identity": 4767, "##mers": 16862, "selects": 27034, "raceway": 23018, "1910": 4976, "babu": 20948, "immersed": 26275, "sulfur": 17864, "shaman": 23610, "gesture": 9218, "[unused407]": 412, "antonio": 4980, "egg": 8288, "##gley": 22971, "##oca": 24755, "faltered": 26015, "\u306c": 1669, "prices": 7597, "closed": 2701, "##36": 21619, "governments": 6867, "upland": 25770, "legitimate": 11476, "rejection": 13893, "insert": 19274, "arthur": 4300, "skeleton": 13526, "298": 27240, "baba": 14208, "[unused445]": 450, "[unused32]": 33, "screening": 11326, "##awa": 10830, "spirited": 24462, "screw": 11224, "hailey": 21664, "lithuania": 9838, "##ple": 10814, "close": 2485, "soloists": 27516, "content": 4180, "investors": 9387, "demonstrating": 14313, "hume": 20368, "shouldn": 5807, "darryl": 22821, "mounds": 19503, "gaga": 23332, "demand": 5157, "##\u2248": 30133, "anybody": 10334, "unpaid": 23850, "along": 2247, "steve": 3889, "##upt": 29441, "stark": 9762, "unclear": 10599, "##\u0dcf": 29944, "bellevue": 26756, "sporting": 7419, "enabled": 9124, "##\u06ba": 29843, "cleaner": 20133, "broom": 23528, "administratively": 23710, "\u1109": 1461, "philippine": 7802, "gardiner": 21143, "walking": 3788, "tubular": 25147, "##eaux": 25639, "trends": 12878, "regulatory": 10738, "chairman": 3472, "quasi": 17982, "beale": 28371, "ra": 10958, "cheerfully": 27403, "\u660e": 1865, "##ils": 12146, "you": 2017, "##sb": 19022, "berwick": 24957, "##dev": 24844, "##ricted": 20623, "homer": 11525, "massage": 21881, "sphinx": 27311, "guest": 4113, "until": 2127, "lou": 10223, "chose": 4900, "neighbourhoods": 27535, "highland": 10983, "liszt": 26273, "inquiries": 27050, "peer": 8152, "##erine": 24226, "fuel": 4762, "directorial": 21635, "program": 2565, "internationals": 27340, "##rath": 27362, "item": 8875, "##imus": 19315, "hawker": 23937, "sharply": 9249, "visas": 24487, "##ciency": 29125, "knights": 7307, "##ael": 21147, "##ropriation": 26121, "##\u1105": 29994, "eighth": 5964, "forgiven": 24280, "urine": 17996, "##inium": 27585, "extracted": 15901, "trent": 7990, "hazards": 22010, "scowled": 17474, "muslims": 7486, "\u529b": 1778, "1791": 14362, "bowl": 4605, "hodge": 23148, "##runner": 23195, "##phon": 20846, "photos": 7760, "issued": 3843, "lille": 22479, "##vation": 21596, "radiation": 8249, "[unused313]": 318, "##ez": 9351, "uganda": 10031, "\u79c0": 1928, "rescues": 26001, "footprint": 24319, "nitrate": 29607, "total": 2561, "[unused821]": 826, "drunken": 15967, "varying": 9671, "birds": 5055, "slash": 18296, "\uff0c": 1989, "formula": 5675, "departmental": 28912, "##away": 9497, "exactly": 3599, "lakers": 18264, "over": 2058, "##pura": 21228, "woo": 15854, "barak": 27739, "##diment": 21341, "1797": 14112, "##vino": 26531, "mobilized": 27526, "bryant": 12471, "survives": 13655, "embarked": 11299, "perimeter": 13443, "sloane": 17558, "ministry": 3757, "galactic": 21375, "geraldine": 26987, "hong": 4291, "[unused850]": 855, "##cs": 6169, "kat": 10645, "modernization": 20181, "corbett": 24119, "##bbies": 27982, "##oku": 21940, "##tick": 26348, "iona": 22347, "variously": 17611, "[unused345]": 350, "clown": 15912, "mein": 24182, "430": 19540, "##ssing": 18965, "shows": 3065, "steamer": 18027, "nah": 20976, "eligible": 7792, "brink": 20911, "timeline": 17060, "defined": 4225, "presiding": 18131, "##pro": 21572, "##10": 10790, "adjutant": 20690, "nowadays": 13367, "##\u099f": 29895, "tonnes": 11000, "betting": 19244, "reversal": 23163, "supplies": 6067, "##hip": 5605, "##com": 9006, "masjid": 27779, "##ouring": 27897, "prussia": 10724, "blogger": 28205, "barnet": 26864, "##bes": 12681, "contracting": 21012, "snuggled": 26867, "shooters": 28310, "##\u2075": 30074, "##stick": 21354, "licensed": 7000, "garment": 19002, "enhancement": 22415, "jett": 22962, "##\u65b0": 30388, "tribal": 8807, "batted": 12822, "cum": 13988, "wheat": 10500, "verlag": 14552, "opposes": 29158, "murderous": 25303, "##gn": 16206, "likewise": 10655, "##\u3078": 30201, "healy": 25706, "##uria": 27703, "closure": 8503, "##\u0b95": 29918, "##books": 17470, "##uba": 19761, "cv": 26226, "nur": 27617, "##nsk": 25564, "educate": 16957, "##\u0baa": 29924, "statewide": 13486, "athletic": 5188, "##\u0111": 29671, "ku": 13970, "intercollegiate": 21587, "positioned": 10959, "transferring": 14391, "shanghai": 8344, "zee": 23727, "horst": 28565, "\u0939": 1339, "magazines": 7298, "absent": 9962, "attache": 29489, "fulfilled": 16829, "establishment": 5069, "##uo": 19098, "##uary": 24384, "cornerback": 26857, "bjorn": 24998, "chilly": 24222, "narrator": 11185, "walden": 24834, "##ides": 8621, "shane": 8683, "allegations": 9989, "##\u10d9": 29982, "workers": 3667, "[unused281]": 286, "blew": 8682, "jesuits": 20297, "floats": 24885, "hostel": 21071, "wavelengths": 29263, "##ora": 6525, "dryly": 20825, "##400": 29537, "paddy": 16063, "dispersal": 27602, "century": 2301, "bis": 20377, "murphy": 7104, "respondents": 25094, "##rri": 18752, "boer": 19945, "marcelo": 24984, "##ics": 6558, "flashes": 16121, "laying": 10201, "crow": 11465, "smell": 5437, "harriet": 14207, "physicians": 11572, "evaluating": 23208, "truth": 3606, "##car": 10010, "drainage": 11987, "tobias": 16858, "nascar": 11838, "exploit": 18077, "paste": 19351, "reactivated": 28577, "subsidy": 28768, "282": 26267, "teresa": 12409, "##endra": 19524, "silhouette": 21776, "##\u4f1a": 30289, "transit": 6671, "observe": 11949, "##life": 15509, "offshore": 12195, "persecuted": 27666, "1711": 28455, "price": 3976, "implementations": 24977, "[unused222]": 227, "abbreviation": 22498, "regulation": 7816, "##gle": 9354, "1663": 29016, "##\u209a": 30097, "dubai": 11558, "willow": 11940, "##ryn": 18143, "iihf": 26904, "chandra": 16469, "unfolded": 23959, "[unused885]": 890, "southwestern": 8772, "hu": 15876, "exploration": 8993, "illuminating": 27816, "indictment": 24265, "scarce": 18782, "ignited": 22395, "patriots": 11579, "dialogue": 7982, "yamamoto": 28318, "##gee": 18372, "##vant": 18941, "ecstasy": 19069, "stitches": 25343, "blows": 13783, "reflects": 11138, "palestine": 8976, "unison": 18732, "weights": 15871, "incurred": 22667, "shapiro": 24630, "remote": 6556, "[unused700]": 705, "##wat": 24281, "zach": 12397, "leith": 29011, "aisles": 25442, "conservatoire": 29233, "met": 2777, "tortured": 12364, "redundant": 21707, "remember": 3342, "hasty": 27151, "##alia": 22786, "sequences": 10071, "##hila": 26415, "commons": 7674, "meta": 18804, "\u897f": 1947, "guitar": 2858, "fenton": 27096, "guangdong": 21287, "face": 2227, "acclaim": 10761, "lengths": 10742, "##wave": 16535, "##ouk": 27967, "friedman": 18486, "amnesty": 16154, "relief": 4335, "fulfilling": 21570, "staunch": 26355, "piper": 11939, "lipstick": 22359, "second": 2117, "greater": 3618, "##wash": 28556, "weaponry": 22711, "showed": 3662, "[unused64]": 65, "lucha": 25390, "tv": 2694, "##26": 23833, "##scu": 28817, "sounds": 4165, "restroom": 28249, "wave": 4400, "tighter": 12347, "ms": 5796, "implementation": 7375, "margin": 7785, "quoted": 9339, "##er": 2121, "bypassed": 27539, "execute": 15389, "elder": 6422, "obviously": 5525, "verge": 16079, "249": 23628, "lc": 29215, "##han": 4819, "lands": 4915, "reflecting": 10842, "blushing": 25771, "perspective": 7339, "dignity": 13372, "\u1d9c": 1511, "purple": 6379, "beech": 21760, "dense": 9742, "ira": 11209, "terry": 6609, "suits": 11072, "chaired": 12282, "trait": 18275, "##rance": 21621, "[unused296]": 301, "overs": 15849, "ho": 7570, "##hya": 17915, "43rd": 25747, "##re": 2890, "\u1110": 1467, "minors": 18464, "subgenus": 25356, "incoming": 14932, "[unused581]": 586, "rot": 18672, "c1": 27723, "##\u308b": 30213, "mixer": 23228, "fraternity": 13577, "##atory": 14049, "##ovic": 9142, "\u093f": 1341, "shrink": 22802, "##stein": 8602, "one": 2028, "handwriting": 24149, "insults": 23862, "researchers": 6950, "skipped": 16791, "toned": 27604, "##\u0282": 29695, "thou": 15223, "##khand": 25910, "[SEP]": 102, "executive": 3237, "keyboards": 6269, "bn": 24869, "##gins": 16529, "philanthropic": 25321, "tristan": 9822, "gazed": 11114, "wires": 14666, "tokugawa": 22065, "accelerating": 29494, "##yar": 13380, "\u30c4": 1712, "theological": 9208, "##ks": 5705, "entrance": 4211, "concluded": 5531, "\u05d9": 1250, "beetles": 14538, "##ller": 10820, "verses": 11086, "danced": 10948, "##trust": 24669, "invoked": 24959, "layer": 6741, "believe": 2903, "share": 3745, "provost": 18523, "hiss": 19074, "munro": 20923, "gt": 14181, "hangs": 17991, "enamel": 29484, "##nnis": 27803, "sentenced": 7331, "geologist": 21334, "leverage": 21155, "hike": 21857, "groundbreaking": 23222, "hear": 2963, "sacrifice": 8688, "started": 2318, "##backs": 12221, "collegiate": 9234, "##aring": 22397, "\u00be": 1093, "reveal": 7487, "mister": 12525, "arising": 17707, "##pen": 11837, "##twined": 21077, "##son": 3385, "cooks": 26929, "tb": 26419, "freeway": 10846, "sleek": 21185, "tattoo": 11660, "cornice": 27848, "##ges": 8449, "bells": 10118, "##lane": 20644, "##uy": 26230, "[unused982]": 987, "block": 3796, "##wled": 28365, "shops": 7340, "assembly": 3320, "##music": 27275, "confirms": 23283, "##bel": 8671, "excessive": 11664, "wilfred": 26026, "##jee": 16963, "paramount": 11734, "universite": 22176, "contributor": 12130, "wolverine": 22162, "stripped": 10040, "harper": 8500, "consensus": 10465, "venice": 7914, "incorporated": 5100, "1828": 11517, "hydroelectric": 18541, "hammered": 25756, "duff": 21019, "parishes": 11600, "appointment": 6098, "negatively": 19762, "grammatical": 24402, "commentaries": 21241, "urges": 23876, "last": 2197, "sniff": 27907, "228": 22238, "arden": 26225, "jacobs": 12988, "inserted": 12889, "##wives": 23744, "lakes": 6597, "1968": 3380, "explains": 7607, "aperture": 18892, "onstage": 23542, "##uen": 24997, "supplemental": 27024, "##f": 2546, "speeches": 13867, "##endez": 28787, "verdict": 14392, "laurence": 10883, "dividing": 16023, "applying": 11243, "goldsmith": 22389, "##fighting": 22158, "inhibitor": 24054, "ousted": 28368, "oz": 11472, "telecommunications": 12108, "##uring": 12228, "develop": 4503, "specialising": 23315, "garrison": 8427, "surprise": 4474, "8th": 5893, "tracked": 12808, "\u0964": 1344, "##roud": 21332, "collingwood": 20044, "plaid": 26488, "##fus": 25608, "warned": 7420, "harshly": 21052, "stride": 18045, "grand": 2882, "cream": 6949, "\u2207": 1595, "owns": 8617, "admire": 19837, "accolades": 27447, "##sham": 21010, "\u0576": 1231, "##\u2227": 30129, "reigned": 21236, "sprinter": 19938, "dixon": 11357, "\u3078": 1675, "juniper": 29425, "obe": 15578, "hopes": 8069, "godfather": 23834, "moi": 25175, "necklace": 13016, "perfectly": 6669, "##cable": 21170, "rico": 7043, "meiji": 23214, "##tman": 22942, "reached": 2584, "myanmar": 12620, "broadcasters": 18706, "##tagram": 23091, "rd": 16428, "##n": 2078, "elves": 16980, "malaysia": 6027, "boundary": 6192, "##erton": 20995, "phase": 4403, "[unused166]": 171, "boiled": 17020, "resorts": 16511, "nectar": 24816, "cycles": 12709, "##kk": 19658, "egypt": 5279, "1987": 3055, "fischer": 13042, "shiver": 13277, "goodness": 15003, "lionel": 14377, "idol": 10282, "nile": 15179, "##keepers": 24764, "##ck": 3600, "[unused756]": 761, "##usa": 10383, "tipped": 11182, "handgun": 28497, "dentist": 24385, "stopping": 7458, "genealogy": 26684, "thousand": 4595, "dilapidated": 29283, "vitro": 25714, "beds": 9705, "moniker": 21937, "facade": 8508, "1882": 7131, "shropshire": 19322, "reasons": 4436, "po": 13433, "##iques": 19516, "cradled": 23774, "malabar": 28785, "##\u6f22": 30430, "##41": 23632, "\u5b80": 1818, "prompting": 15870, "ivy": 7768, "geometry": 10988, "lagos": 16738, "##\u1d43": 30032, "bath": 7198, "parting": 20254, "sixth": 4369, "stir": 16130, "homo": 24004, "alleging": 23294, "scratches": 25980, "distracting": 25012, "revolves": 19223, "characteristic": 8281, "width": 9381, "journeys": 19147, "##kushima": 24917, "sweet": 4086, "1931": 4739, "glover": 20012, "##suit": 28880, "murders": 9916, "##nz": 14191, "swindon": 22350, "##dened": 24589, "gloria": 10778, "##omy": 16940, "[unused233]": 238, "attractive": 8702, "marta": 18950, "tatum": 25913, "layers": 9014, "\u0f63": 1435, "##fe": 7959, "98": 5818, "pony": 15606, "blinds": 28279, "##\u2192": 30113, "catalonia": 16711, "##nde": 13629, "##roi": 26692, "bullshit": 14636, "honourable": 17164, "bernardo": 21175, "##lated": 13776, "dormant": 22170, "assert": 20865, "\u1d47": 1497, "tajikistan": 23538, "been": 2042, "summer": 2621, "patrick": 4754, "drafted": 7462, "air": 2250, "toes": 10393, "oracle": 14721, "happy": 3407, "gambling": 12219, "districts": 4733, "mary": 2984, "knowles": 22815, "barrett": 12712, "stool": 14708, "pe": 21877, "##bry": 25731, "dortmund": 23912, "marcel": 13389, "acute": 11325, "chuckle": 15375, "ios": 16380, "dvd": 4966, "directions": 7826, "crossroads": 16760, "signed": 2772, "exploitation": 14427, "beginnings": 16508, "##bble": 11362, "electro": 16175, "astonished": 22741, "##\u0985": 29883, "sox": 9175, "volkswagen": 18817, "\u110c": 1464, "accounts": 6115, "##orted": 15613, "present": 2556, "guessed": 11445, "carrot": 25659, "christianity": 7988, "\u767d": 1915, "joey": 9558, "democracy": 7072, "adapted": 5967, "[unused878]": 883, "##tani": 17681, "gunnar": 26138, "1782": 16890, "\u7537": 1912, "cakes": 22619, "##gol": 24141, "practically": 8134, "soloist": 16504, "spelling": 11379, "ft": 3027, "\u751f": 1910, "##rrado": 27933, "decent": 11519, "offences": 18421, "ledger": 27106, "weapon": 5195, "disrupt": 23217, "anguish": 21782, "##lle": 6216, "consistent": 8335, "swami": 20087, "##bio": 26282, "\u2ea9": 1632, "ahead": 3805, "ferguson": 11262, "\u706b": 1906, "flickered": 15999, "mayhem": 26865, "adds": 9909, "[unused728]": 733, "euros": 19329, "##kker": 23793, "[unused541]": 546, "##tov": 26525, "\u03bc": 1166, "##\u02bc": 29712, "\u0142": 1105, "##kis": 14270, "sharks": 12004, "hammering": 27883, "horde": 21038, "illustrates": 24899, "elf": 17163, "1819": 12552, "medallion": 22541, "stocked": 24802, "upgraded": 9725, "taxpayer": 26980, "flanked": 15874, "##ffie": 29055, "twitch": 19435, "[unused711]": 716, "imprint": 15738, "drury": 25663, "nest": 9089, "golden": 3585, "[unused251]": 256, "literally": 6719, "sucking": 13475, "moody": 14434, "rees": 22131, "ravaged": 25537, "identification": 8720, "twinkle": 29038, "lily": 7094, "ceo": 5766, "##ditional": 27064, "adopting": 16151, "chairs": 8397, "nicaragua": 15448, "##vian": 18073, "##gree": 28637, "trusts": 20278, "whitehall": 28361, "zoning": 27462, "##gned": 19225, "actions": 4506, "bae": 25818, "##ites": 7616, "doug": 8788, "rubbish": 29132, "##\u5e7f": 30368, "canals": 17263, "phrases": 15672, "brightened": 28996, "thom": 19438, "260": 13539, "hearings": 19153, "lawsuits": 20543, "bourne": 15803, "tara": 10225, "grit": 24842, "capitals": 15433, "pick": 4060, "bees": 13734, "##nah": 15272, "integrate": 17409, "necks": 26082, "erasmus": 26809, "lime": 14123, "namely": 8419, "wilkinson": 16237, "contingent": 15445, "skulls": 21542, "cambridgeshire": 24197, "##ite": 4221, "jew": 16522, "sighs": 19906, "##wr": 13088, "darkening": 27862, "pathology": 19314, "reviewer": 12027, "implied": 13339, "\u306b": 1668, "neville": 14871, "resembling": 15525, "229": 22777, "aires": 9149, "chat": 11834, "pigs": 14695, "1864": 6717, "eventually": 2776, "wedge": 17632, "renee": 17400, "##bei": 19205, "[unused853]": 858, "yvonne": 21684, "lobes": 24423, "mcgrath": 23220, "usc": 15529, "bosnian": 16163, "christophe": 23978, "\u30e9": 1731, "##\u0628": 29816, "mp": 6131, "caps": 9700, "hacking": 23707, "penny": 10647, "xl": 28712, "airline": 8582, "decrease": 9885, "##zen": 10431, "rhythmic": 14797, "nellie": 25365, "##bis": 18477, "pawn": 19175, "sings": 10955, "besieged": 17923, "merry": 12831, "professionally": 12145, "hooper": 23717, "##lkirk": 23913, "[unused790]": 795, "tightened": 8371, "##havan": 24652, "##xious": 25171, "\u0f51": 1428, "##ung": 5575, "pdf": 11135, "relocating": 26811, "##kowski": 15449, "welded": 29014, "refusing": 11193, "oath": 11292, "510": 23475, "imitation": 20017, "spiked": 25362, "single": 2309, "##w": 2860, "ab": 11113, "counts": 9294, "germain": 19192, "moons": 23377, "facts": 8866, "ithaca": 27939, "artist": 3063, "1703": 28366, "wang": 7418, "##riding": 21930, "##32": 16703, "taxes": 7773, "plaques": 28487, "danes": 27476, "\u5d0e": 1834, "carpenter": 10533, "pianos": 27864, "166": 18610, "[unused859]": 864, "##rted": 17724, "##par": 19362, "pleasant": 8242, "georgia": 4108, "wiped": 8342, "##laya": 22923, "cottages": 18918, "cannes": 14775, "##bner": 29388, "[unused154]": 159, "##irus": 26013, "sudden": 5573, "user": 5310, "##kill": 15872, "bon": 14753, "outgoing": 22011, "[unused259]": 264, "##ates": 8520, "commencement": 20561, "marco": 8879, "##miento": 28883, "nominate": 23388, "trolley": 20820, "##dus": 17619, "##cased": 28969, "forming": 5716, "productive": 13318, "unlikely": 9832, "usd": 13751, "cited": 6563, "mit": 10210, "##rva": 19146, "1832": 10212, "credit": 4923, "belfast": 10330, "friar": 25287, "robbie": 12289, "\u03b5": 1159, "army": 2390, "##ency": 11916, "cnn": 13229, "rep": 16360, "struck": 4930, "landscapes": 12793, "##\u00bf": 29666, "assuming": 10262, "equation": 8522, "describing": 7851, "avenge": 24896, "commitments": 17786, "undercover": 16382, "warning": 5432, "thompson": 5953, "amy": 6864, "servicing": 26804, "##\u30c3": 30237, "avatar": 22128, "\u0982": 1346, "bladed": 27402, "shrines": 22562, "avoided": 9511, "landowners": 20152, "owners": 5608, "winners": 4791, "sm": 15488, "##eer": 11510, "paints": 23262, "cobb": 17176, "herald": 9536, "encourages": 16171, "inability": 13720, "##ulsion": 23316, "vargas": 20556, "horses": 5194, "estonian": 12029, "amadeus": 27185, "smyth": 28103, "terminates": 28790, "okay": 3100, "[unused136]": 141, "niger": 16842, "##\u0621": 29815, "cows": 17188, "dubious": 22917, "bats": 12236, "spectators": 12405, "##onte": 28040, "soviets": 15269, "perth": 9300, "appeal": 5574, "st": 2358, "suns": 19352, "100": 2531, "imperialism": 28087, "narayan": 24331, "1016": 28707, "##shot": 19040, "feeling": 3110, "##lin": 4115, "consequences": 8465, "nrl": 20686, "offspring": 13195, "##neo": 23585, "`": 1036, "[unused813]": 818, "1916": 4947, "performs": 10438, "madrid": 6921, "1787": 16057, "181": 18596, "##olf": 28027, "invited": 4778, "[unused332]": 337, "terminus": 7342, "thoughtfully": 19897, "micro": 12702, "jc": 29175, "\u6709": 1873, "##hell": 18223, "goin": 17249, "survivor": 12084, "reggae": 15662, "lawrence": 5623, "##corp": 24586, "disease": 4295, "jp": 16545, "taxi": 10095, "yi": 12316, "sigismund": 26748, "obtain": 6855, "attempts": 4740, "odor": 19255, "fiesta": 24050, "roberta": 23455, "##hner": 28989, "##phile": 24862, "##ook": 14659, "gillian": 22358, "confederates": 24627, "1871": 7428, "proton": 20843, "pd": 22851, "vale": 10380, "ryu": 19367, "taxon": 28521, "leslie": 8886, "theatre": 3004, "forge": 15681, "wen": 19181, "##lia": 6632, "town": 2237, "##ians": 7066, "braden": 27232, "##rist": 15061, "peculiar": 14099, "arranged": 5412, "switzerland": 5288, "##ans": 6962, "hidalgo": 24715, "##\u5fa1": 30373, "teachers": 5089, "jobs": 5841, "provisional": 10864, "pushes": 13956, "ions": 15956, "argue": 7475, "##acies": 20499, "stylistic": 24828, "purcell": 26429, "dispersed": 15484, "lap": 5001, "ruby": 10090, "##\u7530": 30437, "lizard": 15450, "line": 2240, "stevie": 17458, "bethany": 16559, "cool": 4658, "##uni": 19496, "##yev": 17240, "located": 2284, "rick": 6174, "rode": 8469, "diving": 9404, "void": 11675, "[unused243]": 248, "confident": 9657, "deacon": 14845, "blaine": 20002, "bulldog": 28628, "mixes": 21109, "\u7684": 1916, "blitz": 22312, "aberdeen": 12080, "peacefully": 21614, "york": 2259, "fingertips": 12206, "romeo": 12390, "magnate": 27470, "gael": 28151, "holster": 29447, "counting": 10320, "internationale": 21339, "genocide": 14052, "fashioned": 13405, "##nator": 27413, "ads": 14997, "1795": 13397, "##tica": 22723, "enriched": 25202, "##vara": 24516, "\u3055": 1656, "##tree": 13334, "##jean": 27687, "eastenders": 28936, "neighbour": 20065, "transcript": 24051, "aquarium": 18257, "hawthorn": 21671, "serving": 3529, "establishments": 17228, "rags": 26346, "pace": 6393, "upset": 6314, "captains": 15755, "bf": 28939, "1605": 28202, "bitter": 8618, "your": 2115, "prints": 11204, "ankara": 20312, "##ort": 11589, "##eiro": 17166, "##agi": 22974, "swing": 7370, "##cb": 27421, "##ished": 13295, "vance": 16672, "socio": 17522, "##dern": 25888, "indira": 28232, "lang": 11374, "accepted": 3970, "coma": 16571, "blanket": 8768, "17": 2459, "fingers": 3093, "[unused120]": 125, "##jak": 18317, "workout": 27090, "interrupt": 17938, "remy": 22712, "hardly": 6684, "examined": 8920, "isabella": 10323, "heating": 10808, "bravo": 17562, "##down": 7698, "kerman": 24500, "##raya": 29539, "greenville": 20967, "fia": 19807, "textbook": 16432, "clothes": 4253, "publish": 10172, "peach": 18237, "cite": 21893, "slips": 17433, "leaving": 2975, "manufactures": 22027, "passion": 6896, "bao": 25945, "[unused1]": 2, "##\u5b66": 30343, "weakness": 11251, "##dled": 20043, "##\u0252": 29678, "\u524d": 1776, "sheet": 7123, "akin": 17793, "barron": 23594, "lazarus": 23623, "stumbling": 19730, "tanner": 12780, "fleetwood": 23866, "[unused62]": 63, "widespread": 6923, "missouri": 5284, "custom": 7661, "unemployment": 12163, "honesty": 16718, "fellow": 3507, "echo": 9052, "legislation": 6094, "##\u0dba": 29940, "60s": 20341, "bingham": 24579, "pattern": 5418, "biology": 7366, "distressed": 24305, "##\u6d77": 30428, "##6th": 25994, "fifteen": 5417, "entity": 9178, "efforts": 4073, "victim": 6778, "venezuelan": 15332, "hatfield": 26853, "\u0192": 1108, "uneven": 17837, "merritt": 26701, "doncaster": 18895, "lounge": 11549, "152": 15017, "1940s": 7675, "[unused846]": 851, "[unused486]": 491, "seminary": 8705, "mystery": 6547, "cbn": 21824, "engaged": 5117, "whenever": 7188, "\u301c": 1645, "exemplified": 28593, "bedrooms": 18390, "rooms": 4734, "compartments": 27998, "teddy": 11389, "audible": 19525, "manages": 9020, "learned": 4342, "beer": 5404, "rescued": 10148, "yards": 4210, "decomposition": 22511, "thrusts": 25842, "113": 12104, "faerie": 27498, "##\u2011": 30049, "##kas": 13716, "s": 1055, "##\u03b5": 29723, "fremantle": 20358, "storing": 23977, "individually": 14258, "##\u0937": 29873, "osborn": 26999, "le": 3393, "homemade": 25628, "##houses": 15666, "owing": 11427, "\u00b2": 1082, "waterway": 23668, "pretend": 9811, "spores": 23763, "tricks": 12225, "itself": 2993, "meyrick": 15228, "extend": 7949, "##18": 15136, "kazan": 22001, "rae": 14786, "deluxe": 15203, "province": 2874, "rourke": 24400, "coughing": 21454, "armed": 4273, "##\u094b": 29879, "humid": 14178, "##nk": 8950, "pointless": 23100, "easing": 24070, "##ads": 19303, "##raf": 27528, "##wehr": 27156, "hot": 2980, "sandstone": 11694, "##omo": 19506, "hoc": 21929, "central": 2430, "orphan": 18211, "journal": 3485, "leto": 24543, "salts": 23480, "napkin": 20619, "##64": 21084, "##vances": 26711, "partially": 6822, "tidy": 29369, "thing": 2518, "[unused344]": 349, "##enne": 24336, "quiet": 4251, "citizens": 4480, "starter": 11753, "##lism": 28235, "southampton": 11833, "mclaren": 18590, "assisting": 13951, "bravery": 16534, "##agh": 17988, "##cha": 7507, "inventions": 21644, "mined": 21846, "teacher": 3836, "[unused95]": 96, "##ash": 11823, "type": 2828, "photographed": 16164, "cinematic": 21014, "pulsed": 24107, "foxes": 24623, "corp": 13058, "sable": 23492, "\u026f": 1122, "##outh": 17167, "resolution": 5813, "##dable": 20782, "\u2194": 1587, "xii": 14371, "##git": 23806, "##bour": 25127, "leave": 2681, "jared": 8334, "heresy": 28354, "##lovic": 29356, "continue": 3613, "williamsburg": 26366, "dimensions": 9646, "superliga": 25922, "baldwin": 10970, "us": 2149, "lindsay": 12110, "##vert": 16874, "eighteenth": 12965, "immensely": 24256, "pointe": 26119, "##gizing": 28660, "albanians": 25267, "dodged": 28339, "construct": 9570, "##\u5408": 30318, "kept": 2921, "consequence": 9509, "legislator": 22964, "##oked": 23461, "##khar": 22510, "damage": 4053, "\u2010": 1513, "airlines": 7608, "##boys": 24916, "heroes": 7348, "##aton": 22436, "pathogen": 26835, "reduced": 4359, "aquitaine": 24973, "beautiful": 3376, "hastings": 12296, "darker": 9904, "flushed": 12953, "eel": 24315, "##date": 13701, "\u2191": 1584, "collection": 3074, "reviewed": 8182, "inflicted": 17303, "54": 5139, "automobiles": 19207, "##zu": 9759, "visuals": 26749, "wheeler": 12819, "##igen": 29206, "prescott": 20719, "governorate": 15162, "larger": 3469, "justified": 15123, "##erated": 16848, "doctors": 7435, "rhode": 9763, "natives": 12493, "franz": 8965, "integer": 16109, "neolithic": 19061, "petitions": 24320, "recipe": 17974, "cathy": 18305, "[unused817]": 822, "means": 2965, "polytechnic": 14466, "tonga": 20188, "darwin": 11534, "charlotte": 5904, "gearbox": 22227, "effective": 4621, "demonstrations": 13616, "foundry": 19853, "qur": 23183, "facebook": 9130, "citadel": 15364, "paranoia": 27890, "averaging": 14985, "madonna": 11284, "vita": 19300, "confederation": 11078, "##ist": 2923, "2000": 2456, "##pl": 24759, "1756": 22370, "ups": 11139, "abby": 9460, "##ited": 17572, "accuse": 26960, "elites": 27021, "##\u0e17": 29948, "humboldt": 19249, "##kali": 28613, "##nington": 23155, "trans": 9099, "papyrus": 29575, "pandit": 29331, "gateway": 11909, "405": 23988, "hezbollah": 25713, "barr": 19820, "afi": 28697, "##pac": 19498, "mildly": 19499, "produce": 3965, "factual": 25854, "050": 28714, "bournemouth": 22882, "decides": 7288, "##ster": 6238, "merge": 13590, "##ml": 19968, "##lva": 22144, "seventh": 5066, "shrine": 9571, "##ieu": 17301, "##nut": 24072, "prospects": 16746, "maha": 24404, "ahmedabad": 27249, "##ifer": 23780, "[unused141]": 146, "fronted": 23291, "bu": 20934, "##ual": 8787, "sami": 17015, "sabbath": 19546, "squat": 26783, "brutal": 12077, "belief": 6772, "bautista": 27845, "encouraging": 11434, "##\u1d4d": 30036, "pairs": 7689, "bangladesh": 7269, "records": 2636, "destination": 7688, "##eyer": 20211, "##\u060c": 29814, "reply": 7514, "revenues": 12594, "lethal": 12765, "included": 2443, "watershed": 12547, "1889": 6478, "##zzle": 17644, "hallways": 28274, "demonstrate": 10580, "outlets": 11730, "nightingale": 21771, "sang": 6369, "aboard": 7548, "[unused90]": 91, "\u0448": 1203, "weekends": 13499, "lori": 18669, "hurting": 11878, "[unused865]": 870, "sponsoring": 29396, "bible": 6331, "##hul": 21886, "stemming": 29217, "##roy": 13238, "wanda": 20848, "powell": 8997, "gulf": 6084, "pike": 12694, "surpassing": 27097, "##\u5357": 30311, "cortes": 22242, "1980": 3150, "instrument": 6602, "liz": 9056, "cockpit": 13828, "pri": 26927, "choice": 3601, "bloomfield": 25584, "smith": 3044, "contact": 3967, "giggles": 26466, "retreated": 11672, "brenda": 15507, "##opa": 29477, "posted": 6866, "##sen": 5054, "established": 2511, "\u044d": 1208, "triumph": 10911, "distances": 12103, "##iac": 20469, "sailors": 11279, "famine": 15625, "ideological": 17859, "##zumi": 28114, "tie": 5495, "ugly": 9200, "rudder": 24049, "rear": 4373, "rocky": 6857, "oblivious": 18333, "comprehend": 22346, "breach": 12510, "banana": 15212, "artifacts": 10471, "parameters": 11709, "32": 3590, "blonde": 9081, "##\u028a": 29698, "cheered": 25471, "der": 4315, "##urbed": 29595, "collaborate": 20880, "rolled": 4565, "shores": 13312, "barrier": 8803, "buzz": 12610, "gaddafi": 28924, "schools": 2816, "##itz": 8838, "ceilings": 21098, "athens": 7571, "broker": 20138, "liza": 20503, "legally": 10142, "sadly": 13718, "creamy": 24519, "generally": 3227, "emi": 12495, "vin": 19354, "lunatic": 26594, "microscopy": 29105, "week": 2733, "##quet": 12647, "implement": 10408, "thirty": 4228, "alive": 4142, "creaked": 28068, "##gt": 13512, "flap": 20916, "deleted": 17159, "nervously": 12531, "1846": 9244, "awesome": 12476, "lucie": 28831, "[unused293]": 298, "supplementary": 26215, "##rations": 28893, "sizable": 25908, "##[": 29634, "sheldon": 19369, "ballots": 17069, "moss": 10636, "corvette": 22687, "##bh": 23706, "femme": 26893, "##med": 7583, "frequencies": 13139, "75th": 25092, "initiatives": 11107, "ngc": 27645, "##ogo": 22844, "\u8449": 1943, "001": 25604, "launch": 4888, "##shaw": 17980, "knot": 12226, "hooked": 13322, "differences": 5966, "154": 16666, "infinity": 15579, "talon": 19048, "damages": 12394, "fig": 20965, "disappointed": 9364, "protects": 18227, "1700": 16601, "nokia": 22098, "##ht": 11039, "genera": 11416, "26th": 14935, "##kan": 9126, "pc": 7473, "##hyllum": 27750, "[unused937]": 942, "pharaoh": 22089, "defines": 11859, "sighing": 19381, "israeli": 5611, "limited": 3132, "y": 1061, "\u6751": 1878, "hockey": 3873, "figures": 4481, "nevada": 7756, "hid": 11041, "gin": 18353, "##rts": 21217, "nfc": 22309, "[unused145]": 150, "uniformly": 27423, "alain": 15654, "marseille": 16766, "##dly": 18718, "sweaty": 19889, "##gence": 17905, "shillings": 29332, "tired": 5458, "spicy": 25482, "\u116a": 1476, "inline": 23881, "quake": 27785, "insight": 12369, "gunnery": 27919, "already": 2525, "timing": 10984, "##\u0f51": 29964, "##nca": 20909, "attitudes": 13818, "[unused741]": 746, "viewpoint": 21386, "remembering": 10397, "\u1161": 1470, "wolfgang": 13865, "forgotten": 6404, "campos": 26925, "dallas": 5759, "fountain": 9545, "bungalow": 27563, "conversions": 25834, "orphans": 21478, "denomination": 18683, "azores": 28320, "##ab": 7875, "reindeer": 29495, "stanley": 6156, "brisbane": 7717, "scanned": 11728, "thai": 7273, "voiced": 6126, "correspondence": 11061, "##foot": 13064, "capabilities": 9859, "##wny": 22251, "gestures": 18327, "tingling": 23690, "[unused517]": 522, "participant": 13180, "##neuve": 28104, "laureate": 17656, "defect": 21262, "secretariat": 15128, "ella": 11713, "encoding": 17181, "##jali": 28948, "pointing": 7302, "##cc": 9468, "forbade": 27315, "\u677e": 1880, "##\u2020": 30061, "tend": 7166, "dug": 8655, "barry": 6287, "neal": 11030, "gothic": 7788, "swap": 19948, "protest": 6186, "##chi": 5428, "debating": 20767, "##ologies": 20792, "##lander": 22691, "##otted": 26174, "lobbied": 26421, "[unused256]": 261, "##sh": 4095, "##acker": 25418, "staggering": 26233, "promises": 10659, "##lier": 14355, "physician": 7522, "monaco": 14497, "knots": 9439, "immersion": 27013, "wry": 24639, "secrets": 7800, "subject": 3395, "penalties": 12408, "wolfe": 14212, "enforced": 16348, "crap": 10231, "importance": 5197, "##ood": 17139, "contained": 4838, "sober": 17358, "class": 2465, "flowers": 4870, "commemorating": 20646, "\u53e4": 1789, "##\u09b0": 29908, "klaus": 16536, "gifts": 9604, "invite": 13260, "##ostal": 29381, "##ometer": 18721, "galleries": 11726, "admit": 6449, "named": 2315, "##tera": 14621, "serena": 14419, "azerbaijani": 18325, "yours": 6737, "[unused39]": 40, "emerald": 14110, "comb": 22863, "crossover": 16335, "##ues": 15808, "shortlisted": 21353, "prakash": 22233, "##60": 16086, "overseen": 22485, "outspoken": 22430, "##ouin": 25058, "##iv": 12848, "explores": 15102, "##lined": 18194, "celeste": 21113, "##wal": 13476, "satirical": 17251, "vineyards": 20597, "mu": 14163, "astros": 22058, "reset": 25141, "correctly": 11178, "modernism": 27254, "discus": 26047, "##eering": 20550, "lest": 26693, "internacional": 27607, "jogging": 28233, "landlord": 18196, "gill": 12267, "dangerous": 4795, "posed": 13686, "##cliff": 27580, "faithful": 11633, "marlins": 27055, "thankful": 18836, "piercing": 14628, "##oat": 16503, "removed": 3718, "hugged": 10308, "numerical": 15973, "zeta": 23870, "madeira": 27309, "recipients": 15991, "splash": 17624, "stones": 6386, "demonic": 23170, "##ji": 4478, "impressed": 7622, "bread": 7852, "chronic": 11888, "seizing": 24681, "multiplied": 28608, "##put": 18780, "##;": 29628, "##river": 24352, "\u304a": 1650, "pulls": 8005, "realistic": 12689, "[unused679]": 684, "##rned": 21119, "needs": 3791, "topological": 24309, "##moral": 22049, "wiring": 27930, "query": 23032, "thwarted": 28409, "metabolic": 21453, "recreation": 8640, "silas": 18553, "289": 27054, "##\u0627": 25573, "\u6bd4": 1890, "totals": 21948, "florida": 3516, "##genase": 28835, "relates": 14623, "##dam": 17130, "##liness": 20942, "robin": 5863, "rows": 10281, "##\u2207": 30123, "returning": 4192, "feather": 15550, "equivalence": 27841, "16": 2385, "enzyme": 9007, "rankings": 10385, "fifty": 5595, "stalker": 23883, "##ffen": 18032, "pixels": 27725, "sand": 5472, "artificial": 7976, "kathryn": 20484, "coming": 2746, "minimum": 6263, "retained": 6025, "slam": 9555, "indie": 10271, "##nig": 25518, "##\u3008": 30163, "unpredictable": 21446, "tremendous": 14388, "piers": 16067, "##ime": 14428, "demanding": 9694, "boogie": 21495, "##romatic": 23645, "engages": 24255, "awe": 15180, "laundering": 28289, "women": 2308, "hilary": 22744, "jamal": 24132, "degree": 3014, "pillows": 17860, "convection": 23849, "##pin": 8091, "congresses": 24460, "##zi": 5831, "dunn": 14145, "ordnance": 14445, "pornography": 19378, "[unused555]": 560, "\u30b7": 1706, "##dron": 19440, "##inus": 13429, "bradshaw": 23762, "##quisite": 24871, "detainees": 26485, "jenna": 13504, "\u4f8d": 1765, "##udi": 21041, "individual": 3265, "rev": 7065, "##pled": 21132, "demos": 18267, "limousine": 28012, "##\u30a2": 30219, "[unused289]": 294, "resolving": 29304, "jack": 2990, "resolve": 10663, "##aro": 10464, "retreating": 17512, "olsen": 18997, "exceptional": 11813, "stuff": 4933, "securities": 12012, "##cott": 13124, "twigs": 27964, "cinemas": 19039, "##tung": 21847, "abu": 8273, "##\u0f42": 29962, "temeraire": 23611, "jul": 21650, "ind": 27427, "manufacturer": 7751, "zhejiang": 26805, "giggle": 17565, "bored": 11471, "discovery": 5456, "##ade": 9648, "##\u043e\u0432": 19259, "##cor": 27108, "internet": 4274, "attendant": 16742, "##ouse": 15441, "##just": 29427, "reckless": 18555, "\u2030": 1530, "##pate": 17585, "##lika": 25421, "ottoman": 6188, "shifting": 9564, "agrees": 10217, "signing": 6608, "exchanged": 10573, "beverley": 29057, "thieves": 15862, "174": 19492, "chili": 20238, "paris": 3000, "wholly": 12590, "yemen": 13968, "better": 2488, "sleeping": 5777, "hostages": 19323, "##ammed": 27479, "123": 13138, "##zation": 9276, "seconds": 3823, "impaired": 18234, "coffin": 13123, "asylum": 11386, "timed": 22313, "churches": 5231, "/": 1013, "hugo": 9395, "##to": 3406, "##sk": 6711, "xu": 15990, "manifesto": 17124, "##dda": 25062, "separated": 5459, "hearth": 22885, "miami": 5631, "##cock": 13959, "##tight": 26143, "seventies": 26232, "##alic": 27072, "internment": 29041, "dressing": 11225, "barrio": 25676, "##ase": 11022, "##imated": 20592, "##ek": 5937, "unmanned": 24075, "southernmost": 21787, "156": 16734, "\u5341": 1783, "\u4e3b": 1747, "constantinople": 11776, "alpha": 6541, "##rnik": 26437, "contractor": 13666, "copa": 10613, "1918": 4271, "kathleen": 14559, "alternating": 15122, "housekeeper": 22583, "greenish": 23753, "[unused421]": 426, "##tec": 26557, "finances": 16156, "holiday": 6209, "alton": 26374, "nationally": 9582, "feeder": 21429, "tube": 7270, "[unused181]": 186, "reasonable": 9608, "nutrients": 20435, "##&": 29617, "##ar": 2906, "mormon": 15111, "rises": 9466, "##shan": 9688, "[unused622]": 627, "theatrical": 8900, "stocks": 15768, "preached": 21491, "barbed": 25007, "##izan": 27334, "\u2075": 1539, "bizarre": 13576, "appearance": 3311, "gerais": 29220, "storm": 4040, "firearms": 13780, "paso": 17161, "elisabeth": 12877, "turkic": 22926, "##oop": 18589, "sorority": 27600, "vol": 5285, "yves": 19687, "balkans": 19733, "recounts": 23412, "streaks": 21295, "##hre": 28362, "affecting": 12473, "clubs": 4184, "protocols": 16744, "expressions": 11423, "modernist": 19770, "##\u7687": 30443, "fis": 27424, "breeds": 15910, "siegel": 27996, "inner": 5110, "hokkaido": 20826, "##\u66f8": 30397, "installation": 8272, "assassins": 18364, "strengthening": 16003, "1830": 9500, "##\u064a": 14498, "amazon": 9733, "advancing": 10787, "##lden": 28476, "lehigh": 23241, "padded": 20633, "premio": 23031, "position": 2597, "marketing": 5821, "continually": 14678, "arena": 5196, "transforms": 21743, "cicero": 23080, "##\u0290": 29702, "decided": 2787, "[unused905]": 910, "calf": 19134, "rehearsals": 24760, "bat": 7151, "bandwidth": 20235, "grooves": 25880, "[unused993]": 998, "##\u2090": 30089, "w": 1059, "jailed": 21278, "\u00a35": 27813, "[unused209]": 214, "[unused476]": 481, "bonding": 19882, "sworn": 10741, "[unused213]": 218, "1770": 17711, "##lts": 21593, "dissatisfied": 25956, "##ing": 2075, "##ger": 4590, "##iy": 28008, "measurements": 11702, "goats": 17977, "naughty": 20355, "erin": 11781, "1100": 22096, "judah": 23022, "##utation": 26117, "tide": 10401, "principles": 6481, "partisans": 20762, "cia": 9915, "authoritative": 23949, "##craft": 10419, "etched": 20286, "skye": 16590, "economists": 22171, "rahman": 14364, "tear": 7697, "rainbow": 10098, "##\u110c": 30000, "assumption": 11213, "nothin": 24218, "informs": 15670, "notoriety": 23215, "60th": 20928, "iss": 26354, "faulty": 28927, "[unused818]": 823, "bc": 4647, "rang": 8369, "self": 2969, "hendrix": 20645, "##kovsky": 23829, "morphology": 19476, "mine": 3067, "odd": 5976, "lifestyle": 9580, "charlie": 4918, "##\u22121": 27944, "blinded": 20641, "woodrow": 23954, "##jord": 24876, "\u05e3": 1260, "\u4e4b": 1749, "[unused485]": 490, "wikipedia": 16948, "turn": 2735, "colin": 6972, "##cton": 28312, "hyun": 21108, "devices": 5733, "##por": 17822, "\u05d3": 1244, "methods": 4725, "fibre": 20962, "bloc": 15984, "\u90fd": 1961, "surprising": 11341, "sin": 8254, "philips": 19087, "condensed": 25011, "learners": 26262, "##national": 25434, "40": 2871, "disliked": 18966, "leans": 12671, "badminton": 14618, "reverend": 10547, "fashionable": 19964, "nemesis": 21363, "kendrick": 25341, "288": 24841, "heck": 17752, "[unused127]": 132, "[unused722]": 727, "writes": 7009, "juan": 5348, "suppressed": 13712, "##olin": 18861, "timely": 23259, "kenya": 7938, "##\u30df": 30250, "##elia": 13902, "##ople": 27469, "customer": 8013, "co": 2522, "strife": 27865, "##filtration": 28674, "lung": 11192, "tacoma": 22954, "##oons": 27174, "assaults": 22664, "awkward": 9596, "baking": 21522, "collects": 17427, "irish": 3493, "donate": 21357, "counseling": 17041, "paying": 7079, "##may": 27871, "invariably": 26597, "soothing": 16684, "girlfriend": 6513, "shea": 16994, "kidney": 14234, "##uously": 28078, "[unused190]": 195, "minsk": 20790, "1808": 13040, "atkinson": 18646, "##sas": 20939, "preach": 25250, "amalgamation": 21968, "\u0281": 1128, "situated": 4350, "##note": 22074, "ejected": 22607, "yer": 20416, "inception": 12149, "indochina": 27053, "##rford": 26430, "##earing": 27242, "molecules": 10737, "##rated": 9250, "pivotal": 20369, "\u5e7f": 1842, "moment": 2617, "beforehand": 25828, "##c": 2278, "inca": 27523, "merchandise": 16359, "[unused383]": 388, "[unused474]": 479, "##fs": 10343, "expose": 14451, "ends": 4515, "billion": 4551, "gnome": 25781, "assumed": 5071, "##plify": 28250, "crossings": 20975, "##chia": 20881, "##ok": 6559, "epstein": 26646, "##cratic": 17510, "verde": 16184, "##elli": 13348, "jaime": 14519, "after": 2044, "hates": 16424, "berg": 15214, "##bund": 27265, "input": 7953, "speedy": 26203, "##mian": 20924, "possessions": 13689, "chimed": 27460, "1748": 24445, "\u4e09": 1741, "frankly": 19597, "wainwright": 25305, "\u0f54": 1430, "vain": 15784, "##thes": 24138, "composed": 3605, "clamped": 18597, "delight": 12208, "betty": 9306, "hardware": 8051, "##pole": 15049, "bracelet": 19688, "initially": 3322, "unable": 4039, "##\u044d": 29756, "oakley": 28876, "60": 3438, "wounded": 5303, "pipes": 12432, "paterson": 19162, "aspen": 18567, "[unused391]": 396, "retro": 22307, "421": 29403, "improved": 5301, "collaborator": 18843, "designing": 12697, "overgrown": 26433, "unexpectedly": 14153, "warmly": 22775, "drugged": 25483, "reducing": 8161, "afb": 16909, "transmitter": 11659, "321": 24030, "\u5802": 1805, "arboretum": 25197, "variability": 28436, "florence": 7701, "greensboro": 27905, "neither": 4445, "bosses": 23029, "lately": 9906, "yuki": 24924, "musicians": 5389, "hampered": 22532, "sarah": 4532, "ban": 7221, "disposition": 22137, "##lies": 11983, "appointments": 14651, "assessing": 20077, "##kovich": 28195, "##rington": 17281, "negotiation": 19905, "assign": 23911, "nazareth": 27192, "economist": 11708, "climatic": 27301, "tilted": 9939, "wan": 14071, "chu": 14684, "sawmill": 24744, "hell": 3109, "ridden": 15230, "statement": 4861, "scored": 3195, "pioneers": 13200, "lab": 6845, "veil": 15562, "nightmares": 15446, "##dhi": 19114, "interior": 4592, "##\u0432": 25529, "pioneering": 13280, "icelandic": 14024, "artemis": 19063, "194": 19955, "##cuit": 28168, "deal": 3066, "text": 3793, "naming": 10324, "yo": 10930, "souls": 9293, "antwerp": 14003, "capitalist": 19640, "##zia": 12871, "cathedral": 5040, "constituency": 5540, "hagen": 24047, "attaining": 26615, "hoop": 27669, "someplace": 24956, "##ttle": 26328, "##ching": 8450, "castles": 15618, "##woods": 25046, "offer": 3749, "devotees": 22707, "hitch": 27738, "##kken": 24192, "ortiz": 19439, "evident": 10358, "solving": 13729, "wii": 16568, "backward": 8848, "##dos": 12269, "josie": 15293, "##cens": 19023, "introduces": 13999, "deng": 26957, "awaited": 19605, "prominent": 4069, "conde": 24707, "pointedly": 28713, "[unused65]": 66, "1604": 28754, "divide": 11443, "id": 8909, "trembled": 14823, "orientation": 10296, "francis": 4557, "bunk": 25277, "[unused526]": 531, "submitted": 7864, "retains": 14567, "tributary": 8914, "ajax": 18176, "socialism": 14649, "1729": 28449, "\u8a01": 1949, "favorably": 27597, "transferred": 4015, "wilkes": 20635, "[unused634]": 639, "hammond": 11309, "##ssed": 29417, "log": 8833, "##hof": 14586, "hybrids": 23376, "aqua": 28319, "[unused754]": 759, "mug": 14757, "##idad": 27893, "livestock": 11468, "1858": 8517, "luce": 19913, "torches": 24711, "overboard": 27089, "##ivism": 22486, "\u30ab": 1700, "[CLS]": 101, "\u2089": 1556, "shields": 11824, "##text": 18209, "ferdinand": 9684, "loops": 15932, "exceptionally": 17077, "conductors": 23396, "rhodesia": 20340, "avenues": 20859, "eh": 15501, "days": 2420, "##tes": 4570, "humiliation": 21171, "wink": 16837, "knowing": 4209, "xander": 29019, "erroneously": 29411, "celtic": 8730, "hard": 2524, "imagination": 9647, "score": 3556, "pere": 23976, "twice": 3807, "merits": 22617, "aurora": 13158, "childish": 24282, "diagrams": 26309, "frost": 10097, "vii": 8890, "##wei": 19845, "#": 1001, "multiple": 3674, "mlb": 10901, "administered": 8564, "bronze": 4421, "defences": 16828, "turbulent": 22609, "quarry": 12907, "vedic": 25824, "compared": 4102, "german": 2446, "shade": 8703, "diversified": 24908, "[unused288]": 293, "exaggerated": 16903, "##hra": 13492, "quietly": 5168, "pbs": 13683, "teaching": 4252, "logan": 6307, "##nti": 16778, "##ards": 18117, "bets": 29475, "fighter": 4959, "certainty": 15855, "investigations": 9751, "forgive": 9641, "##tale": 22059, "englishman": 25244, "immaculate": 19532, "sock": 28407, "bouncing": 16361, "oversized": 21698, "connect": 7532, "martial": 7761, "gomez": 12791, "##tenberg": 21806, "hoping": 5327, "ensure": 5676, "[unused736]": 741, "lennon": 14294, "88": 6070, "usually": 2788, "jacob": 6213, "elevator": 7764, "bulgaria": 8063, "territories": 6500, "jasmine": 14032, "particles": 9309, "sudan": 10411, "calvin": 11130, "reject": 15454, "resonance": 17011, "disciple": 17849, "211": 19235, "violating": 20084, "happiness": 8404, "detailing": 17555, "kitten": 18401, "bryan": 8527, "simpson": 9304, "mahal": 27913, "avalanche": 18846, "sidekick": 29240, "fountains": 23497, "entertaining": 14036, "issuing": 15089, "balkan": 17581, "##hopper": 27330, "palette": 27396, "disorders": 10840, "rumor": 19075, "\u5b66": 1817, "coa": 28155, "auditor": 20964, "cha": 15775, "repulsed": 24571, "sociologist": 25106, "dwarves": 29281, "helmets": 22674, "##\u3048": 30175, "principally": 16552, "##rien": 23144, "hodgson": 26107, "surplus": 15726, "association": 2523, "##rage": 24449, "##wart": 18367, "##lary": 28221, "corrugated": 27186, "##\u02e2": 29717, "coop": 21859, "melodies": 16106, "##world": 11108, "mapping": 12375, "scrutiny": 17423, "very": 2200, "bolts": 19947, "cheshire": 13789, "hmm": 17012, "##abad": 10542, "buckled": 26368, "\u064a": 1300, "nee": 7663, "##phi": 21850, "[unused567]": 572, "##chai": 24925, "inversion": 28527, "[unused81]": 82, "concern": 5142, "hazard": 15559, "##nl": 20554, "##mussen": 29134, "##leen": 24129, "deployed": 7333, "durham": 9296, "flopped": 24723, "wireless": 9949, "preparatory": 13485, "boat": 4049, "quezon": 26564, "desktop": 15363, "draining": 19689, "##mia": 10092, "##nated": 23854, "\u6b66": 1889, "gamer": 27911, "##venting": 26703, "##al": 2389, "congratulations": 23156, "amateurs": 24361, "inhibitors": 25456, "[unused478]": 483, "tipperary": 17333, "nervous": 6091, "guantanamo": 23094, "##ivating": 17441, "\u091c": 1319, "angelina": 23847, "mandates": 25979, "farm": 3888, "302": 22060, "motor": 5013, "auf": 21200, "rhapsody": 29395, "socks": 14829, "jerking": 22387, "mocked": 24195, "stephane": 26624, "impressions": 19221, "try": 3046, "emma": 5616, "brazilian": 6142, "stanton": 15845, "organist": 16397, "fuck": 6616, "##screen": 18182, "visiting": 5873, "ramsey": 15092, "kilkenny": 17131, "forgetting": 17693, "morale": 19292, "##rgen": 25892, "bulk": 9625, "##tail": 14162, "hang": 6865, "[unused358]": 363, "grunt": 20696, "salmon": 11840, "minister": 2704, "##oft": 15794, "power": 2373, "governed": 9950, "metropolitan": 4956, "##tious": 20771, "delays": 14350, "markus": 23030, "stop": 2644, "pipeline": 13117, "angular": 16108, "silicon": 13773, "armada": 25306, "blast": 8479, "1847": 9176, "runs": 3216, "##rud": 28121, "hirsch": 28127, "greco": 18180, "dealers": 16743, "striker": 11854, "catholicism": 16138, "pitch": 6510, "##rn": 6826, "gum": 16031, "novi": 21574, "professions": 22797, "dixie": 18910, "hedges": 25840, "##sso": 24137, "uniforms": 11408, "betrayal": 14583, "oceanic": 18955, "wealthiest": 27809, "flawless": 27503, "vector": 9207, "##dication": 25027, "draw": 4009, "diver": 17856, "whaling": 23687, "294": 28135, "in": 1999, "calming": 23674, "procedural": 24508, "cure": 9526, "hesitant": 20221, "salesman": 18968, "only": 2069, "##drome": 29171, "playoffs": 7555, "rates": 6165, "rovers": 9819, "israel": 3956, "cinnamon": 21229, "##liche": 27412, "proceedings": 8931, "##dicated": 26022, "fuji": 20933, "mercedes": 10793, "much": 2172, "immortal": 12147, "##\u2606": 30148, "proctor": 28770, "1844": 9730, "sur": 7505, "strode": 11885, "aristocratic": 19774, "vuelta": 21441, "aliens": 12114, "\u0f44": 1427, "feelings": 5346, "elevators": 19406, "cubic": 11919, "deco": 21933, "ipod": 26322, "##bc": 9818, "turk": 22883, "ironically": 18527, "##mps": 25370, "euroleague": 26093, "crashing": 12894, "jewelry": 11912, "afterlife": 25115, "highlighted": 11548, "##osity": 25949, "regained": 11842, "chores": 27091, "frowns": 29303, "##\u540c": 30320, "flipped": 9357, "\u062c": 1275, "ina": 27118, "##\u0679": 29838, "dimly": 25361, "chronicle": 9519, "stroke": 6909, "among": 2426, "mid": 3054, "howe": 13358, "##ovo": 16059, "innsbruck": 28914, "[unused292]": 297, "##itor": 15660, "ix": 11814, "kills": 8563, "edith": 13257, "pairing": 22778, "kick": 5926, "##tas": 10230, "inherently": 26096, "everything": 2673, "##\u0923": 29858, "grasses": 21620, "backs": 10457, "unsafe": 25135, "recapture": 27639, "climate": 4785, "scrap": 15121, "ended": 3092, "[unused575]": 580, "hurley": 25124, "napoleon": 8891, "leinster": 15684, "##vir": 21663, "incarnation": 15715, "hillary": 18520, "jerome": 11120, "blizzard": 21689, "constantine": 12790, "transient": 25354, "advertising": 6475, "##pie": 14756, "purchases": 17402, "archaeologist": 18821, "\u2020": 1526, "mcmillan": 27436, "\u0436": 1186, "unit": 3131, "perpetual": 18870, "clancy": 24530, "dizzy": 14849, "koppen": 20139, "sao": 7509, "##\u0638": 29829, "trainers": 21992, "feldman": 26908, "liberties": 18271, "disturbed": 12491, "innate": 25605, "spurred": 22464, "penetrate": 19136, "##anies": 28064, "warnings": 16234, "##\u5fc4": 30376, "determine": 5646, "##\u0430": 10260, "bremen": 16314, "dancer": 8033, "combinations": 14930, "[unused823]": 828, "patrons": 13497, "scheduling": 19940, "stud": 16054, "academy": 2914, "harold": 7157, "tucked": 9332, "filmmaking": 24466, "katz": 20729, "manager": 3208, "breakfast": 6350, "dioxide": 14384, "erosion": 14173, "##aan": 14634, "[unused861]": 866, "constant": 5377, "affiliate": 8727, "draws": 9891, "nodes": 14164, "protruding": 23868, "extended": 3668, "embedded": 11157, "letterman": 26593, "economics": 5543, "adorned": 19189, "informal": 11900, "dusty": 12727, "attached": 4987, "whiskey": 13803, "weaving": 15360, "##urgent": 27176, "##ox": 11636, "owner": 3954, "andes": 18096, "revenue": 6599, "##tility": 18724, "equator": 26640, "[unused534]": 539, "ever": 2412, "messages": 7696, "clergy": 11646, "cavern": 16679, "tor": 17153, "mundane": 24684, "sui": 24086, "##falls": 28067, "reeling": 28515, "murder": 4028, "reaching": 4285, "switches": 15924, "contexts": 18046, "rebound": 27755, "dennis": 6877, "\u9580": 1968, "abroad": 6917, "servant": 7947, "online": 3784, "[unused23]": 24, "marc": 7871, "##bo": 5092, "sobbed": 25960, "contrary": 10043, "millimetres": 13388, "horned": 26808, "[unused528]": 533, "diary": 9708, "elemental": 19529, "167": 16785, "corporations": 11578, "aimee": 23551, "relationships": 6550, "\u0dcf": 1408, "decree": 10037, "bachelor": 5065, "##bach": 7693, "winters": 12214, "immortality": 20107, "fitzpatrick": 26249, "cad": 28353, "reform": 5290, "escapes": 12976, "obituary": 20815, "##ndon": 19333, "maneuver": 17519, "fanny": 17813, "shout": 11245, "sentimental": 23069, "accurate": 8321, "##rgy": 22637, "##\u6e05": 30429, "\u2083": 1550, "intends": 18754, "yeomanry": 26883, "lurched": 21977, "resource": 7692, "afghan": 12632, "dreamed": 13830, "##grants": 27444, "emanuel": 21135, "confronted": 12892, "broadcasts": 8960, "##\u211d": 30107, "remarkably": 17431, "##\u2078": 30077, "sahib": 23513, "pavilion": 10531, "##dding": 27027, "revelations": 22191, "jimi": 27624, "\u6b4c": 1886, "\u30e3": 1728, "percentage": 7017, "td": 14595, "ri": 15544, "goddamn": 16477, "disturbances": 24535, "dragon": 5202, "fry": 14744, "mri": 27011, "hopefully": 11504, "endured": 16753, "intensely": 20531, "##dr": 13626, "##meo": 26247, "weekdays": 19759, "language": 2653, "##folia": 21710, "##wara": 11872, "##rbin": 27366, "dilemma": 21883, "\u0433": 1183, "##ula": 7068, "##rak": 16555, "amazement": 21606, "smiles": 8451, "tabitha": 21581, "adjustments": 24081, "qin": 19781, "sends": 10255, "\u0965": 1345, "specialization": 28031, "kent": 5982, "##jing": 29518, "auckland": 8666, "1901": 5775, "##\u516b": 30297, "africa": 3088, "awakened": 20256, "handball": 12378, "invasions": 23536, "antigen": 28873, "academic": 3834, "cot": 26046, "connectivity": 20831, "wizard": 10276, "##hdi": 22960, "1936": 4266, "progressive": 6555, "bra": 11655, "alvin": 17348, "goal": 3125, "bright": 4408, "\u0bc8": 1399, "ceasefire": 26277, "##ulio": 24825, "\u00a3100": 27708, "enhanced": 9412, "devastation": 25594, "spoke": 3764, "buys": 23311, "##opped": 27288, "room": 2282, "mastering": 11495, "learns": 10229, "\u30ea": 1732, "exported": 15612, "##xing": 19612, "mortally": 26495, "##dh": 16425, "1817": 12529, "studying": 5702, "pumped": 16486, "encounter": 8087, "came": 2234, "separately": 10329, "brewery": 12161, "detached": 12230, "simultaneously": 7453, "garde": 14535, "membership": 5779, "dick": 5980, "[unused666]": 671, "yells": 22114, "kassel": 27884, "registered": 5068, "paint": 6773, "##\u09ac": 29904, "freud": 19338, "asian": 4004, "check": 4638, "bottles": 11015, "shark": 11420, "quantity": 11712, "canadians": 16485, "relentless": 21660, "processed": 13995, "absorbed": 9063, "203": 18540, "eleventh": 11911, "sykes": 23531, "##ord": 8551, "within": 2306, "##ology": 6779, "guitarists": 28523, "orbits": 20347, "[unused88]": 89, "\u2078": 1542, "contiguous": 25177, "howard": 4922, "flirting": 20661, "reg": 19723, "##by": 3762, "enlist": 28845, "encompassed": 24058, "military": 2510, "southwest": 4943, "rabbis": 25602, "seamen": 28671, "[unused733]": 738, "episode": 2792, "compressor": 29329, "controls": 7711, "fries": 22201, "fuss": 28554, "jean": 3744, "outright": 13848, "viii": 9937, "january": 2254, "poking": 21603, "syrian": 9042, "turner": 6769, "melancholy": 22247, "princely": 22771, "##walker": 26965, "\u6238": 1857, "minions": 28071, "cost": 3465, "excerpts": 24962, "looked": 2246, "combination": 5257, "endangered": 10193, "[unused331]": 336, "never": 2196, "##rdy": 17460, "##egorical": 27203, "guarantee": 11302, "tags": 22073, "harvested": 22629, "bestseller": 24304, "resign": 12897, "[unused482]": 487, "quote": 14686, "anand": 18887, "appropriate": 6413, "raj": 11948, "afc": 10511, "##pass": 15194, "\u96c4": 1974, "filipino": 10275, "\u201c": 1523, "pre": 3653, "border": 3675, "gora": 26967, "reviewers": 15814, "##ode": 10244, "welcoming": 18066, "messing": 22308, "[unused118]": 123, "[unused354]": 359, "##gni": 29076, "parker": 6262, "locating": 26339, "##ware": 8059, "##\u05dd": 29800, "lebanon": 8341, "submarines": 12622, "du": 4241, "bk": 23923, "\u0142odz": 17814, "proceed": 10838, "tokyo": 5522, "##nse": 12325, "omega": 14827, "sports": 2998, "##cup": 15569, "soluble": 24345, "laser": 9138, "##weed": 18041, "39th": 22702, "##nine": 19105, "glint": 25263, "blocked": 8534, "william": 2520, "impressive": 8052, "\u0633": 1282, "##tees": 28313, "vishnu": 17647, "mare": 11941, "naval": 3987, "sergeant": 6722, "conical": 24750, "alliances": 21277, "divorce": 8179, "greens": 15505, "notions": 21951, "greyhound": 21220, "stan": 9761, "biomass": 28148, "coarse": 20392, "personally": 7714, "bombardment": 10400, "hem": 19610, "preacher": 14512, "prevent": 4652, "guild": 9054, "##oman": 20778, "eta": 27859, "petersburg": 8062, "1861": 6863, "##tina": 13770, "residual": 21961, "[unused923]": 928, "\u2044": 1535, "##cut": 12690, "rotating": 13618, "kan": 22827, "proficiency": 26293, "\u09b6": 1374, "##henko": 19767, "##scia": 27210, "[unused427]": 432, "ye": 6300, "generated": 7013, "carter": 5708, "[unused875]": 880, "belinda": 24574, "repaired": 13671, "covered": 3139, "licked": 11181, "mistaken": 13534, "dragoons": 28069, "dumped": 14019, "##\u266f": 30154, "parliamentary": 5768, "entered": 3133, "##cin": 15459, "##\u0634": 29825, "##\u2116": 30106, "##rator": 16259, "##aus": 20559, "masonry": 18103, "registration": 8819, "raaf": 22709, "\u6f22": 1904, "gina": 17508, "barges": 27712, "[unused69]": 70, "vomiting": 24780, "circumstances": 6214, "scrubbed": 27820, "colleague": 11729, "crumbling": 24827, "nba": 6452, "knocking": 10591, "racing": 3868, "knew": 2354, "ballads": 18456, "semantics": 28081, "jain": 17136, "onboard": 27120, "reward": 10377, "solid": 5024, "quadrant": 29371, "##rable": 16670, "lp": 6948, "\u5065": 1768, "drills": 28308, "nixon": 11296, "subdivided": 15369, "1976": 3299, "reasoning": 13384, "curtain": 11002, "indications": 24936, "regis": 20588, "orchard": 15623, "chan": 9212, "meaningless": 25120, "cornish": 17797, "153": 16710, "liberalism": 26505, "serials": 28172, "refinery": 21034, "##\u0272": 29689, "lines": 3210, "solos": 24339, "\u2ebc": 1633, "1849": 9037, "fcc": 14420, "lured": 26673, "rapidly": 5901, "museum": 2688, "centrally": 25497, "granny": 19794, "cancel": 17542, "entitled": 4709, "maharaja": 21609, "nazis": 13157, "smoothing": 27045, "embraced": 14218, "census": 2883, "enters": 8039, "##vern": 23062, "mart": 20481, "chancel": 16482, "1933": 4537, "closer": 3553, "fairies": 20182, "cara": 14418, "stainless": 18676, "bearing": 7682, "dashed": 18198, "representative": 4387, "hated": 6283, "##58": 27814, "outs": 21100, "karlsruhe": 26660, "lucinda": 28261, "hare": 14263, "##rial": 14482, "##pon": 26029, "rochdale": 26109, "##valent": 24879, "trusting": 19836, "romani": 23982, "dubbed": 9188, "[unused975]": 980, "swinging": 11820, "##sphere": 23874, "##gly": 25643, "20": 2322, "hazel": 14015, "##cide": 27082, "tool": 6994, "damon": 11317, "markings": 13967, "##bine": 16765, "drawers": 22497, "15": 2321, "##rret": 27032, "metaphor": 19240, "subsp": 24807, "\u30b9": 1707, "kyrgyzstan": 23209, "anton": 9865, "since": 2144, "\u0f60": 1433, "commissioners": 12396, "##ched": 7690, "literary": 4706, "protocol": 8778, "motown": 22654, "##\u21c4": 30117, "slope": 9663, "announcements": 25674, "1969": 3440, "wandering": 13071, "walked": 2939, "supported": 3569, "displayed": 6913, "placement": 11073, "louisville": 11577, "captive": 12481, "distinctly": 19517, "compiling": 21953, "shorter": 7820, "maud": 21696, "planes": 9738, "roam": 25728, "imp": 17727, "durga": 28746, "substrates": 23725, "according": 2429, "##ttes": 14581, "applies": 12033, "laced": 17958, "pronouns": 26028, "blond": 8855, "waterloo": 13784, "abducted": 20361, "##cano": 23803, "shining": 9716, "kellan": 19697, "hears": 14994, "browser": 16602, "dewey": 20309, "##ghan": 22218, "robbers": 28019, "##\u2122": 30108, "[unused962]": 967, "\u2087": 1554, "sketches": 12741, "doesn": 2987, "detrimental": 29172, "##\u306e": 30197, "surge": 12058, "coordinating": 19795, "##\u00d7": 26306, "banners": 23562, "##igate": 28731, "##meric": 25531, "stance": 11032, "wildly": 13544, "dana": 11271, "insurrection": 27860, "provide": 3073, "street": 2395, "majesty": 9995, "claudia": 13479, "##sbury": 18065, "bazaar": 22774, "grande": 9026, "coached": 8868, "lorenzo": 12484, "hampshire": 7035, "fran": 23151, "imagined": 8078, "spent": 2985, "\u56d7": 1797, "virus": 7865, "passport": 12293, "wednesday": 9317, "frantically": 16460, "freeze": 13184, "rattled": 19252, "olive": 9724, "[unused257]": 262, "\u3064": 1664, "irony": 19728, "smashing": 21105, "palestinians": 21524, "reginald": 14435, "bulgarian": 7643, "1923": 4927, "exclusive": 7262, "forcing": 6932, "shareholders": 15337, "##avia": 15164, "bloomington": 26372, "bombs": 9767, "aquatics": 26649, "[unused799]": 804, "eastern": 2789, "frowned": 7335, "##t": 2102, "lowered": 6668, "vie": 20098, "zodiac": 28501, "singapore": 5264, "doing": 2725, "spatial": 13589, "unfortunate": 15140, "[unused71]": 72, "moreover": 9308, "underlying": 10318, "mallory": 20468, "redesignated": 11836, "algorithms": 13792, "res": 24501, "easy": 3733, "fission": 27521, "[unused60]": 61, "\u06be": 1307, "\u30db": 1722, "refrain": 20703, "##our": 8162, "##hara": 11077, "##ege": 24746, "biodiversity": 17194, "schumann": 29448, "##avs": 29553, "##\u0906": 29848, "##\u5149": 30296, "##ne": 2638, "nations": 3741, "[unused868]": 873, "gan": 25957, "gustav": 13430, "instead": 2612, "blues": 5132, "notwithstanding": 26206, "displacement": 13508, "yankee": 17652, "occurs": 5158, "staged": 9813, "installations": 14111, "thornton": 14630, "road": 2346, "##nc": 12273, "##hiro": 18334, "##gging": 12588, "##27": 22907, "##vus": 27500, "sidewalk": 11996, "dirty": 6530, "choices": 9804, "caf": 24689, "lynne": 26938, "kelly": 5163, "##fleet": 27657, "possible": 2825, "nissan": 16509, "##tom": 20389, "amassed": 22151, "ipa": 24531, "kai": 11928, "court": 2457, "torres": 13101, "symmetrical": 23476, "reputation": 5891, "annoying": 15703, "survey": 5002, "gamma": 13091, "##nham": 20465, "loss": 3279, "giovanni": 9136, "##dity": 25469, "baxter": 14664, "##pp": 9397, "jenkins": 11098, "chevy": 29009, "hit": 2718, "##lice": 13231, "dedicated": 4056, "defended": 8047, "chemistry": 6370, "##\u30d8": 30247, "nudged": 18666, "jenny": 8437, "knows": 4282, "[unused189]": 194, "##lean": 20898, "\u0274": 1124, "resignation": 8172, "##hit": 16584, "sultanate": 21308, "pillow": 10005, "boxer": 10423, "moshe": 27123, "macarthur": 17719, "english": 2394, "continuity": 13717, "##lal": 13837, "evenings": 16241, "##ii": 6137, "[unused346]": 351, "mx": 25630, "initials": 20381, "tito": 20712, "bilingual": 17636, "once": 2320, "230": 11816, "readers": 8141, "apprehension": 25809, "decline": 6689, "becker": 15309, "vr": 27830, "[unused33]": 34, "##ost": 14122, "##logical": 9966, "john": 2198, "psi": 17816, "[unused165]": 170, "alba": 18255, "##lved": 26832, "belly": 7579, "[unused67]": 68, "senegal": 16028, "sustainability": 15169, "\u5973": 1815, "talents": 11725, "equilibrium": 14442, "completely": 3294, "##\u201d": 30059, "orchid": 15573, "claudio": 19569, "doubling": 19383, "pittsburgh": 6278, "simple": 3722, "voodoo": 21768, "shoot": 5607, "reign": 5853, "1679": 27924, "spraying": 29035, "\u30aa": 1699, "phil": 6316, "##pani": 26569, "weimar": 20695, "kelvin": 24810, "armored": 10612, "impulse": 14982, "\u10d0": 1438, "machines": 6681, "explorer": 10566, "savanna": 22323, "prevailed": 19914, "butt": 10007, "##\u72ac": 30434, "##ignon": 24796, "flower": 6546, "element": 5783, "##\u208a": 30086, "adoption": 9886, "discouraged": 22585, "bless": 19994, "oval": 9242, "heel": 12073, "substituted": 17316, "sells": 15187, "swings": 18755, "crust": 19116, "\u6797": 1881, "peasants": 13193, "##with": 24415, "would": 2052, "iron": 3707, "999": 25897, "cause": 3426, "##ake": 13808, "##\u4e94": 30279, "bolshevik": 24477, "[unused379]": 384, "thus": 2947, "subjects": 5739, "foraging": 26912, "[unused347]": 352, "serbs": 16757, "olaf": 20514, "##rera": 24068, "\u2099": 1568, "##ock": 7432, "##cycle": 23490, "##\u0936": 29872, "youtube": 7858, "##shire": 7430, "loved": 3866, "marissa": 22767, "mma": 21021, "accumulate": 27598, "[unused336]": 341, "becca": 22140, "witnesses": 9390, "2015": 2325, "comprised": 11539, "lens": 10014, "marina": 9985, "chiefs": 9058, "##yra": 19563, "perched": 17335, "##igh": 18377, "montenegrin": 24099, "mounts": 19363, "unlike": 4406, "clapped": 18310, "morally": 28980, "##nburg": 22642, "justine": 26377, "##tation": 12516, "grape": 14722, "gaines": 28645, "insists": 16818, "##rong": 17583, "intimidation": 28973, "##ia": 2401, "fourier": 26899, "\u00ab": 1077, "lamb": 12559, "flooded": 10361, "mei": 19734, "hydro": 18479, "warmer": 16676, "effort": 3947, "drag": 8011, "protagonists": 21989, "assured": 8916, "bwv": 23860, "toxic": 11704, "lake": 2697, "1970": 3359, "antennas": 26315, "arabian": 13771, "gov": 18079, "hypnotic": 28322, "quite": 3243, "[unused922]": 927, "li": 5622, "##sson": 7092, "dislike": 18959, "##ulated": 8898, "waltz": 17569, "spice": 17688, "fitting": 11414, "furnished": 19851, "this": 2023, "vertices": 18984, "thinner": 23082, "##dust": 24220, "reacts": 27325, "domed": 29208, "stillness": 29435, "unfinished": 14342, "[unused431]": 436, "##redo": 23417, "##ignant": 25593, "shale": 18488, "h": 1044, "abdomen": 13878, "[unused917]": 922, "garage": 7381, "swirling": 16499, "233": 22115, "fights": 9590, "pouring": 13053, "kathmandu": 28045, "liturgical": 19246, "marble": 7720, "zealand": 3414, "tunes": 13281, "ensuring": 12725, "incompatible": 25876, "1856": 8708, "##ayan": 25868, "sole": 7082, "nichols": 15746, "ruben": 19469, "##ality": 23732, "protestants": 19592, "whore": 17219, "\u5343": 1784, "\u5bbf": 1826, "fleeing": 14070, "lump": 15116, "strides": 22215, "##hli": 27766, "c": 1039, "baronetcy": 25071, "cautiously": 15151, "aggravated": 25817, "steadily": 11328, "yawned": 27626, "smoke": 5610, "resigned": 5295, "staying": 6595, "##use": 8557, "laptop": 12191, "dormitory": 21538, "greg": 6754, "##ri": 3089, "miguel": 8374, "pink": 5061, "[unused489]": 494, "##dermott": 29370, "states": 2163, "message": 4471, "albanian": 9408, "dish": 9841, "muscular": 13472, "##\u0631": 17149, "wayne": 6159, "##vron": 28588, "ron": 6902, "hungarian": 5588, "regards": 12362, "went": 2253, "\u9673": 1972, "[unused601]": 606, "nation": 3842, "308": 24232, "designate": 24414, "clients": 7846, "duck": 9457, "exquisite": 19401, "functioned": 20903, "enthusiastic": 14727, "max": 4098, "dai": 18765, "clad": 13681, "1717": 27525, "bbc": 4035, "supporting": 4637, "##icated": 17872, "matthias": 17885, "pueblo": 18273, "raised": 2992, "obama": 8112, "braking": 24427, "aus": 17151, "richest": 18429, "footage": 8333, "unavailable": 20165, "##\u9673": 30498, "##suke": 16867, "embark": 28866, "179": 20311, "zion": 19999, "vidhan": 28590, "1962": 3705, "r": 1054, "aztec": 25245, "agile": 29003, "apprentice": 13357, "##ut": 4904, "davidson": 12017, "plumage": 28764, "significance": 7784, "appreciated": 12315, "##\u03b1": 14608, "puppets": 26101, "stormy": 24166, "sanford": 21153, "serialized": 27289, "inhabitants": 4864, "africans": 18076, "##uve": 22909, "mace": 19382, "lucy": 7004, "expansion": 4935, "slap": 14308, "##rent": 22787, "nk": 25930, "helpful": 14044, "##\u11af": 30022, "ross": 5811, "[unused238]": 243, "lesson": 10800, "pas": 14674, "ramps": 24943, "##\u0905": 29847, "locked": 5299, "##tag": 15900, "cambridge": 4729, "##eding": 17819, "arranging": 19018, "completed": 2949, "carla": 17081, "sack": 12803, "guess": 3984, "ethnicity": 18240, "texts": 6981, "hack": 20578, "[unused11]": 12, "alexandra": 10481, "meg": 12669, "##lto": 23223, "vomit": 23251, "strikeouts": 20813, "sect": 17831, "restaurants": 7884, "metro": 6005, "[unused684]": 689, "homeland": 10759, "hawkins": 13835, "fangs": 11738, "##hale": 15238, "install": 16500, "##ytic": 21252, "bahia": 22474, "hurdles": 18608, "sql": 29296, "number": 2193, "republished": 24476, "attire": 20426, "dangling": 18737, "investigator": 14064, "seismic": 22630, "##an": 2319, "servers": 14903, "defence": 4721, "##rries": 26801, "minimize": 18478, "##rained": 27361, "##\u00aa": 29653, "medium": 5396, "##yon": 14001, "angus": 13682, "##lices": 29146, "burnett": 13829, "partnership": 5386, "[unused777]": 782, "##ended": 21945, "commotion": 23960, "stale": 26729, "##gnant": 27881, "pull": 4139, "spectator": 21027, "vickers": 18571, "vocabulary": 16188, "sant": 15548, "northeast": 4794, "liverpool": 6220, "##\u4fe1": 30293, "##ance": 6651, "[unused588]": 593, "hardened": 15015, "##chon": 24561, "##dom": 9527, "astor": 25159, "justices": 19867, "education": 2495, "inhabited": 9613, "executed": 6472, "mueller": 26774, "lenses": 15072, "freed": 10650, "ripping": 17039, "multiplayer": 17762, "##anum": 27975, "laundry": 14533, "promoting": 7694, "haitian": 21404, "reza": 26323, "##tism": 17456, "##oum": 24778, "obligations": 14422, "##work": 6198, "third": 2353, "rider": 7945, "lamps": 14186, "audition": 14597, "1728": 26833, "\u03b8": 1162, "ramos": 18882, "confront": 14323, "1979": 3245, "##ien": 9013, "##erland": 22492, "##ul": 5313, "prominence": 12144, "meant": 3214, "colombia": 7379, "stereo": 12991, "##vina": 17948, "satisfactory": 23045, "##ih": 19190, "##\u7acb": 30457, "guo": 22720, "clearing": 8430, "\u0630": 1279, "wilson": 4267, "watches": 12197, "fest": 17037, "metadata": 27425, "surprises": 20096, "##hri": 26378, "montenegro": 13018, "hillsborough": 29330, "print": 6140, "textiles": 18762, "crawl": 13529, "increases": 7457, "opposed": 4941, "bench": 6847, "##ardo": 24649, "1560": 29185, "calendar": 8094, "concluding": 16228, "evidently": 15329, "cats": 8870, "processes": 6194, "tuna": 24799, "1664": 28485, "conglomerate": 22453, "##\u2032": 30066, "retribution": 25928, "flights": 7599, "listing": 10328, "avant": 14815, "##hine": 14014, "##dder": 20791, "##aur": 21159, "crewe": 22188, "twelve": 4376, "testing": 5604, "\uff5e": 1995, "shielded": 25474, "traditions": 7443, "fifth": 3587, "##za": 4143, "drake": 7867, "sleeves": 15114, "och": 28166, "403": 28203, "chair": 3242, "sneered": 28098, "atm": 27218, "moors": 24812, "brooding": 28902, "83": 6640, "child": 2775, "br": 7987, "concurrently": 15442, "##arion": 27548, "##lic": 10415, "passages": 13768, "1884": 6988, "ruse": 26307, "junctions": 27169, "##ish": 4509, "##weather": 28949, "patents": 13979, "shelton": 22230, "memo": 24443, "splits": 19584, "##ivision": 24607, "pablo": 11623, "clauses": 24059, "\u53e3": 1788, "charting": 17918, "judith": 12924, "##riders": 28116, "marie": 5032, "rowan": 14596, "##rrier": 27051, "stifled": 27146, "youths": 19634, "curry": 15478, "dropped": 3333, "greatest": 4602, "screaming": 7491, "##\u0f53": 29965, "battista": 28422, "regional": 3164, "nagar": 16395, "\u0935": 1335, "cushion": 22936, "dishes": 10447, "showcased": 22443, "\u8a9e": 1950, "paperwork": 17397, "greaves": 27808, "rivals": 9169, "##win": 10105, "derry": 17455, "confirming": 19195, "cast": 3459, "thumb": 7639, "instances": 12107, "participates": 17257, "bela": 20252, "##sive": 12742, "competitor": 12692, "enclave": 25867, "neatly": 15981, "virtually": 8990, "swallow": 10577, "kobe": 24113, "##kala": 26907, "interceptor": 24727, "adept": 26398, "meyer": 11527, "turned": 2357, "airplane": 13297, "##pants": 27578, "flotilla": 17150, "##schen": 23796, "[unused472]": 477, "##point": 8400, "preparations": 12929, "craters": 27561, "[unused394]": 399, "coup": 8648, "syndrome": 8715, "slavery": 8864, "[unused690]": 695, "grade": 3694, "##cke": 19869, "atmospheric": 12483, "##mbit": 28878, "gripping": 13940, "##`": 29639, "releasing": 8287, "##hita": 23935, "starving": 18025, "293": 26953, "highlight": 12944, "cop": 8872, "[unused232]": 237, "wei": 11417, "weiss": 17889, "\u300c": 1641, "\u6625": 1867, "estonia": 10692, "stain": 21101, "[unused802]": 807, "##yan": 7054, "##vier": 14356, "flattened": 16379, "redeveloped": 28053, "chord": 13924, "quad": 17718, "\u05e8": 1265, "strength": 3997, "promise": 4872, "concentration": 6693, "coins": 7824, "##ati": 10450, "captained": 16041, "salman": 28542, "reigning": 16323, "andover": 29463, "##sight": 25807, "sighting": 29426, "imperial": 4461, "intersection": 6840, "joyce": 11830, "husband": 3129, "##uing": 25165, "parallels": 18588, "##umble": 26607, "oversee": 17467, "rejected": 5837, "##\u4e16": 30271, "disorder": 8761, "favoured": 16822, "balfour": 27560, "adolph": 28564, "##\u25aa": 30145, "[unused609]": 614, "leonard": 7723, "edmund": 9493, "antonia": 24272, "travel": 3604, "##lly": 9215, "antarctica": 12615, "accessibility": 23661, "medalist": 12968, "introduced": 3107, "rita": 11620, "texture": 14902, "villiers": 25333, "waved": 7147, "##nical": 20913, "spears": 13957, "greenberg": 24190, "##mas": 9335, "##ulator": 20350, "boroughs": 21413, "floors": 8158, "loud": 5189, "syndicate": 16229, "shorts": 9132, "pacing": 15732, "1622": 28133, "##\u30aa": 30225, "administration": 3447, "##chee": 25923, "##jet": 15759, "dna": 6064, "coveted": 28821, "[unused991]": 996, "anders": 15387, "dotted": 20384, "clean": 4550, "occasional": 8138, "bump": 16906, "840": 28122, "##cic": 19053, "##dra": 7265, "choked": 12444, "brody": 19631, "##liffe": 27931, "continual": 27222, "puebla": 27452, "204": 19627, "prefect": 19402, "paternal": 15112, "janet": 9965, "figured": 6618, "recognition": 5038, "punches": 17957, "leningrad": 15930, "nh": 18699, "seminars": 17239, "coldly": 24745, "tatar": 29241, "sid": 15765, "##dham": 17661, "shia": 20474, "celebrate": 8439, "risk": 3891, "52nd": 26898, "regaining": 28657, "surviving": 6405, "quincy": 16141, "sins": 15516, "measurement": 10903, "paige": 17031, "totally": 6135, "useful": 6179, "##tly": 14626, "potatoes": 14629, "entirety": 15700, "republics": 24822, "enzo": 26218, "61": 6079, "[unused83]": 84, "framed": 10366, "baltic": 11275, "deviation": 24353, "correlated": 23900, "parameter": 16381, "[unused275]": 280, "c2": 29248, "bristol": 7067, "methane": 24481, "specializes": 16997, "distinctions": 25995, "##lini": 22153, "migratory": 22262, "alto": 10766, "kashmir": 13329, "denote": 19090, "davy": 23255, "sandra": 12834, "relax": 9483, "##glio": 29480, "fai": 26208, "vlad": 19163, "buzzed": 21377, "sachs": 22818, "certification": 10618, "palo": 24326, "##mount": 20048, "perished": 23181, "penelope": 18641, "jihad": 24815, "dogg": 28844, "succumbed": 25642, "##gpur": 25758, "qc": 25196, "##nzo": 25650, "suggesting": 9104, "chevalier": 22019, "nosed": 29338, "darkly": 27148, "frontal": 19124, "opt": 23569, "1872": 7572, "\u0985": 1347, "cups": 10268, "##ception": 24422, "[unused621]": 626, "yell": 14315, "karachi": 15381, "mask": 7308, "inflammation": 21733, "addresses": 11596, "violence": 4808, "##ture": 11244, "institutions": 4896, "##\u0443": 29748, "command": 3094, "inaccurate": 24949, "hesitated": 9369, "add": 5587, "penultimate": 25512, "illustrious": 26150, "##hear": 26560, "##coe": 16288, "crook": 19302, "chilean": 12091, "##his": 24158, "##ova": 7103, "june": 2238, "constitutional": 6543, "midland": 12240, "gratitude": 15531, "sheds": 25999, "symphonic": 18957, "builders": 16472, "##arat": 25879, "rt": 19387, "starts": 4627, "engineers": 6145, "##pet": 22327, "ruth": 7920, "##eft": 29218, "fujian": 29551, "\u09ae": 1370, "libya": 12917, "##\u09ad": 29905, "##\u00a8": 29651, "cohen": 9946, "lantern": 12856, "##\u0e07": 29946, "blackened": 25788, "villains": 16219, "incomes": 29373, "470": 21064, "roi": 25223, "freddie": 15528, "dinah": 26562, "defected": 26330, "storey": 11676, "progressively": 20519, "xml": 20950, "portuguese": 5077, "spectroscopy": 25458, "underwear": 14236, "persist": 29486, "[unused731]": 736, "revision": 13921, "fragment": 15778, "hutton": 20408, "preference": 12157, "tallest": 13747, "mendoza": 18021, "urgency": 19353, "##dp": 18927, "237": 23297, "landfall": 21042, "##pore": 26691, "salvatore": 17485, "peru": 7304, "distraction": 14836, "unease": 27880, "boone": 15033, "##ldon": 19932, "illustrating": 28252, "museo": 19713, "benoit": 21721, "fences": 21549, "irwin": 17514, "prisons": 15996, "financing": 12135, "##rai": 14995, "molecular": 8382, "thyroid": 29610, "displaced": 12936, "landfill": 28382, "##kers": 11451, "\u6708": 1872, "forecast": 19939, "boosted": 28043, "##yo": 7677, "konrad": 22958, "julius": 10396, "bankers": 25375, "terrorist": 9452, "##ming": 6562, "button": 6462, "woke": 8271, "contestant": 10832, "bengali": 11267, "supply": 4425, "simpler": 16325, "permits": 14245, "106": 10114, "\u30c6": 1713, "##ctic": 13306, "lima": 12967, "skill": 8066, "silvia": 27827, "##rize": 25709, "enjoying": 9107, "niagara": 15473, "##nco": 15305, "##gin": 11528, "reiterated": 28960, "##log": 21197, "lawful": 26410, "cargo": 6636, "beckett": 20599, "lightning": 7407, "dot": 11089, "hierarchy": 12571, "hertfordshire": 18889, "verification": 22616, "##xide": 19491, "crack": 8579, "##id": 3593, "ranged": 15844, "1820s": 28504, "outlawed": 29131, "decisive": 13079, "vitamin": 17663, "analogous": 19639, "320": 13710, "##zar": 9057, "madden": 24890, "geology": 13404, "chris": 3782, "specimen": 11375, "skylar": 27970, "restrictions": 9259, "goo": 27571, "lightly": 8217, "stamped": 20834, "inn": 7601, "thematic": 23539, "##nessy": 25441, "nod": 7293, "\u0905": 1311, "manufacture": 9922, "##fk": 24316, "##ial": 4818, "winged": 14462, "patrol": 6477, "empires": 23560, "condemnation": 26248, "##dry": 21190, "##borne": 19288, "supposedly": 10743, "clary": 13145, "unlimited": 14668, "##\u0452": 29758, "soft": 3730, "horizon": 9154, "##ask": 19895, "##dong": 17679, "##iot": 25185, "smaller": 3760, "expenditures": 22697, "##het": 27065, "##\u0bb5": 29930, "##ctum": 27272, "##broken": 29162, "911": 19989, "spying": 22624, "eggs": 6763, "plain": 5810, "132": 14078, "buckley": 17898, "##rca": 18992, "##zo": 6844, "wolves": 8588, "tries": 5363, "73": 6421, "mats": 22281, "pediatric": 23614, "seasoned": 28223, "##ti": 3775, "##xley": 20959, "paws": 24392, "fatally": 26292, "acclaimed": 10251, "slowed": 9784, "dolls": 14421, "##acio": 21361, "vegas": 7136, "zionist": 21379, "racial": 5762, "##gie": 11239, "bad": 2919, "dissolve": 21969, "interspersed": 25338, "bipolar": 29398, "truths": 23019, "elastic": 21274, "##rer": 14544, "pulitzer": 17618, "##hy": 10536, "reappeared": 23040, "plush": 27729, "tough": 7823, "robbery": 13742, "##aud": 19513, "trumpeter": 28220, "deeper": 6748, "explored": 10641, "\u540c": 1794, "##kai": 11151, "droplets": 27126, "submission": 12339, "virginity": 26970, "insurgents": 20541, "banging": 22255, "reminiscent": 14563, "offense": 10048, "##ishment": 21808, "##ves": 6961, "roderick": 28326, "addressing": 12786, "comforting": 16334, "cheltenham": 18763, "##ious": 6313, "sped": 16887, "baggage": 20220, "ecole": 12431, "ea": 19413, "2020": 12609, "untouched": 22154, "orleans": 5979, "mildred": 25452, "##nay": 16741, "[unused716]": 721, "simon": 4079, "largely": 4321, "berkeley": 8256, "wipe": 13387, "appealing": 16004, "civilizations": 24784, "onwards": 9921, "[unused274]": 279, "caressed": 21473, "robyn": 28047, "vowel": 12710, "1833": 11040, "stems": 12402, "every": 2296, "celestial": 17617, "##sov": 23230, "declining": 13993, "stick": 6293, "bog": 22132, "piedmont": 18873, "grey": 4462, "\u02d0": 1150, "brutally": 23197, "quoting": 27394, "##frame": 15643, "\u110a": 1462, "cl": 18856, "slabs": 28761, "electromagnetic": 17225, "guarding": 17019, "plump": 26731, "linen": 17517, "[unused72]": 73, "interfered": 28976, "##holm": 18884, "##oud": 19224, "\u09a4": 1362, "unnamed": 13294, "##vial": 18660, "norris": 15466, "proliferation": 20250, "insistence": 20616, "afro": 17694, "platt": 28005, "[unused365]": 370, "##bro": 12618, "corrupt": 13593, "lookout": 19052, "gave": 2435, "corrosion": 24625, "[unused672]": 677, "differential": 11658, "deceased": 10181, "##aja": 22734, "shortstop": 25359, "##\u0576": 29778, "phone": 3042, "bolted": 18088, "lullaby": 29149, "##\u05dc": 29799, "##bar": 8237, "##lights": 15733, "lesser": 8276, "[unused981]": 986, "##eb": 15878, "intersects": 17349, "##\u062a": 29817, "writhing": 26185, "\u0ba4": 1385, "pamphlets": 24752, "##\u1109": 29997, "##das": 8883, "##chet": 20318, "##etti": 18319, "goodwill": 22875, "az": 17207, "joe": 3533, "monograph": 24039, "instructional": 23219, "tai": 13843, "##\u0f66": 29972, "##\u53f8": 30317, "albeit": 12167, "sexually": 12581, "jericho": 17309, "clinics": 17865, "bavaria": 11606, "due": 2349, "sweater": 14329, "yanking": 25716, "teaming": 27025, "mortimer": 17416, "denise": 15339, "##phones": 19093, "quartet": 8530, "lyndon": 23037, "stucco": 27443, "captives": 21496, "oblast": 10379, "gerry": 14926, "##how": 14406, "marlon": 25861, "bartlett": 20081, "ki": 11382, "##lance": 23078, "##ghton": 21763, "##nel": 11877, "arrows": 12563, "canning": 24549, "carousel": 27628, "\u3059": 1658, "##ogist": 22522, "##dine": 10672, "##wc": 16526, "reunite": 25372, "marcia": 22548, "pork": 15960, "sylvester": 20016, "wharf": 16435, "slant": 27474, "improving": 9229, "\u092c": 1329, "##rc": 11890, "lakeside": 28701, "##\u03bf": 29730, "[unused533]": 538, "fit": 4906, "lombardy": 27728, "swallowing": 18468, "1721": 27689, "##ville": 3077, "copper": 6967, "prelate": 26595, "hat": 6045, "##lab": 20470, "exceeding": 17003, "buffer": 17698, "[unused760]": 765, "##\u6a4b": 30411, "tearing": 13311, "ganga": 28646, "throughout": 2802, "sentences": 11746, "geneva": 9810, "50th": 12951, "squares": 14320, "##arium": 17285, "anarchy": 26395, "grandfather": 5615, "psyche": 25774, "empowerment": 23011, "reorganisation": 24934, "mere": 8210, "selector": 27000, "##us": 2271, "additional": 3176, "sherry": 22268, "tea": 5572, "inadvertently": 21089, "unrest": 16591, "[unused952]": 957, "vows": 16495, "sheila": 15062, "we": 2057, "##tia": 10711, "sammy": 14450, "420": 17442, "loose": 6065, "##omic": 22026, "periodicals": 21855, "burden": 10859, "##hearted": 27693, "##rwood": 20941, "kaitlyn": 28584, "##\u3081": 30206, "##mme": 20058, "scaled": 18953, "##rish": 18774, "constitutes": 17367, "terminate": 20320, "distinction": 7835, "human": 2529, "carlos": 5828, "cricket": 4533, "tub": 14366, "sept": 17419, "\u0ba8": 1386, "comparable": 12435, "##z": 2480, "trusted": 9480, "##ense": 16700, "##eka": 19025, "chunk": 20000, "sometime": 8811, "##fm": 16715, "potsdam": 26554, "spoon": 15642, "freshly": 20229, "##nea": 22084, "##ator": 8844, "##fort": 13028, "menace": 19854, "##ification": 9031, "[unused638]": 643, "raja": 10164, "guangzhou": 18693, "amin": 24432, "##gami": 26517, "herbal": 27849, "libre": 21091, "parasitic": 26045, "somber": 28587, "canine": 28735, "##bs": 5910, "irritation": 17373, "670": 25535, "deliver": 8116, "clash": 13249, "##eller": 24038, "##bians": 26376, "crab": 18081, "##game": 16650, "##sant": 22341, "centuries": 4693, "hardin": 27522, "meanings": 15383, "detachments": 29568, "wrecked": 18480, "[unused310]": 315, "melanie": 13286, "modify": 19933, "similarly": 6660, "theodor": 21448, "\u00b1": 1081, "restriction": 16840, "##vere": 28943, "prophecy": 14951, "##odon": 28716, "packaged": 21972, "detected": 11156, "##el": 2884, "storylines": 22628, "57": 5401, "darkest": 23036, "disciplines": 12736, "ornate": 18099, "nas": 17235, "dave": 4913, "random": 6721, "lev": 23310, "##tha": 8322, "migrate": 22806, "306": 24622, "mc": 11338, "##tase": 18260, "[unused297]": 302, "colon": 16844, "mcmahon": 17741, "berkshire": 15570, "secretaries": 23660, "##utus": 23998, "predictable": 21425, "mysore": 20761, "mayer": 14687, "eyre": 26975, "##tat": 29336, "inadequate": 14710, "\u672c": 1876, "\u4eac": 1755, "76": 6146, "tertiary": 13553, "##flower": 14156, "dimitri": 15953, "aligned": 13115, "fruit": 5909, "##eta": 12928, "##{": 29640, "preceded": 11677, "day": 2154, "\u0635": 1284, "katherine": 9477, "logo": 8154, "clap": 28618, "seventeenth": 15425, "recession": 19396, "##rized": 18425, "worse": 4788, "braun": 21909, "##raph": 24342, "sy": 25353, "model": 2944, "nestor": 25397, "grabbing": 9775, "\u27e8": 1629, "mann": 10856, "compassionate": 29353, "marko": 28003, "arkansas": 6751, "enveloped": 25407, "##\u30bb": 30234, "##taro": 28160, "upon": 2588, "1919": 4529, "ethiopian": 15101, "##tosis": 25950, "##ack": 8684, "##ship": 9650, "rested": 8614, "wrought": 18481, "##s\u0142aw": 23305, "harlan": 24276, "annals": 16945, "succeeded": 4594, "##iensis": 27806, "prescribed": 16250, "[unused650]": 655, "bought": 4149, "bourbon": 15477, "punched": 11696, "considering": 6195, "\u662d": 1868, "sinking": 10186, "[unused177]": 182, "leipzig": 11222, "taunting": 29442, "riff": 24808, "nacional": 10718, "[unused227]": 232, "nair": 22525, "republicans": 10643, "mana": 24951, "penis": 19085, "18": 2324, "engage": 8526, "dayton": 14700, "whig": 21632, "\u5b89": 1820, "knoxville": 20021, "##\u4e95": 30280, "de": 2139, "lateral": 11457, "typical": 5171, "creator": 8543, "sweetie": 22872, "modern": 2715, "##hosis": 25229, "thayer": 25563, "checkpoint": 26520, "##uppe": 29547, "rushing": 8375, "bay": 3016, "pulpit": 23134, "nominated": 4222, "rutgers": 18607, "##swell": 19228, "recover": 8980, "##\u09b9": 29913, "spider": 6804, "mess": 6752, "pasture": 20787, "\u9752": 1975, "harness": 17445, "addict": 26855, "##lta": 24458, "strapped": 18019, "heap": 16721, "enthusiastically": 24935, "ripple": 24644, "##\u09af": 29907, "magdalena": 23984, "marvin": 13748, "dispatched": 14501, "weaken": 23021, "serviced": 22858, "tipping": 25486, "argument": 6685, "let": 2292, "conducting": 9283, "textbooks": 18841, "houston": 5395, "admiring": 24588, "premature": 21371, "nature": 3267, "stewart": 5954, "researching": 20059, "##bard": 21458, "lucifer": 24184, "##ids": 9821, "##ele": 12260, "[unused514]": 519, "##\u2093": 30092, "biceps": 27947, "1957": 3890, "##inae": 16414, "ana": 9617, "1776": 13963, "nato": 10079, "vapor": 20064, "##rani": 21578, "libel": 26201, "henson": 27227, "##wise": 14244, "important": 2590, "bartholomew": 19866, "barcelona": 7623, "commits": 27791, "usa": 3915, "resided": 12427, "movie": 3185, "vet": 29525, "manipulation": 16924, "travellers": 19284, "dee": 9266, "##hong": 19991, "##ddling": 21814, "paralyzed": 22348, "##park": 14432, "motive": 15793, "females": 3801, "cognition": 26497, "proportions": 19173, "johor": 25268, "##bling": 9709, "nicola": 17388, "##iom": 18994, "##ress": 8303, "doc": 9986, "[unused763]": 768, "wight": 20945, "daryl": 22514, "occurred": 4158, "##\u056f": 29774, "1809": 12861, "dec": 11703, "recording": 3405, "##hh": 23644, "##rso": 25301, "hearst": 25419, "##gible": 18507, "international": 2248, "percussion": 6333, "spheres": 19885, "meteorological": 20557, "##bered": 22408, "[unused907]": 912, "departed": 7745, "sc": 8040, "##suka": 26544, "russell": 5735, "lowe": 14086, "##wyl": 27740, "brennan": 13962, "breaststroke": 28164, "##worth": 5172, "affects": 13531, "##mble": 19661, "oak": 6116, "##hetic": 20086, "##rut": 22134, "stigma": 26453, "cruiser": 10844, "winnipeg": 11093, "leicestershire": 20034, "##bre": 13578, "bridge": 2958, "sikhs": 26697, "cousin": 5542, "lyons": 16642, "promoter": 15543, "vegetarian": 23566, "\u10dd": 1450, "master": 3040, "free": 2489, "commerce": 6236, "plata": 19534, "johns": 11545, "eagerly": 17858, "bey": 20289, "understands": 19821, "newspapers": 6399, "##ilised": 21758, "threads": 16457, "##ear": 14644, "silesian": 20453, "##\u4e45": 30274, "indonesian": 9003, "glands": 23340, "lacked": 10858, "favorable": 11119, "iaaf": 21259, "\u05d7": 1248, "2d": 14134, "\u2122": 1580, "navigate": 22149, "00pm": 27995, "wealth": 7177, "taliban": 16597, "conditional": 18462, "rave": 23289, "footballers": 27784, "rustling": 29188, "clip": 12528, "stammered": 28532, "##horse": 23024, "##olio": 29401, "involves": 7336, "creditors": 23112, "attempting": 7161, "developing": 4975, "homage": 14822, "grabbed": 4046, "[unused908]": 913, "statutory": 15201, "tooth": 11868, "flea": 26735, "1629": 27882, "salon": 11090, "belarusian": 15626, "matters": 5609, "masovian": 23703, "parenting": 28586, "applicant": 23761, "seniors": 15995, "domestically": 27143, "##uin": 20023, "legions": 23269, "##pid": 23267, "##gating": 16961, "##\u03b8": 29725, "karin": 24537, "valuation": 26004, "baltimore": 6222, "incentive": 20438, "##\u0268": 29684, "false": 6270, "marches": 20691, "drums": 3846, "atari": 18978, "##\u967d": 30499, "from": 2013, "amend": 27950, "trap": 8132, "[unused762]": 767, "paula": 13723, "ol": 19330, "1985": 3106, "eternal": 10721, "burlington": 15552, "employment": 6107, "ah": 6289, "##13": 17134, "effect": 3466, "flashlight": 15257, "polynomial": 17505, "carver": 20163, "brock": 13899, "packing": 14743, "##\u6c37": 30421, "cart": 11122, "[unused317]": 322, "##achi": 21046, "##etz": 26327, "adamant": 29502, "zombie": 11798, "cannot": 3685, "1805": 13126, "##nte": 10111, "[unused495]": 500, "collecting": 9334, "aidan": 12643, "builds": 16473, "##bham": 25522, "tequila": 26791, "vis": 25292, "scalp": 21065, "euclidean": 25826, "##ur": 3126, "behavioral": 14260, "hermes": 24127, "##\u027e": 29692, "leaned": 4016, "parochial": 28773, "1948": 3882, "defective": 28829, "extinction": 14446, "##stock": 14758, "\u2098": 1567, "stabbing": 21690, "doll": 10658, "rotational": 25254, "\u2071": 1537, "grimsby": 24470, "roster": 9238, "attitude": 7729, "##bbs": 17226, "##rred": 20529, "##ologist": 8662, "##dion": 29573, "##going": 26966, "##lmer": 23398, "alligator": 28833, "skiing": 12701, "rey": 12569, "some": 2070, "01": 5890, "lady": 3203, "1840": 8905, "overtime": 12253, "##opus": 24676, "bromley": 27979, "seater": 23392, "panicked": 16035, "glance": 6054, "[unused535]": 540, "analyses": 16478, "requirements": 5918, "australia": 2660, "hip": 5099, "sit": 4133, "shepherd": 11133, "facilitating": 25505, "##ray": 9447, "*": 1008, "##rac": 22648, "targets": 7889, "##tate": 12259, "rwanda": 17591, "levine": 17780, "linnaeus": 21610, "##mal": 9067, "scientology": 23845, "grave": 6542, "##kong": 25460, "kayla": 26491, "zurich": 10204, "depends": 9041, "##non": 8540, "watched": 3427, "emigrated": 11367, "half": 2431, "enable": 9585, "interventions": 19388, "authorised": 19256, "##linson": 25051, "secretly": 10082, "retaliation": 18695, "arteries": 28915, "impromptu": 29213, "tampa": 9925, "debated": 15268, "[unused314]": 319, "##olo": 12898, "##rson": 17753, "fuller": 12548, "viral": 13434, "concurrent": 16483, "uniform": 6375, "discussed": 6936, "wales": 3575, "affirmed": 19768, "##cytes": 27321, "script": 5896, "##osis": 12650, "maximize": 25845, "irregularities": 28868, "spencer": 7084, "phases": 12335, "\u05e7": 1264, "defender": 8291, "shri": 14880, "george": 2577, "##onus": 24891, "preserve": 7969, "shi": 11895, "pensions": 22024, "hostage": 13446, "diesel": 7937, "hornets": 24855, "[unused858]": 863, "##len": 7770, "fabrics": 25123, "heads": 4641, "spines": 20352, "produced": 2550, "##kov": 7724, "jockey": 13989, "fortunately": 14599, "wellesley": 25658, "hawks": 12505, "train": 3345, "forged": 16158, "guggenheim": 20402, "influx": 18050, "##zow": 22670, "gmina": 7061, "##mir": 14503, "mutations": 14494, "pulp": 16016, "##usly": 27191, "[unused590]": 595, "prepare": 7374, "provence": 19923, "shoving": 15866, "nuns": 16752, "def": 13366, "spanning": 13912, "##qing": 19784, "replicate": 28024, "coined": 13279, "edit": 10086, "jennifer": 7673, "thunder": 8505, "caucasus": 16512, "tastes": 16958, "marginal": 14785, "\u0251": 1110, "dolphin": 17801, "##rina": 11796, "[unused965]": 970, "pile": 8632, "pontifical": 22362, "tomorrow": 4826, "disabled": 9776, "[unused399]": 404, "terms": 3408, "coal": 5317, "swords": 10689, "skinny": 15629, "invertebrates": 25700, "fantasies": 21233, "fears": 10069, "##hall": 9892, "proven": 10003, "directive": 16449, "##mura": 16069, "##tley": 18492, "pup": 26781, "trumpet": 9368, "##so": 6499, "84": 6391, "andersen": 18308, "##eros": 27360, "##eries": 28077, "##\u05be": 29787, "commentators": 15957, "##\u7cf9": 30460, "##nem": 25832, "fracture": 19583, "rams": 13456, "underwent": 9601, "corpus": 13931, "extensions": 14305, "werewolves": 18306, "level": 2504, "morley": 20653, "roberts": 7031, "##\u043b": 29436, "headwaters": 25345, "puts": 8509, "secluded": 27044, "murderer": 13422, "##vos": 19862, "gust": 26903, "cheryl": 19431, "mused": 22335, "colorful": 14231, "dupont": 22848, "senate": 4001, "nicholas": 6141, "jupiter": 13035, "lids": 26122, "reside": 13960, "acronym": 20137, "dogs": 6077, "##gga": 23033, "boise": 23193, "##rity": 15780, "##ega": 29107, "pills": 15345, "astro": 28625, "deny": 9772, "shifts": 12363, "dies": 8289, "mario": 7986, "pantheon": 24152, "regulars": 24945, "[unused308]": 313, "approx": 22480, "##lese": 24527, "undergone": 17215, "lunar": 11926, "roll": 4897, "##quitable": 28298, "forrest": 16319, "leone": 13363, "good": 2204, "composers": 9929, "container": 11661, "work": 2147, "##onal": 16026, "leap": 11679, "implication": 25323, "##sor": 21748, "##smith": 21405, "andrew": 4080, "remained": 2815, "##tan": 5794, "yeah": 3398, "charity": 5952, "312": 21036, "ezekiel": 28743, "[unused170]": 175, "450": 10332, "lyle": 21971, "unauthorized": 24641, "lewis": 4572, "##achal": 24409, "reflect": 8339, "bet": 6655, "##berto": 21201, "acknowledging": 21894, "independents": 23756, "rosenthal": 29062, "britten": 29429, "remind": 10825, "422": 29269, "petition": 9964, "alabama": 6041, "demons": 7942, "canonical": 18562, "further": 2582, "musee": 18070, "[unused776]": 781, "##yst": 27268, "lemon": 14380, "accommodation": 11366, "kissing": 7618, "##\u0ba8": 29922, "commonwealth": 5663, "burnham": 25295, "manuscript": 8356, "maintain": 5441, "##\u1d56": 30040, "prague": 8634, "clarified": 20485, "inch": 4960, "##face": 12172, "clemson": 25906, "stylized": 19551, "curtiss": 26431, "[unused129]": 134, "onward": 15834, "paramilitary": 22258, "##script": 22483, "##ffs": 21807, "wooden": 4799, "actually": 2941, "weaker": 15863, "stores": 5324, "campaigns": 8008, "penitentiary": 29569, "confederacy": 18179, "\u02e4": 1154, "curran": 19649, "##ired": 27559, "pepper": 11565, "##\u30bf": 30235, "documentary": 4516, "##gman": 25494, "##q": 4160, "jeff": 5076, "ancient": 3418, "christi": 21359, "dockyard": 24874, "receives": 8267, "divides": 20487, "gabe": 12900, "components": 6177, "awoke": 19179, "filmfare": 25648, "wasps": 23146, "inherent": 16112, "cn": 27166, "bing": 17620, "##tai": 15444, "merging": 16468, "phoebe": 18188, "assurance": 16375, "provocative": 26422, "ono": 21058, "marilyn": 14749, "prasad": 17476, "studio": 2996, "horrified": 14603, "electronics": 8139, "[unused82]": 83, "##ten": 6528, "newmarket": 22489, "marvelous": 28851, "skater": 18815, "swans": 26699, "taps": 25316, "motorola": 29583, "atop": 10234, "electricity": 6451, "##cion": 10446, "poverty": 5635, "belgarath": 21256, "misunderstanding": 24216, "[unused605]": 610, "##hee": 21030, "fixing": 15887, "alerted": 22333, "rats": 11432, "##}": 29642, "eugen": 29273, "conservation": 5680, "rallies": 22867, "##raus": 25965, "##edging": 28002, "yield": 10750, "indonesia": 6239, "technicians": 20202, "aristotle": 17484, "encyclopedia": 12204, "##cola": 26289, "selena": 19166, "##tford": 26341, "passage": 6019, "empress": 10248, "eduardo": 14846, "darlington": 19667, "snakes": 12971, "shrill": 28349, "pays": 12778, "##sau": 23823, "director": 2472, "[unused673]": 678, "opportunity": 4495, "auguste": 20758, "strains": 18859, "essay": 9491, "58": 5388, "lovely": 8403, "skin": 3096, "\u307b": 1676, "rip": 10973, "percy": 11312, "[unused57]": 58, "\u30a7": 1697, "lacking": 11158, "\u211d": 1579, "cope": 11997, "preview": 19236, "##rp": 14536, "##oc": 10085, "cas": 25222, "##ily": 6588, "\u0916": 1316, "sandwiches": 22094, "sympathy": 11883, "near": 2379, "massive": 5294, "##illy": 20577, "albania": 10407, "delivered": 5359, "gaping": 21226, "##ista": 11921, "image": 3746, "cristina": 22246, "transylvania": 20816, "##oun": 23709, "##hed": 9072, "harding": 15456, "dunkirk": 29467, "##boro": 12691, "macy": 20914, "carbon": 6351, "foliage": 19624, "##0s": 16223, "\u056f": 1227, "abandoning": 19816, "##ppe": 21512, "horrors": 22812, "throbbed": 27714, "13th": 6122, "corruption": 7897, "ligand": 27854, "##ces": 9623, "##kney": 26993, "actress": 3883, "vertical": 7471, "ascending": 22316, "hostilities": 17601, "##gles": 17125, "fish": 3869, "crates": 27619, "mathematics": 5597, "louisiana": 5773, "torre": 22047, "antagonist": 17379, "trench": 14185, "sources": 4216, "garbage": 13044, "functionality": 15380, "266": 25162, "cheers": 21250, "capability": 10673, "amazing": 6429, "goalkeeper": 9653, "tata": 23236, "delegation": 10656, "501": 16202, "##tray": 28473, "pieces": 4109, "genuinely": 15958, "[unused900]": 905, "sears": 18493, "colleges": 6667, "clue": 9789, "deportation": 23702, "[unused701]": 706, "small": 2235, "[unused968]": 973, "gaped": 23832, "173": 19410, "clint": 16235, "die": 3280, "stamp": 11359, "hardcore": 13076, "genevieve": 20245, "subjected": 13532, "leaping": 21216, "remake": 12661, "leaked": 15748, "donegal": 25415, "##anor": 27869, "berlin": 4068, "##\u308d": 30215, "2a": 23409, "banks": 5085, "##uez": 29488, "beef": 12486, "dominican": 10104, "awful": 9643, "nunez": 28454, "1788": 15622, "314": 26257, "graphics": 8389, "here": 2182, "chattanooga": 23351, "##rae": 16652, "sovereignty": 12601, "donnelly": 28317, "persuade": 13984, "bosnia": 9562, "##group": 17058, "masses": 11678, "capable": 5214, "saying": 3038, "beit": 28236, "telecommunication": 25958, "\u30fc": 1739, "##\u305b": 30185, "estimate": 10197, "##aris": 23061, "jonny": 26937, "birth": 4182, "ally": 9698, "nobel": 10501, "severe": 5729, "##zong": 13150, "movement": 2929, "milan": 6954, "hypothesis": 10744, "fridge": 16716, "barnard": 22266, "pained": 22295, "genealogical": 29606, "[unused211]": 216, "##yme": 25219, "rosie": 15820, "1704": 27769, "duets": 29410, "[unused159]": 164, "stunned": 9860, "outlying": 25376, "seekers": 24071, "hadley": 21681, "patty": 17798, "although": 2348, "unique": 4310, "pub": 9047, "enlisted": 9417, "confluence": 13693, "\u1d64": 1509, "capita": 8353, "ports": 8831, "##isse": 23491, "archdeacon": 21742, "##ivist": 21997, "themselves": 3209, "nonprofit": 14495, "pauses": 19623, "##hering": 22658, "buckle": 22853, "##naut": 24619, "mab": 26661, "stefano": 19618, "melee": 27868, "ingrid": 22093, "580": 23712, "accord": 15802, "sicilian": 22584, "rhythms": 17900, "faith": 4752, "brood": 25565, "installing": 23658, "fide": 26000, "recently": 3728, "stampede": 29375, "[unused820]": 825, "##rip": 29443, "flowed": 13230, "vanished": 9955, "unnatural": 21242, "rockets": 12496, "arrest": 6545, "addressed": 8280, "replay": 15712, "organization": 3029, "probation": 19703, "##lars": 28695, "remains": 3464, "textile": 12437, "curls": 14484, "carole": 24348, "3a": 23842, "3d": 7605, "hormones": 20752, "demonstrated": 7645, "bibliography": 24751, "1903": 5778, "percent": 3867, "underside": 17313, "sending": 6016, "eu": 7327, "sweden": 4701, "gameplay": 11247, "##40": 12740, "shocked": 7135, "attract": 9958, "ching": 19992, "pam": 14089, "##cars": 20745, "ur": 24471, "autonomous": 8392, "earrings": 27212, "leather": 5898, "derive": 18547, "courtney": 14139, "maccabi": 24055, "vivo": 24269, "surprisingly": 10889, "##uising": 28580, "at": 2012, "bumped": 19030, "editorial": 8368, "\u6226": 1856, "sue": 9790, "stepmother": 26959, "##rup": 21531, "sumner": 23922, "yarmouth": 28792, "organisms": 11767, "hr": 17850, "aims": 8704, "congo": 9030, "confidently": 28415, "##burgh": 15496, "davies": 9082, "macro": 26632, "rocking": 14934, "windy": 27370, "1712": 28460, "fei": 24664, "samuel": 5212, "carpet": 10135, "childbirth": 27162, "##\u03c7": 29737, "accusing": 16723, "blending": 23293, "guerrillas": 26955, "nara": 27544, "[unused59]": 60, "##personal": 28823, "nashville": 8423, "##charged": 22620, "274": 25586, "[unused143]": 148, "##wana": 21761, "gibbs": 15659, "\u611b": 1853, "heavens": 17223, "[unused306]": 311, "calmly": 12885, "department": 2533, "##ari": 8486, "powerful": 3928, "##cho": 9905, "mourning": 16236, "organic": 7554, "traps": 16735, "##llus": 20159, "##\u026b": 29686, "tobin": 28096, "masculine": 14818, "##\u2085": 30081, "leicester": 11258, "kgb": 25467, "halloween": 14414, "tell": 2425, "##cede": 22119, "mansions": 26842, "blackish": 22032, "kimball": 26659, "translator": 11403, "##\u062b": 29818, "wide": 2898, "animal": 4111, "kit": 8934, "financially": 13732, "rubble": 17538, "##elial": 24587, "##ays": 22916, "milling": 22491, "prairie": 10996, "boots": 6879, "austrians": 28439, "##recht": 28109, "##wn": 7962, "insurance": 5427, "aspirations": 22877, "concentrate": 10152, "lau": 21360, "bce": 10705, "clears": 28837, "\u4fdd": 1766, "##tical": 14656, "##girl": 15239, "##lit": 15909, "##\u02bf": 29714, "sabre": 22002, "programming": 4730, "##cture": 14890, "pray": 11839, "heidi": 21372, "accompanying": 10860, "winnie": 27125, "[unused397]": 402, "seahawks": 21390, "depicted": 8212, "1983": 3172, "latvia": 12429, "glaciers": 21193, "flashback": 21907, "stomach": 4308, "crescent": 13152, "lift": 6336, "allegro": 25319, "farmland": 16439, "warp": 24136, "[unused343]": 348, "formally": 6246, "brooklyn": 6613, "##chen": 8661, "sb": 24829, "cape": 4880, "gabled": 26182, "providers": 11670, "faye": 19243, "olson": 21583, "outdated": 25963, "musically": 21385, "pennant": 22690, "##\u30de": 30249, "authority": 3691, "competitions": 6479, "grossed": 17500, "falkland": 25257, "hartley": 20955, "##tius": 22638, "exploded": 9913, "pry": 29198, "maximilian": 18838, "hackney": 28425, "\u1d49": 1499, "faber": 21720, "##oton": 25862, "abyss": 22159, "many": 2116, "[unused509]": 514, "[unused4]": 5, "##\u03c1": 29732, "definition": 6210, "guns": 4409, "volunteers": 7314, "biennale": 21140, "irrelevant": 22537, "[unused373]": 378, "[unused921]": 926, "zack": 13658, "##ivo": 20984, "swimmers": 21669, "approximately": 3155, "previous": 3025, "shredded": 29022, "harlem": 14864, "labyrinth": 24239, "shaded": 25273, "somewhat": 5399, "followed": 2628, "intimacy": 20893, "collectively": 13643, "##ich": 7033, "greer": 25939, "truman": 15237, "originates": 16896, "interests": 5426, "eng": 25540, "[unused106]": 111, "##vet": 19510, "##mora": 22122, "clothing": 5929, "conflicts": 9755, "transition": 6653, "curved": 9203, "guaranteed": 12361, "lutheran": 10034, "thriller": 10874, "1967": 3476, "[unused426]": 431, "\u0ca8": 1400, "occurring": 10066, "comparatively": 20172, "romans": 10900, "retired": 3394, "##ahu": 21463, "bathed": 24614, "realizing": 9301, "touch": 3543, "cyrillic": 15522, "prohibits": 25822, "quality": 3737, "developer": 9722, "newark": 12948, "vamp": 20279, "pursue": 7323, "##\u2202": 30120, "##\u30b5": 30231, "##51": 22203, "720": 22857, "rebel": 8443, "##\u4eac": 30281, "\u2609": 1622, "##rite": 17625, "lama": 18832, "##dson": 25112, "nik": 23205, "pilgrimage": 14741, "##\u0192": 29675, "injection": 13341, "welcomed": 10979, "andrews": 9261, "runner": 5479, "##21": 17465, "[unused174]": 179, "management": 2968, "santo": 11685, "mass": 3742, "18th": 4985, "1818": 12094, "yoga": 13272, "producer": 3135, "cries": 12842, "sheriff": 6458, "ferrer": 28390, "##lr": 20974, "[unused469]": 474, "##gation": 12540, "##\u2087": 30083, "connie": 16560, "ranging": 7478, "samson": 18375, "bengals": 23227, "workshop": 8395, "anti": 3424, "colony": 5701, "messengers": 28938, "##americana": 27026, "##king": 6834, "1794": 13199, "congregation": 7769, "##yoshi": 19196, "##pkins": 29531, "[unused565]": 570, "pedestal": 24496, "winked": 14217, "##ani": 7088, "freshman": 10452, "middle": 2690, "##hurst": 10510, "quit": 8046, "identical": 7235, "consulate": 19972, "vengeance": 14096, "##hn": 7295, "hacked": 28719, "otto": 8064, "kiel": 20963, "[unused146]": 151, "contributed": 5201, "exports": 14338, "8": 1022, "liberals": 13350, "##gar": 6843, "##oda": 13390, "##sies": 14625, "annual": 3296, "sophisticated": 12138, "venus": 11691, "absently": 21284, "dwell": 23120, "configuration": 9563, "colbert": 23928, "##lang": 25023, "transparency": 16987, "##ulously": 21227, "[unused134]": 139, "96": 5986, "write": 4339, "gay": 5637, "win": 2663, "casimir": 24701, "vhf": 27527, "##jian": 27685, "##gers": 15776, "smug": 20673, "##ze": 4371, "barack": 13857, "##dote": 23681, "through": 2083, "photographers": 17008, "illuminated": 14640, "etienne": 16821, "##aceous": 25560, "litres": 25783, "relocate": 20102, "regulators": 25644, "frequented": 24832, "valkyrie": 26696, "duet": 11979, "filly": 22062, "hove": 25215, "1618": 29029, "marines": 9622, "witty": 25591, "##\u0cb0": 29937, "torture": 8639, "societies": 8384, "threatening": 8701, "dunes": 17746, "\u2113": 1577, "tighten": 21245, "thought": 2245, "bold": 7782, "matrices": 21520, "substantive": 27737, "budget": 5166, "wire": 7318, "sociology": 11507, "high": 2152, "guinness": 17323, "cupboard": 25337, "objected": 15959, "344": 29386, "idea": 2801, "\u0631": 1280, "erected": 7019, "##alla": 25425, "kenny": 8888, "mafia": 13897, "1949": 4085, "cardiac": 15050, "##dier": 24612, "##garh": 13484, "inside": 2503, "ladder": 10535, "croft": 28983, "settlements": 7617, "downloads": 22956, "computer": 3274, "gladly": 24986, "a": 1037, "announce": 14970, "hysterical": 25614, "1831": 10937, "bertha": 25079, "gambia": 26728, "##sop": 28793, "[unused79]": 80, "affairs": 3821, "tarzan": 24566, "cock": 10338, "se": 7367, "##hony": 27629, "hobbs": 23748, "1655": 28438, "pale": 5122, "interaction": 8290, "139": 16621, "jurisdiction": 7360, "visitors": 5731, "thoroughly": 12246, "\u4e2d": 1746, "##ports": 25378, "##orous": 25373, "##anne": 20147, "grayson": 17556, "exhaustion": 15575, "bernardino": 21370, "ornamental": 18200, "exhibitions": 8596, "rented": 12524, "lexi": 16105, "remade": 26943, "##gor": 20255, "##\u2071": 30072, "hades": 23003, "staggered": 14648, "##berman": 23991, "panic": 6634, "authored": 8786, "##ier": 3771, "burnt": 11060, "\u00a31": 14534, "##tled": 14782, "##k": 2243, "packaging": 14793, "doubts": 13579, "commemorated": 19131, "##hea": 20192, "parchment": 22433, "cardiovascular": 22935, "accompaniment": 22205, "crippled": 24433, "knicks": 27817, "\u2227": 1602, "replace": 5672, "preferred": 6871, "buddy": 8937, "##dio": 20617, "opening": 3098, "tomato": 20856, "team": 2136, "\u1d3a": 1494, "[unused746]": 751, "##thy": 16921, "liberia": 18039, "registrar": 24580, "poznan": 18320, "\u02bf": 1148, "doctor": 3460, "intended": 3832, "underway": 14128, "elliptic": 29413, "pipe": 8667, "trips": 9109, "mayoral": 23578, "##lez": 28060, "copied": 15826, "##cer": 17119, "colder": 21399, "pickering": 27078, "##shima": 24772, "eyelashes": 25150, "ada": 15262, "grimes": 24865, "##_": 29638, "plaintiff": 20579, "jayne": 24408, "kei": 26679, "smile": 2868, "regulated": 12222, "having": 2383, "[unused919]": 924, "offence": 15226, "##ty": 3723, "wander": 17677, "successes": 14152, "##\u3072": 30199, "##zhou": 9791, "##@": 29633, "instrumental": 6150, "handle": 5047, "jackson": 4027, "capital": 3007, "smarter": 25670, "instance": 6013, "ridley": 20608, "armour": 12371, "##bt": 19279, "humidity": 18213, "assassinated": 16370, "mattered": 13836, "rpm": 11575, "1626": 28818, "##oric": 29180, "bjp": 24954, "\u09a6": 1364, "[unused891]": 896, "panting": 15601, "confirmed": 4484, "##icides": 22698, "transmitters": 26288, "blackwell": 18776, "crowns": 24364, "flicking": 26259, "##pur": 5311, "##ibar": 26656, "##kota": 27380, "turquoise": 28653, "jules": 11044, "mv": 19842, "\u02be": 1147, "villain": 12700, "ami": 26445, "##gf": 25708, "##\u30c8": 30240, "championships": 3219, "martinez": 10337, "[unused270]": 275, "plant": 3269, "macedonian": 13037, "objectives": 11100, "cho": 16480, "bain": 28477, "##ned": 7228, "bruno": 10391, "##roids": 29514, "##ining": 24002, "85": 5594, "[unused207]": 212, "wet": 4954, "\u03b6": 1160, "eli": 12005, "seizures": 25750, "thighs": 9222, "brno": 28634, "##creen": 24410, "spelled": 11479, "active": 3161, "rover": 13631, "gravitational": 19790, "load": 7170, "fra": 25312, "blue": 2630, "##as": 3022, "blocks": 5991, "sen": 12411, "palaces": 22763, "##bie": 11283, "paddle": 20890, "parked": 9083, "attracting": 15411, "striking": 8478, "##ical": 7476, "##\u11a8": 30020, "outcome": 9560, "126": 14010, "ellie": 10707, "##ehan": 24660, "costs": 5366, "pagan": 14318, "whilst": 5819, "##fat": 27753, "dams": 17278, "impress": 17894, "[unused351]": 356, "douglas": 5203, "las": 5869, "stakes": 7533, "meals": 12278, "platinum": 8899, "chords": 18495, "focused": 4208, "##oshi": 24303, "##tv": 9189, "##vies": 25929, "concessions": 20638, "motions": 15323, "prc": 26141, "kobayashi": 28930, "buy": 4965, "ryan": 4575, "1783": 15331, "\u624b": 1858, "louvre": 25110, "##iana": 11410, "outfit": 11018, "prolific": 12807, "antony": 16262, "endeavor": 23855, "cold": 3147, "squadrons": 11435, "galileo": 21514, "spiral": 12313, "buildings": 3121, "wonderland": 20365, "gazette": 11391, "##uke": 15851, "[unused757]": 762, "sally": 8836, "anxiously": 23403, "stating": 5517, "##writing": 18560, "chromosomes": 26874, "officers": 3738, "commercials": 12698, "keyboardist": 20173, "wilhelm": 9070, "chapter": 3127, "php": 25718, "##ys": 7274, "equality": 9945, "minerals": 13246, "josef": 12947, "cadillac": 20425, "immediately": 3202, "productivity": 15836, "enchanted": 22454, "##raphy": 26228, "##bound": 15494, "[unused660]": 665, "terraces": 25633, "stanis\u0142aw": 26133, "wrestlers": 14039, "centres": 8941, "tightly": 7371, "anchor": 8133, "admired": 12749, "##lins": 24412, "laval": 26205, "pretending": 12097, "\u3086": 1683, "indo": 11424, "wee": 16776, "##nish": 24014, "volume": 3872, "found": 2179, "##wing": 9328, "honored": 8686, "cheerful": 18350, "darted": 14051, "##und": 8630, "out": 2041, "tours": 7562, "lynch": 11404, "ley": 25866, "church": 2277, "##rta": 13320, "380": 17014, "crowded": 10789, "\u5143": 1769, "vulture": 27588, "##rates": 20370, "##19": 16147, "\u03c0": 1170, "mesa": 15797, "lindsey": 17518, "principals": 27928, "episodes": 4178, "\u52a0": 1779, "felipe": 17095, "[unused671]": 676, "soldier": 5268, "magazine": 2932, "groove": 14100, "\u1d50": 1502, "revolutions": 25239, "argentina": 5619, "##ater": 24932, "fresco": 26991, "##\u2030": 30065, "adi": 27133, "##\u798f": 30452, "metz": 24424, "reduction": 7312, "taste": 5510, "299": 25926, "[unused948]": 953, "qualifiers": 18956, "##ya": 3148, "barker": 12852, "[unused188]": 193, "\u0cbe": 1402, "bernie": 15941, "classrooms": 12463, "hair": 2606, "mineral": 9754, "dissolved": 8314, "##mail": 21397, "hinted": 21795, "overwhelmingly": 24783, "[unused973]": 978, "peninsular": 22682, "actual": 5025, "##\u03b7": 24824, "wardrobe": 17828, "users": 5198, "elegance": 27745, "\u05e5": 1262, "counter": 4675, "drawing": 5059, "317": 26628, "gently": 5251, "arrogant": 15818, "mitchell": 6395, "individuals": 3633, "falls": 4212, "resides": 11665, "violated": 14424, "blurred": 18449, "polling": 17888, "convoy": 9549, "munster": 11348, "joined": 2587, "appellate": 23240, "##mc": 12458, "wig": 24405, "[unused254]": 259, "arm": 2849, "\u65b0": 1862, "describes": 5577, "##ogical": 20734, "##lled": 11001, "##\u0629": 19433, "scott": 3660, "outlet": 13307, "slack": 19840, "[unused219]": 224, "ry": 29431, "singer": 3220, "manning": 11956, "garland": 17017, "backup": 10200, "##cp": 21906, "ate": 8823, "tune": 8694, "##ante": 12956, "employ": 12666, "[unused24]": 25, "[unused500]": 505, "short": 2460, "333": 21211, "crafted": 19275, "##70": 19841, "[unused789]": 794, "\u1d2c": 1490, "strongest": 10473, "buying": 9343, "##scoe": 28147, "non": 2512, "encountered": 8567, "parrot": 22530, "rods": 19485, "##rock": 16901, "clawed": 22544, "rapper": 10687, "\u30c1": 1710, "barefoot": 22985, "clermont": 27956, "meter": 8316, "##him": 14341, "crowds": 12783, "financial": 3361, "\u2229": 1604, "shuddered": 13937, "null": 19701, "sadness": 12039, "jealous": 9981, "regulating": 21575, "ian": 4775, "corbin": 24003, "##old": 11614, "##\u9593": 30495, "\u5409": 1793, "winslow": 26600, "tandem": 18231, "future": 2925, "\u1111": 1468, "scream": 6978, "societe": 18341, "congestion": 20176, "##ero": 10624, "poe": 18922, "battle": 2645, "petit": 17268, "##tort": 25485, "universally": 21186, "emily": 6253, "##quin": 12519, "3rd": 3822, "defendants": 16362, "disclosure": 19380, "kyushu": 25885, "mccann": 28641, "eruptions": 28448, "shipment": 22613, "orbiting": 26472, "aegean": 27198, "##lke": 28143, "troy": 9553, "gradual": 16612, "##\u0437": 29744, "tenants": 14665, "monstrous": 21668, "##sed": 6924, "bother": 8572, "acheron": 21427, "diameter": 6705, "shop": 4497, "keith": 6766, "architectural": 6549, "uber": 19169, "##fera": 27709, "scores": 7644, "vincenzo": 24712, "organisations": 8593, "sob": 17540, "happened": 3047, "##\u30f3": 30263, "freight": 8441, "licence": 11172, "alexandria": 10297, "##print": 16550, "humans": 4286, "nasty": 11808, "varieties": 9903, "disappointing": 15640, "pronunciation": 15498, "barnsley": 25139, "##amo": 22591, "escort": 8620, "papal": 12156, "197": 19975, "furiously": 20322, "lodges": 26767, "\u90ce": 1958, "590": 25186, "##planes": 26634, "snoop": 29044, "283": 25504, "pensacola": 26073, "dependent": 7790, "initiate": 17820, "ducked": 13781, "accurately": 14125, "fox": 4419, "icon": 12696, "phrase": 7655, "humanity": 8438, "dea": 26709, "adequate": 11706, "selections": 16310, "159": 18914, "##pts": 22798, "##hema": 28433, "strategy": 5656, "\uff1a": 1993, "amplifier": 22686, "\u300a": 1639, "huh": 9616, "elders": 13376, "posts": 8466, "shipyard": 13858, "birthplace": 14508, "concordia": 24982, "##\u66f2": 30396, "dying": 5996, "tended": 11121, "##\u221e": 30128, "halle": 19769, "buff": 23176, "consultants": 22283, "malay": 12605, "##\u4ee3": 30286, "##que": 4226, "##\u20a4": 30100, "thanking": 28638, "##lb": 20850, "##tify": 27351, "##\u3046": 30174, "##gan": 5289, "operate": 5452, "fried": 13017, "\u098f": 1351, "##aer": 27867, "ken": 6358, "judy": 12120, "goofy": 27243, "monsoon": 19183, "burton": 9658, "alexia": 21683, "1699": 28718, "##pher": 27921, "orioles": 18893, "##nus": 10182, "##croft": 14716, "##any": 19092, "##tell": 23567, "31": 2861, "champ": 24782, "##wski": 10344, "##est": 4355, "attachment": 14449, "focal": 15918, "moods": 27824, "##tama": 28282, "aerospace": 13395, "incorporates": 12374, "1800s": 19878, "embodied": 25405, "rafael": 10999, "bring": 3288, "snarl": 24845, "\u110b": 1463, "simplified": 11038, "link": 4957, "hindu": 7560, "olds": 19457, "obtained": 4663, "\u76f8": 1919, "bern": 16595, "flinders": 29120, "wreath": 29586, "preston": 8475, "tripped": 21129, "roman": 3142, "hovering": 16349, "ascribed": 28025, "evidenced": 21328, "\u3068": 1666, "magma": 28933, "multi": 4800, "##\u1107": 29996, "robotic": 20478, "harry": 4302, "parcel": 20463, "##\u044f": 17432, "shelters": 17177, "lex": 17244, "autumn": 7114, "boxes": 8378, "concepts": 8474, "damaging": 15011, "unified": 10562, "##xx": 20348, "stacy": 18566, "spirits": 8633, "disappointment": 10520, "guise": 21980, "thinkers": 24762, "dollars": 6363, "charcoal": 18872, "##ggles": 24989, "fiery": 15443, "##evic": 17726, "\uff08": 1987, "ferries": 20157, "marsh": 9409, "##sche": 22842, "##anta": 26802, "scroll": 17186, "preparing": 8225, "calderon": 28129, "rally": 8320, "wagon": 9540, "[unused480]": 485, "famed": 15607, "suitable": 7218, "huskies": 29471, "upbringing": 24615, "##ags": 26454, "allied": 6035, "narrowed": 8061, "##dana": 25917, "classmate": 23175, "inched": 25330, "##sal": 12002, "inward": 20546, "##nst": 23808, "lives": 3268, "##iating": 15370, "editing": 9260, "##ssar": 25556, "tulane": 27437, "\u6728": 1875, "sights": 15925, "hannover": 29209, "##\u03c2": 19579, "lisa": 7059, "700": 6352, "comparisons": 18539, "##nsor": 29577, "##gut": 27920, "[unused547]": 552, "benefit": 5770, "##ute": 10421, "superfamily": 24169, "patna": 29565, "\u057a": 1233, "finishing": 5131, "nouvelle": 25207, "graceful": 19415, "solidarity": 14657, "monkey": 10608, "italiana": 28059, "mixtape": 18713, "jess": 12245, "macau": 16878, "1860s": 15914, "##nta": 12380, "th": 16215, "unofficial": 11982, "duffy": 17971, "holstein": 18864, "assessments": 20794, "##3d": 29097, "bulge": 23708, "speakers": 7492, "##lor": 10626, "pour": 10364, "##har": 8167, "clinic": 9349, "midway": 12213, "definite": 15298, "1998": 2687, "frowning": 14587, "rbis": 23583, "obesity": 24552, "grenade": 17038, "0": 1014, "##\u672c": 30402, "mammal": 25476, "seats": 4272, "board": 2604, "tak": 27006, "solitude": 22560, "poison": 9947, "collapsing": 22724, "famously": 18172, "##bbed": 15499, "sherman": 11011, "##iger": 17071, "instantly": 6880, "nwa": 15737, "##sko": 21590, "incorrectly": 19721, "\u72ac": 1908, "intrinsic": 23807, "##ria": 4360, "regarded": 5240, "martin": 3235, "bones": 5944, "succeeding": 13034, "fiddle": 15888, "##nity": 22758, "reykjavik": 28559, "honorable": 13556, "1885": 6571, "programmer": 20273, "##isk": 20573, "analog": 11698, "innocent": 7036, "eva": 9345, "##sch": 11624, "##enbach": 21409, "##tern": 16451, "amateur": 5515, "renewed": 9100, "##ente": 15781, "1806": 12518, "arched": 9194, "##skin": 29334, "\u0644": 1294, "argyll": 27365, "tempest": 22553, "michael": 2745, "\u0563": 1221, "acted": 6051, "nonlinear": 27400, "limb": 15291, "donations": 11440, "\u2265": 1609, "augustine": 14060, "mild": 10256, "another": 2178, "##stown": 13731, "ich": 22564, "deadly": 9252, "##hua": 14691, "##orth": 28610, "\u0989": 1350, "pioneer": 7156, "bop": 29432, "##zed": 5422, "hart": 7530, "shootout": 18297, "hides": 17382, "baptised": 28798, "##\u00b4s": 21932, "##\u5289": 30303, "##vo": 6767, "lasting": 9879, "avoidance": 24685, "wand": 23967, "monsters": 9219, "icc": 16461, "##auer": 21126, "##olis": 20872, "\u5dde": 1836, "burning": 5255, "##lett": 20897, "##ntino": 25318, "##uram": 27618, "##u": 2226, "##tr": 16344, "lent": 15307, "##ilis": 24411, "\u3081": 1680, "##imo": 16339, "thermal": 9829, "soup": 11350, "terminal": 5536, "prosperous": 18241, "programs": 3454, "honey": 6861, "communal": 15029, "##eki": 26576, "penn": 9502, "peterson": 12001, "\u2218": 1599, "encryption": 21999, "isn": 3475, "reinforced": 11013, "ratified": 17673, "[unused544]": 549, "archie": 13255, "nak": 17823, "##ythe": 26688, "##pins": 27915, "sas": 21871, "##otho": 29288, "proper": 5372, "##jun": 19792, "convert": 10463, "regiment": 3483, "##ged": 5999, "furrowed": 20555, "heinz": 17655, "regularly": 5570, "serve": 3710, "1956": 3838, "translit": 28468, "\u30a1": 1692, "interlude": 25347, "[unused74]": 75, "considerable": 6196, "chapters": 9159, "technological": 10660, "##gil": 20142, "##\u05d1": 29789, "##brook": 9697, "rhodes": 10588, "\u0e32": 1422, "[unused816]": 821, "1733": 27230, "tn": 28286, "[unused458]": 463, "suez": 21974, "organizes": 22013, "makes": 3084, "productions": 5453, "##\u308a": 30212, "al": 2632, "##tique": 28437, "pulse": 8187, "modules": 14184, "[unused49]": 50, "shot": 2915, "fleet": 4170, "##less": 3238, "relatively": 4659, "designer": 5859, "##lord": 19980, "lucky": 5341, "1974": 3326, "##mana": 24805, "telescope": 12772, "club": 2252, "dialogues": 22580, "phantom": 11588, "churchyard": 19812, "independently": 9174, "jed": 24401, "meek": 28997, "##tti": 6916, "kanye": 29270, "weren": 4694, "pizza": 10733, "enjoyment": 20195, "[unused949]": 954, "##thed": 23816, "##lak": 23451, "##urne": 21737, "\u5e73": 1839, "rendered": 10155, "##ras": 8180, "##ida": 8524, "[unused772]": 777, "vocal": 5554, "port": 3417, "baptist": 7550, "406": 27433, "##rgos": 22280, "solemnly": 26294, "cruise": 8592, "taluka": 29512, "detective": 6317, "mitch": 11857, "checked": 7039, "\u0baf": 1390, "\u00bb": 1090, "cow": 11190, "\u222a": 1605, "await": 26751, "fault": 6346, "aux": 19554, "hound": 19598, "best": 2190, "##culus": 28703, "blazed": 25590, "signal": 4742, "surf": 14175, "leary": 22986, "upheld": 16813, "pussy": 22418, "sans": 20344, "##trics": 29392, "karl": 6382, "ethel": 19180, "meet": 3113, "valiant": 24329, "goblin": 22639, "polymers": 27216, "##\u4eee": 30287, "crane": 11308, "got": 2288, "codex": 15763, "\u0578": 1232, "occupations": 23374, "planned": 3740, "it": 2009, "lads": 29126, "depicts": 11230, "vascular": 21449, "masonic": 21152, "revealing": 8669, "choral": 14564, "originated": 7940, "nl": 17953, "complained": 10865, "##connected": 24230, "rayon": 26810, "assignments": 14799, "incredibly": 11757, "sheer": 11591, "##sel": 11246, "perez": 10730, "championed": 28683, "\u00f7": 1099, "unnoticed": 22719, "\u9577": 1967, "respiratory": 16464, "cortex": 17132, "helmet": 10412, "##breaker": 21204, "[unused871]": 876, "forcefully": 23097, "##rissa": 26571, "plate": 5127, "litigation": 15382, "##loh": 24729, "##zin": 17168, "hara": 18820, "##taken": 25310, "valencia": 13083, "np": 27937, "##gam": 22864, "##\u0e23": 29953, "##nos": 15460, "[unused282]": 287, "vernon": 11447, "shaw": 8233, "analogy": 23323, "money": 2769, "##esis": 19009, "##ds": 5104, "organ": 5812, "islam": 7025, "pavement": 14271, "brawl": 23244, "dirt": 6900, "##\u5409": 30319, "urban": 3923, "hurried": 9520, "kaladin": 22588, "devoid": 22808, "boca": 22765, "##\u00ae": 29656, "ham": 10654, "##bourne": 11634, "mortar": 14335, "wilmington": 17025, "hangul": 19051, "spilled": 13439, "macon": 20025, "delicately": 28814, "issue": 3277, "[unused964]": 969, "\u10d4": 1442, "chapman": 11526, "amelie": 25285, "jim": 3958, "[unused30]": 31, "35": 3486, "sort": 4066, "##oic": 19419, "fresh": 4840, "essen": 29032, "141": 15471, "##\u4e8b": 30277, "rolls": 9372, "##ata": 6790, "amplitude": 22261, "##amps": 25167, "sticks": 12668, "##rge": 20800, "radha": 26498, "amber": 8994, "##fb": 26337, "##ido": 13820, "315": 22904, "christian": 3017, "priest": 5011, "\u30b1": 1703, "hand": 2192, "##\u3068": 30192, "accomplish": 14570, "examining": 12843, "1838": 9931, "kind": 2785, "backyard": 16125, "scaling": 25169, "approximate": 15796, "whereupon": 26090, "caliph": 22733, "tunis": 25317, "##ik": 5480, "radial": 15255, "##otype": 26305, "\u7248": 1907, "##hore": 16892, "underworld": 13607, "aerodrome": 23843, "336": 27954, "bruce": 5503, "firearm": 23646, "supposed": 4011, "reproduction": 14627, "##ald": 19058, "convex": 18309, "warring": 28509, "standing": 3061, "vents": 28287, "enterprise": 6960, "##mbe": 18552, "##oco": 24163, "worry": 4737, "##\u5916": 30335, "healthy": 7965, "forks": 19896, "peaceful": 9379, "##sian": 17043, "chicken": 7975, "oxfordshire": 20124, "instrumentation": 16015, "yin": 18208, "##tana": 20496, "qualities": 11647, "almost": 2471, "kiss": 3610, "elevations": 18166, "clustered": 25221, "synonym": 10675, "seeded": 13916, "will": 2097, "principle": 6958, "sheffield": 8533, "mornings": 16956, "rios": 25836, "luz": 26214, "stabilization": 28715, "visual": 5107, "##esses": 26636, "relevance": 21923, "annie": 8194, "##zel": 12638, "##\u0445": 29750, "sega": 16562, "burn": 6402, "\u4ee3": 1760, "summarized": 22539, "475": 28245, "references": 7604, "820": 26667, "races": 3837, "hoffmann": 24437, "edge": 3341, "cyclone": 11609, "arrests": 17615, "withdrawing": 21779, "clare": 11152, "shiny": 12538, "logistics": 12708, "casualty": 19844, "beyonce": 20773, "stimuli": 22239, "allergic": 27395, "191": 19871, "##\u057f": 29783, "dramas": 16547, "showcases": 27397, "##\u02b3": 29708, "rihanna": 25439, "meaning": 3574, "sculptures": 10801, "contributors": 16884, "##reen": 28029, "abandonment": 22290, "802": 23908, "catholics": 10774, "escaped": 6376, "connecting": 7176, "haiti": 12867, "explain": 4863, "accessory": 25339, "planted": 8461, "segments": 9214, "restructuring": 18322, "vamps": 24064, "poorer": 27196, "##nis": 8977, "muttering": 22581, "approval": 6226, "example": 2742, "151": 16528, "eisenhower": 16551, "gleaming": 18242, "prayer": 7083, "cafe": 7668, "throttle": 24420, "numb": 15903, "tent": 9311, "##master": 8706, "bitch": 7743, "##\u0628\u0627\u062f": 25799, "\u5ba3": 1823, "##ayton": 29319, "hilarious": 26316, "2016": 2355, "##mology": 20570, "amended": 13266, "congress": 3519, "surely": 7543, "flows": 6223, "siena": 23754, "##apple": 23804, "##unciation": 24101, "[unused614]": 619, "un": 4895, "shone": 14707, "portals": 27388, "gaunt": 27534, "sloop": 24786, "nationalism": 14594, "revisited": 24354, "growled": 8881, "prevalent": 15157, "awakening": 16936, "inhibition": 23586, "dove": 10855, "wingspan": 9635, "narcotics": 27290, "filippo": 28669, "robes": 17925, "parole": 17393, "offensive": 5805, "1845": 9512, "there": 2045, "catcher": 13795, "deliberate": 15063, "death": 2331, "##dran": 24914, "emmett": 25685, "minas": 21750, "\u0637": 1286, "jakob": 19108, "hardy": 9532, "camp": 3409, "holt": 12621, "glitter": 27566, "hinges": 25484, "##ific": 18513, "##nesia": 21509, "[unused898]": 903, "his": 2010, "5th": 4833, "accepting": 10564, "repeats": 17993, "[unused307]": 312, "talent": 5848, "##pton": 15857, "heirs": 15891, "information": 2592, "elias": 14579, "##zza": 20715, "sonora": 26647, "##\u0649": 29837, "electrified": 18042, "pedestrians": 24946, "indoor": 7169, "aroused": 18391, "tallinn": 21169, "schleswig": 21173, "##tino": 25690, "unmarked": 25779, "291": 27173, "##ulating": 10924, "russo": 17023, "cooked": 12984, "\u1da0": 1512, "needles": 17044, "ag": 12943, "rent": 9278, "##\u2088": 30084, "[unused674]": 679, "1927": 4764, "dog": 3899, "leopard": 16240, "orderly": 23589, "\u0e19": 1413, "teamed": 12597, "seductive": 23182, "surfing": 19967, "wife": 2564, "alleged": 6884, "fist": 7345, "inaugural": 7725, "##glers": 25555, "degrees": 5445, "unpopular": 19657, "atomic": 9593, "dressed": 5102, "296": 27200, "nilsson": 29376, "shots": 7171, "##mony": 22847, "##powering": 23948, "abundant": 12990, "riots": 12925, "windsor": 10064, "putin": 22072, "eddie": 5752, "##cana": 28621, "bracing": 25919, "faults": 19399, "funky": 24151, "office": 2436, "apparel": 26278, "inscribed": 14551, "tenderness": 24605, "abused": 16999, "##verance": 21998, "##grove": 21525, "pledged": 16970, "campuses": 13696, "marriages": 12743, "smashwords": 25151, "randolph": 13031, "io": 22834, "bradford": 9999, "vh1": 26365, "paxton": 27765, "routes": 5847, "breaking": 4911, "##uw": 25974, "\u3044": 1647, "battled": 19787, "##jad": 27875, "canteen": 26449, "campeonato": 17675, "lambert": 12838, "diana": 8805, "sensation": 8742, "cans": 18484, "advising": 23875, "wellness": 25860, "augmented": 19335, "pr": 10975, "[unused518]": 523, "medical": 2966, "fairly": 7199, "bombers": 10544, "consulting": 10552, "alexander": 3656, "##ben": 10609, "genetics": 14471, "undoubtedly": 17319, "spilling": 18054, "guillaume": 20061, "##ilde": 23891, "##ntial": 19909, "[unused890]": 895, "longitude": 20413, "fairfield": 18986, "risking": 26875, "headlining": 26533, "lovers": 10205, "maybe": 2672, "pt": 13866, "livelihood": 24585, "row": 5216, "##merie": 28677, "equity": 10067, "kern": 22762, "nesting": 21016, "preseason": 20038, "[unused765]": 770, "defining": 12854, "chosen": 4217, "##\u11bc": 30025, "edited": 5493, "preserved": 6560, "downward": 14047, "cardiff": 10149, "confused": 5457, "##cate": 16280, "##kulam": 28871, "tugging": 17100, "bows": 21207, "121": 12606, "pod": 17491, "cain": 11557, "\u30eb": 1733, "bucket": 13610, "dowager": 20508, "instinct": 12753, "aids": 8387, "popularly": 16071, "deformation": 29130, "[unused893]": 898, "suburban": 9282, "bs": 18667, "sacrificed": 20268, "adaptive": 19293, "else": 2842, "refuge": 9277, "##su": 6342, "spawned": 18379, "\u6c34": 1893, "discuss": 6848, "notorious": 12536, "1781": 16788, "claus": 19118, "adult": 4639, "paired": 12739, "disgusting": 19424, "brute": 26128, "teenager": 10563, "scanner": 26221, "##lard": 20822, "treating": 12318, "sign": 3696, "##lick": 25230, "czechoslovakia": 12833, "5": 1019, "whitney": 9809, "\u11b7": 1487, "850": 15678, "##class": 26266, "fan": 5470, "##\u056b": 29772, "popped": 10538, "79": 6535, "peoples": 7243, "soprano": 10430, "nitrogen": 14114, "agustin": 26889, "##\u2206": 30122, "kenji": 25894, "##tori": 29469, "order": 2344, "violate": 23640, "health": 2740, "details": 4751, "##bad": 9024, "dig": 10667, "##\u30b3": 30230, "930": 29359, "range": 2846, "##\u0bb2": 29928, "resultant": 28573, "[unused446]": 451, "\u5b50": 1816, "\u306e": 1671, "dissent": 24116, "demetrius": 28367, "burned": 5296, "freezing": 12809, "corresponded": 27601, "##\u30ec": 30260, "admitted": 4914, "drunk": 7144, "sh": 14021, "squire": 21263, "temperament": 26270, "advance": 5083, "##ancy": 11656, "sinclair": 11881, "wi": 15536, "praising": 15838, "kilograms": 18857, "fills": 17469, "adaptation": 6789, "departments": 7640, "tamara": 21772, "##umb": 25438, "midsummer": 28171, "\u09c7": 1381, "##ors": 5668, "bargaining": 21990, "remedy": 19519, "tick": 16356, "turtle": 13170, "##tf": 24475, "brooks": 8379, "drinks": 8974, "\u7fa9": 1936, "miracle": 9727, "##ruff": 26919, "##\u00a9": 29652, "##\u5343": 30310, "rational": 11581, "deportivo": 23696, "nuclear": 4517, "lit": 5507, "crises": 25332, "segment": 6903, "##aneous": 17191, "##rou": 22494, "pledge": 16393, "blackout": 26717, "landau": 28570, "\u8857": 1946, "obstruction": 27208, "##cts": 16649, "westwood": 21730, "##economic": 23035, "##\u571f": 30327, "rodents": 28156, "discharged": 14374, "packets": 23730, "##pati": 24952, "\u0252": 1111, "clothed": 24963, "relieve": 15804, "duluth": 28218, "males": 3767, "muffled": 15783, "floor": 2723, "\u9ad8": 1981, "[unused375]": 380, "1777": 16144, "halves": 23672, "polgara": 27041, "backstroke": 28373, "##\u209c": 30099, "##ski": 5488, "greeks": 13176, "aiming": 13659, "apologize": 12134, "reprise": 16851, "garments": 21902, "coalition": 6056, "##ppel": 27877, "towards": 2875, "##nt": 3372, "charted": 12568, "##ques": 10997, "symphonies": 29355, "vimes": 28482, "species": 2427, "fold": 10671, "launches": 18989, "grows": 7502, "photographer": 8088, "##rix": 17682, "##tead": 14565, "barre": 23189, "conqueror": 25466, "various": 2536, "scranton": 26123, "gaulle": 28724, "##orum": 20527, "##bas": 22083, "216": 20294, "stimulate": 23216, "disappearance": 13406, "##yi": 10139, "habit": 10427, "##ada": 8447, "too": 2205, "##tment": 21181, "marge": 25532, "kelsey": 21004, "vantage": 27274, "276": 25113, "##ye": 6672, "ad": 4748, "erection": 13760, "planets": 11358, "##uchi": 15217, "terminated": 12527, "resisted": 13335, "illustration": 14614, "moonlight": 11986, "cable": 5830, "brit": 28101, "reagan": 11531, "recruits": 15024, "[unused683]": 688, "mason": 6701, "governmental": 10605, "interesting": 5875, "arbitration": 18010, "[unused788]": 793, "\u30a6": 1696, "##oning": 13369, "##\u0ca8": 29936, "desirable": 16166, "##\u307e": 30203, "[unused202]": 207, "hector": 10590, "schmidt": 12940, "everyone": 3071, "##\u9f8d": 30508, "colossal": 29523, "head": 2132, "1975": 3339, "capacity": 3977, "##ingen": 15542, "velvet": 10966, "##tow": 18790, "##rel": 16570, "breakdown": 12554, "national": 2120, "jose": 4560, "kris": 19031, "dropping": 7510, "kyoto": 15008, "appearances": 3922, "flags": 9245, "auditioned": 23008, "squeak": 29552, "##sher": 19603, "[unused201]": 206, "##leg": 23115, "antique": 14361, "dam": 5477, "[unused767]": 772, "salt": 5474, "option": 5724, "tripoli": 21841, "privacy": 9394, "overwhelming": 10827, "doom": 12677, "undone": 25757, "##lls": 12718, "ventures": 13252, "yue": 27163, "##tula": 28970, "soap": 7815, "inscription": 9315, "she": 2016, "spite": 8741, "roaring": 17197, "scanning": 13722, "meade": 26501, "wr": 23277, "slower": 12430, "protect": 4047, "slot": 10453, "jaenelle": 20757, "basins": 22739, "potassium": 18044, "incredible": 9788, "##hat": 12707, "objection": 22224, "[unused688]": 693, "domestic": 4968, "occasion": 6686, "metropolis": 18236, "wes": 14008, "gentle": 7132, "##mut": 28120, "bulbs": 25548, "2014": 2297, "utilize": 16462, "oppression": 20489, "confronting": 26964, "believers": 20373, "challenges": 7860, "porn": 22555, "227": 21489, "timeless": 27768, "confess": 18766, "qaeda": 18659, "carson": 9806, "bryce": 19757, "ignacio": 22988, "agitation": 22356, "recommends": 26021, "vice": 3580, "husbands": 19089, "\u091f": 1320, "lina": 27022, "tim": 5199, "challenger": 12932, "[unused841]": 846, "gauge": 7633, "[unused70]": 71, "1611": 28769, "seated": 8901, "juliet": 13707, "crude": 13587, "mating": 15100, "restrained": 19868, "jars": 25067, "pleasure": 5165, "dripping": 14309, "##poo": 24667, "habitat": 6552, "matched": 10349, "##phila": 26083, "\u56fd": 1799, "refurbished": 18662, "##sville": 9337, "##\u7a7a": 30456, "trading": 6202, "infected": 10372, "endeavour": 26911, "##oles": 29111, "con": 9530, "straits": 18849, "damian": 19507, "elaine": 15263, "zac": 29250, "\u2092": 1562, "cynical": 26881, "nsw": 11524, "wealthy": 7272, "reunited": 11653, "bid": 7226, "##tter": 12079, "buck": 10131, "##champ": 25450, "311": 23532, "asserting": 27644, "910": 27743, "oblique": 20658, "window": 3332, "madhya": 20841, "concert": 4164, "##kova": 18810, "daly": 18509, "courtship": 28592, "##orio": 27416, "beauty": 5053, "pumps": 15856, "##lham": 25968, "hicks": 17221, "hummed": 26747, "dungeons": 20264, "breast": 7388, "conventions": 12472, "formidable": 18085, "davis": 4482, "dd": 20315, "released": 2207, "ice": 3256, "1811": 13086, "##dden": 17101, "illegally": 17800, "ottawa": 8166, "enhance": 11598, "##ine": 3170, "conferences": 9281, "weekday": 16904, "bundled": 24378, "terrorism": 10130, "commendation": 23039, "##\u3059": 30184, "##nology": 21020, "fiscal": 10807, "felicity": 27357, "troupe": 16017, "persecution": 14522, "anaheim": 20835, "##bed": 8270, "strip": 6167, "rebirth": 22785, "[unused644]": 649, "matteo": 24713, "police": 2610, "graz": 26918, "keenan": 26334, "novak": 19580, "exhibit": 8327, "hissing": 26386, "learn": 4553, "sustainable": 9084, "##oned": 17799, "##\u026a": 29685, "haunt": 24542, "vocalists": 27478, "##arte": 24847, "risked": 22374, "indigo": 22472, "bastards": 21123, "mechanisms": 10595, "landing": 4899, "grief": 9940, "rehabilitation": 11252, "gundam": 26152, "dominance": 13811, "library": 3075, "praised": 5868, "testimony": 10896, "methyl": 25003, "logos": 25571, "[unused422]": 427, "sands": 13457, "earnings": 16565, "##tute": 24518, "juvenile": 11799, "fifteenth": 16249, "wrestlemania": 28063, "latch": 25635, "islands": 3470, "jeremiah": 17526, "seton": 28796, "manga": 8952, "##uer": 13094, "##inal": 13290, "whispers": 11054, "intimate": 10305, "luna": 12909, "norfolk": 7735, "\u0997": 1355, "\u4eba": 1756, "\u30c8": 1714, "shake": 6073, "celebration": 7401, "sullivan": 7624, "##lyn": 9644, "emergencies": 26360, "amenities": 19870, "##ree": 9910, "exasperated": 24379, "gunpowder": 22220, "maldives": 25059, "lease": 10084, "trader": 17667, "currency": 9598, "tabloid": 24173, "specialist": 8325, "derived": 5173, "rodriguez": 9172, "leighton": 26873, "##isman": 20257, "ivo": 28346, "tony": 4116, "##\u5b97": 30347, "cheese": 8808, "##\u2666": 30153, "\u6c0f": 1891, "democrats": 8037, "sold": 2853, "lies": 3658, "copy": 6100, "[unused599]": 604, "alloys": 28655, "##rooms": 29020, "\u1172": 1480, "##san": 8791, "hopkins": 10239, "##ital": 18400, "varied": 9426, "hamid": 24811, "instituted": 14948, "vt": 28879, "[unused21]": 22, "##jong": 21958, "pharmaceuticals": 24797, "##etto": 20082, "##ivity": 7730, "moan": 13673, "rape": 9040, "registers": 18687, "##paper": 23298, "##itated": 15198, "because": 2138, "215": 17405, "follower": 22399, "fragile": 13072, "\u05d1": 1242, "sip": 10668, "recovery": 7233, "264": 21611, "circa": 12800, "fluorescent": 22184, "answer": 3437, "poorly": 9996, "##ously": 13453, "annex": 17827, "initiating": 26616, "##gm": 21693, "[unused15]": 16, "proposed": 3818, "ecclesiastical": 12301, "kill": 3102, "rotation": 9963, "##zzo": 12036, "randy": 9744, "02": 6185, "scent": 6518, "##\u0e1e": 29950, "kazakhstan": 11769, "##kra": 22272, "drying": 17462, "boarding": 9405, "purposely": 24680, "##ught": 18533, "yunnan": 21607, "addison": 18403, "functional": 8360, "emotional": 6832, "jeep": 14007, "##nail": 25464, "amino": 13096, "glancing": 10167, "shifted": 5429, "tibet": 13319, "1839": 10011, "\u898b": 1948, "beacon": 14400, "pac": 14397, "provoke": 27895, "\u30e5": 1729, "##neck": 18278, "fuse": 19976, "enormous": 8216, "paddington": 26318, "acceptable": 11701, "harrington": 19760, "stabilized": 27697, "toronto": 4361, "emphasis": 7902, "abrupt": 18772, "[unused807]": 812, "\u3084": 1682, "moral": 7191, "ballad": 11571, "##lines": 12735, "##lish": 13602, "bahn": 17392, "subdistrict": 24150, "divert": 27345, "sacrament": 28958, "##\u8a01": 30475, "wetlands": 16630, "public": 2270, "lattice": 17779, "mechanics": 9760, "##chemical": 15869, "[unused985]": 990, "female": 2931, "curtains": 14694, "resting": 8345, "coaches": 7850, "bouquet": 26700, "circus": 9661, "ballot": 10428, "toys": 10899, "inmates": 13187, "##hawk": 17998, "##ss": 4757, "ming": 11861, "pilot": 4405, "##\u045b": 29764, "##oid": 9314, "##\u65b9": 30389, "excused": 28512, "get": 2131, "welles": 23447, "trains": 4499, "profit": 5618, "##nies": 15580, "premise": 18458, "1752": 24736, "##yne": 9654, "petty": 11612, "snowfall": 26043, "[unused540]": 545, "smallpox": 25765, "earle": 23888, "bud": 13007, "maru": 26280, "##jn": 22895, "mig": 19117, "exempt": 11819, "salem": 10389, "vaulted": 24616, "mergers": 28585, "envoy": 19918, "rebellious": 22614, "governance": 10615, "##iciencies": 28227, "animated": 6579, "yearbook": 24803, "pricing": 20874, "sketch": 11080, "##gard": 13444, "kin": 12631, "246": 22376, "1722": 26689, "activists": 10134, "slain": 19668, "##\u11b7": 30023, "##phic": 17926, "##claim": 25154, "exhibition": 4538, "macintosh": 22228, "##m": 2213, "autopsy": 24534, "##gb": 18259, "pleaded": 12254, "##hum": 28600, "##gra": 17643, "mandela": 26887, "nov": 13292, "##power": 11452, "prentice": 23429, "owes": 24381, "bonuses": 29563, "\u05e0": 1257, "somme": 25158, "66": 5764, "corrupted": 27279, "kensington": 17775, "\u5fc4": 1850, "cracked": 9630, "sense": 3168, "split": 3975, "##nr": 16118, "dept": 29466, "##\u099c": 29894, "jug": 26536, "##eu": 13765, "colloquially": 23992, "perkins": 13601, "dom": 14383, "difficult": 3697, "hypothetical": 25613, "[unused245]": 250, "schedules": 20283, "gma": 20917, "4": 1018, "overheard": 20443, "##\u06cc": 24830, "influenced": 5105, "van": 3158, "simulate": 26633, "openly": 10132, "townsville": 27492, "compulsion": 27638, "depend": 12530, "league": 2223, "amnesia": 29222, "vo": 29536, "1714": 25241, "##\u57ce": 30330, "lance": 9993, "wired": 17502, "##?": 29632, "521": 26963, "##\u6771": 30405, "et": 3802, "preserving": 15224, "mud": 8494, "decide": 5630, "##biotic": 26591, "bodo": 28137, "introduce": 8970, "gloucestershire": 15905, "buffy": 18467, "compatibility": 21778, "insertion": 23851, "##ntal": 15758, "##\u306f": 30198, "poetry": 4623, "scooped": 20804, "pmid": 20117, "demoted": 25692, "##led": 3709, "[unused648]": 653, "mysteries": 15572, "balancing": 20120, "evil": 4763, "detention": 12345, "##enko": 17868, "flanking": 24958, "##owe": 29385, "ellis": 8547, "bobo": 27418, "prehistoric": 14491, "saigon": 24001, "sportsman": 27168, "medals": 6665, "churning": 26765, "barony": 19365, "dusk": 18406, "making": 2437, "talbot": 14838, "##loading": 18570, "##enary": 24553, "##yuki": 19663, "bolt": 10053, "##\u1d9c": 30046, "flexibility": 16991, "telecast": 28803, "dorset": 15367, "vogue": 17734, "ribs": 10335, "russians": 12513, "complain": 17612, "\u1d58": 1506, "unix": 19998, "meeting": 3116, "concentrated": 8279, "popcorn": 24593, "emphasized": 13155, "##\u110a": 29998, "births": 18250, "antrim": 24142, "##hab": 25459, "##wani": 29092, "248": 24568, "critic": 6232, "indianapolis": 9506, "galloway": 22372, "reassigned": 18026, "memory": 3638, "lecture": 8835, "##chang": 22305, "vicious": 13925, "nicknamed": 9919, "ash": 6683, "linux": 11603, "mankind": 14938, "[unused667]": 672, "bursting": 21305, "##\u6210": 30380, "permanently": 8642, "yen": 18371, "oldies": 26826, "whales": 17967, "hunts": 28526, "##ffin": 15379, "islamist": 27256, "64": 4185, "concerned": 4986, "brings": 7545, "ported": 27650, "drama": 3689, "[unused584]": 589, "##ac": 6305, "1814": 10977, "##ener": 24454, "vertigo": 28246, "[unused983]": 988, "expressing": 14026, "blanco": 20036, "minus": 15718, "lifeless": 22185, "alike": 11455, "[unused210]": 215, "destruction": 6215, "##\u90e1": 30485, "township": 3545, "acting": 3772, "mythical": 19336, "blindness": 26290, "nostalgia": 26968, "##uron": 21017, "opened": 2441, "##dict": 29201, "early": 2220, "\u2212": 1597, "stephen": 4459, "[unused248]": 253, "drifted": 10070, "tender": 8616, "##ailing": 29544, "psycho": 18224, "terra": 14403, "##itic": 18291, "idle": 18373, "boyer": 23456, "croix": 18733, "-": 1011, "consult": 23363, "traversed": 27797, "surged": 18852, "ba": 8670, "##vale": 17479, "##peed": 25599, "research": 2470, "style": 2806, "lace": 12922, "taxonomic": 27691, "[unused572]": 577, "aug": 15476, "bolsheviks": 28755, "abruptly": 9225, "prized": 25695, "malcolm": 8861, "##church": 22743, "sync": 26351, "tsunami": 19267, "requiring": 9034, "push": 5245, "##isance": 28138, "opportunities": 6695, "##\u1d35": 30029, "choking": 18329, "##va": 3567, "##mute": 26746, "trying": 2667, "funny": 6057, "devout": 26092, "##sit": 28032, "medications": 20992, "vp": 21210, "##\u0f62": 29970, "wah": 22894, "factor": 5387, "buzzing": 20386, "tomb": 8136, "##men": 3549, "antarctic": 10227, "yesterday": 7483, "flew": 5520, "firm": 3813, "retreat": 7822, "politicians": 8801, "erie": 13374, "##ping": 4691, "fits": 16142, "sunglasses": 17072, "##\u00f8y": 27688, "##\u00f0": 29668, "caliber": 15977, "[unused989]": 994, "pants": 6471, "rigid": 11841, "captivity": 16187, "blackness": 19573, "menacing": 24060, "\u0986": 1348, "license": 6105, "vietnam": 5148, "discs": 15303, "blouse": 18149, "##skie": 23955, "waterford": 17769, "##\u0bc8": 29935, "##jo": 5558, "##oran": 18842, "desires": 14714, "##iness": 9961, "discount": 19575, "publishing": 4640, "decorate": 29460, "vague": 13727, "silesia": 21872, "observed": 5159, "sensitive": 7591, "swallows": 26436, "stink": 27136, "##hmi": 26837, "##inkles": 28562, "adapt": 15581, "pokemon": 20421, "murderers": 28882, "[unused122]": 127, "fledgling": 25954, "[unused350]": 355, "##7": 2581, "princes": 12000, "rhymes": 24468, "##\u0f0d": 29961, "##\u10e1": 29988, "cecil": 11978, "##zd": 26494, "mirrors": 13536, "trust": 3404, "##dia": 9032, "festival": 2782, "aramaic": 28934, "leeds": 7873, "samantha": 11415, "ionic": 24774, "naturalist": 19176, "theorists": 28442, "##\u9999": 30505, "gathered": 5935, "gujarat": 14288, "mediation": 26435, "##ness": 2791, "##aina": 27971, "dwarf": 11229, "join": 3693, "damp": 10620, "##lio": 12798, "porto": 13809, "bakery": 18112, "kids": 4268, "azure": 24296, "##nen": 10224, "automobile": 9935, "garlic": 20548, "##lles": 20434, "occupied": 4548, "sums": 20571, "##rgh": 27172, "##nent": 21576, "trailed": 11145, "##gli": 25394, "[unused980]": 985, "te": 8915, "dwelling": 13160, "migrated": 13447, "##\u2500": 30142, "##arty": 23871, "[unused96]": 97, "butterfly": 9112, "##iga": 13340, "clause": 11075, "absurd": 18691, "feat": 8658, "##hia": 12995, "##sic": 19570, "\u9547": 1966, "##sur": 26210, "fence": 8638, "car": 2482, "##sos": 17063, "assembled": 9240, "drip": 27304, "##zon": 11597, "fight": 2954, "inscriptions": 12920, "[unused550]": 555, "slavic": 13838, "##type": 13874, "\u2013": 1516, "nerves": 10627, "sci": 16596, "##cap": 17695, "webber": 19861, "[unused549]": 554, "costume": 9427, "mental": 5177, "radar": 7217, "questioning": 11242, "ride": 4536, "1603": 25625, "commentary": 8570, "recognized": 3858, "70th": 26934, "horatio": 27752, "tumble": 28388, "interference": 11099, "gig": 15453, "versions": 4617, "\u00bc": 1091, "##tm": 21246, "tragedy": 10576, "fabrication": 25884, "consumption": 8381, "basic": 3937, "depicting": 10775, "troubles": 13460, "##bag": 16078, "##para": 28689, "beverage": 19645, "##sport": 20205, "seduction": 26962, "##viere": 27087, "grateful": 8794, "byu": 23471, "thoughtful": 16465, "soaring": 23990, "representation": 6630, "clubhouse": 22067, "##lan": 5802, "mar": 9388, "lisbon": 11929, "mon": 12256, "gibraltar": 12272, "scripts": 14546, "##nium": 14907, "exponential": 27258, "honneur": 28197, "##lizer": 28863, "overhaul": 18181, "sensor": 13617, "vaughn": 18220, "##hism": 23108, "mutiny": 19306, "caledonia": 19305, "gideon": 12137, "becky": 14407, "bray": 19743, "shankar": 17429, "wylie": 29152, "##io": 3695, "pie": 11345, "owe": 12533, "287": 23090, "levi": 11902, "dictated": 23826, "cabinets": 20053, "treatments": 13441, "mesh": 20437, "##fan": 15143, "go": 2175, "teenagers": 12908, "translate": 17637, "supervisors": 22565, "chopin": 25479, "concludes": 14730, "record": 2501, "ink": 10710, "bubbling": 25054, "hms": 7220, "ashby": 28729, "somewhere": 4873, "michelle": 9393, "labelled": 18251, "argyle": 26503, "##\u0938": 29874, "##mart": 22345, "\u590f": 1808, "op": 6728, "jurisdictions": 17370, "\u305d": 1660, "escape": 4019, "nikita": 29106, "ze": 27838, "##eration": 16754, "rhythm": 6348, "trafford": 26894, "[unused371]": 376, "##gold": 21270, "feasible": 22945, "##rest": 28533, "peeked": 18652, "[unused623]": 628, "florian": 29517, "251": 22582, "cramer": 29433, "tanzania": 11959, "opposition": 4559, "western": 2530, "csa": 27804, "brackets": 19719, "sir": 2909, "stages": 5711, "tale": 6925, "mutter": 23457, "##boarding": 21172, "berger": 16758, "kahn": 19361, "##tite": 23096, "damien": 12587, "kabul": 21073, "spaghetti": 26666, "hairy": 15892, "cattle": 7125, "##ght": 13900, "[unused301]": 306, "receivers": 19278, "ames": 19900, "opium": 21075, "unite": 15908, "targeted": 9416, "maddie": 17805, "##dilly": 28832, "outskirts": 12730, "excluding": 13343, "##polis": 17699, "##inda": 23938, "dispute": 7593, "1707": 25029, "debuts": 26740, "cheek": 5048, "sioux": 16615, "memorandum": 20336, "trams": 19216, "273": 25371, "unesco": 12239, "176": 18561, "playstation": 9160, "toyota": 11742, "molina": 25601, "mills": 6341, "ted": 6945, "chocolate": 7967, "pioneered": 16193, "hamlets": 21631, "\u305b": 1659, "egyptians": 23437, "breached": 25769, "tbilisi": 22406, "busch": 15840, "\u20b1": 1575, "smartphone": 26381, "hernandez": 13688, "inspectors": 28421, "\u4e8c": 1752, "##\u1103": 29993, "instructed": 10290, "highlands": 11784, "ukrainian": 5969, "rec": 28667, "woods": 5249, "##gur": 27390, "##\u539f": 30313, "lectured": 19206, "wanting": 5782, "axes": 19589, "scarcely": 20071, "bb": 22861, "##block": 23467, "profitable": 15282, "##fare": 17883, "daggers": 24210, "joke": 8257, "##lland": 26087, "sanctuary": 8493, "trickle": 26027, "retracted": 28214, "confesses": 22826, "seem": 4025, "contacted": 11925, "scramble": 25740, "fable": 28458, "flanks": 23547, "\u0627": 1270, "##nished": 28357, "middleweight": 18741, "fjord": 26158, "newtown": 26382, "flutes": 28453, "##bf": 29292, "funds": 5029, "connor": 6720, "tax": 4171, "nobility": 11760, "renamed": 4096, "activation": 13791, "graduate": 4619, "oven": 17428, "##ix": 7646, "avoiding": 9992, "##zuki": 24015, "1641": 25702, "engineer": 3992, "mechanized": 23387, "parisian": 24262, "norwich": 12634, "costumes": 12703, "equipment": 3941, "permitted": 7936, "entering": 5738, "dangers": 16796, "lastly": 22267, "ecuador": 10378, "bullock": 25200, "docking": 25776, "##\u203f": 30069, "fractured": 21726, "##mist": 23738, "##\u27e9": 30156, "censorship": 15657, "koreans": 24651, "commuter": 14334, "plymouth": 10221, "pistol": 8779, "##om": 5358, "derives": 12153, "diminished": 15911, "##sion": 10992, "##uting": 20807, "cache": 17053, "ransom": 16540, "##iman": 18505, "##pack": 23947, "##\u043e\u0432\u0438\u0447": 16198, "genome": 13458, "aggregator": 24089, "weave": 25308, "##mium": 27759, "decommissioned": 14394, "gesellschaft": 27482, "##hawks": 16043, "lombard": 23441, "mexico": 3290, "humming": 20364, "direction": 3257, "irrigation": 12442, "##oper": 25918, "nipples": 28124, "neck": 3300, "##puram": 17809, "dolly": 19958, "undertaken": 10607, "monique": 26194, "newfoundland": 11944, "syndication": 26973, "clutched": 13514, "backed": 6153, "prostitute": 19215, "##berries": 20968, "drone": 18465, "mention": 5254, "trustees": 9360, "sympathetic": 13026, "\u05d8": 1249, "cutting": 6276, "waited": 4741, "breathless": 16701, "did": 2106, "110": 7287, "broadcast": 3743, "stafford": 15064, "raider": 27826, "boredom": 29556, "##rigue": 27611, "venom": 15779, "##words": 22104, "jamestown": 27435, "competed": 3879, "provision": 9347, "##cated": 12921, "##\u1166": 30009, "enemies": 6716, "oscar": 7436, "cynthia": 15809, "lowest": 7290, "calhoun": 22982, "agricultural": 4910, "just": 2074, "##chal": 18598, "teaches": 12011, "union": 2586, "didn": 2134, "##venor": 26806, "develops": 11791, "wish": 4299, "int": 20014, "##imating": 22835, "##crats": 23423, "weed": 17901, "accordion": 19060, "##kow": 24144, "fishery": 22880, "sanders": 12055, "intrigued": 18896, "progression": 14967, "##\u0935": 29871, "tackles": 10455, "##iful": 18424, "losing": 3974, "presentations": 18216, "##rricular": 21231, "depleted": 22595, "beth": 7014, "consonants": 19694, "globalization": 24370, "\u0638": 1287, "cared": 8725, "react": 10509, "##avian": 21654, "[unused523]": 528, "##gnon": 26977, "##otto": 23052, "annoyance": 17466, "stacks": 20829, "##rons": 28212, "eats": 20323, "salford": 23001, "absolute": 7619, "linked": 5799, "fowler": 14990, "touchdowns": 10183, "##uss": 17854, "##pone": 29513, "\u91cc": 1962, "naomi": 12806, "hubbard": 16580, "basics": 24078, ",": 1010, "caressing": 25296, "told": 2409, "bill": 3021, "projection": 13996, "yates": 20356, "susan": 6294, "ale": 15669, "lankan": 16159, "executing": 23448, "##haling": 23896, "1888": 6690, "ole": 15589, "##wine": 21924, "pinto": 25066, "tracing": 16907, "temper": 12178, "measuring": 9854, "southern": 2670, "##nidae": 29135, "pietro": 15541, "##gui": 25698, "65": 3515, "amplified": 26986, "penang": 21812, "tanaka": 21829, "##ad": 4215, "sandwich": 11642, "brig": 16908, "##gen": 6914, "weakly": 17541, "[unused959]": 964, "jude": 12582, "harden": 28751, "spike": 9997, "disgusted": 17733, "corinne": 26879, "shaping": 20300, "compatible": 11892, "northwest": 4514, "baroque": 10456, "queer": 19483, "keynes": 22152, "caden": 23600, "vermont": 8839, "##emy": 26662, "panama": 8515, "hotel": 3309, "month": 3204, "elmer": 21464, "weddings": 20429, "lightweight": 12038, "refreshing": 27150, "##!": 29612, "musical": 3315, "relate": 14396, "##\u897f": 30473, "highways": 10292, "\u0442": 1197, "tasha": 25448, "presidents": 11274, "##eau": 10207, "thankfully": 16047, "bronx": 14487, "neighbourhood": 10971, "peanut": 21443, "chants": 29534, "##neas": 26737, "stranger": 7985, "worried": 5191, "2021": 25682, "##cta": 25572, "magnitude": 10194, "stresses": 23253, "##xin": 20303, "musik": 28076, "cola": 15270, "relevant": 7882, "acres": 4631, "##eim": 12112, "##lina": 13786, "ship": 2911, "##yle": 12844, "contrasts": 23347, "nausea": 19029, "sponge": 25742, "hiking": 13039, "##\u0648": 29836, "pots": 18911, "marriott": 26490, "regime": 6939, "##pio": 22071, "insect": 14211, "##akes": 20060, "##iable": 19210, "streaming": 11058, "##asse": 27241, "invention": 11028, "aye": 13442, "worth": 4276, "stockings": 26412, "afford": 8984, "dorsey": 27332, "cheerleading": 25721, "\u300f": 1644, "##\u3075": 30200, "boiling": 16018, "consciousness": 8298, "1865": 6725, "##chase": 26300, "clover": 25133, "\u4e00": 1740, "grenades": 21914, "liquor": 13207, "desert": 5532, "##eral": 21673, "gestapo": 26446, "stations": 3703, "mystic": 17477, "anyway": 4312, "roy": 6060, "nicholson": 16955, "##chuk": 26516, "##till": 28345, "science": 2671, "temporal": 15850, "##ees": 10285, "discovered": 3603, "mateo": 19327, "##ield": 12891, "fishing": 5645, "dodgers": 13391, "theo": 14833, "sniper": 17515, "geared": 23636, "coherent": 18920, "dentistry": 26556, "outlaws": 23107, "##ded": 5732, "410": 19151, "marshal": 8610, "flung": 14016, "##\u062e": 29821, "agenda": 11376, "wendy": 12815, "##ania": 13241, "appalachian": 19682, "##isation": 6648, "fallon": 16443, "shooter": 13108, "##\u0645": 22192, "##belt": 21561, "foe": 22277, "leukemia": 25468, "hayward": 21506, "overdose": 26641, "joked": 19700, "respectable": 19416, "sho": 26822, "eerie": 18823, "jacques": 7445, "appliances": 22449, "##efe": 27235, "supplied": 8127, "grange": 18203, "chargers": 18649, "\u0e15": 1411, "ensembles": 21528, "session": 5219, "shame": 9467, "rodney": 13898, "malone": 16321, "##ward": 7652, "pitched": 8219, "dolphins": 13600, "steward": 17946, "cher": 24188, "cornelius": 17354, "##~": 29643, "abuse": 6905, "remembered": 4622, "moravian": 28131, "immigrants": 7489, "##ffy": 16329, "application": 4646, "manifestation": 24491, "##\u30fb": 30264, "##tsk": 29064, "\u20a4": 1572, "satellites": 14549, "##^": 29637, "1947": 4006, "exhaled": 16242, "##\u5bae": 30350, "##bal": 10264, "sentinel": 16074, "sf": 16420, "adopted": 4233, "stroked": 11699, "antioch": 19078, "envy": 21103, "carnival": 11485, "sparrow": 19479, "casual": 10017, "debuted": 6006, "gains": 12154, "commencing": 25819, "shove": 14738, "142": 16087, "staten": 24161, "robert": 2728, "working": 2551, "including": 2164, "orbital": 13943, "##\u6ca2": 30424, "lack": 3768, "openings": 16556, "[unused848]": 853, "throat": 3759, "rodgers": 15652, "contempt": 17152, "ritchie": 20404, "deserted": 12768, "confidential": 18777, "wisconsin": 5273, "##set": 13462, "960": 26637, "\u2261": 1607, "##wai": 21547, "simplicity": 17839, "##lberg": 22927, "amos": 13744, "clit": 17962, "rhone": 22351, "analyzed": 16578, "hygiene": 19548, "254": 22234, "prostate": 25086, "google": 8224, "removing": 9268, "alert": 9499, "howell": 18473, "bland": 20857, "musica": 21137, "wo": 24185, "overture": 25052, "salazar": 25315, "wallet": 15882, "adobe": 18106, "1767": 21502, "eine": 27665, "\u02b0": 1140, "title": 2516, "haven": 4033, "accompanied": 5642, "shakespeare": 8101, "##tock": 17406, "foam": 17952, "graph": 10629, "inspiring": 18988, "##hire": 20908, "##tish": 24788, "pigment": 28815, "worms": 16253, "disappears": 17144, "returned": 2513, "attending": 7052, "discussion": 6594, "lola": 15137, "parma": 19177, "occupy": 11494, "lean": 8155, "sprung": 22057, "chefs": 27828, "three": 2093, "'": 1005, "on": 2006, "beaten": 7854, "##\u7fa9": 30462, "flee": 10574, "depiction": 15921, "##\u2018": 30055, "##ience": 13684, "[unused92]": 93, "[unused842]": 847, "wool": 12121, "terror": 7404, "whatsoever": 18971, "synonymous": 22594, "energetic": 18114, "yorkshire": 7018, "##oney": 17791, "hay": 10974, "cocky": 24995, "##\u27e8": 30155, "wagons": 14525, "trump": 8398, "[unused827]": 832, "virtual": 7484, "hers": 5106, "##rga": 28921, "restoration": 6418, "related": 3141, "dictator": 21237, "delegates": 10284, "abraham": 8181, "54th": 29570, "smoothed": 17966, "caucus": 13965, "reacting": 24868, "##ows": 15568, "blair": 10503, "cares": 14977, "sharpened": 26694, "warden": 13745, "##eded": 19082, "36": 4029, "british": 2329, "transfer": 4651, "boulevard": 8459, "\u10d8": 1445, "engagement": 8147, "meritorious": 22053, "outbreak": 8293, "jeremy": 7441, "242": 22431, "##stone": 9221, "##enes": 28553, "authentication": 27280, "##aging": 16594, "aeronautics": 27459, "resistant": 13070, "synod": 15374, "1990": 2901, "canned": 27141, "wake": 5256, "rudd": 25298, "swiss": 5364, "##iere": 21253, "substantial": 6937, "##puri": 24661, "##shaft": 25679, "year": 2095, "##ume": 17897, "noticed": 4384, "notes": 3964, "express": 4671, "sulfate": 26754, "eye": 3239, "planners": 27155, "picasso": 22457, "scenic": 12916, "##\u516c": 30298, "1682": 29478, "called": 2170, "\u1175": 1483, "constantin": 27991, "usaf": 18531, "equals": 19635, "commenting": 15591, "retention": 20125, "##iel": 9257, "ridge": 5526, "##factory": 21450, "lithium": 22157, "snatched": 14177, "##logram": 24915, "gravity": 8992, "substitutes": 29200, "loyola": 21580, "industrial": 3919, "arbitrary": 15275, "##\u092a": 29864, "carey": 11782, "policy": 3343, "arenas": 26434, "mina": 19808, "brian": 4422, "##glia": 20011, "shutting": 17521, "nmi": 22484, "judged": 13224, "nairobi": 21124, "##mour": 20360, "constabulary": 23791, "##\u4e0b": 30269, "310": 17196, "galaxies": 21706, "coloration": 28757, "fallen": 5357, "candidacy": 17057, "##aea": 21996, "rotary": 16933, "jingle": 29262, "dated": 6052, "michele": 15954, "robson": 23698, "[unused117]": 122, "##wu": 16050, "blu": 14154, "interrogation": 16871, "74": 6356, "toll": 9565, "administrator": 8911, "postal": 10690, "costing": 22173, "##eve": 18697, "\u092f": 1332, "praise": 8489, "dragged": 7944, "industrialist": 21691, "siegfried": 25948, "##yna": 18279, "[unused659]": 664, "[unused764]": 769, "##gang": 24930, "##growth": 26982, "inauguration": 17331, "##kur": 18569, "hissed": 11402, "##oia": 25463, "##eia": 27958, "##\u30a6": 30222, "##ways": 14035, "backwards": 11043, "dauphin": 29102, "compound": 7328, "camps": 7958, "turks": 12896, "conrad": 10931, "pg": 18720, "intra": 26721, "jong": 18528, "colchester": 20115, "relinquished": 26566, "brisk": 28022, "mice": 12328, "solved": 13332, "bartender": 15812, "to": 2000, "somebody": 8307, "##oi": 10448, "narrowly": 11866, "##tower": 23196, "[unused559]": 564, "fully": 3929, "freeing": 22198, "aback": 26575, "##tty": 15353, "rupert": 14641, "tasted": 12595, "newscast": 20306, "charming": 11951, "omnibus": 27284, "[unused663]": 668, "timothy": 10805, "##ities": 6447, "reed": 7305, "##quil": 26147, "##\u30db": 30248, "\u00a8": 1074, "swiped": 24452, "bait": 17395, "cocked": 13179, "rising": 4803, "letting": 5599, "synthesizer": 13564, "wrestled": 20615, "##mmon": 24521, "dominic": 11282, "rockefeller": 16696, "warfare": 8309, "nebraska": 8506, "##24": 18827, "##4th": 26724, "ether": 28855, "stephanie": 11496, "bearings": 21714, "##\u2092": 30091, "pottery": 11378, "peak": 4672, "##ric": 7277, "ribbon": 10557, "\u0cb0": 1401, "frank": 3581, "cough": 19340, "mackay": 17090, "attach": 22476, "##ntly": 20630, "##urai": 24804, "nassau": 14646, "acquisition": 7654, "islamabad": 26905, "##\u1172": 30016, "craft": 7477, "usher": 20774, "beautifully": 17950, "crawley": 28854, "dissertation": 14481, "archbishop": 6507, "rage": 7385, "##\u0986": 29884, "impact": 4254, "thrilling": 26162, "##\u5c07": 30354, "weather": 4633, "deborah": 15555, "aces": 20232, "rise": 4125, "1930": 4479, "lgbt": 12010, "mohawk": 22338, "iq": 26264, "quiver": 29049, "accepts": 13385, "rating": 5790, "grab": 6723, "##ette": 7585, "dental": 11394, "##\u1173": 30017, "##\u1161": 30006, "##bate": 20179, "oro": 20298, "guarantees": 21586, "hines": 25445, "##pathic": 25940, "noelle": 22336, "coordination": 12016, "counterattack": 27835, "\u00b4": 1084, "monterey": 19860, "guiana": 23568, "dancers": 10487, "##tel": 9834, "livery": 18475, "##lth": 24658, "##\u0434": 29742, "quarterback": 9074, "disagreement": 18185, "tensed": 15225, "longtime": 11155, "afl": 10028, "invaded": 10836, "##arth": 22425, "tracker": 27080, "starved": 26042, "resumed": 7943, "legged": 15817, "tennessee": 5298, "dynamite": 21719, "shadowed": 25843, "\u30ec": 1734, "agreement": 3820, "##jah": 18878, "480": 17295, "214": 19936, "crusader": 25237, "torpedo": 9862, "flute": 8928, "lick": 15385, "subsistence": 27667, "##eld": 14273, "\u3008": 1637, "##\u304d": 30178, "acc": 16222, "swear": 8415, "rocker": 24779, "gulp": 26546, "##rkin": 26891, "raul": 16720, "anytime": 15933, "##\u9762": 30502, "pulling": 4815, "entities": 11422, "grasping": 20854, "brigham": 22727, "1827": 12309, "tailor": 22701, "rte": 20375, "remove": 6366, "allowing": 4352, "agitated": 21568, "##ece": 26005, "iii": 3523, "marry": 5914, "attributed": 7108, "dictionary": 9206, "archway": 28189, "duly": 25073, "chase": 5252, "arjun": 26024, "everest": 23914, "loire": 20399, "er": 9413, "##hus": 9825, "routine": 9410, "##inen": 21820, "[unused411]": 416, "shouldered": 29383, "praying": 14488, "static": 10763, "207": 19843, "stills": 26105, "friendship": 6860, "mvp": 12041, "tricked": 24929, "welterweight": 20882, "decades": 5109, "general": 2236, "##nier": 14862, "\u02b7": 1143, "adele": 17623, "anyone": 3087, "##app": 29098, "boulder": 13264, "caspian": 25893, "##lized": 28931, "##\u884c": 30471, "reinstated": 18671, "specials": 19247, "stranded": 15577, "##\u0b9f": 29920, "instruments": 5693, "obey": 15470, "picture": 3861, "recommended": 6749, "harp": 14601, "shy": 11004, "##wl": 13668, "strand": 11226, "reasoned": 24557, "##\u300a": 30165, "##lem": 16930, "pounded": 13750, "evicted": 25777, "affiliates": 18460, "sud": 19219, "khan": 4967, "temperature": 4860, "##ogan": 21131, "want": 2215, "puppy": 17022, "[unused653]": 658, "lobby": 9568, "55th": 29075, "herzegovina": 11453, "cosmetics": 25381, "rewards": 19054, "goth": 25976, "apparent": 6835, "fatima": 27596, "1932": 4673, "\u308c": 1688, "biographical": 16747, "advocating": 20324, "newsweek": 26948, "plausible": 24286, "racism": 14398, "miners": 11257, "alejandro": 16810, "kicks": 14590, "unsure": 12422, "haunting": 20161, "\u8fb6": 1956, "being": 2108, "##abi": 28518, "token": 19204, "smiled": 3281, "hartford": 13381, "##gg": 13871, "uniquely": 20640, "##\u03b9": 18199, "##grate": 22780, "kid": 4845, "##lewood": 26580, "galveston": 26630, "tortricidae": 27683, "insisting": 22604, "andersson": 28643, "orson": 25026, "seating": 10747, "##day": 10259, "##\u1d2c": 30026, "gale": 14554, "hassan": 13222, "perrin": 28106, "calves": 28023, "heidelberg": 16793, "[unused271]": 276, "dammit": 20878, "~": 1066, "sixties": 22651, "textures": 29343, "grid": 8370, "expulsion": 18272, "symbolic": 12613, "##heater": 27847, "marley": 20326, "[unused904]": 909, "##hue": 20169, "mcdowell": 25005, "seymour": 13254, "fridays": 26587, "idaho": 9795, "recommend": 16755, "beams": 13110, "[unused873]": 878, "icy": 13580, "##urized": 28405, "school": 2082, "none": 3904, "defeats": 14222, "##nob": 25083, "rosalie": 29564, "wrote": 2626, "catalogue": 10161, "##von": 17789, "coated": 15026, "twisted": 6389, "\u7cf9": 1934, "spaniards": 20999, "##\u2153": 30109, "##\u0127": 29672, "fitch": 26062, "tonight": 3892, "[unused322]": 327, "durable": 25634, "tease": 18381, "##oon": 7828, "geography": 10505, "rooted": 15685, "lopez": 8685, "kant": 26044, "theorem": 9872, "##chu": 20760, "bluegrass": 21286, "1640": 21533, "whitehead": 23257, "carmel": 19443, "pious": 25020, "transitioned": 23946, "interiors": 20769, "##agne": 25440, "thomas": 2726, "stack": 9991, "periodic": 15861, "##\u099a": 29892, "atletico": 16132, "##\u5802": 30331, "destroy": 6033, "nutrition": 14266, "[unused171]": 176, "voted": 5444, "hilda": 21589, "##ms": 5244, "##analysis": 25902, "[unused419]": 424, "hayes": 10192, "grip": 6218, "##mill": 19912, "sanctioned": 14755, "pun": 26136, "stiff": 10551, "##laze": 24472, "wounds": 8710, "##li": 3669, "unreleased": 13270, "resigning": 24642, "christine": 10941, "richer": 26108, "uncover": 26944, "robot": 8957, "integers": 24028, "polk": 20819, "quivering": 26012, "haas": 22996, "##lou": 23743, "dukes": 16606, "##\u03c0": 29731, "mock": 12934, "##cave": 27454, "ou": 15068, "blend": 12586, "iucn": 20333, "coroner": 22896, "dealing": 7149, "vladimir": 8748, "tugged": 10621, "felony": 24648, "cpc": 28569, "##chs": 18069, "statute": 11671, "eliot": 16292, "updates": 14409, "recruitment": 15680, "participation": 6577, "##\u2089": 30085, "[unused161]": 166, "detector": 19034, "fiji": 11464, "adam": 4205, "brother": 2567, "lithuanian": 10333, "[unused184]": 189, "##ipe": 15457, "shape": 4338, "springfield": 10493, "##chin": 17231, "luther": 9678, "farmer": 7500, "extends": 8908, "psychiatry": 18420, "contend": 27481, "waterfall": 14297, "spartan": 20670, "##gaard": 18839, "helicopters": 12400, "cities": 3655, "spectra": 29237, "currently": 2747, "niccolo": 27033, "##sf": 22747, "orchestra": 4032, "[unused447]": 452, "kappa": 16000, "airfield": 9087, "estuary": 18056, "##icular": 21412, "329": 29567, "barked": 17554, "poly": 26572, "disability": 11980, "culminated": 16943, "bed": 2793, "pi": 14255, "me": 2033, "visibility": 16476, "purpose": 3800, "runways": 24578, "tolerate": 19242, "construction": 2810, "nes": 24524, "mother": 2388, "anson": 25435, "##che": 5403, "##hammer": 19742, "foul": 12487, "featherweight": 27145, "##ws": 9333, "linguistic": 12158, "2019": 10476, "museums": 9941, "standalone": 26609, "[unused522]": 527, "[unused182]": 187, "##ings": 8613, "##\u2f65": 30160, "[unused758]": 763, "intermittent": 23852, "arrow": 8612, "\u7a7a": 1930, "darcy": 17685, "deficiency": 18888, "cerro": 25498, "basically": 10468, "##sma": 26212, "##\u06af": 29842, "frigate": 15437, "loosen": 29476, "##ronia": 28140, "legendary": 8987, "broken": 3714, "bunch": 9129, "sq": 5490, "closest": 7541, "regions": 4655, "bite": 6805, "flexed": 24244, "nineteenth": 9137, "weight": 3635, "cheng": 15898, "equestrian": 19191, "sinatra": 19643, "[unused477]": 482, "jennings": 14103, "##bags": 26813, "une": 16655, "digger": 28661, "##dre": 16200, "lane": 4644, "##49": 26224, "boyd": 12164, "cheat": 21910, "fairness": 26935, "tbs": 29584, "involve": 9125, "##ren": 7389, "##dro": 22196, "brady": 10184, "something": 2242, "analytic": 23521, "racetrack": 28435, "##oth": 14573, "tactical": 8608, "college": 2267, "hasn": 8440, "stella": 11894, "picket": 28972, "##bm": 25526, "##mba": 11201, "lashed": 25694, "destiny": 10461, "eruption": 17259, "captain": 2952, "valle": 20171, "##osta": 28696, "bethlehem": 19360, "[unused698]": 703, "client": 7396, "celebrities": 12330, "geo": 20248, "##lge": 28875, "belgian": 6995, "waived": 16301, "unincorporated": 7754, "incomplete": 12958, "tangible": 24600, "##zzy": 28753, "##ols": 27896, "##azi": 16103, "bernstein": 18862, "##\u0993": 29888, "involved": 2920, "low": 2659, "curiosity": 10628, "hemisphere": 14130, "cesar": 14923, "##chfield": 22693, "##rice": 17599, "symposium": 17899, "##alo": 23067, "mastery": 26364, "edouard": 21627, "undeveloped": 29341, "##orescence": 20030, "amar": 23204, "boxing": 8362, "coordinates": 12093, "truly": 5621, "billions": 25501, "cement": 11297, "rotherham": 27456, "film": 2143, "repay": 24565, "strong": 2844, "sedimentary": 25503, "independence": 4336, "##dit": 23194, "lawn": 10168, "crisp": 15594, "refusal": 13948, "mouthful": 28462, "47th": 28243, "##ie": 2666, "kilometers": 7338, "thrilled": 16082, "notably": 5546, "claim": 4366, "fringe": 13548, "below": 2917, "archived": 9749, "tossing": 15021, "ponytail": 18865, "coordinator": 10669, "peking": 27057,
[...]
