{"accountability": 17842, "[unused837]": 842, "vertex": 19449, "jointly": 10776, "flagship": 10565, "gases": 15865, "##ntial": 19909, "kellan": 19697, "talents": 11725, "[unused273]": 278, "##flower": 14156, "worthy": 11007, "showcase": 13398, "145": 13741, "dependence": 18642, "##bala": 25060, "members": 2372, "[unused348]": 353, "atmosphere": 7224, "careful": 6176, "kendra": 13812, "##gnon": 26977, "edith": 13257, "desire": 4792, "industrial": 3919, "bradley": 8981, "fairfax": 17833, "##\u516c": 30298, "cornwall": 10387, "127": 13029, "artists": 3324, "weigh": 17042, "mingled": 25959, "shi": 11895, "hardin": 27522, "drafting": 21168, "mortimer": 17416, "performer": 9256, "##acing": 26217, "##mounted": 27632, "hendricks": 28895, "\u02b2": 1141, "announcements": 25674, "torah": 16297, "law": 2375, "306": 24622, "mandate": 11405, "##hoff": 17896, "sony": 8412, "cree": 27831, "titanic": 20753, "arranging": 19018, "hindi": 9269, "brethren": 17937, "##zan": 13471, "##52": 25746, "nominated": 4222, "##bba": 22414, "[unused686]": 691, "fraud": 9861, "odor": 19255, "addressed": 8280, "##dian": 11692, "rebirth": 22785, "engineering": 3330, "##\u2207": 30123, "##yme": 25219, "750": 9683, "trembled": 14823, "weakly": 17541, "tuned": 15757, "1648": 22533, "moffat": 28528, "erratic": 24122, "\u5206": 1775, "tourist": 7538, "announcer": 14073, "belt": 5583, "\u0937": 1337, "pup": 26781, "gregg": 18281, "1923": 4927, "approaching": 8455, "infections": 15245, "##ely": 26006, "[unused748]": 753, "chassis": 11832, "##uding": 24539, "rectangular": 10806, "excavation": 16456, "hierarchical": 25835, "##tropical": 25528, "forested": 15205, "minus": 15718, "##\u091f": 29856, "roma": 12836, "##lla": 4571, "1875": 7466, "brad": 8226, "match": 2674, "advocacy": 12288, "mag": 23848, "##yst": 27268, "crown": 4410, "silently": 8601, "buildings": 3121, "waterford": 17769, "havilland": 23994, "championed": 28683, "reported": 2988, "##hit": 16584, "bavaria": 11606, "engine": 3194, "casimir": 24701, "118": 12963, "belongings": 20033, "ciudad": 20759, "##imum": 28591, "suffering": 6114, "stack": 9991, "interfere": 15115, "thriving": 20319, "mutually": 20271, "##ille": 10484, "drill": 12913, "dashboard": 24923, "drugs": 5850, "nanny": 19174, "##\u026b": 29686, "fee": 7408, "obedience": 22645, "batteries": 10274, "##si": 5332, "georgia": 4108, "##ding": 4667, "jessica": 8201, "barrels": 13826, "replay": 15712, "shankar": 17429, "wired": 17502, "hobby": 17792, "yvonne": 21684, "redemption": 18434, "noir": 15587, "##vsky": 15904, "cells": 4442, "##ging": 4726, "\u30eb": 1733, "##if": 10128, "chatter": 24691, "intimidation": 28973, "##\u0997": 29891, "flourishing": 29571, "mansfield": 15352, "##jos": 19929, "helping": 5094, "1663": 29016, "moose": 17716, "tipperary": 17333, "leveled": 22915, "nonstop": 25493, "1762": 20827, "##hila": 26415, "subsidy": 28768, "##ologist": 8662, "shadowy": 22801, "##berger": 14859, "crawford": 10554, "##hol": 14854, "blazing": 17162, "jake": 5180, "##odies": 27391, "texted": 24637, "bangs": 28490, "roach": 20997, "carving": 18441, "##agne": 25440, "tidal": 15065, "horst": 28565, "##ogist": 22522, "[unused538]": 543, "morton": 11164, "listed": 3205, "##sal": 12002, "cakes": 22619, "[unused679]": 684, "nonsense": 14652, "[unused522]": 527, "\u0985": 1347, "\u03c7": 1177, "pendant": 23152, "metric": 12046, "gunslinger": 29274, "proposal": 6378, "hat": 6045, "celebrate": 8439, "interdisciplinary": 18593, "##ec": 8586, "syriac": 24109, "formerly": 3839, "julia": 6423, "wish": 4299, "##washed": 27283, "protector": 16167, "skater": 18815, "blanc": 18698, "dauphin": 29102, "faculty": 4513, "approximate": 15796, "traces": 10279, "[unused888]": 893, "##s\u0142aw": 23305, "##\u00b6": 29660, "determination": 9128, "##lies": 11983, "coefficient": 19064, "reworked": 27575, "##\u30bb": 30234, "rip": 10973, "1621": 27037, "jin": 9743, "##gren": 13565, "polished": 12853, "trier": 25487, "##als": 9777, "nagar": 16395, "##kins": 14322, "chopra": 28826, "##\u0939": 29875, "poverty": 5635, "lamb": 12559, "##gan": 5289, "[unused546]": 551, "calculated": 10174, "southbound": 19751, "/": 1013, "##bound": 15494, "detached": 12230, "states": 2163, "converted": 4991, "alfonso": 13591, "sacked": 14159, "##mal": 9067, "seventeen": 9171, "[unused734]": 739, "million": 2454, "request": 5227, "org": 8917, "varying": 9671, "robe": 11111, "correction": 18140, "spherical": 18970, "##olar": 19478, "##anus": 20849, "reaches": 6561, "lia": 22393, "topological": 24309, "lafayette": 14425, "trinidad": 11856, "##dt": 11927, "unlikely": 9832, "##sat": 16846, "modernist": 19770, "[unused437]": 442, "##nberg": 11144, "##field": 3790, "pressures": 15399, "##utus": 23998, "espn": 10978, "morse": 17107, "ethiopian": 15101, "##mins": 21266, "unprecedented": 15741, "blackout": 26717, "alien": 7344, "bradford": 9999, "killings": 16431, "shaken": 16697, "khyber": 28416, "skepticism": 27936, "louisville": 11577, "revealing": 8669, "rodrigo": 18943, "##dron": 19440, "operation": 3169, "katz": 20729, "bearded": 23905, "[unused540]": 545, "basque": 13915, "frs": 25188, "##nad": 25389, "\u6c34": 1893, "##rdon": 28176, "country": 2406, "\u028a": 1132, "money": 2769, "[unused570]": 575, "gold": 2751, "object": 4874, "journalism": 8083, "immersion": 27013, "stevens": 8799, "##ounded": 26240, "resume": 13746, "jealousy": 14225, "too": 2205, "byzantine": 8734, "##tish": 24788, "darling": 9548, "subsp": 24807, "##sus": 13203, "dickens": 19675, "try": 3046, "lancashire": 9638, "cope": 11997, "ducks": 14875, "kings": 5465, "geographically": 20969, "astrid": 27376, "zev": 27909, "grew": 3473, "conner": 17639, "[unused641]": 646, "[unused789]": 794, "kai": 11928, "[unused565]": 570, "nationally": 9582, "##izer": 17629, "composing": 16572, "##bet": 20915, "vigorously": 22400, "intimately": 29024, "regards": 12362, "19th": 3708, "##itha": 26054, "signalling": 21919, "plans": 3488, "##rr": 12171, "##\u6210": 30380, "truck": 4744, "5th": 4833, "##cona": 24366, "ign": 16270, "lois": 15815, "##\u0f0d": 29961, "183": 18677, "starters": 29400, "huff": 21301, "peninsular": 22682, "shut": 3844, "##mel": 10199, "colleagues": 8628, "##tze": 23102, "comparisons": 18539, "squeezing": 15328, "dexter": 14375, "imam": 17189, "suit": 4848, "##at": 4017, "stiffly": 27499, "scale": 4094, "symmetric": 19490, "##rred": 20529, "cleansing": 26799, "hungarian": 5588, "pitches": 19299, "##ucher": 22368, "muscled": 24909, "fairy": 8867, "relieved": 7653, "idiot": 10041, "weekend": 5353, "albans": 26311, "clutching": 14197, "yourselves": 25035, "maxim": 20446, "meg": 12669, "satisfaction": 9967, "reactions": 9597, "heats": 18559, "entrances": 18084, "##yson": 25385, "##ometric": 28993, "aiding": 24791, "brownish": 19437, "jamaica": 9156, "[unused94]": 95, "portland": 6734, "138": 15028, "lankan": 16159, "taped": 19374, "\u2205": 1593, "relatives": 9064, "[unused752]": 757, "dod": 26489, "retreat": 7822, "elastic": 21274, "bowed": 11489, "##\u02b2": 29707, "performed": 2864, "collapses": 25938, "##rrigan": 28706, "arcade": 10877, "semiconductor": 20681, "ev": 23408, "melodies": 16106, "photon": 26383, "rebound": 27755, "imprisoned": 8580, "##nx": 26807, "asylum": 11386, "consistently": 10862, "[unused603]": 608, "##\u026c": 29687, "pumping": 14107, "interactions": 10266, "\u540d": 1795, "scans": 27404, "bumper": 21519, "public": 2270, "continues": 4247, "##ating": 5844, "rude": 12726, "[unused128]": 133, "unreliable": 23579, "handed": 4375, "##\u00a7": 29650, "##wley": 20609, "imperialism": 28087, "dripped": 22526, "discourage": 28085, "##tees": 28313, "pasadena": 18880, "[unused377]": 382, "constitute": 12346, "certificates": 17987, "##\u03be": 29729, "thrust": 7400, "predators": 12630, "taunton": 28181, "\u4e0b": 1743, "##cas": 15671, "emerging": 8361, "pg": 18720, "##gues": 22967, "such": 2107, "guerrillas": 26955, "conserved": 19995, "\u1172": 1480, "##ellant": 24178, "rounding": 26939, "bot": 28516, "arched": 9194, "\u0637": 1286, "\u30ef": 1736, "##\u201a": 30057, "##usion": 14499, "##hunter": 25629, "modules": 14184, "cedric": 26170, "lacking": 11158, "1973": 3381, "oldham": 18285, "disclose": 26056, "viral": 13434, "##ische": 13719, "purity": 18433, "game": 2208, "ravi": 16806, "federico": 20493, "mega": 13164, "orchard": 15623, "developmental": 13908, "##\u308a": 30212, "accurate": 8321, "urban": 3923, "antiquity": 16433, "\u0647": 1297, "phonetic": 26664, "274": 25586, "dioxide": 14384, "kumar": 9600, "patent": 7353, "2019": 10476, "##ena": 8189, "sick": 5305, "##ym": 24335, "##gus": 12349, "seating": 10747, "802": 23908, "innocent": 7036, "##kee": 20553, "[unused593]": 598, "herbal": 27849, "trade": 3119, "279": 25745, "psychiatric": 13691, "##ioned": 19798, "faye": 19243, "maddie": 17805, "bela": 20252, "soo": 17111, "ut": 21183, "workings": 24884, "peas": 26072, "mississippi": 5900, "wrong": 3308, "unarmed": 23206, "\u0627": 1270, "##tose": 22282, "berkshire": 15570, "justine": 26377, "creed": 16438, "mixtape": 18713, "##has": 14949, "justice": 3425, "initials": 20381, "feelings": 5346, "brighton": 10309, "##lind": 27164, "hook": 8103, "1787": 16057, "abnormal": 19470, "mysteriously": 29239, ",": 1010, "gazed": 11114, "mcc": 23680, "##tained": 28055, "wonderful": 6919, "##lie": 8751, "blocked": 8534, "##bas": 22083, "##ges": 8449, "\u2207": 1595, "##yl": 8516, "notion": 9366, "cereal": 20943, "earle": 23888, "[unused97]": 98, "somebody": 8307, "castile": 15656, "beaumont": 16210, "downstairs": 10025, "rank": 4635, "fixture": 15083, "[unused86]": 87, "lithium": 22157, "watches": 12197, "metropolitan": 4956, "subgroup": 20576, "cw": 19296, "[unused15]": 16, "sundance": 20140, "sensitive": 7591, "dubai": 11558, "meadow": 13244, "usher": 20774, "respectful": 26438, "mystery": 6547, "comets": 27138, "jakob": 19108, "cloth": 8416, "overlapping": 20567, "##phobia": 24920, "##var": 10755, "reassure": 24647, "education": 2495, "##apple": 23804, "sandy": 7525, "ordeal": 23304, "dwellers": 28857, "##aba": 19736, "bulk": 9625, "r": 1054, "invasions": 23536, "squeezed": 7757, "reactor": 13308, "benjamin": 6425, "##bang": 25153, "dollar": 7922, "sk": 15315, "\u2ea9": 1632, "souza": 26598, "albums": 4042, "supervisors": 22565, "telegraph": 10013, "##hiff": 25798, "melinda": 23721, "reclaim": 24104, "yu": 9805, "mastery": 26364, "##trix": 29184, "hissing": 26386, "4": 1018, "morocco": 9835, "##urg": 12514, "##tou": 24826, "healthy": 7965, "1800s": 19878, "success": 3112, "##eves": 23047, "jacques": 7445, "##missive": 27876, "stroll": 27244, "kruger": 27823, "331": 27533, "renewed": 9100, "\u0e15": 1411, "cameo": 12081, "\u06a9": 1304, "lowell": 15521, "yamamoto": 28318, "defines": 11859, "approved": 4844, "regents": 22832, "berman": 29482, "##\u11bc": 30025, "directors": 5501, "dried": 9550, "borrow": 17781, "integrating": 22380, "##rke": 25074, "ghz": 29066, "violating": 20084, "aviation": 5734, "crushed": 10560, "dirk": 17594, "thumbs": 16784, "ignored": 6439, "[unused890]": 895, "##is": 2483, "duchy": 11068, "juventus": 22760, "freaked": 22783, "triad": 25355, "layne": 22452, "freed": 10650, "mention": 5254, "commandant": 15254, "stiffened": 16090, "boarded": 17383, "\u0446": 1201, "wheel": 5217, "drunk": 7144, "md": 9108, "##iente": 25099, "[unused49]": 50, "##\u30de": 30249, "insert": 19274, "liking": 16663, "\u1d62": 1507, "##re": 2890, "middletown": 28747, "grammatical": 24402, "##urable": 23086, "[unused958]": 963, "succeed": 9510, "affinity": 16730, "johnnie": 27716, "##pose": 20688, "\u0917": 1317, "##nock": 18057, "bono": 23648, "flowed": 13230, "damascus": 16094, "rockies": 22366, "##1": 2487, "syndrome": 8715, "mule": 20568, "instructor": 9450, "pd": 22851, "utility": 9710, "[unused382]": 387, "kobe": 24113, "\u30ea": 1732, "duke": 3804, "fool": 7966, "euro": 9944, "persistent": 14516, "blinded": 20641, "restrain": 28467, "frequencies": 13139, "voices": 5755, "cradled": 23774, "##ication": 21261, "promptly": 13364, "whitehead": 23257, "redhead": 26705, "332": 29327, "retrieved": 5140, "bonfire": 28698, "lifetime": 6480, "boxing": 8362, "##drich": 23335, "tal": 21368, "paranoia": 27890, "##\u3066": 30191, "pia": 24624, "balthazar": 25021, "resist": 9507, "apple": 6207, "convoy": 9549, "colombian": 13598, "lenses": 15072, "weeping": 19750, "##riding": 21930, "##\u22121": 27944, "bombing": 8647, "##ill": 8591, "xavier": 10062, "##stad": 16917, "staffed": 21121, "##reen": 28029, "energies": 19320, "strait": 11195, "startling": 19828, "[unused614]": 619, "##ce": 3401, "##shing": 12227, "catalonia": 16711, "awakening": 16936, "mason": 6701, "foreign": 3097, "honoring": 21494, "##ays": 22916, "claremont": 23716, "hugs": 24459, "##fus": 25608, "##\u6226": 30382, "##\u90fd": 30487, "vicki": 25424, "##vation": 21596, "sign": 3696, "lennon": 14294, "forbes": 10822, "rewards": 19054, "keel": 19602, "##ust": 19966, "##ropolis": 23248, "##boarding": 21172, "tertiary": 13553, "[unused633]": 638, "huge": 4121, "[unused712]": 717, "driven": 5533, "tackled": 26176, "certainty": 15855, "line": 2240, "sponsoring": 29396, "ushered": 23815, "resonance": 17011, "##rance": 21621, "lawn": 10168, "##lster": 29576, "steamer": 18027, "sniffing": 27646, "priory": 14284, "apes": 27754, "1611": 28769, "slavery": 8864, "##nch": 12680, "baha": 13253, "happen": 4148, "immensely": 24256, "symphony": 6189, "norfolk": 7735, "chain": 4677, "emphasis": 7902, "gates": 6733, "decisive": 13079, "lax": 27327, "boilers": 20412, "realization": 12393, "##ili": 18622, "##itative": 29293, "aisle": 12485, "reacted": 14831, "banners": 23562, "greasy": 26484, "##\u671d": 30400, "endorsed": 11763, "waiter": 15610, "delivering": 12771, "##iy": 28008, "gina": 17508, "footprints": 24629, "outburst": 27719, "[unused769]": 774, "tina": 11958, "translate": 17637, "##ids": 9821, "concurrency": 24154, "rain": 4542, "brno": 28634, "[unused901]": 906, "##pine": 19265, "1955": 3982, "bridges": 7346, "ebony": 27680, "flyer": 23821, "dated": 6052, "\u570b": 1800, "coil": 17085, "acid": 5648, "##rita": 17728, "sw": 25430, "[unused862]": 867, "402": 28048, "chapters": 9159, "frog": 10729, "launched": 3390, "obituary": 20815, "reads": 9631, "collar": 9127, "sigma": 13201, "##etta": 16549, "gen": 8991, "sanctuary": 8493, "lumber": 13891, "kevin": 4901, "160": 8148, "##movable": 25661, "confinement": 21551, "turtle": 13170, "albanian": 9408, "##vati": 20203, "chaos": 8488, "engined": 21235, "accounting": 9529, "reds": 12281, "##man": 2386, "daze": 28918, "fridays": 26587, "compliance": 12646, "withstand": 19319, "plot": 5436, "##cal": 9289, "symmetry": 14991, "sienna": 20210, "asshole": 22052, "io": 22834, "##urian": 29091, "97": 5989, "assessed": 14155, "banda": 24112, "##genesis": 23737, "neolithic": 19061, "##yoshi": 19196, "obtain": 6855, "marty": 12578, "airborne": 10519, "profitable": 15282, "transmitters": 26288, "visiting": 5873, "imagine": 5674, "caucasus": 16512, "pharaoh": 22089, "cbs": 6568, "disagreed": 18335, "mathematicians": 29374, "##\u03ba": 29726, "09": 5641, "delle": 24121, "\u674e": 1877, "##vre": 12229, "bicycle": 10165, "##lining": 16992, "forum": 7057, "parasite": 21198, "letting": 5599, "[unused232]": 237, "manner": 5450, "bi": 12170, "ross": 5811, "subdivisions": 22095, "realising": 27504, "##mini": 25300, "harbour": 7440, "carol": 8594, "walls": 3681, "offshore": 12195, "harmony": 9396, "flora": 10088, "tasked": 13487, "essendon": 25149, "[unused535]": 540, "ncaa": 5803, "##mar": 7849, "general": 2236, "renamed": 4096, "spanish": 3009, "groans": 27778, "leaving": 2975, "side": 2217, "##lles": 20434, "##nham": 20465, "promo": 19430, "landscapes": 12793, "type": 2828, "considered": 2641, "geek": 29294, "appropriations": 22713, "\u09ae": 1370, "pure": 5760, "shear": 18330, "\u0dcf": 1408, "fra": 25312, "strategy": 5656, "biking": 28899, "325": 19652, "ribbon": 10557, "plato": 18858, "mania": 29310, "employees": 5126, "vaughan": 14461, "importantly": 14780, "tad": 18819, "elimination": 9614, "consumer": 7325, "attracting": 15411, "taylor": 4202, "blu": 14154, "jonathan": 5655, "##\u0281": 29694, "rum": 19379, "agreed": 3530, "cc": 10507, "sebastien": 28328, "reflecting": 10842, "organisms": 11767, "##key": 14839, "ubiquitous": 28498, "worth": 4276, "##lellan": 25839, "unofficially": 29322, "##voking": 22776, "barton": 12975, "47th": 28243, "brasil": 21133, "chapel": 4970, "bastard": 8444, "000": 2199, "traumatic": 19686, "##udge": 15979, "overlooked": 17092, "accusations": 13519, "bucharest": 14261, "##aria": 10980, "jelly": 20919, "gulped": 25411, "##frid": 27439, "##\u056c": 29773, "valentine": 10113, "focused": 4208, "suspended": 6731, "cathedral": 5040, "andy": 5557, "coup": 8648, "qualities": 11647, "marianne": 19887, "constantine": 12790, "fortification": 23050, "electrification": 23679, "&": 1004, "brains": 14332, "##arium": 17285, "weaving": 15360, "metropolis": 18236, "ostensibly": 23734, "2003": 2494, "aforementioned": 17289, "jean": 3744, "grayson": 17556, "sadie": 21330, "##dran": 24914, "\u00a310": 26812, "293": 26953, "membrane": 10804, "implying": 20242, "downwards": 28457, "can": 2064, "##\u0631": 17149, "##ear": 14644, "minnesota": 5135, "mateo": 19327, "singers": 8453, "sway": 17812, "hauling": 23113, "kettle": 22421, "##ardo": 24649, "scattered": 7932, "messenger": 11981, "organizations": 4411, "leighton": 26873, "[unused801]": 806, "schuster": 24253, "madeline": 16974, "##\u09af": 29907, "##jic": 25008, "dolores": 21544, "##usa": 10383, "murmur": 20227, "video": 2678, "epidemic": 16311, "angela": 10413, "periods": 6993, "##rnet": 26573, "banking": 8169, "32": 3590, "endure": 18094, "##\u00aa": 29653, "woodland": 11051, "##bund": 27265, "muscle": 6740, "slot": 10453, "pen": 7279, "noisy": 20810, "chad": 9796, "trees": 3628, "document": 6254, "myles": 27056, "\u0932": 1334, "kazan": 22001, "snails": 13482, "##u": 2226, "faster": 5514, "hugo": 9395, "##\u305f": 30187, "slung": 20078, "suspects": 13172, "[unused229]": 234, "cosmic": 14448, "##around": 24490, "they": 2027, "bazaar": 22774, "km\u00b2": 3186, "putting": 5128, "australians": 15739, "cones": 23825, "##raus": 25965, "attendants": 26727, "abandoning": 19816, "9": 1023, "partnered": 12404, "bae": 25818, "jul": 21650, "subunit": 24312, "scenery": 17363, "cruel": 10311, "mystical": 17529, "milford": 22622, "panorama": 23652, "##hett": 28499, "##fixed": 23901, "##rata": 14660, "damian": 19507, "radios": 22229, "sails": 17553, "yi": 12316, "hurst": 26405, "132": 14078, "\u5ca1": 1832, "heresy": 28354, "warp": 24136, "##bird": 9001, "oskar": 28626, "establishing": 7411, "mobilization": 25580, "calculation": 17208, "kerman": 24500, "reverse": 7901, "screw": 11224, "baja": 19497, "\u2217": 1598, "drumming": 22980, "##rit": 14778, "bust": 13950, "pirates": 8350, "mandela": 26887, "ebert": 22660, "1570": 28881, "arya": 26140, "##\u4ecb": 30285, "scheduled": 5115, "silesia": 21872, "pulpit": 23134, "enhancing": 20226, "tighten": 21245, "##x": 2595, "colt": 9110, "discussing": 10537, "beef": 12486, "pale": 5122, "evans": 6473, "keen": 10326, "employ": 12666, "infirmary": 23453, "##inas": 15227, "##\u4e45": 30274, "theory": 3399, "bologna": 14102, "##eric": 22420, "##bby": 14075, "parachute": 13561, "exterior": 8829, "calcutta": 13419, "1877": 7557, "attacked": 4457, "il": 6335, "covert": 19813, "boroughs": 21413, "temple": 3379, "weaknesses": 21775, "fence": 8638, "concurrent": 16483, "avoidance": 24685, "##ssar": 25556, "striker": 11854, "278": 24709, "m2": 25525, "eun": 26070, "##tion": 3508, "nan": 16660, "murderous": 25303, "fein": 27132, "[unused536]": 541, "spreading": 9359, "priority": 9470, "buckle": 22853, "specialization": 28031, "[unused409]": 414, "transportation": 5193, "guidelines": 11594, "bourgeois": 22846, "##liche": 27412, "volcano": 12779, "328": 25256, "learning": 4083, "month": 3204, "just": 2074, "##olf": 28027, "textiles": 18762, "##ppe": 21512, "toilets": 21674, "roman": 3142, "seeing": 3773, "\u0448": 1203, "seconds": 3823, "narayan": 24331, "lahore": 15036, "1865": 6725, "[unused81]": 82, "nations": 3741, "loose": 6065, "splash": 17624, "volcanic": 10942, "dowager": 20508, "##walker": 26965, "gabby": 27183, "lily": 7094, "##ifiers": 28295, "brazilian": 6142, "\u798f": 1926, "confederate": 8055, "butt": 10007, "boxers": 18508, "advisor": 8619, "macedonian": 13037, "abduction": 23415, "terminus": 7342, "rampant": 25883, "##llins": 26655, "##far": 14971, "rare": 4678, "settled": 3876, "influencing": 25870, "relay": 8846, "deadly": 9252, "uruguayan": 23464, "errors": 10697, "050": 28714, "forehead": 6130, "classify": 26268, "##uf": 16093, "info": 18558, "1882": 7131, "int": 20014, "tempest": 22553, "care": 2729, "tanaka": 21829, "skeptical": 18386, "[unused904]": 909, "[unused381]": 386, "battalion": 4123, "rows": 10281, "##bham": 25522, "##ization": 3989, "kiss": 3610, "entrepreneurship": 20213, "fed": 7349, "soldiers": 3548, "snail": 10879, "miner": 18594, "##~": 29643, "\u7cf9": 1934, "seater": 23392, "boycott": 17757, "immortals": 26796, "##vid": 17258, "housemates": 28152, "1847": 9176, "\u2206": 1594, "upright": 10051, "##ier": 3771, "catholic": 3234, "shine": 12342, "jenks": 15119, "keeping": 4363, "postage": 22981, "majors": 15279, "irs": 25760, "fuji": 20933, "kernel": 16293, "wit": 15966, "##cend": 23865, "##\u21d2": 30119, "capacity": 3977, "corpse": 11547, "directorial": 21635, "cheyenne": 17778, "wreath": 29586, "epstein": 26646, "zebra": 29145, "##mind": 23356, "accord": 15802, "##chment": 22729, "showered": 23973, "miguel": 8374, "viii": 9937, "##planes": 26634, "pau": 29025, "reich": 14365, "integration": 8346, "recommendations": 11433, "junk": 18015, "##asurable": 28329, "filters": 17736, "automatically": 8073, "bt": 18411, "anders": 15387, "[unused771]": 776, "metacritic": 14476, "nighttime": 26031, "satellites": 14549, "##inates": 28184, "##tr": 16344, "##ao": 7113, "laboratory": 5911, "fired": 5045, "surpassed": 15602, "sable": 23492, "worry": 4737, "##gation": 12540, "tingle": 25792, "beautiful": 3376, "freddie": 15528, "clause": 11075, "##erik": 27350, "##ben": 10609, "distracted": 11116, "paula": 13723, "rounded": 8352, "thanking": 28638, "pilots": 8221, "economical": 21791, "fork": 9292, "##\u52a0": 30305, "##\u5973": 30341, "magna": 20201, "sight": 4356, "until": 2127, "##llon": 22179, "explain": 4863, "amongst": 5921, "blink": 12373, "##\u0993": 29888, "mr": 2720, "##ovic": 9142, "sexuality": 13798, "inheritance": 12839, "##heads": 13038, "ashley": 9321, "nikola": 24794, "##his": 24158, "starbucks": 29500, "affected": 5360, "honestly": 9826, "lone": 10459, "##ovsky": 21983, "station": 2276, "##yar": 13380, "dissipated": 22572, "accomplishment": 24718, "aspect": 7814, "grouping": 19765, "switzerland": 5288, "embark": 28866, "##\u0444": 29749, "thee": 14992, "sexy": 7916, "glands": 23340, "##mat": 18900, "imperative": 23934, "##ee": 4402, "ernst": 10728, "brutality": 24083, "2nd": 3416, "researchers": 6950, "hallmark": 25812, "labour": 4428, "julian": 6426, "##ites": 7616, "##rdes": 26371, "farmland": 16439, "culinary": 20560, "##oration": 21223, "instability": 18549, "recess": 28290, "influence": 3747, "##\u0621": 29815, "##\u2092": 30091, "tallest": 13747, "dave": 4913, "mit": 10210, "medicines": 20233, "##\u11a8": 30020, "provoked": 19157, "bwv": 23860, "pastures": 24813, "##\u05de": 29801, "[unused571]": 576, "contained": 4838, "jewish": 3644, "unnecessary": 14203, "seniors": 15995, "##ater": 24932, "charlemagne": 27257, "1802": 13515, "##\u057d": 29781, "unpleasant": 16010, "householder": 7536, "##rave": 22401, "##\u00ac": 29655, "##bid": 17062, "ancestral": 14947, "[unused815]": 820, "analyst": 12941, "166": 18610, "electors": 19165, "artifact": 20785, "accompanying": 10860, "##rier": 16252, "doubt": 4797, "vi": 6819, "[unused387]": 392, "##\u306e": 30197, "ammonia": 25874, "erasmus": 26809, "vault": 11632, "europeans": 13481, "leonid": 27316, "hazards": 22010, "disturbance": 16915, "##urs": 9236, "cot": 26046, "67": 6163, "1950": 3925, "contenders": 27236, "trapped": 7567, "lux": 28359, "35": 3486, "##pm": 9737, "tehsil": 20751, "##41": 23632, "ctv": 28720, "##missible": 26770, "oxford": 4345, "remarkable": 9487, "apt": 26794, "fitted": 7130, "bluff": 14441, "hangar": 18284, "fronts": 21430, "remembers": 17749, "pictorial": 28304, "problems": 3471, "hunts": 28526, "philadelphia": 4407, "imp": 17727, "growth": 3930, "##\u25aa": 30145, "barefoot": 22985, "reddy": 18998, "honoured": 15546, "[unused626]": 631, "##\u10d7": 29980, "highest": 3284, "lila": 19286, "2010s": 26817, "resided": 12427, "maestro": 25270, "##omy": 16940, "[unused71]": 72, "parked": 9083, "regulation": 7816, "bethany": 16559, "traffic": 4026, "altar": 9216, "##drop": 25711, "\u304b": 1651, "iraq": 5712, "##\u30cb": 30242, "pierce": 9267, "\u6728": 1875, "synagogue": 13067, "catcher": 13795, "champs": 29008, "1986": 3069, "mobile": 4684, "revenge": 7195, "knocked": 6573, "stanford": 8422, "[unused92]": 93, "##cate": 16280, "verde": 16184, "shipyard": 13858, "dempsey": 28165, "ml": 19875, "straight": 3442, "##tor": 4263, "seals": 13945, "izzy": 16699, "##hari": 18428, "[unused19]": 20, "labeling": 28847, "maids": 29229, "1655": 28438, "anthropology": 12795, "quad": 17718, "thessaloniki": 23162, "##brush": 18623, "##diment": 21341, "vet": 29525, "allowed": 3039, "trains": 4499, "emperors": 19655, "novels": 6002, "chocolate": 7967, "infused": 29592, "quantitative": 20155, "sniffed": 18013, "madison": 7063, "troubles": 13460, "branded": 11180, "joined": 2587, "sadness": 12039, "happiness": 8404, "##\u6ca2": 30424, "##ucible": 21104, "obligations": 14422, "even": 2130, "##cs": 6169, "77": 6255, "elaborate": 9603, "harbor": 6496, "dared": 15048, "christmas": 4234, "##\u09ad": 29905, "revelations": 22191, "reared": 23295, "##mi": 4328, "calling": 4214, "opted": 12132, "harmon": 25546, "\u304f": 1653, "protruding": 23868, "fugitive": 21329, "quarrel": 26260, "##skaya": 23070, "businessmen": 17353, "hound": 19598, "opium": 21075, "millennia": 27620, "herb": 12810, "##founded": 21001, "bragg": 23678, "aquitaine": 24973, "restriction": 16840, "tears": 4000, "colin": 6972, "drawings": 9254, "wizards": 16657, "govt": 22410, "om": 18168, "sydney": 3994, "duo": 6829, "impressions": 19221, "grinning": 11478, "[unused987]": 992, "upside": 14961, "hon": 10189, "repeatedly": 8385, "tor": 17153, "witty": 25591, "branding": 16140, "polling": 17888, "orientation": 10296, "##ignant": 25593, "favorably": 27597, "perception": 10617, "##\u0459": 29762, "chairs": 8397, "sweeney": 21178, "\u00b0": 1080, "[unused414]": 419, "hide": 5342, "161": 17365, "[unused21]": 22, "engage": 8526, "##runa": 26605, "##kon": 19648, "newbury": 29457, "awakened": 20256, "lot": 2843, "##nie": 8034, "ho": 7570, "##mma": 14760, "foe": 22277, "##ws": 9333, "commemoration": 22377, "##nia": 6200, "bits": 9017, "sob": 17540, "##\u2015": 30053, "mechanisms": 10595, "[unused435]": 440, "added": 2794, "indicative": 24668, "\u1d50": 1502, "[unused610]": 615, "islands": 3470, "realises": 25924, "yale": 7996, "##lovic": 29356, "formations": 13197, "landmarks": 16209, "casinos": 27300, "\u05e3": 1260, "nodded": 3368, "##nis": 8977, "provost": 18523, "dominate": 16083, "conversion": 7584, "cheshire": 13789, "supernatural": 11189, "freaking": 13847, "clenched": 8555, "mauritius": 18004, "laugh": 4756, "##ord": 8551, "##erate": 22139, "poetry": 4623, "burton": 9658, "fitzgerald": 11864, "poisoned": 17672, "2018": 2760, "\u0965": 1345, "square": 2675, "diana": 8805, "saves": 13169, "[unused806]": 811, "##nr": 16118, "##alle": 24164, "\u20b1": 1575, "indicates": 7127, "##gni": 29076, "mate": 6775, "groundwater": 22761, "milton": 9660, "vowed": 18152, "hardship": 26479, "##cked": 18141, "sculpted": 19921, "introduces": 13999, "##stone": 9221, "commitment": 8426, "wasp": 19411, "awarded": 3018, "limestone": 9771, "presenter": 10044, "aside": 4998, "##emia": 17577, "8": 1022, "##ito": 9956, "collected": 5067, "hides": 17382, "accompany": 12673, "scalp": 21065, "rubbed": 7503, "ming": 11861, "strasbourg": 18104, "christy": 21550, "guiana": 23568, "sheet": 7123, "\u2113": 1577, "jonny": 26937, "licenses": 15943, "gaul": 26522, "jesuits": 20297, "##\u304d": 30178, "antigen": 28873, "thief": 12383, "mountains": 4020, "stud": 16054, "[unused754]": 759, "ignorance": 18173, "##insky": 20894, "##old": 11614, "\u4eba": 1756, "beyonce": 20773, "spilling": 18054, "barr": 19820, "##edes": 18352, "nakamura": 23981, "##ital": 18400, "##ahu": 21463, "injection": 13341, "patriotic": 14314, "groin": 20092, "ashby": 28729, "nun": 16634, "defences": 16828, "keepers": 24018, "caden": 23600, "retention": 20125, "configuration": 9563, "apache": 15895, "estates": 8707, "racist": 16939, "bail": 15358, "jogging": 28233, "another": 2178, "##\u09a1": 29896, "minh": 19538, "discount": 19575, "##marine": 21966, "##\u0989": 29886, "regaining": 28657, "acceptable": 11701, "##gun": 12734, "valerie": 14264, "quoted": 9339, "remixes": 15193, "1982": 3196, "struggled": 6915, "shotgun": 13305, "patiently": 19080, "coherent": 18920, "stalls": 19753, "shortlisted": 21353, "natal": 17489, "hangul": 19051, "jena": 27510, "##ales": 23266, "fashioned": 13405, "kaitlyn": 28584, "foxes": 24623, "coke": 14492, "celtics": 23279, "##\u1161": 30006, "selecting": 17739, "deemed": 8357, "readiness": 19822, "43": 4724, "iceland": 10399, "admiral": 5902, "microscope": 24635, "\u90e8": 1960, "##\u0649": 29837, "rico": 7043, "redevelopment": 15582, "##aldo": 27318, "certification": 10618, "forged": 16158, "objections": 17304, "darryl": 22821, "notwithstanding": 26206, "cows": 17188, "##kong": 25460, "emancipation": 22656, "##ite": 4221, "protege": 28567, "performs": 10438, "eggs": 6763, "activities": 3450, "publication": 4772, "slam": 9555, "epsilon": 28038, "aids": 8387, "shuddered": 13937, "suppress": 16081, "hurts": 13403, "northward": 17192, "[unused866]": 871, "physically": 8186, "maldives": 25059, "##rang": 24388, "20s": 27074, "terraces": 25633, "##fur": 27942, "regiments": 10435, "requires": 5942, "televised": 13762, "natasha": 17399, "dietrich": 22567, "yin": 18208, "boredom": 29556, "foraging": 26912, "##\u8c37": 30477, "pedestal": 24496, "interpreted": 10009, "\u4f50": 1764, "tens": 15295, "goodbye": 9119, "ceasefire": 26277, "islamic": 5499, "bone": 5923, "endemic": 7320, "goddard": 22547, "1715": 22606, "[unused574]": 579, "mannheim": 25116, "##nd": 4859, "##shot": 19040, "[unused604]": 609, "alexei": 21219, "##dhar": 25632, "subconscious": 27952, "carthage": 21959, "peerage": 18760, "disbanded": 8532, "fighting": 3554, "blow": 6271, "dunne": 26553, "bean": 14068, "##zow": 22670, "bandits": 19088, "##hiti": 27798, "rebelled": 25183, "volta": 26089, "##mas": 9335, "da": 4830, "sore": 14699, "##inations": 22045, "sunk": 10417, "snort": 26759, "fortunate": 19590, "pinch": 18392, "[unused814]": 819, "enraged": 18835, "drained": 11055, "\u300f": 1644, "timely": 23259, "zee": 23727, "indications": 24936, "passageway": 27336, "gospels": 24131, "rock": 2600, "##ically": 15004, "iteration": 27758, "##\u4ebb": 30283, "garner": 18661, "allegheny": 21192, "unfortunate": 15140, "humphrey": 15462, "sorted": 19616, "##amina": 27651, "direction": 3257, "slate": 12796, "adequately": 23613, "gradual": 16612, "amendment": 7450, "clutched": 13514, "390": 20024, "bands": 4996, "congenital": 27480, "benefactor": 27398, "consolidated": 10495, "ridges": 16386, "[unused808]": 813, "greatly": 6551, "##sett": 21678, "stabilization": 28715, "pity": 12063, "##tine": 10196, "protecting": 8650, "immigration": 7521, "wonders": 16278, "##ni": 3490, "alexandria": 10297, "ing": 13749, "##\u0578": 29779, "cubic": 11919, "\u5834": 1806, "[unused902]": 907, "epa": 19044, "\u05de": 1255, "[unused35]": 36, "comb": 22863, "pronouns": 26028, "multiplication": 24856, "albeit": 12167, "##\u1165": 30008, "strengthen": 12919, "ejected": 22607, "contender": 20127, "task": 4708, "vedic": 25824, "##gned": 19225, "##fa": 7011, "sake": 8739, "biotechnology": 20353, "marina": 9985, "coulter": 28293, "prince": 3159, "iq": 26264, "lucas": 6326, "\u06cc": 1309, "abilities": 7590, "patrol": 6477, "ambitious": 12479, "internship": 22676, "##stead": 25647, "rama": 14115, "##bell": 17327, "flaps": 26570, "huh": 9616, "nursery": 13640, "noctuidae": 24893, "##graphic": 14773, "1855": 8492, "amazement": 21606, "reece": 24227, "hypothesis": 10744, "gs": 28177, "concordia": 24982, "emanuel": 21135, "nights": 6385, "##active": 19620, "[unused587]": 592, "hasty": 27151, "images": 4871, "bohemia": 16799, "styx": 21856, "roof": 4412, "clean": 4550, "##oted": 27428, "##\u05dd": 29800, "##\u300d": 30168, "television": 2547, "evie": 26400, "laden": 14887, "##ndon": 19333, "flashback": 21907, "##ption": 16790, "pauline": 15595, "glow": 8652, "operative": 12160, "arbitration": 18010, "wolverhampton": 20085, "insight": 12369, "##dya": 25838, "headmaster": 16296, "cemeteries": 20973, "[unused260]": 265, "reluctant": 11542, "trilogy": 11544, "mig": 19117, "surveillance": 9867, "##\u2016": 30054, "interpret": 17841, "strange": 4326, "stations": 3703, "impacted": 19209, "##\u0e17": 29948, "1929": 4612, "josh": 6498, "eras": 28500, "1870": 6940, "leapt": 13920, "nap": 18996, "estate": 3776, "quotes": 16614, "acacia": 24766, "##ccus": 27631, "loretta": 28493, "gaze": 3657, "[unused856]": 861, "hull": 6738, "autumn": 7114, "preventing": 10723, "howard": 4922, "stating": 5517, "##dad": 14697, "##oton": 25862, "obstruction": 27208, "vernon": 11447, "install": 16500, "barns": 25684, "##house": 4580, "lorraine": 13895, "landon": 20642, "botswana": 19414, "##charged": 22620, "chapter": 3127, "##\u3057": 30183, "##\u0562": 29767, "fullback": 21803, "chromosomes": 26874, "##thes": 24138, "griffiths": 21960, "smartphone": 26381, "stubborn": 14205, "polymer": 17782, "chang": 11132, "##isse": 23491, "unfair": 15571, "faa": 17032, "bonaparte": 20830, "[unused886]": 891, "handwriting": 24149, "vs": 5443, "##mbling": 29256, "[unused631]": 636, "satisfying": 17087, "##enter": 29110, "wexford": 23121, "superiors": 22983, "redwood": 27552, "##boot": 27927, "##selle": 19358, "celebrity": 8958, "laced": 17958, "hitch": 27738, "trojan": 23445, "##\u05dc": 29799, "hoisted": 27269, "##ub": 12083, "##west": 19650, "[unused46]": 47, "lengthy": 12401, "##cles": 18954, "##raph": 24342, "##dity": 25469, "joo": 28576, "impulse": 14982, "##adi": 17190, "impacts": 14670, "tibet": 13319, "eyes": 2159, "stockholm": 8947, "tent": 9311, "creaked": 28068, "place": 2173, "trout": 13452, "##outs": 12166, "housekeeper": 22583, "outlet": 13307, "cleaner": 20133, "destruction": 6215, "shaw": 8233, "irving": 12415, "##garh": 13484, "botany": 17018, "graceful": 19415, "experiencing": 13417, "curses": 23897, "1632": 28216, "##fight": 20450, "##urse": 28393, "engineered": 13685, "##press": 20110, "##hip": 5605, "orioles": 18893, "squash": 18794, "stomped": 21918, "##eaux": 25639, "##jian": 27685, "bandages": 27993, "rockwell": 25235, "shirley": 11280, "pounded": 13750, "##eza": 28640, "\u2090": 1560, "trois": 25527, "spencer": 7084, "unseen": 16100, "ops": 23092, "##hein": 26496, "settler": 18556, "jurisprudence": 24697, "brodie": 27379, "illustrate": 19141, "##sch": 11624, "enacted": 11955, "[unused4]": 5, "whoever": 9444, "ds": 16233, "##mun": 23041, "entered": 3133, "shielding": 25553, "shining": 9716, "##che": 5403, "##baum": 14898, "##\u30c1": 30236, "##\u1d49": 30035, "probation": 19703, "tossed": 7463, "gestapo": 26446, "vols": 18709, "amusement": 9778, "womb": 26578, "rivers": 5485, "attribute": 17961, "##edge": 24225, "kingdoms": 12028, "rises": 9466, "##twined": 21077, "formidable": 18085, "##\u092f": 29868, "43rd": 25747, "##io": 3695, "apprehension": 25809, "chesterfield": 22699, "algebraic": 17390, "motorcycles": 18580, "##\u0627": 25573, "pianos": 27864, "##ayo": 28852, "##\u0458": 29761, "troubled": 11587, "rabbis": 25602, "oxfordshire": 20124, "stamps": 12133, "starring": 4626, "similarities": 12319, "grossed": 17500, "##ldon": 19932, "##\u03c3": 29733, "apparent": 6835, "virtual": 7484, "79": 6535, "apparel": 26278, "supplementary": 26215, "410": 19151, "breakers": 24742, "congressional": 7740, "myths": 17218, "corbin": 24003, "deviation": 24353, "shorter": 7820, "wichita": 18614, "\u2191": 1584, "fences": 21549, "cheat": 21910, "enfield": 25821, "##\u9f8d": 30508, "double": 3313, "horizons": 24484, "##cap": 17695, "fever": 9016, "defect": 21262, "prevalent": 15157, "gaping": 21226, "zeus": 15208, "lettering": 25782, "rc": 22110, "myspace": 24927, "zen": 16729, "##omics": 25524, "completes": 28123, "cities": 3655, "zhou": 14367, "pitching": 14696, "uninhabited": 24749, "park": 2380, "immunity": 15403, "proximity": 10039, "##pta": 22799, "mandal": 24373, "gaa": 19930, "sense": 3168, "##iza": 21335, "450": 10332, "fluttered": 18360, "chicago": 3190, "##ek": 5937, "dresser": 16641, "##rum": 6824, "##pper": 18620, "proportions": 19173, "rana": 22175, "1723": 26621, "##eft": 29218, "##\u3080": 30205, "explanations": 17959, "harrington": 19760, "41st": 24233, "motioned": 13054, "smiley": 27420, "ol": 19330, "##\u00be": 29665, "vamps": 24064, "bounce": 17523, "baseman": 18038, "##tur": 20689, "##oic": 19419, "##rift": 16338, "creek": 3636, "vulcan": 25993, "generation": 4245, "asa": 17306, "voted": 5444, "camping": 13215, "proficient": 27029, "recalls": 17722, "##oo": 9541, "chrome": 18546, "[unused127]": 132, "indicator": 17245, "flames": 7311, "caress": 21753, "[unused664]": 669, "layout": 9621, "##zone": 15975, "positions": 4460, "##mental": 26901, "##ains": 28247, "##wal": 13476, "tensed": 15225, "44th": 26409, "countered": 17970, "annoyance": 17466, "buddhist": 7992, "skip": 13558, "serbs": 16757, "blindly": 25734, "adopt": 11092, "##dlow": 27002, "geoffrey": 11023, "[unused299]": 304, "heather": 9533, "##rica": 14735, "exploitation": 14427, "##ask": 19895, "deformation": 29130, "##\u03c1": 29732, "chains": 8859, "podcast": 16110, "ivan": 7332, "winds": 7266, "shower": 6457, "soundtrack": 6050, "fibers": 16662, "madden": 24890, "applied": 4162, "pilgrimage": 14741, "winged": 14462, "bethlehem": 19360, "ren": 14916, "maiden": 10494, "##wt": 26677, "jim": 3958, "retaining": 12823, "lateral": 11457, "intriguing": 23824, "mechanism": 7337, "##ield": 12891, "traders": 13066, "bilateral": 17758, "arrow": 8612, "twenties": 18946, "flicking": 26259, "kassel": 27884, "monterey": 19860, "captives": 21496, "garden": 3871, "nothin": 24218, "ami": 26445, "youngest": 6587, "##mer": 5017, "concentrations": 14061, "nipple": 14298, "fuck": 6616, "doctrine": 8998, "##mot": 18938, "pajamas": 27621, "successful": 3144, "intake": 13822, "applies": 12033, "exceeded": 14872, "##tist": 16774, "wong": 11789, "##uca": 18100, "\u0964": 1344, "palmer": 8809, "##mers": 16862, "diamonds": 11719, "unreasonable": 29205, "##storm": 19718, "defected": 26330, "##\u0445": 29750, "wicked": 10433, "suffrage": 15178, "\u03c4": 1174, "1734": 27367, "submitted": 7864, "bury": 11010, "susie": 23917, "[unused395]": 400, "cum": 13988, "##uis": 27020, "[unused700]": 705, "spending": 5938, "intervene": 18793, "##ero": 10624, "ton": 10228, "thoughts": 4301, "sealing": 23038, "trailed": 11145, "##ous": 3560, "1981": 3261, "radar": 7217, "##\u1d62": 19109, "border": 3675, "shen": 21882, "[unused109]": 114, "remembering": 10397, "gazing": 16448, "##cise": 18380, "ongoing": 7552, "resemble": 13014, "##\u116a": 30012, "\u201c": 1523, "##\u661f": 30392, "bowling": 9116, "shu": 18454, "fujian": 29551, "chanting": 22417, "wires": 14666, "sadler": 29012, "\u20a9": 1573, "slumped": 14319, "commentaries": 21241, "countdown": 18144, "\u3042": 1646, "gotham": 22814, "looming": 23430, "deluxe": 15203, "##ost": 14122, "consul": 11801, "winnie": 27125, "hiring": 14763, "pu": 16405, "1656": 28434, "me": 2033, "##uche": 19140, "[unused355]": 360, "maneuver": 17519, "endeavors": 28809, "##jad": 27875, "[unused627]": 632, "fide": 26000, "\u0274": 1124, "##haus": 13821, "hose": 21290, "##val": 10175, "##inge": 23496, "subjected": 13532, "minsk": 20790, "[unused717]": 722, "darcy": 17685, "spaniards": 20999, "##zek": 24506, "vacancy": 15619, "##\u00b7": 29661, "1889": 6478, "##lp": 14277, "newsweek": 26948, "kinds": 7957, "rehearsal": 17887, "raju": 25098, "jumper": 21097, "boyer": 23456, "##pate": 17585, "hartford": 13381, "proto": 15053, "##ddle": 20338, "mayors": 21941, "prized": 25695, "taiwan": 6629, "##lent": 16136, "statistics": 6747, "yarn": 27158, "analog": 11698, "roche": 20162, "1985": 3106, "[unused244]": 249, "separated": 5459, "\u4e5f": 1750, "##pire": 20781, "##promising": 25013, "rattling": 26347, "poker": 11662, "1797": 14112, "enough": 2438, "326": 28188, "1712": 28460, "146": 16333, "[unused254]": 259, "##wn": 7962, "1870s": 14896, "benny": 11945, "##ott": 14517, "##ita": 6590, "patterns": 7060, "midlands": 13256, "lama": 18832, "graphics": 8389, "shards": 23327, "diverse": 7578, "replication": 21647, "##hosh": 26643, "jerseys": 28772, "biomedical": 20906, "austin": 5899, "colonies": 8355, "attained": 12754, "from": 2013, "entrepreneur": 10670, "flinch": 23224, "equations": 11380, "lizards": 23898, "[unused660]": 665, "georgian": 9166, "fabio": 25616, "mammal": 25476, "unison": 18732, "mounted": 5614, "bases": 7888, "mainline": 20575, "roderick": 28326, "newtown": 26382, "troy": 9553, "reportedly": 7283, "donate": 21357, "estonian": 12029, "assessing": 20077, "smug": 20673, "hispanic": 6696, "avoiding": 9992, "licked": 11181, "minister": 2704, "200": 3263, "pushing": 6183, "augusto": 29085, "secretary": 3187, "victorian": 6652, "##erina": 26052, "percentage": 7017, "attacks": 4491, "premium": 12882, "##onda": 29067, "enrico": 21982, "shrubs": 18812, "relief": 4335, "rapper": 10687, "explosive": 11355, "breaker": 24733, "\u4ee3": 1760, "bengal": 8191, "##oda": 13390, "kb": 21677, "mammals": 11993, "sighed": 5489, "##cho": 9905, "[unused944]": 949, "commission": 3222, "##jn": 22895, "soloists": 27516, "moth": 5820, "interval": 13483, "##vet": 19510, "wasps": 23146, "##opus": 24676, "clare": 11152, "canada": 2710, "##gut": 27920, "##\u05d9": 29796, "ace": 9078, "sporting": 7419, "##icative": 25184, "handkerchief": 23975, "[unused832]": 837, "critic": 6232, "##ars": 11650, "colby": 18650, "slight": 7263, "[unused763]": 768, "metals": 11970, "404": 24837, "bodyguards": 25681, "1938": 4260, "##vern": 23062, "trolls": 27980, "rides": 12271, "taiwanese": 16539, "vaults": 28658, "dwell": 23120, "##rna": 12789, "blackish": 22032, "##\u2f65": 30160, "\u0289": 1131, "yet": 2664, "##kshi": 27488, "zionist": 21379, "spaceship": 25516, "hammer": 8691, "alarm": 8598, "hopper": 20517, "unexpected": 9223, "compete": 5566, "##gli": 25394, "graduating": 6800, "##uted": 12926, "daughter": 2684, "faerie": 27498, "##\u702c": 30431, "newport": 9464, "##cha": 7507, "[unused316]": 321, "treatments": 13441, "hawker": 23937, "ski": 8301, "possesses": 14882, "unique": 4310, "julio": 15090, "02": 6185, "bianca": 18051, "\u653f": 1860, "##\u0628": 29816, "palestinian": 9302, "[unused843]": 848, "##nay": 16741, "loop": 7077, "travelers": 15183, "dice": 18740, "newscast": 20306, "1747": 24522, "define": 9375, "fooled": 25857, "mining": 5471, "\u00bf": 1094, "gamma": 13091, "avalon": 18973, "charley": 20430, "##\u674e": 30403, "homage": 14822, "##bina": 21114, "\u09a4": 1362, "golf": 5439, "vhs": 17550, "tray": 11851, "table": 2795, "barrett": 12712, "##vc": 25465, "chuckles": 26088, "leash": 26834, "##uous": 8918, "quartet": 8530, "##ution": 13700, "journal": 3485, "\u1d49": 1499, "solids": 26778, "jude": 12582, "split": 3975, "550": 13274, "##yd": 25688, "aaron": 7158, "gets": 4152, "341": 28358, "routinely": 19974, "##ca": 3540, "dl": 21469, "\u540c": 1794, "telugu": 12180, "milos": 26038, "persuasion": 27577, "shrines": 22562, "\\": 1032, "\u02e4": 1154, "costs": 5366, "restrained": 19868, "restarted": 25606, "academie": 19669, "##ichi": 11319, "acquiring": 13868, "##the": 10760, "carriers": 11363, "geometridae": 24687, "##wil": 29602, "guts": 18453, "granite": 9753, "arises": 18653, "michigan": 4174, "elevated": 8319, "chateau": 11874, "detailing": 17555, "rey": 12569, "supermarkets": 26676, "use": 2224, "##drik": 28730, "circulated": 17640, "rebuilt": 7183, "swing": 7370, "collects": 17427, "##back": 5963, "aryan": 26030, "##etano": 28752, "1682": 29478, "##year": 29100, "ingrid": 22093, "helps": 7126, "[unused340]": 345, "reginald": 14435, "sicilian": 22584, "benefits": 6666, "summers": 10945, "archdeacon": 21742, "##usia": 24118, "stalin": 13125, "##dee": 26095, "##\u25cf": 30146, "sectional": 27197, "seychelles": 27438, "green": 2665, "\u02be": 1147, "zoe": 11199, "midland": 12240, "annette": 22521, "##\u0f42": 29962, "amelie": 25285, "walked": 2939, "\u044c": 1207, "job": 3105, "brenda": 15507, "seismic": 22630, "among": 2426, "shouts": 15701, "graeme": 21840, "101": 7886, "greenville": 20967, "tao": 20216, "date": 3058, "[unused709]": 714, "##kawa": 13069, "sonata": 14681, "diploma": 9827, "project": 2622, "unopposed": 17123, "permanently": 8642, "rhythm": 6348, "##taka": 28412, "##hem": 29122, "##eborg": 27614, "disdain": 25134, "pageant": 12438, "[unused373]": 378, "athletic": 5188, "repertoire": 13646, "sol": 14017, "scientology": 23845, "covering": 5266, "gregorian": 25847, "aggregator": 24089, "##rth": 15265, "fetal": 25972, "unicode": 27260, "italiana": 28059, "##lene": 11474, "inclined": 13050, "honourable": 17164, "crying": 6933, "serum": 20194, "##oll": 14511, "exhaustion": 15575, "hydro": 18479, "##rson": 17753, "cortes": 22242, "maximum": 4555, "ratings": 8599, "earthquakes": 17932, "sale": 5096, "pistol": 8779, "portal": 9445, "preserved": 6560, "##logist": 10727, "##rek": 16816, "gonzalez": 10121, "well": 2092, "billing": 25640, "ohio": 4058, "aviator": 24035, "fearful": 19725, "large": 2312, "riding": 5559, "bubba": 19606, "teams": 2780, "olsen": 18997, "mcdonnell": 23149, "johan": 13093, "von": 3854, "recent": 3522, "##0": 2692, "investigating": 11538, "411": 27517, "158": 17696, "tunis": 25317, "wedding": 5030, "aerial": 9682, "issuing": 15089, "loud": 5189, "yanked": 10963, "compression": 13379, "[unused490]": 495, "teeth": 4091, "scoop": 23348, "punch": 8595, "peptide": 25117, "##all": 8095, "result": 2765, "gazes": 23514, "jade": 12323, "##cut": 12690, "akbar": 20730, "safety": 3808, "picking": 8130, "marcelo": 24984, "mahmud": 25886, "bodily": 20445, "erebidae": 25875, "##andra": 29159, "taking": 2635, "larger": 3469, "brooklyn": 6613, "concerts": 6759, "backgrounds": 15406, "instances": 12107, "gallagher": 17297, "builders": 16472, "parkway": 12602, "##ssion": 28231, "enlightenment": 16724, "##tres": 19168, "squares": 14320, "cruiser": 10844, "##tase": 18260, "oro": 20298, "##ional": 19301, "acclaim": 10761, "##sam": 21559, "deaf": 12419, "puerto": 5984, "analogue": 21800, "platt": 28005, "deciding": 10561, "bey": 20289, "unfolded": 23959, "victories": 9248, "gorman": 25693, "[unused609]": 614, "contentious": 29308, "conductor": 7589, "controls": 7711, "highways": 10292, "ceramics": 17314, "##venting": 26703, "hyderabad": 13624, "guadalupe": 23529, "ter": 28774, "ronald": 8923, "assisted": 7197, "indie": 10271, "##hum": 28600, "frederic": 15296, "heavenly": 16581, "\u09b2": 1373, "##/": 29626, "adjustable": 26404, "refusal": 13948, "##harat": 28074, "##tro": 13181, "reindeer": 29495, "holy": 4151, "hesitation": 13431, "assumptions": 17568, "\u0e2a": 1420, "peppers": 23582, "rice": 5785, "yoga": 13272, "fortunately": 14599, "zu": 16950, "##\u0111": 29671, "grassland": 20331, "worship": 7425, "chow": 20209, "antigua": 26023, "##\u0252": 29678, "paradise": 9097, "uniforms": 11408, "reissue": 17173, "1760": 19096, "ab": 11113, "boris": 11235, "ideas": 4784, "elected": 2700, "##iate": 13143, "##ener": 24454, "rake": 26008, "managers": 10489, "chihuahua": 28480, "assassinated": 16370, "brigade": 4250, "leon": 6506, "administratively": 23710, "shack": 22200, "licence": 11172, "brakes": 13627, "erroneously": 29411, "react": 10509, "##pa": 4502, "encore": 19493, "##200": 28332, "hospital": 2902, "bending": 14457, "vehicles": 4683, "##eres": 18702, "##\u30b3": 30230, "identified": 4453, "comic": 5021, "##tly": 14626, "193": 19984, "kidd": 25358, "bankers": 25375, "yeomanry": 26883, "mentoring": 29192, "\u4e95": 1754, "##kes": 9681, "earthquake": 8372, "utilizing": 16911, "herbs": 17561, "##hg": 25619, "trim": 12241, "\u0d9a": 1403, "challenges": 7860, "coma": 16571, "asthma": 26180, "##yna": 18279, "commercials": 12698, "det": 20010, "saints": 6586, "serves": 4240, "recorded": 2680, "##dine": 10672, "hire": 10887, "breakfast": 6350, "##off": 7245, "shirts": 11344, "wilkinson": 16237, "##ogical": 20734, "islamabad": 26905, "##\u1105": 29994, "##ulla": 22187, "volcanoes": 23694, "dinners": 29236, "##get": 18150, "centuries": 4693, "pockets": 10306, "forest": 3224, "canadiens": 21247, "##ua": 6692, "##agh": 17988, "mcdowell": 25005, "janeiro": 11497, "wood": 3536, "dawn": 6440, "##pled": 21132, "##\u0bc7": 29934, "nightmare": 10103, "covered": 3139, "##personal": 28823, "hu": 15876, "difficulty": 7669, "rex": 10151, "mina": 19808, "helmut": 24515, "##graphy": 12565, "exhaled": 16242, "working": 2551, "[unused227]": 232, "usl": 22448, "goo": 27571, "looting": 29367, "##ob": 16429, "producing": 5155, "##44": 22932, "knob": 16859, "jan": 5553, "##\u0906": 29848, "##\u11b8": 30024, "genoa": 15771, "fritz": 12880, "transferring": 14391, "knowledge": 3716, "internacional": 27607, "dismounted": 29580, "##\u0dbd": 29942, "framework": 7705, "halloween": 14414, "falls": 4212, "condition": 4650, "##\u2091": 30090, "disposal": 13148, "elegance": 27745, "##\u116f": 30015, "rai": 15547, "vine": 15351, "saliva": 26308, "hacking": 23707, "##sun": 19729, "##osphere": 25444, "hurry": 9241, "\u30cb": 1716, "database": 7809, "gunter": 27834, "openly": 10132, "wetlands": 16630, "vikram": 29063, "salzburg": 18369, "inflammatory": 20187, "thankfully": 16047, "militant": 16830, "ligand": 27854, "supporters": 6793, "gradient": 17978, "drawn": 4567, "traveled": 6158, "collaborator": 18843, "challenged": 8315, "##isk": 20573, "nomination": 6488, "foundry": 19853, "hicks": 17221, "softly": 5238, "bolts": 19947, "belinda": 24574, "philippines": 5137, "\u1019": 1437, "factual": 25854, "ignacio": 22988, "##oper": 25918, "pendleton": 24349, "superstar": 18795, "insulation": 25710, "frantically": 16460, "tae": 22297, "appeal": 5574, "incredible": 9788, "sin": 8254, "vanishing": 24866, "sutherland": 14274, "institution": 5145, "while": 2096, "probability": 9723, "morales": 17103, "bush": 5747, "rotary": 16933, "##ghan": 22218, "arsenic": 29596, "##dr": 13626, "##uts": 16446, "throw": 5466, "phoenix": 6708, "remove": 6366, "spheres": 19885, "masonry": 18103, "siegfried": 25948, "redesigned": 17051, "perez": 10730, "vanuatu": 27625, "##ny": 4890, "\u05d8": 1249, "callie": 20072, "la": 2474, "konstantin": 23989, "utilize": 16462, "##rwood": 20941, "achilles": 23167, "[unused852]": 857, "rollins": 23502, "range": 2846, "[unused922]": 927, "swiss": 5364, "guides": 12468, "415": 24690, "\u3078": 1675, "moons": 23377, "greg": 6754, "watershed": 12547, "surprising": 11341, "mariano": 22695, "marvel": 8348, "sharif": 20351, "##lde": 17920, "##fers": 24396, "scaling": 25169, "uniformed": 25189, "emphasized": 13155, "##ulates": 18969, "eyre": 26975, "##hta": 22893, "abbey": 6103, "faded": 8105, "alpha": 6541, "##pped": 11469, "messaging": 24732, "tho": 27793, "pts": 19637, "century": 2301, "send": 4604, "##\u82f1": 30467, "fate": 6580, "undergo": 13595, "segunda": 19071, "discovering": 13648, "currents": 14731, "photograph": 9982, "emmanuel": 14459, "camilla": 26902, "indies": 9429, "drafted": 7462, "followed": 2628, "walled": 17692, "margaret": 5545, "bliss": 13670, "riaa": 22716, "72": 5824, "hilary": 22744, "seekers": 24071, "bumped": 19030, "decision": 3247, "damage": 4053, "[unused559]": 564, "presents": 7534, "bent": 6260, "popularity": 6217, "1972": 3285, "##mc": 12458, "inuit": 25179, "##grating": 28183, "rustic": 27471, "maru": 26280, "moran": 17866, "argues": 9251, "##ada": 8447, "##marks": 27373, "raged": 28374, "musician": 5455, "ap": 9706, "blinked": 7948, "##rize": 25709, "amin": 24432, "davies": 9082, "davidson": 12017, "##uge": 22890, "##optera": 25324, "\u09b6": 1374, "##\u308d": 30215, "40": 2871, "ledge": 18283, "breast": 7388, "enabling": 12067, "tram": 12517, "quota": 20563, "fundraising": 15524, "andersson": 28643, "dissertation": 14481, "amusing": 19142, "complaints": 10821, "capitals": 15433, "employed": 4846, "picture": 3861, "related": 3141, "trans": 9099, "[unused756]": 761, "kissing": 7618, "lush": 16299, "harmed": 25596, "tampa": 9925, "warm": 4010, "sur": 7505, "microwave": 18302, "pc": 7473, "##\u0430": 10260, "turkish": 5037, "parents": 3008, "##\u9999": 30505, "lobster": 27940, "##omorphic": 28503, "jozef": 23258, "clumsy": 22902, "upheld": 16813, "[unused826]": 831, "tentacles": 24719, "##\u0f66": 29972, "hole": 4920, "fuse": 19976, "humboldt": 19249, "arab": 5424, "hyper": 23760, "##oslav": 23085, "shoot": 5607, "##sau": 23823, "stagecoach": 26025, "##lten": 29005, "##foot": 13064, "pharmacy": 13882, "##urus": 20089, "iihf": 26904, "guitarist": 5990, "answer": 3437, "desperately": 9652, "##sable": 19150, "texture": 14902, "mills": 6341, "manning": 11956, "mri": 27011, "##wife": 19993, "rightful": 27167, "##hner": 28989, "there": 2045, "advocating": 20324, "harold": 7157, "retailer": 20196, "okinawa": 15052, "contents": 8417, "sunday": 4465, "writhing": 26185, "automated": 12978, "##away": 9497, "tokugawa": 22065, "positively": 13567, "##hly": 27732, "corporations": 11578, "rockets": 12496, "undead": 17315, "realise": 19148, "theoretically": 22634, "magistrates": 23007, "stale": 26729, "beaux": 20290, "invaded": 10836, "tunnels": 10633, "cart": 11122, "trusted": 9480, "jp": 16545, "13th": 6122, "##iti": 25090, "##\u5c1a": 30356, "stigma": 26453, "##urai": 24804, "\u3080": 1679, "theater": 4258, "audi": 20075, "##rut": 22134, "query": 23032, "aaa": 13360, "writer": 3213, "manhattan": 7128, "hunted": 14682, "1635": 27426, "papacy": 25097, "trademark": 11749, "wiltshire": 17045, "##cl": 20464, "wi": 15536, "feeder": 21429, "blurred": 18449, "voyage": 8774, "saxophonist": 19977, "[unused773]": 778, "jeans": 6312, "\u060c": 1268, "tree": 3392, "consuming": 15077, "fracture": 19583, "scrape": 26988, "gestured": 11574, "##culus": 28703, "##\u3051": 30180, "##48": 18139, "moscow": 4924, "lockheed": 17646, "annex": 17827, "subscription": 15002, "inherit": 22490, "##phic": 17926, "computational": 15078, "agitation": 22356, "##pf": 14376, "##\u2044": 30070, "##race": 22903, "baba": 14208, "climbed": 6589, "failures": 15428, "monique": 26194, "dentistry": 26556, "##\u52dd": 30306, "##ae": 6679, "similarly": 6660, "cyprus": 9719, "##imo": 16339, "commercially": 11088, "alonso": 17649, "mozart": 13177, "differentiate": 21032, "##\u3002": 30162, "breaking": 4911, "threatening": 8701, "##gul": 24848, "humane": 23369, "although": 2348, "inmates": 13187, "##ade": 9648, "jazz": 4166, "##olio": 29401, "\u963f": 1971, "inventor": 12235, "sera": 26358, "vested": 26003, "##aton": 22436, "downloaded": 22817, "1911": 5184, "corporate": 5971, "comfort": 7216, "ada": 15262, "##athing": 22314, "circumstance": 25652, "##pour": 27757, "session": 5219, "basis": 3978, "lace": 12922, "levi": 11902, "121": 12606, "armand": 20371, "-": 1011, "sermons": 20855, "milestone": 19199, "##\u1173": 30017, "vic": 10967, "danish": 5695, "psychic": 12663, "##ache": 15395, "practised": 20439, "archduke": 27463, "skimmed": 28862, "waiting": 3403, "##\u30f3": 30263, "expresses": 16783, "##tung": 21847, "[unused488]": 493, "butch": 17520, "##christ": 26654, "consumers": 10390, "overseas": 6931, "dd": 20315, "##vac": 24887, "wrecked": 18480, "215": 17405, "secrets": 7800, "designer": 5859, "##burg": 4645, "##nto": 13663, "antique": 14361, "jock": 23407, "vocalists": 27478, "##ra\u00dfe": 27807, "com": 4012, "leak": 17271, "plastic": 6081, "ourselves": 9731, "playhouse": 17408, "graded": 21976, "combinations": 14930, "nailed": 26304, "##\u09a5": 29899, "annie": 8194, "nursing": 8329, "##rrard": 29599, "linebacker": 15674, "matching": 9844, "rodents": 28156, "olympus": 26742, "[unused510]": 515, "rome": 4199, "princes": 12000, "##bis": 18477, "aired": 4836, "nesting": 21016, "thieves": 15862, "joanne": 23459, "spite": 8741, "buster": 18396, "grasping": 20854, "wb": 25610, "##mbe": 18552, "treatment": 3949, "##eration": 16754, "##gist": 24063, "rub": 14548, "##kato": 26020, "lip": 5423, "thom": 19438, "[unused186]": 191, "##mani": 20799, "assent": 27195, "blogger": 28205, "tape": 6823, "compared": 4102, "\u30d8": 1721, "keynote": 25569, "directions": 7826, "athenian": 26956, "deploy": 21296, "surveying": 19654, "bulgarian": 7643, "##7": 2581, "weird": 6881, "organizing": 10863, "host": 3677, "chicken": 7975, "daylight": 11695, "ideology": 13165, "engagements": 20583, "[unused410]": 415, "tbilisi": 22406, "chilling": 27017, "nylon": 27201, "enrichment": 27226, "store": 3573, "##ler": 3917, "daily": 3679, "##hus": 9825, "mustang": 18851, "adventist": 25696, "matt": 4717, "dynamite": 21719, "slovenia": 10307, "croatian": 7963, "controlling": 9756, "##hul": 21886, "phylogenetic": 23192, "toyota": 11742, "[unused580]": 585, "[unused184]": 189, "italianate": 25302, "supplements": 25654, "##13": 17134, "duff": 21019, "iain": 24486, "[unused351]": 356, "warlord": 16579, "residents": 3901, "##fia": 22749, "demonstrations": 13616, "outlying": 25376, "seoul": 10884, "dei": 14866, "##vocation": 19152, "sahara": 19604, "cheney": 23745, "angel": 4850, "sudbury": 26487, "\u02bb": 1145, "isbn": 3175, "captain": 2952, "prompted": 9469, "flexible": 12379, "selangor": 28904, "uta": 28981, "vocabulary": 16188, "ellington": 21630, "laude": 21602, "\u10db": 1448, "brazil": 4380, "\u2019": 1521, "linked": 5799, "sulfate": 26754, "##aid": 14326, "likelihood": 16593, "protectorate": 20394, "blues": 5132, "33": 3943, "honneur": 28197, "distinct": 5664, "leaf": 7053, "slap": 14308, "napoleonic": 18813, "kimberly": 23729, "biennale": 21140, "chases": 29515, "##ond": 15422, "yorkshire": 7018, "ottawa": 8166, "##lbert": 23373, "1685": 25053, "\u2080": 1547, "butterfly": 9112, "scope": 9531, "##eter": 15141, "shuttle": 10382, "veins": 9607, "quiver": 29049, "emergency": 5057, "fundraiser": 28536, "strikers": 26049, "comment": 7615, "some": 2070, "reading": 3752, "##\u3044": 30173, "reign": 5853, "tales": 7122, "trunk": 8260, "speculation": 12143, "avoided": 9511, "exports": 14338, "beverly": 12218, "correct": 6149, "##unciation": 24101, "##tra": 6494, "##mism": 26725, "mail": 5653, "depart": 18280, "\u3048": 1649, "##hon": 8747, "marines": 9622, "tyne": 17742, "stumbling": 19730, "555": 29541, "resort": 7001, "uncanny": 28953, "1713": 27016, "scheme": 5679, "sally": 8836, "mythical": 19336, "triangles": 27189, "adultery": 29169, "goddess": 7804, "##ron": 4948, "residues": 22644, "tyrol": 27193, "havoc": 22156, "marginal": 14785, "##mmel": 29033, "[unused463]": 468, "nazi": 6394, "dispute": 7593, "brink": 20911, "brown": 2829, "277": 25578, "##ductive": 26638, "pickup": 15373, "##\u00a2": 29645, "extreme": 6034, "258": 24398, "##pet": 22327, "terrified": 10215, "1824": 11617, "bachelor": 5065, "revised": 8001, "stamp": 11359, "evidenced": 21328, "terminating": 23552, "steak": 21475, "##16": 16048, "escalated": 26814, "\u0280": 1127, "##mies": 28397, "costly": 17047, "##ies": 3111, "dirt": 6900, "schooner": 21567, "1729": 28449, "tunes": 13281, "##chaft": 29043, "novak": 19580, "sidewalks": 28386, "melodic": 17187, "##cated": 12921, "premiership": 11264, "confirmed": 4484, "denver": 7573, "indices": 29299, "##14": 16932, "collingwood": 20044, "torre": 22047, "##izing": 6026, "###": 29614, "lash": 25210, "materials": 4475, "##\u2021": 30062, "cinematography": 16434, "departing": 15971, "\u2084": 1551, "strapped": 18019, "aleppo": 22973, "odisha": 21874, "suppose": 6814, "[unused471]": 476, "explosion": 7738, "phil": 6316, "##yu": 10513, "helpless": 13346, "spilled": 13439, "marries": 19941, "stephanie": 11496, "stimulate": 23216, "nas": 17235, "##dicate": 16467, "criteria": 9181, "jr": 3781, "1741": 25280, "27": 2676, "digger": 28661, "devastated": 13879, "bolivia": 11645, "eater": 28496, "##ath": 8988, "rejoined": 14311, "\u00ae": 1079, "nationalists": 17934, "cohen": 9946, "martina": 23508, "##\u00a9": 29652, "wheelchair": 13204, "universities": 5534, "##hyl": 29598, "bodies": 4230, "ca": 6187, "frey": 20068, "anguish": 21782, "rios": 25836, "fortunes": 18023, "supported": 3569, "\u0dc0": 1407, "puppet": 13997, "soccer": 4715, "##slin": 22908, "ethernet": 26110, "eliminated": 5892, "discovered": 3603, "{": 1063, "##ographer": 26145, "championships": 3219, "##ticus": 29587, "guru": 11972, "##idal": 16975, "[unused472]": 477, "monsoon": 19183, "alarms": 29034, "charm": 11084, "mhz": 11413, "takes": 3138, "##dim": 22172, "nicholson": 16955, "unsure": 12422, "[unused76]": 77, "##writer": 15994, "marketplace": 18086, "barak": 27739, "##\u6751": 30404, "blue": 2630, "wells": 7051, "examining": 12843, "anxious": 11480, "##pia": 19312, "advantages": 12637, "##beck": 12750, "scriptures": 22481, "opera": 3850, "congregation": 7769, "##otti": 21325, "##lus": 7393, "tobacco": 9098, "landowner": 20270, "gravel": 11127, "parma": 19177, "[unused921]": 926, "reed": 7305, "northwards": 27592, "crete": 19111, "night": 2305, "accept": 5138, "ears": 5551, "\u09b8": 1376, "##illon": 20343, "graduates": 10845, "##ril": 15928, "segregated": 24382, "##\u10e0": 29987, "##frey": 22586, "establishment": 5069, "comparing": 13599, "133": 14506, "##guard": 18405, "[unused247]": 252, "##chev": 16179, "overboard": 27089, "jogged": 27812, "\u043e": 1193, "peabody": 20004, "lakshmi": 21352, "erase": 22505, "ferguson": 11262, "propulsion": 16404, "103": 9800, "##rked": 19849, "explicitly": 12045, "vulnerability": 18130, "##ggy": 22772, "lame": 20342, "##anial": 27532, "##rix": 17682, "##time": 7292, "deterioration": 26118, "espana": 20678, "bellamy": 25544, "itself": 2993, "plight": 24525, "##riated": 25475, "institut": 17126, "##das": 8883, "chip": 9090, "connect": 7532, "[unused716]": 721, "associated": 3378, "claire": 6249, "wax": 13844, "##eer": 11510, "transports": 19003, "bewildered": 24683, "rosemary": 18040, "tailed": 14578, "perpetual": 18870, "patrons": 13497, "surrounding": 4193, "mrna": 28848, "##\u5b97": 30347, "seas": 11915, "specifies": 27171, "john": 2198, "romeo": 12390, "academics": 15032, "##sper": 17668, "mortals": 23844, "eduardo": 14846, "##\u30c6": 30239, "lyndon": 23037, "##ops": 11923, "whose": 3005, "originals": 23728, "bois": 19651, "outnumbered": 21943, "johansson": 26447, "##eda": 11960, "sulfur": 17864, "aria": 9342, "##hak": 20459, "##mbit": 28878, "\u00aa": 1076, "verse": 7893, "##oj": 29147, "tottenham": 18127, "petra": 20953, "nay": 29349, "\u6226": 1856, "##ied": 6340, "handbook": 14812, "##tama": 28282, "documentary": 4516, "pointer": 20884, "mclaughlin": 23720, "amplifier": 22686, "rot": 18672, "umm": 26114, "townsend": 16139, "ivanov": 26333, "marital": 23143, "renaming": 24944, "psychological": 8317, "contemporary": 3824, "switched": 7237, "##fied": 10451, "drilling": 15827, "furnace": 17533, "##llie": 23697, "aged": 4793, "staten": 24161, "neared": 20832, "fitzpatrick": 26249, "consisting": 5398, "t": 1056, "ecclesiastical": 12301, "immortal": 12147, "westfield": 26584, "mustache": 28786, "brooding": 28902, "fashionable": 19964, "unlocked": 14058, "shillings": 29332, "[unused152]": 157, "samba": 29086, "mechanically": 27846, "##uba": 19761, "melvin": 20993, "maguire": 26196, "twitched": 16767, "repression": 22422, "overnight": 11585, "posed": 13686, "happening": 6230, "##gia": 10440, "[unused295]": 300, "cheated": 22673, "dragoons": 28069, "procession": 14385, "problematic": 18636, "celia": 18020, "[unused179]": 184, "brand": 4435, "straightening": 27508, "[unused397]": 402, "[unused112]": 117, "noises": 14950, "medicinal": 20632, "dani": 19522, "speeding": 21485, "##dding": 27027, "strained": 12250, "117": 12567, "261": 24441, "fiscal": 10807, "sport": 4368, "##win": 10105, "##ery": 7301, "\u2022": 1528, "##hedron": 26440, "wessex": 27886, "##nostic": 28199, "prestige": 14653, "salty": 23592, "englishman": 25244, "cleanup": 27686, "william": 2520, "abruptly": 9225, "##rence": 24413, "##lge": 28875, "regrets": 23161, "##ctor": 16761, "drowning": 14759, "kellogg": 26129, "supplemental": 27024, "##\u0e15": 29947, "uh": 7910, "disasters": 18665, "##\u91d1": 30490, "vision": 4432, "pier": 10356, "notably": 5546, "traitor": 17328, "##ffin": 15379, "wilfred": 26026, "specialising": 23315, "forever": 5091, "##beat": 19442, "juicy": 28900, "##\u8ecd": 30481, "installation": 8272, "##\u10d4": 29978, "legislator": 22964, "maxi": 21510, "challenger": 12932, "san": 2624, "275": 17528, "##\u00ba": 29662, "bushes": 14568, "finish": 3926, "[unused821]": 826, "\u044d": 1208, "owing": 11427, "deadline": 15117, "thirties": 26313, "##\u1103": 29993, "fury": 8111, "\u03b2": 1156, "adolescence": 29101, "footage": 8333, "greedy": 20505, "recognition": 5038, "pissed": 9421, "mali": 16007, "their": 2037, "supposedly": 10743, "javelin": 23426, "naacp": 26155, "arguments": 9918, "##quette": 29416, "herself": 2841, "hardest": 18263, "cavalier": 28778, "\u5f8c": 1846, "anne": 4776, "aesthetics": 20749, "saber": 25653, "magician": 16669, "[unused212]": 217, "partners": 5826, "seeks": 11014, "cellar": 15423, "environmentally": 25262, "seam": 25180, "condemned": 10033, "##dc": 16409, "##ssi": 18719, "##mate": 8585, "fled": 6783, "molecules": 10737, "bates": 11205, "served": 2366, "##gence": 17905, "490": 22288, "[unused443]": 448, "2017": 2418, "leipzig": 11222, "leap": 11679, "shootout": 18297, "pontifical": 22362, "##otide": 26601, "##gno": 26745, "communion": 15661, "##liffe": 27931, "jeep": 14007, "traps": 16735, "[unused976]": 981, "optimism": 27451, "##nio": 27678, "blindness": 26290, "signaling": 14828, "boar": 24187, "sanders": 12055, "rested": 8614, "synonymous": 22594, "orthodoxy": 26582, "missiles": 10815, "\u09a7": 1365, "halle": 19769, "##hid": 27511, "revolt": 10073, "maritime": 7803, "graders": 23256, "tc": 22975, "fulfill": 13883, "wished": 6257, "##rak": 16555, "reza": 26323, "##dilly": 28832, "yield": 10750, "##lk": 13687, "optimization": 20600, "\u30ca": 1715, "##\u10d1": 29975, "figurative": 29407, "shifters": 21537, "##\u307e": 30203, "constantly": 7887, "##athy": 17308, "paranoid": 19810, "[unused220]": 225, "underwater": 11564, "parliament": 3323, "ryder": 11731, "sliced": 15920, "cambridge": 4729, "##\u53e3": 30314, "santos": 11053, "\u30a8": 1698, "woke": 8271, "begun": 5625, "binding": 8031, "onstage": 23542, "xii": 14371, "##\u0ca8": 29936, "##hend": 22342, "palo": 24326, "seahawks": 21390, "##\uff5e": 30521, "beautifully": 17950, "ames": 19900, "greenland": 16128, "\u0e19": 1413, "[unused400]": 405, "##eia": 27958, "expansion": 4935, "##hire": 20908, "dolly": 19958, "sultan": 7544, "zoning": 27462, "##dana": 25917, "access": 3229, "texas": 3146, "willed": 22705, "cent": 9358, "anticipating": 26481, "pilgrim": 21214, "choice": 3601, "louise": 8227, "daisy": 10409, "forrest": 16319, "##\u3068": 30192, "proposes": 17146, "\u02bf": 1148, "prepare": 7374, "##jan": 8405, "##gil": 20142, "dai": 18765, "nagasaki": 27107, "##ecin": 28191, "##urer": 27595, "manifesto": 17124, "goldberg": 18522, "kiev": 12100, "1793": 12387, "playable": 16854, "rapid": 5915, "jihad": 24815, "soprano": 10430, "opposing": 10078, "##pse": 29251, "temperature": 4860, "come": 2272, "##loading": 18570, "##vitt": 28656, "dso": 22951, "##bread": 27035, "exchequer": 28889, "deepened": 20183, "knelt": 12804, "##jima": 19417, "csa": 27804, "super": 3565, "latest": 6745, "ministerial": 18645, "##igan": 10762, "thicker": 19638, "[unused720]": 725, "cousin": 5542, "violations": 13302, "boyfriend": 6898, "missouri": 5284, "68": 6273, "lifts": 13695, "##laid": 24393, "acting": 3772, "born": 2141, "yokohama": 20507, "##cans": 26642, "[unused419]": 424, "fender": 19028, "squinting": 29156, "raise": 5333, "tensions": 13136, "platform": 4132, "triassic": 29529, "dating": 5306, "beamed": 22587, "##tec": 26557, "quarterfinals": 9237, "nose": 4451, "metal": 3384, "military": 2510, "closest": 7541, "counter": 4675, "citizenship": 9068, "worsened": 27622, "[unused515]": 520, "carson": 9806, "gauge": 7633, "vibrating": 24987, "johann": 8968, "elusive": 26475, "##sw": 26760, "##aux": 13754, "adopted": 4233, "bows": 21207, "tasha": 25448, "\u5c71": 1831, "kolkata": 13522, "originating": 14802, "linger": 26577, "groceries": 26298, "ind": 27427, "dal": 17488, "\u0639": 1288, "wr": 23277, "trigger": 9495, "malls": 25943, "##\u2013": 30051, "commuter": 14334, "retains": 14567, "lakeside": 28701, "fluorescent": 22184, "820": 26667, "blinding": 19709, "rubber": 8903, "carpet": 10135, "goat": 13555, "##zing": 6774, "##\u5d0e": 30360, "measurements": 11702, "ferrer": 28390, "kahn": 19361, "lam": 16983, "disconnected": 23657, "distressed": 24305, "[unused349]": 354, "remember": 3342, "pressure": 3778, "##amo": 22591, "affairs": 3821, "##ue": 5657, "##mack": 26945, "##\u2084": 17004, "hash": 23325, "caesar": 11604, "managed": 3266, "cheltenham": 18763, "my": 2026, "unbroken": 29505, "analyze": 17908, "chinatown": 22321, "economics": 5543, "##\u5fc4": 30376, "##hri": 26378, "shelby": 15294, "25th": 10965, "hike": 21857, "county": 2221, "2020": 12609, "sweating": 18972, "changes": 3431, "nape": 23634, "name": 2171, "before": 2077, "horde": 21038, "##force": 14821, "##\u30eb": 30259, "smyth": 28103, "hooves": 28399, "league": 2223, "acton": 28794, "powerless": 25192, "visited": 4716, "helix": 25743, "anna": 4698, "adapted": 5967, "gemma": 19073, "nikolay": 28494, "possibilities": 12020, "##lini": 22153, "taxpayer": 26980, "isla": 25340, "##nam": 13129, "[unused853]": 858, "kite": 20497, "sheer": 11591, "resumed": 7943, "rookie": 8305, "##ld": 6392, "meet": 3113, "filed": 6406, "excluded": 12421, "furiously": 20322, "improper": 24156, "bully": 20716, "hove": 25215, "##rice": 17599, "##\u56fd": 30325, "fore": 18921, "##qi": 14702, "superintendent": 9133, "mori": 22993, "peace": 3521, "##cus": 7874, "decorations": 14529, "##\u2286": 30138, "notice": 5060, "injuring": 22736, "cyclic": 23750, "faced": 4320, "notch": 18624, "frogs": 17582, "ghostly": 24407, "accidents": 13436, "aleksandr": 24020, "assimilation": 27574, "momentarily": 16032, "walden": 24834, "celebration": 7401, "##cea": 21456, "##castle": 23662, "felipe": 17095, "striped": 17983, "madhya": 20841, "##hir": 11961, "[unused61]": 62, "magdalene": 26890, "campos": 26925, "bavarian": 15097, "amtrak": 20208, "skylar": 27970, "triggers": 27099, "##ved": 7178, "\u201a": 1522, "judith": 12924, "economists": 22171, "stacey": 19997, "##ivision": 24607, "\u0578": 1232, "virtues": 21560, "##isms": 22556, "sheets": 8697, "exchanged": 10573, "whistle": 13300, "##vious": 24918, "biomass": 28148, "elevation": 6678, "has": 2038, "frances": 10360, "##overs": 24302, "tran": 25283, "[unused721]": 726, "subfamily": 10946, "##orum": 20527, "sentence": 6251, "coral": 11034, "adler": 17969, "belgarath": 21256, "evicted": 25777, "##\u767a": 30440, "teammates": 13220, "venice": 7914, "sank": 7569, "rabbits": 20403, "breakup": 19010, "strikeouts": 20813, "impact": 4254, "##\u0935": 29871, "collaborative": 12317, "husband": 3129, "ammunition": 9290, "henry": 2888, "interim": 9455, "thrilling": 26162, "frank": 3581, "pair": 3940, "monitoring": 8822, "flourished": 17893, "##mur": 20136, "dominion": 13738, "christophe": 23978, "gran": 12604, "570": 24902, "octave": 21817, "informs": 15670, "##unt": 16671, "skinner": 17451, "budge": 24981, "##nas": 11649, "explains": 7607, "kind": 2785, "##vies": 25929, "[unused421]": 426, "unemployment": 12163, "jingle": 29262, "extras": 26279, "hurled": 24025, "grandparents": 14472, "##\u03c5": 29735, "\u0452": 1211, "[unused178]": 183, "waves": 5975, "claiming": 6815, "999": 25897, "resigned": 5295, "plaintiff": 20579, "##cliff": 27580, "nam": 15125, "##ast": 14083, "heated": 9685, "corresponded": 27601, "gift": 5592, "rousseau": 26868, "##yon": 14001, "estadio": 14143, "jay": 6108, "livery": 18475, "absorption": 16326, "##\u2018": 30055, "1768": 19793, "124": 13412, "caravan": 17184, "voodoo": 21768, "##lon": 7811, "dealt": 9411, "rochester": 10541, "var": 13075, "coined": 13279, "chatting": 22331, "lydia": 14076, "##orin": 28741, "##gra": 17643, "##bots": 27014, "broader": 12368, "spit": 13183, "\u0bbf": 1396, "antibodies": 22931, "scouting": 14299, "averaging": 14985, "\u8fb6": 1956, "radioactive": 17669, "declared": 4161, "entrepreneurs": 17633, "critique": 16218, "assurance": 16375, "purpose": 3800, "buenos": 9204, "##\u2191": 30112, "draped": 15098, "barcelona": 7623, "parameter": 16381, "reassigned": 18026, "bouquet": 26700, "##than": 21604, "normal": 3671, "arriving": 7194, "\u05e7": 1264, "olympic": 4386, "programmes": 8497, "##jk": 15992, "##llen": 12179, "logo": 8154, "\u02c8": 1149, "divorce": 8179, "\u667a": 1869, "panthers": 12915, "competition": 2971, "became": 2150, "smoothed": 17966, "[unused293]": 298, "heroin": 19690, "riga": 17557, "carpathian": 26349, "\u00ab": 1077, "##wind": 11101, "participation": 6577, "bruins": 18159, "warwick": 13283, "explores": 15102, "##kari": 20224, "byrne": 14928, "mcpherson": 24332, "exist": 4839, "[unused973]": 978, "leafs": 21349, "cha": 15775, "transformations": 21865, "slim": 11754, "##wyn": 11761, "metallic": 12392, "hospitals": 8323, "proves": 16481, "jokes": 13198, "##tell": 23567, "taps": 25316, "blushed": 19370, "dawned": 27702, "##flight": 28968, "##\u09b6": 29910, "travel": 3604, "narrative": 7984, "##tness": 27401, "lethal": 12765, "warring": 28509, "slender": 10944, "debates": 14379, "flanks": 23547, "displeasure": 28606, "touched": 5028, "##dda": 25062, "resides": 11665, "1086": 28196, "##lem": 16930, "[unused790]": 795, "booking": 21725, "staring": 4582, "draft": 4433, "ahmedabad": 27249, "tango": 17609, "wingspan": 9635, "benson": 11999, "254": 22234, "##\u677e": 30406, "##lo": 4135, "grassroots": 23299, "exposition": 13080, "##ttal": 28200, "##rting": 24097, "collier": 20466, "maris": 23787, "occasionally": 5681, "##tting": 13027, "181": 18596, "masks": 15806, "bronx": 14487, "jalan": 28410, "redundant": 21707, "acknowledging": 21894, "medicine": 4200, "pupils": 7391, "hatch": 11300, "kan": 22827, "##eurs": 26744, "misunderstanding": 24216, "##ceptive": 28687, "##sf": 22747, "constructive": 26157, "\u03c6": 1176, "persians": 27229, "##\u09bf": 29915, "incarnation": 15715, "admit": 6449, "yells": 22114, "portugal": 5978, "moments": 5312, "thought": 2245, "bitter": 8618, "7": 1021, "##nesian": 20281, "##nosis": 27109, "companion": 7452, "ste": 26261, "##ko": 3683, "[unused705]": 710, "mutant": 15527, "spawned": 18379, "1623": 29056, "maori": 12600, "##\u2012": 30050, "gameplay": 11247, "submarines": 12622, "modelled": 23364, "boundaries": 7372, "##ward": 7652, "unrest": 16591, "rumble": 15658, "heidelberg": 16793, "louie": 17438, "##heart": 22375, "enable": 9585, "civilian": 6831, "burkina": 23089, "##zon": 11597, "submarine": 6982, "ballard": 21896, "\u91ce": 1963, "output": 6434, "hogan": 14851, "healer": 19783, "refining": 28596, "##\u0965": 29881, "ni": 9152, "posing": 20540, "##tang": 26067, "smarter": 25670, "elmer": 21464, "\u05d6": 1247, "natural": 3019, "glimpse": 12185, "sighted": 19985, "cunningham": 13652, "ego": 13059, "##sden": 27903, "aimee": 23551, "144": 14748, "##color": 18717, "elliott": 9899, "##ocene": 25793, "kwan": 27741, "##ony": 16585, "##yal": 21095, "prophet": 12168, "##verted": 26686, "duran": 22959, "##corp": 24586, "incorporating": 13543, "barracks": 10492, "reykjavik": 28559, "##wives": 23744, "kayla": 26491, "illness": 7355, "nobleman": 18487, "barrington": 26469, "nineteen": 11977, "patrols": 14703, "vt": 28879, "survivors": 8643, "anzac": 29224, "\u0cbe": 1402, "\u539f": 1787, "##iring": 24771, "##vable": 12423, "\u02b0": 1140, "64": 4185, "relation": 7189, "clinic": 9349, "par": 11968, "centenary": 17705, "##nium": 14907, "##\u026f": 29688, "migrate": 22806, "##\u0bc8": 29935, "but": 2021, "commemorate": 13415, "15": 2321, "timber": 7227, "blades": 10491, "spicy": 25482, "##wani": 29092, "intrusion": 24554, "wallace": 7825, "differing": 16965, "ts": 24529, "bourbon": 15477, "264": 21611, "ten": 2702, "98": 5818, "[unused974]": 979, "effort": 3947, "forests": 6138, "naive": 15743, "definition": 6210, "throne": 6106, "hammering": 27883, "##ror": 29165, "attracted": 6296, "stores": 5324, "composers": 9929, "criminal": 4735, "thoroughbred": 18359, "sociology": 11507, "fighters": 7299, "matrix": 8185, "uncertainty": 12503, "##30": 14142, "skills": 4813, "travelling": 8932, "##rra": 11335, "board": 2604, "unofficial": 11982, "sap": 20066, "##rano": 20770, "intercontinental": 18725, "simpson": 9304, "efficiently": 18228, "188": 19121, "blamed": 11248, "lyon": 10241, "\u30c3": 1711, "chop": 24494, "kansas": 5111, "midnight": 7090, "forks": 19896, "911": 19989, "ron": 6902, "animals": 4176, "gigantic": 20193, "##\u7684": 30442, "##ley": 3051, "sweetness": 23210, "trial": 3979, "headlined": 25214, "bound": 5391, "logical": 11177, "sui": 24086, "nestor": 25397, "55th": 29075, "classmate": 23175, "replica": 15059, "restricting": 26996, "\u0bc7": 1398, "##hima": 16369, "andersen": 18308, "advise": 18012, "tired": 5458, "##dial": 27184, "##\u0292": 29704, "##\u0cb0": 29937, "supermarket": 17006, "enterprise": 6960, "[unused889]": 894, "cafeteria": 16673, "spirits": 8633, "##gga": 23033, "flinders": 29120, "succeeded": 4594, "##\u7fa9": 30462, "substance": 9415, "minors": 18464, "##eber": 22669, "messed": 18358, "groningen": 29070, "coroner": 22896, "absolute": 7619, "##kus": 22332, "atheist": 23503, "guitarists": 28523, "pasture": 20787, "alphabet": 12440, "##ox": 11636, "pounding": 9836, "##\u967d": 30499, "uncommon": 13191, "##och": 11663, "wehrmacht": 23443, "rasped": 28459, "quartermaster": 24688, "matteo": 24713, "[unused935]": 940, "tilted": 9939, "[unused940]": 945, "opined": 26084, "spiral": 12313, "kits": 18628, "plunging": 29059, "sterile": 25403, "##\u208d": 30087, "crafts": 14030, "lavender": 20920, "consequences": 8465, "hopes": 8069, "acclaimed": 10251, "lithuania": 9838, "cool": 4658, "tried": 2699, "nicole": 9851, "1745": 21809, "floor": 2723, "##ilde": 23891, "\u0636": 1285, "280": 13427, "rumor": 19075, "muriel": 27616, "settles": 27221, "[unused629]": 634, "cramped": 22766, "responsibility": 5368, "federal": 2976, "[unused776]": 781, "promise": 4872, "diagnosis": 11616, "investigative": 15025, "##iation": 18963, "##gio": 11411, "receptionist": 23775, "serene": 25388, "##dner": 28001, "corrugated": 27186, "python": 18750, "believer": 24591, "rio": 5673, "jarrett": 24503, "bedside": 19475, "266": 25162, "\u093e": 1340, "alto": 10766, "tribute": 7050, "timor": 19746, "[unused300]": 305, "accents": 24947, "##con": 8663, "habit": 10427, "wagner": 10304, "eyelashes": 25150, "cowboys": 11666, "peterson": 12001, "mansions": 26842, "##uti": 21823, "hitler": 8042, "felix": 8383, "savings": 10995, "emi": 12495, "##\u09b0": 29908, "##\u79be": 30453, "surgery": 5970, "contention": 18974, "anarchy": 26395, "owned": 3079, "lc": 29215, "joe": 3533, "gottfried": 26142, "memories": 5758, "preparations": 12929, "theologian": 17200, "humble": 15716, "##kka": 15714, "elemental": 19529, "##sar": 10286, "remnant": 19614, "dialect": 9329, "congestion": 20176, "appearing": 6037, "urges": 23876, "membranes": 24972, "playwright": 11170, "illicit": 25049, "expressed": 5228, "berkeley": 8256, "destroyer": 9799, "\u00be": 1093, "gloucestershire": 15905, "##uj": 23049, "stored": 8250, "bastards": 21123, "siam": 25583, "wives": 10403, "import": 12324, "wanda": 20848, "elsie": 24603, "interested": 4699, "allmusic": 10477, "\u2089": 1556, "directed": 2856, "banana": 15212, "##rug": 26549, "blushing": 25771, "phrases": 15672, "##\u4fe1": 30293, "\u304a": 1650, "anthony": 4938, "\u0584": 1239, "cheerfully": 27403, "staggering": 26233, "##folk": 29284, "cleopatra": 22003, "intuition": 26406, "##tel": 9834, "mani": 23624, "mughal": 17877, "tits": 25671, "liturgy": 21176, "administer": 21497, "##notes": 20564, "suspension": 8636, "categories": 7236, "b": 1038, "glided": 26936, "bluegrass": 21286, "##\u2090": 30089, "[unused905]": 910, "ch": 10381, "hand": 2192, "##shah": 25611, "leagues": 8121, "accepted": 3970, "##bility": 8553, "generates": 19421, "nationalist": 8986, "function": 3853, "##ys": 7274, "decrease": 9885, "##bing": 10472, "unsigned": 27121, "uncle": 4470, "capcom": 26861, "fantastic": 10392, "hugh": 6621, "coated": 15026, "orbital": 13943, "repeating": 15192, "bombers": 10544, "##rity": 15780, "171": 18225, "##el": 2884, "jason": 4463, "browns": 13240, "liberties": 18271, "##boys": 24916, "bb": 22861, "##tively": 25499, "[unused706]": 711, "[unused321]": 326, "##gam": 22864, "rhodes": 10588, "hinduism": 19632, "vikings": 13468, "115": 10630, "heavily": 4600, "##while": 19927, "galaxies": 21706, "lagoon": 15825, "##ura": 4648, "shaping": 20300, "conquer": 16152, "seduction": 26962, "delegation": 10656, "gregor": 16973, "greenfield": 26713, "##vere": 28943, "norte": 19931, "##\u6211": 30381, "push": 5245, "voting": 6830, "racer": 14878, "##emi": 23238, "##oa": 10441, "\u2218": 1599, "sections": 5433, "##leg": 23115, "technological": 10660, "instance": 6013, "left": 2187, "quarters": 7728, "duck": 9457, "missile": 7421, "impairment": 25172, "lex": 17244, "tinted": 25577, "marne": 25823, "decidedly": 27873, "stark": 9762, "##word": 18351, "##rove": 17597, "undergoes": 29129, "...": 2133, "##\u2095": 30093, "stretches": 14082, "cane": 11942, "briefing": 27918, "\u02b3": 1142, "jolted": 28801, "girlfriends": 27408, "##\u5b80": 30344, "medallion": 22541, "cheerful": 18350, "##ayan": 25868, "ending": 4566, "survivor": 12084, "stove": 16247, "seamus": 24993, "hut": 12570, "whereupon": 26090, "reins": 19222, "sarcastically": 23800, "##bn": 24700, "\u05dc": 1253, "##iam": 25107, "drink": 4392, "begins": 4269, "cinemas": 19039, "murders": 9916, "response": 3433, "211": 19235, "nixon": 11296, "##oshi": 24303, "##ination": 12758, "inaccessible": 29104, "councillor": 10674, "sobbed": 25960, "risk": 3891, "lowe": 14086, "hosting": 9936, "cary": 20533, "jang": 23769, "##lish": 13602, "##pc": 15042, "sc": 8040, "warrington": 23051, "wal": 24547, "ow": 27593, "##pura": 21228, "720": 22857, "funny": 6057, "##wara": 11872, "academy": 2914, "rhodesia": 20340, "##ening": 7406, "eight": 2809, "amnesia": 29222, "ethanol": 22886, "teaches": 12011, "malawi": 18137, "martyrs": 18945, "##rvis": 29074, "engraved": 16328, "coa": 28155, "headache": 14978, "\u026a": 1119, "db": 16962, "87": 6584, "##\u207a": 12744, "##inda": 23938, "deep": 2784, "injuries": 6441, "hee": 18235, "##udeau": 27627, "blonde": 9081, "comprising": 9605, "whilst": 5819, "entertaining": 14036, "joins": 9794, "##\u02bf": 29714, "[unused885]": 890, "burundi": 28836, "automation": 19309, "292": 25797, "boot": 9573, "jungle": 8894, "##inen": 21820, "##\u02b0": 29706, "better": 2488, "parker": 6262, "zone": 4224, "restaurant": 4825, "strips": 12970, "##lined": 18194, "precisely": 10785, "incorporation": 16935, "hamlet": 8429, "insurgency": 23939, "invoked": 24959, "monroe": 9747, "royalist": 20796, "yucatan": 28631, "[unused352]": 357, "serbia": 7238, "defiant": 27836, "##.": 29625, "sold": 2853, "concord": 16557, "fireworks": 16080, "##llum": 20845, "clashed": 22600, "1968": 3380, "berth": 17064, "clade": 21697, "towed": 18948, "watching": 3666, "rene": 10731, "into": 2046, "bellowed": 27386, "##ooped": 20671, "##sko": 21590, "##\u2248": 30133, "memorials": 22899, "ozone": 26443, "mice": 12328, "mathematics": 5597, "##earing": 27242, "ties": 7208, "ceremonial": 12961, "pledge": 16393, "banning": 21029, "belief": 6772, "impress": 17894, "##tort": 25485, "rehab": 24497, "nazis": 13157, "slapping": 22021, "\u211d": 1579, "##nsor": 29577, "##gn": 16206, "romanized": 7651, "##chia": 20881, "readily": 12192, "woodstock": 21028, "[unused784]": 789, "mixture": 8150, "hk": 22563, "##\u0995": 29889, "\u8a9e": 1950, "world": 2088, "fitting": 11414, "[unused620]": 625, "mistaken": 13534, "principality": 18018, "entities": 11422, "laurie": 16450, "ring": 3614, "##bius": 17028, "feet": 2519, "m\u00b2": 7030, "209": 19348, "[unused445]": 450, "closing": 5494, "fidelity": 22625, "elliptical": 27213, "providing": 4346, "rift": 16931, "##ise": 5562, "bryson": 26845, "quick": 4248, "confuse": 28679, "sacrifices": 18502, "after": 2044, "wealthy": 7272, "[unused292]": 297, "revolves": 19223, "crises": 25332, "bedrock": 28272, "bbc": 4035, "mussolini": 22554, "##dora": 24562, "##\u91cc": 30488, "lewis": 4572, "adviser": 11747, "delaying": 29391, "pressed": 4508, "dusty": 12727, "##enko": 17868, "bowl": 4605, "unpublished": 19106, "center": 2415, "##wan": 7447, "pixels": 27725, "chick": 14556, "##otype": 26305, "##ators": 18926, "[unused740]": 745, "lobe": 21833, "serena": 14419, "##\u21cc": 30118, "##p": 2361, "[unused676]": 681, "[unused7]": 8, "meant": 3214, "loan": 5414, "bautista": 27845, "costello": 21015, "surfaced": 15791, "##landa": 24448, "zip": 14101, "318": 27003, "ceased": 7024, "\uff0c": 1989, "experience": 3325, "[unused334]": 339, "mini": 7163, "whisper": 7204, "marguerite": 15334, "elongated": 17876, "440": 17422, "rotting": 22005, "qualify": 7515, "##vard": 25911, "ignore": 8568, "spray": 12509, "vendors": 17088, "hilt": 21184, "##arus": 29133, "uppsala": 25720, "valuation": 26004, "davis": 4482, "##offs": 27475, "nawab": 26543, "javanese": 27344, "bleeding": 9524, "liz": 9056, "[unused200]": 205, "presses": 14616, "arena": 5196, "panicked": 16035, "piloted": 27220, "bahadur": 21715, "pennsylvania": 3552, "spec": 28699, "##\u1100": 29991, "##\u00a6": 29649, "twenty": 3174, "##\u9234": 30491, "##ehan": 24660, "##nation": 9323, "lava": 13697, "pollock": 25218, "vertical": 7471, "dwyer": 29394, "expands": 24545, "themes": 6991, "hourly": 21462, "##grin": 24860, "fabrication": 25884, "wartime": 12498, "delivered": 5359, "being": 2108, "integrated": 6377, "##tium": 16398, "frost": 10097, "wishes": 8996, "slabs": 28761, "ponce": 21085, "yugoslavia": 8936, "sour": 14768, "el": 3449, "##roller": 26611, "##vis": 11365, "patty": 17798, "wolfe": 14212, "##lean": 20898, "loved": 3866, "elaborated": 25187, "nitrate": 29607, "##\u0f60": 29969, "righteous": 19556, "chuck": 8057, "lodges": 26767, "coastal": 5780, "sites": 4573, "mind": 2568, "##id": 3593, "jace": 10352, "ecological": 12231, "##\u65e5": 30390, "to": 2000, "hamish": 28859, "[unused319]": 324, "shadow": 5192, "suburb": 7575, "regency": 15647, "swords": 10689, "surrounded": 5129, "vibrations": 22755, "overhead": 8964, "##\u21c4": 30117, "designs": 5617, "[unused466]": 471, "max": 4098, "baptiste": 17329, "##\u045a": 29763, "nervous": 6091, "splendid": 21459, "wiener": 25072, "rental": 12635, "famous": 3297, "\u0459": 1215, "fulfilled": 16829, "dismantled": 17293, "doug": 8788, "joining": 5241, "\u5357": 1785, "black": 2304, "tactic": 19717, "pious": 25020, "##vel": 15985, "outspoken": 22430, "murdered": 7129, "dwarves": 29281, "inherited": 7900, "##rating": 15172, "fey": 23864, "campbell": 6063, "businesses": 5661, "hale": 13084, "conjecture": 22647, "##uda": 14066, "\u4eee": 1761, "fingers": 3093, "##ntly": 20630, "\u0633": 1282, "solvent": 23735, "[unused844]": 849, "depending": 5834, "exited": 15284, "portions": 8810, "johanna": 21498, "dilapidated": 29283, "etienne": 16821, "##ra": 2527, "##cc": 9468, "joking": 16644, "233": 22115, "vaulted": 24616, "tori": 23413, "##\u1102": 29992, "##lices": 29146, "##yce": 29297, "mast": 15429, "sundays": 14803, "chemist": 15535, "peculiar": 14099, "mohamed": 14467, "columbia": 3996, "none": 3904, "reinforcements": 14214, "1849": 9037, "herzegovina": 11453, "##pan": 9739, "\u300c": 1641, "chord": 13924, "hannah": 8410, "emigrated": 11367, "sources": 4216, "##ige": 25538, "tradition": 4535, "soluble": 24345, "##tp": 25856, "tastes": 16958, "lev": 23310, "firth": 25138, "\u0f54": 1430, "brandenburg": 16426, "doorstep": 26581, "##dance": 25514, "cringed": 23952, "kawasaki": 27324, "canucks": 26177, "##ege": 24746, "crops": 8765, "advocates": 13010, "telecom": 18126, "##\u1166": 30009, "yoon": 24863, "consent": 9619, "birch": 16421, "foreman": 18031, "commandos": 25144, "sao": 7509, "identities": 15702, "##atus": 15590, "luxurious": 20783, "overturned": 17068, "bytes": 27507, "duets": 29410, "schools": 2816, "1976": 3299, "\u0995": 1353, "receipt": 24306, "hillsborough": 29330, "pursued": 9505, "##\u03c2": 19579, "view": 3193, "sparkled": 28092, "##psis": 18409, "downs": 12482, "lo": 8840, "knighted": 19572, "##gor": 20255, "artificial": 7976, "nightingale": 21771, "boss": 5795, "rm": 28549, "drugged": 25483, "rom": 17083, "##ture": 11244, "airplane": 13297, "[unused104]": 109, "[unused474]": 479, "differences": 5966, "[unused102]": 107, "\u5bb6": 1825, "##ouring": 27897, "swimmer": 13361, "##rn": 6826, "##ile": 9463, "compounds": 10099, "xu": 15990, "siemens": 22108, "feasible": 22945, "insurance": 5427, "mtv": 8692, "[unused906]": 911, "corruption": 7897, "normandy": 13298, "fourteen": 7426, "cervical": 28711, "mt": 11047, "+": 1009, "composer": 4543, "bassist": 9858, "slip": 7540, "antoine": 12445, "gorilla": 23526, "##brick": 25646, "##\u1d64": 30044, "stressed": 13233, "modulation": 25502, "mother": 2388, "##\u30df": 30250, "andrey": 29219, "fiesta": 24050, "[unused945]": 950, "[unused396]": 401, "dig": 10667, "cartwright": 27513, "helplessly": 24942, "pep": 27233, "\u025b": 1115, "fragmented": 26872, "atoms": 13353, "##pop": 16340, "tub": 14366, "click": 11562, "##tle": 9286, "attendance": 5270, "##\u062d": 29820, "##fire": 10273, "##cturing": 19159, "esteem": 19593, "##ba": 3676, "diabetes": 14671, "northumberland": 16205, "bosses": 23029, "addison": 18403, "signaled": 22319, "yo": 10930, "sarah": 4532, "asks": 5176, "works": 2573, "3a": 23842, "##actic": 28804, "eruptions": 28448, "screened": 12238, "dimly": 25361, "sir": 2909, "murdoch": 19954, "biography": 8308, "garnered": 13056, "hunan": 27374, "decorative": 11584, "keys": 6309, "##hood": 9021, "convinced": 6427, "confiscated": 17182, "receives": 8267, "mls": 16287, "##\u2ebc": 30159, "cinder": 29399, "garments": 21902, "garde": 14535, "1757": 22621, "sniper": 17515, "[unused41]": 42, "\u092d": 1330, "conor": 20545, "fat": 6638, "global": 3795, "dec": 11703, "occupational": 16928, "precision": 11718, "easily": 4089, "consecutive": 5486, "##int": 18447, "invested": 11241, "1916": 4947, "adjusting": 19158, "admission": 9634, "ali": 4862, "pagan": 14318, "##tsa": 27110, "mikey": 25998, "inactive": 16389, "skaters": 24789, "translations": 11913, "##vir": 21663, "hmm": 17012, "1777": 16144, "shin": 12277, "##\u02e1": 29716, "pipes": 12432, "terminology": 18444, "giggles": 26466, "##tula": 28970, "purposes": 5682, "pops": 16949, "##ine": 3170, "circulating": 22458, "weddings": 20429, "[unused858]": 863, "assassins": 18364, "perennial": 14638, "subdivision": 12572, "##side": 7363, "##\u548c": 30322, "sparkle": 26831, "whisky": 21265, "excursion": 26144, "apex": 13450, "##chon": 24561, "resistance": 5012, "massey": 21402, "272": 24231, "magazines": 7298, "1540": 27536, "twisted": 6389, "tunic": 23002, "swirl": 28693, "harvard": 5765, "triangular": 14023, "cursed": 10678, "finishes": 12321, "desktop": 15363, "semifinals": 8565, "tattooed": 26464, "spectacular": 12656, "saxons": 28267, "refer": 6523, "1861": 6863, "trembling": 10226, "panting": 15601, "obstacle": 18355, "diversity": 8906, "icao": 18055, "shares": 6661, "unwilling": 15175, "##\u7acb": 30457, "unmarried": 17204, "elaine": 15263, "##fighting": 22158, "\u110e": 1465, "##ctric": 22601, "incarcerated": 23995, "payroll": 26854, "##ts": 3215, "effects": 3896, "hence": 6516, "insults": 23862, "http": 8299, "lambda": 23375, "##eran": 23169, "meteor": 23879, "routed": 19578, "[unused729]": 734, "cookie": 17387, "griffin": 9258, "email": 10373, "seat": 2835, "vienna": 6004, "dillon": 14602, "cartoon": 9476, "bob": 3960, "##ass": 12054, "##antes": 24985, "collegiate": 9234, "august": 2257, "unearthed": 27422, "transferred": 4015, "slater": 17916, "newell": 28052, "mediation": 26435, "insufficient": 13990, "calculating": 20177, "corey": 18132, "assists": 8456, "##kushima": 24917, "##wed": 15557, "technicians": 20202, "##enburg": 12059, "duplicate": 24473, "##mora": 22122, "pepper": 11565, "297": 27502, "disrupted": 20275, "laurence": 10883, "[unused871]": 876, "dramatic": 6918, "##zee": 23940, "##ega": 29107, "##ashi": 12914, "eki": 23174, "1724": 26423, "collins": 6868, "505": 28952, "walkway": 19467, "\u6b62": 1887, "wales": 3575, "\u05d0": 1241, "summons": 24814, "sausage": 24165, "##laya": 22923, "bonnie": 12220, "defensive": 5600, "lombardy": 27728, "[unused869]": 874, "##jana": 18803, "funky": 24151, "extremes": 28800, "229": 22777, "##makers": 12088, "##cytes": 27321, "illuminating": 27816, "exaggerated": 16903, "\u2096": 1565, "veil": 15562, "piss": 18138, "benedictine": 21139, "governing": 8677, "##rries": 26801, "knee": 6181, "inspecting": 29508, "[unused799]": 804, "hybrid": 8893, "mellon": 22181, "strap": 16195, "summer": 2621, "##ep": 13699, "temperance": 23372, "sprawling": 24199, "##islaus": 25678, "[unused751]": 756, "cambrian": 29228, "##cic": 19053, "##dev": 24844, "appeals": 9023, "##\u0f0b": 29960, "generous": 12382, "##eville": 21187, "karnataka": 12092, "america": 2637, "sinai": 20837, "inca": 27523, "##ovich": 12303, "biscuits": 27529, "##star": 14117, "introducing": 10449, "implicit": 24655, "compass": 16681, "##ciation": 23247, "##rrado": 27933, "welcomed": 10979, "[unused428]": 433, "##lee": 10559, "##\u30ce": 30243, "raiding": 23530, "liberty": 7044, "launcher": 22742, "1935": 4437, "wow": 10166, "asking": 4851, "aix": 28443, "##glio": 29480, "\u043a": 1189, "exactly": 3599, "cebu": 23312, "backwards": 11043, "sneakers": 28130, "meng": 27955, "torino": 24737, "explicit": 13216, "monograph": 24039, "stade": 15649, "##ert": 8743, "##naut": 24619, "[unused391]": 396, "##lar": 8017, "ore": 10848, "camera": 4950, "necessity": 13185, "broker": 20138, "almost": 2471, "skull": 7412, "appliances": 22449, "climates": 24734, "greco": 18180, "coordination": 12016, "ac": 9353, "[unused315]": 320, "bentley": 15988, "repeat": 9377, "tory": 17117, "*": 1008, "##ut": 4904, "beetle": 7813, "evelyn": 12903, "##ride": 15637, "provides": 3640, "##\u79cb": 30455, "##pu": 14289, "[unused883]": 888, "him": 2032, "continent": 9983, "abdominal": 21419, "compensated": 29258, "que": 10861, "##uck": 12722, "prussia": 10724, "levy": 12767, "##\u201c": 30058, "\u10da": 1447, "\u099b": 1357, "donnie": 28486, "##alla": 25425, "auburn": 12704, "shawn": 13218, "##lad": 27266, "kathmandu": 28045, "assassin": 12025, "lu": 11320, "bud": 13007, "##\u0646": 15915, "skirt": 9764, "aristocratic": 19774, "choreographed": 23317, "##sphere": 23874, "##\u0928": 29863, "relocated": 7448, "vectors": 19019, "hugged": 10308, "##uer": 13094, "##ouse": 15441, "\u91cc": 1962, "cigarettes": 15001, "rt": 19387, "restrictions": 9259, "prevent": 4652, "##\u8fb6": 30482, "descendant": 12608, "rossi": 18451, "##udy": 20217, "gunnery": 27919, "1842": 10008, "##itate": 17570, "integer": 16109, "caste": 14542, "decided": 2787, "at": 2012, "getting": 2893, "adolescent": 20274, "[unused514]": 519, "[unused992]": 997, "bra": 11655, "##bino": 21891, "amara": 28599, "calhoun": 22982, "steve": 3889, "beers": 18007, "bombed": 18897, "catherine": 6615, "stratford": 17723, "regional": 3164, "[unused550]": 555, "terrorism": 10130, "##note": 22074, "pillow": 10005, "facilities": 4128, "galerie": 17941, "juris": 27551, "containing": 4820, "1836": 10081, "gunther": 19384, "mendes": 27916, "gunner": 14850, "structure": 3252, "##logies": 21615, "^": 1034, "choi": 18151, "editors": 10195, "mavericks": 28330, "settle": 7392, "superhero": 16251, "1719": 28162, "\u0440": 1195, "##dor": 7983, "philanthropist": 15246, "##aves": 21055, "holly": 9079, "bain": 28477, "cave": 5430, "daughters": 5727, "myers": 13854, "professionally": 12145, "luminous": 25567, "han": 7658, "prayers": 12583, "activated": 8878, "unavailable": 20165, "porch": 7424, "##cat": 11266, "idiots": 28781, "1580": 28278, "client": 7396, "keane": 27228, "allan": 8926, "nets": 16996, "wes": 14008, "lions": 7212, "peg": 25039, "screenwriter": 11167, "shanghai": 8344, "pastor": 9220, "~": 1066, "mitsubishi": 19695, "wondered": 4999, "##\u5f73": 30371, "##ifolia": 29244, "estimation": 24155, "grams": 20372, "1942": 3758, "expressions": 11423, "##\u00a4": 29647, "ph": 6887, "management": 2968, "compromised": 20419, "yielding": 21336, "mango": 24792, "retribution": 25928, "[unused573]": 578, "mickey": 11021, "unmarked": 25779, "nightclub": 15479, "mausoleum": 19049, "##\u0434": 29742, "princess": 4615, "##endez": 28787, "stroking": 14943, "substrate": 16305, "\u03b8": 1162, "motor": 5013, "buses": 7793, "##dden": 17101, "##\u02e2": 29717, "ironic": 19313, "galway": 14370, "##fting": 26169, "orbit": 8753, "pad": 11687, "1618": 29029, "paris": 3000, "tar": 16985, "prescott": 20719, "conscious": 9715, "curtains": 14694, "malay": 12605, "mommy": 20565, "trumpet": 9368, "exhaust": 15095, "250": 5539, "commented": 7034, "vickers": 18571, "derivatives": 16942, "seeking": 6224, "cobalt": 25627, "germans": 7074, "frown": 11330, "exercised": 17747, "##vera": 26061, "##wright": 26460, "##ang": 5654, "##ece": 26005, "shortened": 12641, "reminded": 6966, "italians": 16773, "1997": 2722, "[unused619]": 624, "predictable": 21425, "turkmenistan": 25432, "massachusetts": 4404, "invitations": 29492, "\u6e05": 1903, "timing": 10984, "milwaukee": 9184, "hastings": 12296, "jockey": 13989, "equivalence": 27841, "##nka": 25804, "##boro": 12691, "\u0254": 1112, "thailand": 6504, "whistled": 26265, "shaky": 15311, "resembling": 15525, "breathe": 7200, "caribbean": 7139, "janet": 9965, "gm": 13938, "mixer": 23228, "femme": 26893, "paints": 23262, "##rl": 12190, "firing": 7493, "council": 2473, "swearing": 25082, "scots": 12196, "sheath": 21867, "gravity": 8992, "aboriginal": 9757, "3rd": 3822, "updates": 14409, "##utation": 26117, "##leader": 19000, "##waite": 29601, "cabinets": 20053, "warrior": 6750, "mel": 11463, "reacher": 22970, "coinage": 25396, "pbs": 13683, "pig": 10369, "technique": 6028, "defiance": 19674, "##zle": 29247, "\u2282": 1610, "freeway": 10846, "##bit": 16313, "wheat": 10500, "##\u300f": 30170, "graf": 22160, "[unused831]": 836, "\u0906": 1312, "##\u30af": 30228, "caught": 3236, "skeletons": 24365, "[unused505]": 510, "leslie": 8886, "disorders": 10840, "deux": 24756, "skye": 16590, "engines": 5209, "domingo": 15586, "barrister": 19805, "tv": 2694, "cord": 11601, "##room": 9954, "alexandra": 10481, "folding": 12745, "alone": 2894, "anchored": 14453, "xl": 28712, "[unused530]": 535, "##ct": 6593, "publications": 5523, "\u05d5": 1246, "redeveloped": 28053, "##bbled": 12820, "[unused562]": 567, "##ney": 5420, "moon": 4231, "lucius": 15639, "##pton": 15857, "[unused135]": 140, "thoroughly": 12246, "devotion": 13347, "##uting": 20807, "subterranean": 28811, "mama": 9588, "miserable": 13736, "tracy": 10555, "malone": 16321, "mal": 15451, "emotions": 6699, "pr": 10975, "pisa": 25472, "\u1d64": 1509, "foolish": 13219, "recounted": 22906, "conscription": 26329, "##\u6f22": 30430, "buccaneers": 21629, "##gol": 24141, "##routed": 25849, "##lets": 13461, "week": 2733, "anson": 25435, "marking": 10060, "dairy": 11825, "miocene": 26926, "\u6625": 1867, "railway": 2737, "juliet": 13707, "##aking": 15495, "##\u0435": 15290, "aromatic": 25496, "managerial": 24465, "nfl": 5088, "indiana": 5242, "grabbing": 9775, "guyana": 18786, "tribe": 5917, "crystalline": 24628, "convincing": 13359, "longevity": 26906, "belize": 18867, "##a1": 27717, "186": 19609, "\u30fc": 1739, "frigates": 22833, "counts": 9294, "drinks": 8974, "placing": 6885, "relegation": 9591, "piercing": 14628, "differed": 19541, "supremacy": 22006, "yen": 18371, "sheffield": 8533, "angie": 14835, "##lay": 8485, "reflects": 11138, "revolutions": 25239, "1763": 18432, "finalists": 13527, "florian": 29517, "##ple": 10814, "ambiguity": 27637, "1910s": 28088, "cuts": 7659, "holloway": 20977, "afternoons": 24738, "premio": 23031, "servants": 8858, "irene": 12855, "##ope": 17635, "accomplish": 14570, "wrestlers": 14039, "geologic": 22125, "\u09ac": 1368, "dun": 24654, "##\u092c": 29865, "fire": 2543, "benton": 18685, "##gui": 25698, "paving": 28007, "nodes": 14164, "dialed": 21300, "kristina": 28802, "\u203f": 1534, "##bot": 18384, "darker": 9904, "##\u2193": 30114, "ceramic": 14692, "annals": 16945, "living": 2542, "programs": 3454, "##ering": 7999, "belfast": 10330, "heartbeat": 12251, "lincoln": 5367, "diminished": 15911, "moonlight": 11986, "##chio": 23584, "innate": 25605, "1697": 28690, "fremantle": 20358, "cores": 25562, "##kha": 15256, "foreigner": 29524, "complement": 13711, "curated": 17940, "homogeneous": 24854, "mara": 13955, "venus": 11691, "drury": 25663, "weakness": 11251, "dessert": 18064, "mentioned": 3855, "##\u0bbf": 29932, "quit": 8046, "benji": 27231, "th": 16215, "vito": 25550, "bringing": 5026, "evolved": 7964, "tak": 27006, "[unused242]": 247, "february": 2337, "eat": 4521, "turnpike": 17116, "##hawk": 17998, "argent": 23157, "nec": 26785, "floyd": 12305, "runes": 29161, "peripheral": 15965, "coptic": 27672, "organisation": 5502, "committing": 16873, "##ions": 8496, "sawyer": 13975, "dormant": 22170, "contributing": 8020, "onto": 3031, "real": 2613, "wash": 9378, "goa": 15244, "expression": 3670, "infrared": 14611, "re": 2128, "cognitive": 10699, "euroleague": 26093, "snapping": 15790, "##udi": 21041, "europe": 2885, "hang": 6865, "provisions": 8910, "tesla": 26060, "goose": 13020, "syracuse": 11736, "clothing": 5929, "poll": 8554, "mug": 14757, "adds": 9909, "violent": 6355, "staying": 6595, "bucks": 14189, "disease": 4295, "captures": 19566, "grenades": 21914, "##ther": 12399, "neighbour": 20065, "huron": 21899, "##aro": 10464, "precinct": 18761, "eighth": 5964, "adriatic": 23400, "other": 2060, "plymouth": 10221, "receptor": 10769, "macro": 26632, "minneapolis": 11334, "##zak": 20685, "motors": 9693, "##bourne": 11634, "du": 4241, "license": 6105, "thai": 7273, "\u0630": 1279, "\u5d0e": 1834, "broncos": 14169, "sabres": 26969, "forsyth": 29434, "shetland": 25552, "\u10e3": 1454, "pixel": 22138, "##ssen": 14416, "tracker": 27080, "commencing": 25819, "armoured": 11104, "macdonald": 10406, "developed": 2764, "winnipeg": 11093, "herald": 9536, "recommendation": 12832, "attend": 5463, "scandinavian": 17660, "vidal": 29259, "commonwealth": 5663, "affiliation": 12912, "signs": 5751, "seeker": 29444, "cummings": 20750, "formats": 11630, "bn": 24869, "intersection": 6840, "[unused909]": 914, "aerospace": 13395, "pot": 8962, "\u209c": 1571, "cove": 11821, "foyer": 16683, "uncomfortably": 22502, "dove": 10855, "turnout": 15512, "580": 23712, "luciano": 24512, "eastman": 24252, "cinderella": 21686, "blinds": 28279, "queen": 3035, "made": 2081, "folder": 19622, "singleton": 28159, "##\u0576": 29778, "celestial": 17617, "##nica": 12782, "cyclones": 26069, "consultant": 8930, "crossing": 5153, "##cation": 10719, "##vr": 19716, "draw": 4009, "disgust": 12721, "##pad": 15455, "##ythe": 26688, "##aw": 10376, "cylindrical": 18797, "homosexual": 15667, "drug": 4319, "[unused114]": 119, "privateer": 26790, "handgun": 28497, "plank": 24000, "##ate": 3686, "rebels": 8431, "hawaii": 7359, "##sack": 25607, "obscure": 14485, "peking": 27057, "\u3055": 1656, "seventeenth": 15425, "streamed": 18498, "wcw": 24215, "honour": 6225, "##\u0431": 29740, "exclusive": 7262, "lowers": 24950, "toes": 10393, "cents": 16653, "ernie": 14637, "dad": 3611, "guided": 8546, "chrysler": 17714, "velvet": 10966, "unsuitable": 25622, "french": 2413, "dale": 8512, "lend": 18496, "cheating": 16789, "##fast": 24333, "[unused695]": 700, "northern": 2642, "published": 2405, "bo": 8945, "clifford": 13894, "[unused985]": 990, "occupies": 14133, "dementia": 28767, "seized": 8243, "5000": 13509, "cramer": 29433, "climate": 4785, "##ometer": 18721, "hiding": 6318, "\u0570": 1228, "truncated": 25449, "##\u4ec1": 30284, "nile": 15179, "[unused36]": 37, "clawed": 22544, "##oor": 16506, "##bation": 23757, "cappella": 23013, "tides": 22487, "trusting": 19836, "tight": 4389, "playground": 14705, "[unused338]": 343, "decks": 19963, "saunders": 15247, "##turing": 16037, "##thermal": 23367, "fixtures": 17407, "yiddish": 20112, "ample": 20851, "scream": 6978, "neurons": 15698, "lucien": 11732, "ecstasy": 19069, "##ods": 20620, "##ania": 13241, "##cis": 22987, "december": 2285, "mar": 9388, "salvage": 18340, "minnie": 26188, "fortress": 7841, "hawkins": 13835, "robson": 23698, "##\u00bf": 29666, "lifestyle": 9580, "##\u2194": 30115, "curled": 8188, "incentive": 20438, "venerable": 24541, "behaved": 26979, "chamber": 4574, "##pher": 27921, "##mb": 14905, "[unused625]": 630, "treasures": 17605, "researched": 18800, "combo": 25025, "dinah": 26562, "signage": 29404, "musa": 23154, "familiarity": 24666, "unified": 10562, "critically": 11321, "bombs": 9767, "##unced": 22392, "##inatory": 28230, "##cies": 9243, "manifest": 19676, "##\u0644": 23673, "tennessee": 5298, "khalid": 21828, "donnell": 18016, "[unused989]": 994, "judah": 23022, "##\u4e0a": 30268, "##\u10dd": 29986, "nucleus": 13502, "prehistoric": 14491, "dante": 9649, "commissioner": 5849, "##uder": 29190, "##il": 4014, "mistake": 6707, "vector": 9207, "attackers": 17857, "tag": 6415, "decreased": 10548, "mortgage": 14344, "penal": 18476, "sane": 22856, "interruption": 24191, "##bek": 24597, "}": 1065, "\u65b9": 1863, "krakow": 14576, "bun": 21122, "irregularities": 28868, "[unused543]": 548, "nowadays": 13367, "club": 2252, "condemning": 28525, "according": 2429, "sportsman": 27168, "\u22c5": 1614, "incapable": 19907, "banged": 22843, "trickle": 26027, "emerald": 14110, "\u0909": 1313, "rippled": 26862, "##zman": 24340, "easter": 10957, "\u662d": 1868, "yan": 13619, "ballroom": 14307, "solemn": 19487, "##tov": 26525, "[unused567]": 572, "##sil": 27572, "##gh": 5603, "##rist": 15061, "##truct": 18300, "##ima": 9581, "colossal": 29523, "letter": 3661, "##\u5341": 30309, "ernesto": 22428, "engages": 24255, "descended": 9287, "comet": 15699, "playback": 18245, "deciduous": 22411, "##oes": 22504, "##iae": 19001, "##fall": 13976, "sergei": 14543, "interest": 3037, "brian": 4422, "##eis": 17580, "astor": 25159, "guzman": 22789, "001": 25604, "product": 4031, "die": 3280, "bypass": 11826, "##inal": 13290, "creativity": 14842, "##igraphy": 23132, "viper": 17947, "dialogue": 7982, "superstructure": 28391, "##isi": 17417, "asked": 2356, "users": 5198, "1909": 5556, "astronomy": 12799, "overcoming": 27363, "faux": 29276, "altered": 8776, "sash": 24511, "samsung": 19102, "##ppy": 27659, "outreach": 15641, "concerned": 4986, "remark": 17674, "##ilation": 29545, "maintenance": 6032, "atp": 12649, "macbeth": 25182, "spoil": 27594, "simulation": 12504, "stemmed": 27674, "[unused142]": 147, "##rs": 2869, "##bies": 20536, "\u00f0": 1098, "console": 10122, "consolidate": 24939, "[unused45]": 46, "packing": 14743, "participants": 6818, "[unused369]": 374, "##\u4eba": 30282, "mo": 9587, "medical": 2966, "[unused332]": 337, "shade": 8703, "##ty": 3723, "conical": 24750, "subtropical": 11935, "##chner": 28254, "elevations": 18166, "[unused115]": 120, "deco": 21933, "##ib": 12322, "ui": 21318, "injected": 19737, "resolutions": 18853, "knights": 7307, "fungus": 16622, "staging": 15308, "bahn": 17392, "installment": 18932, "orbiting": 26472, "[unused133]": 138, "johnson": 3779, "defunct": 11984, "ya": 8038, "elders": 13376, "juniper": 29425, "\u308b": 1687, "##ened": 6675, "translators": 28396, "comments": 7928, "improvised": 19641, "shelton": 22230, "accelerated": 14613, "wrongly": 29116, "raja": 10164, "absorbing": 20998, "nfc": 22309, "awarding": 21467, "venezuelan": 15332, "##ip": 11514, "zur": 17924, "##g": 2290, "cremated": 28376, "popcorn": 24593, "##achal": 24409, "antonio": 4980, "lied": 9828, "herd": 14906, "duchess": 11017, "meredith": 10635, "##nt": 3372, "##ula": 7068, "imprisonment": 10219, "##ag": 8490, "cultivation": 13142, "chosen": 4217, "instrumentation": 16015, "fl": 13109, "barbados": 16893, "photographer": 8088, "whoa": 23281, "declined": 6430, "organizes": 22013, "arrange": 13621, "reputed": 22353, "\u0456": 1213, "relaunched": 26391, "inner": 5110, "wally": 18202, "augsburg": 24362, "##ight": 18743, "##ona": 7856, "plume": 26888, "##laise": 25122, "wanderers": 14237, "eh": 15501, "deng": 26957, "##rted": 17724, "subject": 3395, "##lip": 15000, "negatively": 19762, "##ference": 25523, "room": 2282, "aristotle": 17484, "##emy": 26662, "skulls": 21542, "measurement": 10903, "highland": 10983, "auditory": 28042, "painted": 4993, "defending": 6984, "196": 20035, "identity": 4767, "1670": 26253, "##sies": 14625, "]": 1033, "wo": 24185, "##king": 6834, "sparsely": 24961, "##\u10d3": 29977, "airspace": 29357, "glancing": 10167, "humiliation": 21171, "1603": 25625, "[unused865]": 870, "elbow": 8999, "fisheries": 13424, "demonstrators": 28337, "supportive": 16408, "[unused682]": 687, "descend": 18855, "##sz": 17112, "bernardo": 21175, "##pressive": 27484, "banco": 28678, "lie": 4682, "ode": 24040, "civilizations": 24784, "preservation": 8347, "[unused16]": 17, "[unused762]": 767, "challenge": 4119, "disturbances": 24535, "lattice": 17779, "math": 8785, "cheung": 22632, "null": 19701, "adelaide": 7364, "translucent": 22897, "intentional": 21249, "uv": 23068, "virus": 7865, "projected": 11310, "gathered": 5935, "papal": 12156, "possessed": 8679, "proponents": 20401, "affiliates": 18460, "silly": 10021, "[unused24]": 25, "ce": 8292, "\u0648": 1298, "##rigues": 22934, "##nburg": 22642, "\u571f": 1801, "turkey": 4977, "quentin": 15969, "planner": 24555, "salts": 23480, "patting": 26085, "endorsement": 20380, "kentucky": 5612, "##\u306c": 30195, "augustus": 11668, "assistants": 16838, "cocktail": 18901, "##tions": 9285, "\u27e8": 1629, "wheels": 7787, "governors": 11141, "seasons": 3692, "\u2122": 1580, "##thi": 15222, "cradle": 18293, "ray": 4097, "meeting": 3116, "u2": 23343, "##emon": 26941, "tolerated": 25775, "unemployed": 18787, "battleship": 17224, "##culture": 14561, "[unused163]": 168, "farmers": 6617, "##imi": 27605, "##chu": 20760, "##ants": 11390, "sparks": 12300, "480": 17295, "##rse": 22573, "##placed": 22829, "qing": 13282, "townland": 23635, "scene": 3496, "\u516b": 1771, "arch": 7905, "##yman": 17906, "[unused872]": 877, "\u3086": 1683, "windsor": 10064, "prophets": 23172, "excuses": 21917, "warnings": 16234, "heinz": 17655, "ceo": 5766, "traced": 9551, "##ians": 7066, "##cave": 27454, "popularly": 16071, "peach": 18237, "##ipe": 15457, "sophia": 9665, "afar": 28978, "crossings": 20975, "revolution": 4329, "col": 8902, "rbi": 16929, "960": 26637, "damaging": 15011, "##hop": 18471, "sagged": 26719, "[unused702]": 707, "##bourg": 20431, "shades": 13178, "roar": 11950, "##sse": 11393, "measured": 7594, "##jack": 17364, "storing": 23977, "##per": 4842, "##pis": 18136, "remain": 3961, "enterprises": 9926, "swat": 25414, "##na": 2532, "[unused765]": 770, "blacksmith": 20987, "pristine": 27375, "\u0458": 1214, "ge": 16216, "contrasted": 22085, "[unused139]": 144, "scary": 12459, "brooks": 8379, "nadia": 14942, "wikipedia": 16948, "sorcerer": 23324, "reception": 7684, "canon": 9330, "bobbie": 27731, "##hine": 14014, "ethiopia": 11154, "##ou": 7140, "theoretical": 9373, "\u1d35": 1493, "##lice": 13231, "orb": 19607, "newmarket": 22489, "shannon": 10881, "stryker": 25429, "[unused537]": 542, "transported": 9687, "##net": 7159, "promotes": 14067, "opt": 23569, "apparently": 4593, "lebanon": 8341, "rica": 11509, "poet": 4802, "\u793e": 1924, "polly": 17543, "nickel": 15519, "##ye": 6672, "subjective": 20714, "##wark": 24298, "hutton": 20408, "##zer": 6290, "pigment": 28815, "valentin": 24632, "##we": 8545, "##df": 20952, "##urrent": 29264, "magazine": 2932, "scrap": 15121, "give": 2507, "cinematic": 21014, "##isches": 27239, "mile": 3542, "laura": 6874, "lung": 11192, "encompassed": 24058, "lacked": 10858, "ligament": 25641, "##ush": 20668, "pinning": 22866, "crew": 3626, "silence": 4223, "republicans": 10643, "ads": 14997, "kicked": 6476, "argyll": 27365, "enabled": 9124, "##name": 18442, "blond": 8855, "bunny": 16291, "27th": 15045, "##weed": 18041, "aluminum": 13061, "198": 20003, "##ibly": 17296, "organizers": 18829, "lump": 15116, "java": 9262, "mcqueen": 29265, "##kled": 19859, "less": 2625, "superman": 10646, "teen": 9458, "analyzing": 20253, "incidence": 18949, "stock": 4518, "sneak": 13583, "dragons": 8626, "##erie": 17378, "equals": 19635, "##glia": 20011, "felony": 24648, "pic": 27263, "third": 2353, "##cio": 9793, "families": 2945, "williams": 3766, "paige": 17031, "pornography": 19378, "loomed": 24358, "lori": 18669, "1749": 24704, "lawson": 14577, "\u5fe0": 1852, "dip": 16510, "ethnicity": 18240, "##zquez": 22938, "kristin": 25130, "vimes": 28482, "sends": 10255, "\u30a2": 1693, "resisting": 22363, "obsolete": 15832, "goldstein": 25507, "fleming": 13779, "mv": 19842, "vantage": 27274, "##eka": 19025, "[unused512]": 517, "[unused534]": 539, "##rea": 16416, "babu": 20948, "bred": 13680, "[unused131]": 136, "reinforced": 11013, "comfortably": 18579, "originally": 2761, "severity": 18976, "[unused25]": 26, "amounts": 8310, "madagascar": 11934, "##kovsky": 23829, "##inga": 28234, "urgency": 19353, "woody": 13703, "##ished": 13295, "return": 2709, "navarre": 21260, "horseshoe": 23449, "##ioms": 29178, "core": 4563, "underlying": 10318, "[unused444]": 449, "\u208e": 1559, "midfield": 23071, "[unused436]": 441, "berry": 10498, "cornerstone": 23354, "##\u04cf": 29765, "sm": 15488, "tendencies": 20074, "lore": 19544, "##ault": 23505, "initiated": 7531, "testosterone": 25937, "cloudy": 24706, "\u307e": 1677, "forgiven": 24280, "##mes": 7834, "##mon": 8202, "telling": 4129, "chiba": 27368, "cavaliers": 25096, "whorls": 25637, "##uin": 20023, "[unused859]": 864, "dimitri": 15953, "warmer": 16676, "execute": 15389, "##dman": 21804, "[unused659]": 664, "commissioners": 12396, "##neo": 23585, "imagined": 8078, "chased": 13303, "cnn": 13229, "\u6238": 1857, "narrower": 22546, "##yev": 17240, "saxe": 24937, "got": 2288, "1800": 9807, "uneasy": 15491, "imposing": 16625, "##tors": 6591, "mercy": 8673, "sediment": 19671, "kitchens": 26051, "hurricane": 7064, "flying": 3909, "##zi": 5831, "shepard": 22189, "[unused775]": 780, "styles": 6782, "deteriorating": 28440, "##\u8a01": 30475, "restoration": 6418, "nineteenth": 9137, "monkey": 10608, "brutal": 12077, "forcibly": 20951, "brain": 4167, "##ander": 12243, "xiii": 15031, "2000": 2456, "far": 2521, "timothy": 10805, "jeopardy": 26604, "substitutes": 29200, "mistress": 10414, "petersburg": 8062, "nominee": 9773, "subdued": 20442, "warily": 23625, "##hos": 15006, "chromosome": 16706, "##\u5317": 30307, "1920s": 6641, "temporal": 15850, "##o": 2080, "certainly": 5121, "reconciliation": 16088, "gubernatorial": 19100, "##combe": 14149, "chatham": 16727, "##rrick": 24999, "manufacturer": 7751, "skate": 17260, "##\u0f54": 29966, "\u09b7": 1375, "##akh": 27573, "##fields": 15155, "ensemble": 7241, "##enes": 28553, "urged": 9720, "genus": 3562, "estimated": 4358, "ticket": 7281, "flags": 9245, "libretto": 17621, "##ente": 15781, "##rricular": 21231, "[unused508]": 513, "pitched": 8219, "brittany": 12686, "pack": 5308, "##ifer": 23780, "converting": 16401, "liberated": 19553, "##ably": 8231, "obe": 15578, "wheelbase": 29141, "philip": 5170, "underground": 5230, "[unused684]": 689, "dogg": 28844, "##\u300b": 30166, "##le": 2571, "floors": 8158, "##xin": 20303, "##ught": 18533, "##ddling": 21814, "emerges": 19391, "quinn": 8804, "1947": 4006, "doe": 18629, "morphology": 19476, "inclination": 21970, "delivery": 6959, "downing": 22501, "wider": 7289, "hindwings": 15998, "##rao": 25667, "enjoyable": 22249, "comparatively": 20172, "barrio": 25676, "pierre": 5578, "craft": 7477, "[unused58]": 59, "fu": 11865, "theatre": 3004, "belonged": 6272, "coordinating": 19795, "\u0f51": 1428, "shop": 4497, "hear": 2963, "nielsen": 13188, ";": 1025, "peacock": 18931, "dowry": 29603, "badge": 10780, "union": 2586, "absurd": 18691, "##llary": 24435, "wrestlemania": 28063, "claudius": 25017, "connolly": 21018, "suv": 15620, "counterpart": 13637, "##\u7701": 30446, "madonna": 11284, "1975": 3339, "##point": 8400, "strawberry": 16876, "halo": 17201, "##form": 14192, "hilltop": 25566, "philanthropy": 29291, "##\u5929": 30337, "##\u0f53": 29965, "aden": 16298, "\u5fa1": 1847, "drummond": 19266, "rushing": 8375, "overly": 15241, "##itor": 15660, "ideal": 7812, "columnist": 13317, "sh": 14021, "specimens": 9908, "##lord": 19980, "regatta": 26848, "##dot": 27364, "partition": 13571, "enzymes": 16285, "hulk": 16009, "totally": 6135, "extracted": 15901, "##pin": 8091, "is": 2003, "##morphism": 19539, "synthesizers": 22211, "whereas": 6168, "satire": 18312, "chronic": 11888, "meritorious": 22053, "nes": 24524, "paralympic": 17029, "pounds": 7038, "swiftly": 12128, "permitting": 24523, "1936": 4266, "eldest": 7310, "reference": 4431, "bag": 4524, "behave": 16582, "lighted": 26390, "##\u897f": 30473, "bordeaux": 16384, "twisting": 12814, "armchair": 29372, "appointments": 14651, "facial": 13268, "honors": 7836, "petitioned": 22527, "courtship": 28592, "##romatic": 23645, "mouse": 8000, "comedians": 25119, "harness": 17445, "scented": 25738, "resorts": 16511, "schoolhouse": 26301, "##urt": 19585, "envisioned": 18035, "liu": 8607, "dolphins": 13600, "uniting": 26112, "restart": 23818, "##down": 7698, "356": 27509, "[unused143]": 148, "##rnier": 28484, "wolf": 4702, "followers": 8771, "##fy": 12031, "##oco": 24163, "\u6f22": 1904, "daniel": 3817, "posts": 8466, "eton": 21687, "congresses": 24460, "ethel": 19180, "colleen": 28385, "gifted": 12785, "##mmy": 18879, "vague": 13727, "orphanage": 18504, "follows": 4076, "[unused822]": 827, "bother": 8572, "##ps": 4523, "1794": 13199, "##wen": 12449, "brood": 25565, "fried": 13017, "criterion": 19229, "##rge": 20800, "firm": 3813, "largest": 2922, "##hc": 16257, "11": 2340, "outsiders": 22361, "##pg": 26952, "classifications": 26739, "\u30e7": 1730, "manage": 6133, "inflicted": 17303, "adaptations": 17241, "clutch": 15357, "bargaining": 21990, "african": 3060, "##sir": 29481, "##ments": 8163, "1660": 17954, "istanbul": 9960, "appreciation": 12284, "mechanized": 23387, "manly": 19385, "sevilla": 29363, "divers": 18612, "england": 2563, "doncaster": 18895, "stunned": 9860, "insisted": 7278, "710": 27671, "\u3059": 1658, "machinery": 10394, "routines": 23964, "tendency": 11765, "##ception": 24422, "phd": 8065, "##phy": 21281, "##hur": 24572, "urgently": 25478, "##kis": 14270, "##rger": 25858, "arranged": 5412, "##graphs": 27341, "roared": 14242, "fuscous": 18121, "smallpox": 25765, "wealthiest": 27809, "champagne": 12327, "broadcaster": 11995, "cbn": 21824, "compose": 17202, "executions": 22679, "liberalism": 26505, "incidents": 10444, "##\u2212": 22543, "invasion": 5274, "1675": 27194, "intently": 16170, "raion": 24235, "correspondent": 11370, "##ning": 5582, "shorts": 9132, "legion": 8009, "nationalism": 14594, "maia": 23478, "##kai": 11151, "1992": 2826, "salad": 16521, "##ota": 17287, "bridget": 19218, "60": 3438, "unveiled": 11521, "##lage": 20679, "##uru": 14129, "surge": 12058, "pali": 28619, "ley": 25866, "##ms": 5244, "##bah": 24206, "orion": 18747, "twinned": 25901, "##gg": 13871, "baths": 19692, "greene": 11006, "insulted": 23637, "valiant": 24329, "chronicle": 9519, "stranger": 7985, "[unused804]": 809, "afternoon": 5027, "spelled": 11479, "##\u30bf": 30235, "##\u0f44": 29963, "victim": 6778, "wanting": 5782, "jennifer": 7673, "tax": 4171, "beard": 10154, "copied": 15826, "cleavage": 28691, "winkler": 20472, "manages": 9020, "strolled": 20354, "##eux": 20860, "forge": 15681, "dublin": 5772, "creepy": 17109, "confident": 9657, "viruses": 18191, "spat": 14690, "simulator": 25837, "maybe": 2672, "##core": 17345, "scribe": 27789, "publisher": 6674, "stanton": 15845, "sava": 28350, "[unused50]": 51, "[unused145]": 150, "any": 2151, "smoking": 9422, "[unused64]": 65, "secretly": 10082, "changing": 5278, "magnificent": 12047, "197": 19975, "gaps": 16680, "##oza": 25036, "ache": 12336, "##\u2071": 30072, "##\u3055": 30182, "##nov": 16693, "listened": 7791, "##vana": 27313, "shrieked": 22383, "##entation": 19304, "##nte": 10111, "prix": 5431, "utterly": 12580, "clint": 16235, "bern": 16595, "firearms": 13780, "atari": 18978, "##tani": 17681, "[unused680]": 685, "hostage": 13446, "pol": 14955, "oddly": 15056, "##\u0ba8": 29922, "werewolf": 12797, "jaw": 5730, "bandwidth": 20235, "atlantic": 4448, "crusader": 25237, "eyebrow": 9522, "ismail": 19214, "##day": 10259, "##valent": 24879, "groan": 13001, "convenient": 14057, "learnt": 20215, "##\u76ee": 30444, "finances": 16156, "depends": 9041, "diesel": 7937, "##ere": 7869, "philosophical": 9569, "his": 2010, "cicero": 23080, "\u0445": 1200, "charlotte": 5904, "patrolling": 24248, "geese": 28519, "encounter": 8087, "discomfort": 17964, "##dust": 24220, "##dly": 18718, "tick": 16356, "##ivating": 17441, "parcel": 20463, "caring": 11922, "eccentric": 18080, "bank": 2924, "207": 19843, "kurdistan": 23627, "amnesty": 16154, "panzer": 16946, "verandah": 26153, "153": 16710, "quran": 21288, "\u3081": 1680, "inhabited": 9613, "##rgos": 22280, "\u5143": 1769, "56": 5179, "##\u9ad8": 30507, "##me": 4168, "collateral": 24172, "tel": 10093, "##\u05ea": 29813, "\u00a35": 27813, "historic": 3181, "[unused685]": 690, "##\u66f2": 30396, "sited": 28603, "oil": 3514, "##do": 3527, "scrub": 18157, "couch": 6411, "veteran": 8003, "harassment": 16011, "deserves": 17210, "deficit": 15074, "landed": 5565, "creole": 21414, "##ify": 8757, "adjustments": 24081, "drafts": 28967, "rave": 23289, "\u03b6": 1160, "birthplace": 14508, "weekly": 4882, "adored": 28456, "##logical": 9966, "28": 2654, "slug": 23667, "|": 1064, "prospects": 16746, "exasperated": 24379, "fae": 17282, "##eh": 11106, "clancy": 24530, "leach": 24520, "relics": 16712, "wrestle": 25579, "arun": 28217, "nation": 3842, "crystal": 6121, "\u11ab": 1485, "warned": 7420, "##tructing": 26310, "cargo": 6636, "nepal": 8222, "archaic": 19261, "wings": 4777, "123": 13138, "owl": 13547, "guangzhou": 18693, "dragging": 11920, "\u6bd4": 1890, "informed": 6727, "lane": 4644, "nature": 3267, "wound": 6357, "tomato": 20856, "##\u8c9d": 30478, "shale": 18488, "gastropod": 10953, "always": 2467, "blockade": 15823, "beetles": 14538, "##ium": 5007, "wonder": 4687, "pursed": 21954, "flared": 14937, "leads": 5260, "##rz": 15378, "considers": 10592, "aerodrome": 23843, "dull": 10634, "anymore": 4902, "arising": 17707, "##leigh": 13615, "##\uff1a": 30519, "[unused863]": 868, "##by": 3762, "tchaikovsky": 25900, "religions": 11822, "##bro": 12618, "crimean": 20516, "irresistible": 27149, "##good": 24146, "##\u05d4": 29128, "modular": 19160, "paragraph": 20423, "##ulu": 20391, "##yad": 25152, "fight": 2954, "france": 2605, "##itis": 13706, "##gger": 13327, "caf": 24689, "laundry": 14533, "garment": 19002, "revisited": 24354, "entertainer": 21751, "##\u57ce": 30330, "brunswick": 9192, "dizzy": 14849, "protesting": 21248, "shirt": 3797, "kenyan": 20428, "royce": 14789, "willard": 19138, "coventry": 13613, "fluids": 20989, "toys": 10899, "##oz": 18153, "[unused65]": 66, "[unused845]": 850, "mecklenburg": 22007, "nominal": 15087, "##\u1d2c": 30026, "govern": 21208, "sliding": 8058, "##uary": 24384, "averaged": 11398, "respectively": 4414, "cavity": 17790, "pomeranian": 17717, "uptown": 28539, "handsome": 8502, "djs": 23837, "negligence": 27988, "##ych": 17994, "suspiciously": 21501, "welcome": 6160, "sunny": 11559, "136": 15407, "backyard": 16125, "whirled": 17097, "encouragement": 15846, "halftime": 22589, "##\u305d": 30186, "demeanor": 21745, "greece": 5483, "##dded": 19520, "vines": 16702, "economic": 3171, "device": 5080, "hind": 17666, "wylie": 29152, "prevailed": 19914, "committee": 2837, "boasted": 23390, "cried": 6639, "cambridgeshire": 24197, "kraft": 26680, "legally": 10142, "630": 23609, "orgasm": 13892, "bang": 9748, "xv": 15566, "widened": 8723, "motorcycle": 9055, "carla": 17081, "##lor": 10626, "##llus": 20159, "pains": 20398, "chichester": 23406, "##ured": 12165, "##dened": 24589, "flawed": 25077, "##growth": 26982, "##wice": 23425, "strength": 3997, "domains": 13100, "##\u09a8": 29902, "frankenstein": 22478, "pune": 16920, "psychiatrist": 18146, "1625": 26263, "mater": 16289, "awake": 8300, "skiing": 12701, "nad": 23233, "gingerly": 26961, "##\u02e3": 29718, "guide": 5009, "mastering": 11495, "demons": 7942, "communicated": 24162, "304": 23859, "##enay": 27727, "##\u02bbi": 26444, "##pressed": 19811, "##\u767d": 30441, "spawning": 27957, "perspectives": 15251, "[unused132]": 137, "remodeled": 27170, "[unused415]": 420, "poland": 3735, "##cini": 27085, "lighter": 9442, "nasa": 9274, "yeast": 21957, "##ulio": 24825, "synchronized": 25549, "taken": 2579, "cubs": 12469, "burnham": 25295, "##gaard": 18839, "upward": 10745, "##tation": 12516, "katharine": 25739, "filmfare": 25648, "stallion": 19122, "broke": 3631, "carroll": 10767, "##lain": 15987, "brody": 19631, "attractions": 13051, "intercepted": 16618, "##\u4f8d": 30291, "kicker": 22652, "answers": 6998, "savage": 9576, "cynical": 26881, "failed": 3478, "##suka": 26544, "chose": 4900, "racks": 27259, "montrose": 24990, "##ths": 26830, "parameters": 11709, "teaching": 4252, "##tley": 18492, "fiction": 4349, "speeds": 10898, "abu": 8273, "season": 2161, "soon": 2574, "nathaniel": 13961, "viaduct": 20596, "barre": 23189, "acronym": 20137, "against": 2114, "1884": 6988, "amazon": 9733, "vietnam": 5148, "\u0649": 1299, "reason": 3114, "link": 4957, "##liness": 20942, "haitian": 21404, "##go": 3995, "expects": 24273, "physiology": 16127, "prostitutes": 20833, "supplemented": 20585, "curving": 21439, "218": 20741, "scrutiny": 17423, "iphone": 18059, "##raphic": 20721, "forth": 5743, "##ova": 7103, "\u516c": 1772, "compromise": 12014, "##\u0b9f": 29920, "##sville": 9337, "manufacturers": 8712, "246": 22376, "konrad": 22958, "##29": 24594, "consultative": 28581, "##nac": 18357, "injured": 5229, "dino": 22412, "\u967d": 1973, "archive": 8756, "argument": 6685, "objected": 15959, "##lm": 13728, "##wei": 19845, "places": 3182, "representing": 5052, "tame": 24763, "figure": 3275, "napoli": 29485, "lagos": 16738, "passages": 13768, "##med": 7583, "##\u9547": 30492, "braden": 27232, "##ric": 7277, "mont": 18318, "\u2154": 1582, "deputy": 4112, "https": 16770, "pow": 23776, "cross": 2892, "supervised": 13588, "postseason": 17525, "elephant": 10777, "##ok": 6559, "main": 2364, "pipeline": 13117, "##bella": 21700, "breakout": 25129, "##meo": 26247, "##sts": 12837, "elf": 17163, "print": 6140, "declaring": 13752, "original": 2434, "mp": 6131, "hold": 2907, "1792": 13414, "skies": 15717, "highlighting": 20655, "freighter": 27945, "##+": 29622, "slavic": 13838, "cuisine": 12846, "mathew": 25436, "decades": 5109, "stewart": 5954, "arrangement": 6512, "##her": 5886, "harrisburg": 24569, "incline": 27461, "tay": 28117, "scent": 6518, "relaxed": 8363, "lunch": 6265, "dishes": 10447, "synthesizer": 13564, "clung": 14752, "liszt": 26273, "absolutely": 7078, "bruno": 10391, "panda": 25462, "under": 2104, "tasmanian": 21394, "reports": 4311, "footballers": 27784, "courthouse": 10816, "metadata": 27425, "##lander": 22691, "[unused459]": 464, "induced": 10572, "##wine": 21924, "mint": 12927, "accelerating": 29494, "##\u30ec": 30260, "##reate": 29313, "sanskrit": 11353, "continental": 6803, "##\u5ddd": 30361, "touch": 3543, "difficulties": 8190, "reliefs": 27670, "highly": 3811, "\u677e": 1880, "bald": 13852, "nissan": 16509, "targets": 7889, "appetite": 18923, "accidental": 17128, "apprentice": 13357, "hamid": 24811, "lionel": 14377, "sherman": 11011, "[unused774]": 779, "oblivious": 18333, "heightened": 21106, "functionality": 15380, "1922": 4798, "satisfied": 8510, "##mage": 26860, "steal": 8954, "##avia": 15164, "degraded": 26131, "sinn": 26403, "dealers": 16743, "giving": 3228, "diaz": 12526, "[unused402]": 407, "ferocious": 27863, "gentlemen": 11218, "lai": 21110, "##kam": 27052, "gujarati": 26428, "1913": 5124, "ramp": 13276, "loops": 15932, "dangerous": 4795, "##aurus": 17342, "northeastern": 8763, "2000s": 8876, "ornaments": 24005, "evidence": 3350, "australian": 2827, "roast": 25043, "statement": 4861, "##min": 10020, "misses": 22182, "rubs": 28860, "amos": 13744, "distinguish": 10782, "worm": 15485, "nilsson": 29376, "averages": 20185, "dmitri": 28316, "surgeon": 9431, "guessing": 16986, "evergreen": 16899, "##dom": 9527, "unlike": 4406, "falling": 4634, "chasing": 11777, "disciplines": 12736, "fiona": 13073, "toni": 16525, "spinning": 9419, "##ulously": 21227, "clicking": 22042, "##kian": 28545, "jung": 11810, "##sibility": 28255, "vu": 24728, "parana": 28383, "\u5e1d": 1838, "##lette": 27901, "hays": 29051, "\u00bc": 1091, "##rated": 9250, "[unused329]": 334, "filmed": 6361, "others": 2500, "##sty": 21756, "trainer": 10365, "##lat": 20051, "assumed": 5071, "jonas": 10680, "1821": 11723, "freeman": 11462, "demonstrates": 16691, "1937": 4347, "##cene": 17968, "hush": 20261, "kilkenny": 17131, "quan": 24110, "nonlinear": 27400, "lease": 10084, "standard": 3115, "prostitute": 19215, "organic": 7554, "\u6ca2": 1898, "georgetown": 12982, "desk": 4624, "clasped": 16763, "legislation": 6094, "##vot": 22994, "vargas": 20556, "[unused868]": 873, "##\u30a3": 30220, "cr": 13675, "returned": 2513, "##buro": 23670, "comprised": 11539, "replaces": 20736, "pussy": 22418, "sanitary": 25480, "1957": 3890, "lance": 9993, "choices": 9804, "butler": 7055, "bland": 20857, "hog": 27589, "singapore": 5264, "aviv": 12724, "indicating": 8131, "snarled": 15022, "schumann": 29448, "balance": 5703, "prelude": 19508, "##chy": 11714, "gleamed": 25224, "combination": 5257, "##\u6cbb": 30426, "stairs": 5108, "sabah": 22515, "##erly": 12561, "laird": 21964, "single": 2309, "fabian": 21174, "honeymoon": 19227, "nokia": 22098, "gem": 17070, "tyrone": 18770, "##aker": 22626, "band": 2316, "\u0131": 1104, "consideration": 9584, "nato": 10079, "isabelle": 13942, "172": 18253, "spreads": 20861, "objects": 5200, "volunteers": 7314, "lasts": 16180, "chase": 5252, "mosaic": 16061, "afro": 17694, "##nsed": 27730, "\u2077": 1541, "##lmer": 23398, "bearing": 7682, "liverpool": 6220, "running": 2770, "freeing": 22198, "##yse": 23274, "##rock": 16901, "##folding": 21508, "kidnap": 22590, "practically": 8134, "participate": 5589, "sums": 20571, "prefix": 17576, "pamphlet": 19899, "##olic": 23518, "281": 22955, "analysis": 4106, "jimi": 27624, "algorithm": 9896, "##yer": 10532, "shaft": 9093, "flutes": 28453, "##masters": 27751, "antoinette": 28429, "think": 2228, "tossing": 15021, "evolve": 19852, "\u306a": 1667, "yellowstone": 29231, "philosophers": 17586, "shopping": 6023, "phi": 13569, "tickets": 9735, "[unused560]": 565, "##\u0f51": 29964, "memorial": 3986, "##\u0647": 14157, "##ratic": 23671, "##rmed": 29540, "camille": 16675, "understands": 19821, "et": 3802, "jax": 13118, "upbringing": 24615, "funding": 4804, "realizing": 9301, "sacrifice": 8688, "beds": 9705, "ironically": 18527, "marek": 29318, "[unused383]": 388, "##ica": 5555, "tortricidae": 27683, "lauderdale": 23520, "##haling": 23896, "versus": 6431, "wink": 16837, "hailey": 21664, "feldman": 26908, "differently": 11543, "auf": 21200, "order": 2344, "##idge": 13623, "##itch": 20189, "acute": 11325, "eyeing": 19285, "colonial": 5336, "mika": 27857, "##\u9577": 30493, "competed": 3879, "prohibiting": 26325, "244": 24194, "psychologist": 15034, "1784": 16496, "brightened": 28996, "##fires": 26332, "conclude": 16519, "59": 5354, "genevieve": 20245, "valve": 10764, "zipper": 22082, "vitro": 25714, "stuffing": 28652, "rest": 2717, "responsible": 3625, "previous": 3025, "steals": 15539, "[unused724]": 729, "needles": 17044, "##gen": 6914, "[unused470]": 475, "scenario": 11967, "##bled": 23242, "proven": 10003, "rowland": 20539, "schleswig": 21173, "##yne": 9654, "luton": 17807, "##tment": 21181, "pueblo": 18273, "receiver": 8393, "hay": 10974, "lyrical": 16376, "tugging": 17100, "\u0679": 1301, "everton": 18022, "corner": 3420, "##rre": 14343, "reel": 15934, "palais": 22113, "1658": 28944, "gotta": 10657, "jocelyn": 23786, "##lston": 21540, "arm": 2849, "[unused335]": 340, "##nai": 26416, "friday": 5958, "prostitution": 15016, "##way": 4576, "nietzsche": 28898, "##cars": 20745, "##\u0917": 29853, "oven": 17428, "plead": 25803, "radiated": 23000, "gangster": 20067, "##itude": 18679, "[unused561]": 566, "nadu": 10703, "##tub": 28251, "dancers": 10487, "##roid": 22943, "##uven": 27346, "creeping": 18266, "remained": 2815, "trams": 19216, "bleed": 19501, "guadalajara": 22887, "missionaries": 11743, "because": 2138, "##phobic": 20200, "##gel": 12439, "gould": 14913, "renaissance": 8028, "plaintiffs": 23953, "surplus": 15726, "jared": 8334, "hidden": 5023, "morgan": 5253, "##gong": 17036, "neighbouring": 9632, "raoul": 22063, "271": 25103, "##most": 11800, "northernmost": 22037, "lifespan": 26462, "[unused285]": 290, "median": 3991, "[unused303]": 308, "hans": 7003, "marin": 16400, "benin": 21164, "onion": 20949, "##elles": 22869, "jody": 27562, "##bridge": 6374, "surrender": 7806, "horseback": 19926, "[unused991]": 996, "##53": 22275, "9th": 6280, "hugely": 27564, "ant": 14405, "providence": 11293, "##craft": 10419, "##istle": 24242, "bribery": 27748, "objectives": 11100, "muslim": 5152, "flushing": 23519, "captained": 16041, "archival": 22796, "##\u05db": 29798, "juvenile": 11799, "agrees": 10217, "og": 13958, "crowds": 12783, "##ma": 2863, "yarmouth": 28792, "como": 18609, "[unused554]": 559, "napkin": 20619, "\u7687": 1917, "lived": 2973, "casino": 9270, "\u1d4d": 1500, "confirm": 12210, "valleys": 12467, "undefeated": 15188, "edmund": 9493, "winters": 12214, "downloadable": 26720, "eerie": 18823, "operas": 14281, "sings": 10955, "fresno": 20840, "motorsport": 21044, "candidacy": 17057, "glen": 8904, "bays": 13933, "glacier": 10046, "##ud": 6784, "##ags": 26454, "nikki": 14470, "moan": 13673, "mandarin": 15831, "pet": 9004, "rebranded": 18233, "ict": 25891, "1931": 4739, "inn": 7601, "opinions": 10740, "grange": 18203, "##tain": 18249, "faber": 21720, "theorists": 28442, "mines": 7134, "##\u56d7": 30323, "\u0433": 1183, "ff": 21461, "oclc": 12258, "aztec": 25245, "likes": 7777, "idol": 10282, "button": 6462, "amour": 21518, "contingent": 15445, "wrestler": 10706, "internationale": 21339, "triangle": 9546, "##puted": 29462, "deborah": 15555, "destroy": 6033, "viscount": 12182, "convex": 18309, "carl": 5529, "1852": 8784, "damien": 12587, "210": 12875, "civilized": 25825, "##tious": 20771, "tess": 15540, "tide": 10401, "op": 6728, "reasons": 4436, "##uto": 16161, "hughes": 8099, "##adt": 18727, "##sions": 27466, "humanoid": 28051, "seneca": 21224, "##\u0452": 29758, "unauthorized": 24641, "[unused887]": 892, "##ia": 2401, "29": 2756, "##lto": 23223, "\u0f42": 1426, "swami": 20087, "somalia": 14717, "organist": 16397, "nuremberg": 19346, "arches": 13540, "scotland": 3885, "hopeless": 20625, "inched": 25330, "vary": 8137, "##ini": 5498, "thumped": 28963, "remedy": 19519, "humming": 20364, "already": 2525, "##torium": 24390, "rolf": 23381, "anywhere": 5973, "[unused424]": 429, "munich": 7469, "said": 2056, "flynn": 13259, "unpaid": 23850, "##lynn": 27610, "ngo": 17895, "rye": 20926, "rosa": 9508, "wetland": 22217, "clauses": 24059, "##ats": 11149, "chart": 3673, "\u624b": 1858, "\u2018": 1520, "ah": 6289, "bacon": 11611, "##sor": 21748, "rumours": 19200, "predictions": 20932, "\u0930": 1333, "##kson": 26579, "##oria": 11069, "deepest": 17578, "##oop": 18589, "benoit": 21721, "\u00b0f": 8157, "##obe": 20891, "[unused187]": 192, "hearings": 19153, "pensions": 22024, "dripping": 14309, "malibu": 29047, "leinster": 15684, "mans": 16042, "salesman": 18968, "orphans": 21478, "stalled": 20659, "vietnamese": 9101, "custody": 9968, "cult": 8754, "##\u05e3": 29806, "[unused243]": 248, "##you": 29337, "beverages": 21705, "ordinance": 16692, "[unused656]": 661, "sb": 24829, "thick": 4317, "##otic": 20214, "middlesex": 13654, "1951": 4131, "implied": 13339, "directory": 14176, "specialist": 8325, "qi": 18816, "spirituality": 21244, "4th": 4343, "squadron": 3704, "barnes": 9957, "##umb": 25438, "expeditionary": 15372, "ely": 20779, "stir": 16130, "greta": 26111, "##\u06be": 29844, "crocodile": 21843, "sept": 17419, "gears": 19456, "##\u09a3": 29897, "##ailing": 29544, "##stadt": 21543, "gi": 21025, "millimetres": 13388, "rugby": 4043, "vest": 17447, "mc": 11338, "##itaire": 29422, "299": 25926, "rupert": 14641, "madame": 10602, "herman": 11458, "\u09a1": 1360, "meaning": 3574, "vineyard": 18621, "bandage": 24446, "[unused813]": 818, "##oon": 7828, "singh": 5960, "emma": 5616, "bothered": 11250, "airport": 3199, "cody": 13326, "quasi": 17982, "judging": 13325, "waited": 4741, "##\u0142": 18818, "accessed": 11570, "marino": 17185, "miracle": 9727, "##\u30cf": 30244, "crimes": 6997, "##ary": 5649, "21st": 7398, "[unused256]": 261, "quarterback": 9074, "##drome": 29171, "##lier": 14355, "italy": 3304, "##nction": 27989, "##ading": 23782, "triple": 6420, "constituents": 24355, "bloomfield": 25584, "##ame": 14074, "behaviour": 9164, "flinched": 19201, "mg": 11460, "peacefully": 21614, "dane": 14569, "commerce": 6236, "prairie": 10996, "cutting": 6276, "2009": 2268, "##act": 18908, "##giving": 23795, "shortages": 22623, "distrust": 29245, "poem": 5961, "powered": 6113, "lamar": 19756, "bauer": 17838, "sweat": 7518, "mundo": 25989, "##hausen": 13062, "[unused526]": 531, "padres": 21577, "philosophy": 4695, "yank": 23178, "aground": 29406, "brandon": 8825, "sic": 14387, "told": 2409, "cable": 5830, "demise": 13614, "natalia": 21521, "##lund": 18028, "racers": 25791, "improves": 24840, "cheng": 15898, "two": 2048, "baker": 6243, "##nts": 7666, "professors": 12655, "server": 8241, "warped": 25618, "pilot": 4405, "smith": 3044, "##cup": 15569, "1662": 25909, "##estra": 26199, "##tlan": 28922, "lotus": 13030, "comparative": 12596, "mab": 26661, "\u0ba4": 1385, "motorola": 29583, "apologize": 12134, "campaigns": 8008, "##yang": 12198, "plata": 19534, "\u207f": 1546, "keep": 2562, "##hee": 21030, "devoid": 22808, "descriptions": 13271, "rolled": 4565, "sainte": 16947, "himalayan": 28333, "1984": 3118, "alton": 26374, "weak": 5410, "beloved": 11419, "prone": 13047, "sleek": 21185, "principle": 6958, "\u767a": 1914, "halls": 9873, "##dle": 10362, "luce": 19913, "personalities": 12857, "##aceae": 18339, "commemorated": 19131, "edmond": 21773, "yep": 15624, "player": 2447, "oversight": 15709, "##\u5c0f": 30355, "genres": 11541, "1820": 11102, "##pes": 10374, "college": 2267, "##chrome": 20366, "\u222a": 1605, "shoulders": 4065, "middle": 2690, "rights": 2916, "##jal": 25787, "kitchener": 27154, "privileged": 21598, "criticism": 6256, "manga": 8952, "sara": 7354, "hillside": 18573, "buddy": 8937, "liberals": 13350, "refrigerator": 18097, "captive": 12481, "##eo": 8780, "becker": 15309, "ireland": 3163, "\u9ad8": 1981, "florence": 7701, "matrices": 21520, "mph": 5601, "mod": 16913, "moderator": 29420, "##more": 5974, "##qual": 26426, "unrelated": 15142, "[unused439]": 444, "##\u6625": 30393, "desires": 14714, "1831": 10937, "disciple": 17849, "risked": 22374, "##va": 3567, "[unused698]": 703, "birth": 4182, "##uth": 14317, "dil": 29454, "canterbury": 9976, "norma": 20692, "##aling": 21682, "adjust": 14171, "manila": 9011, "[unused854]": 859, "harper": 8500, "weekdays": 19759, "[unused233]": 238, "monster": 6071, "##written": 15773, "##itating": 16518, "canary": 17154, "yanking": 25716, "ones": 3924, "lucky": 5341, "##cp": 21906, "asian": 4004, "affecting": 12473, "##jer": 20009, "raleigh": 15842, "extend": 7949, "##minated": 26972, "##gy": 6292, "hunters": 9624, "carries": 7883, "fascinating": 17160, "##coming": 18935, "euros": 19329, "aliens": 12114, "##pol": 18155, "horribly": 27762, "##rand": 13033, "consecration": 24730, "innovative": 9525, "##lev": 20414, "leaps": 29195, "\u2082": 1549, "\u3068": 1666, "heading": 5825, "roberto": 10704, "intimidated": 28028, "virtually": 8990, "returns": 5651, "annexation": 18985, "innovations": 15463, "tokyo": 5522, "[unused170]": 175, "attributed": 7108, "badges": 23433, "arts": 2840, "regular": 3180, "researches": 27338, "##osi": 20049, "##rta": 13320, "##\u9762": 30502, "digital": 3617, "kitten": 18401, "yugoslav": 12292, "fang": 15197, "##uming": 24270, "sitting": 3564, "##tsky": 26824, "[unused136]": 141, "##\u0924": 29859, "ze": 27838, "judgement": 16646, "stephen": 4459, "phosphate": 17344, "##aver": 22208, "##tral": 21493, "motto": 12652, "land": 2455, "cheerleading": 25721, "india": 2634, "rubble": 17538, "##lese": 24527, "factories": 11123, "trailers": 21389, "facilitating": 25505, "1788": 15622, "infinity": 15579, "\u056b": 1225, "stupid": 5236, "quincy": 16141, "ad": 4748, "republican": 3951, "grants": 8624, "shivered": 13927, "commence": 22825, "buckingham": 17836, "kinship": 27866, "##typic": 23186, "##orra": 24285, "hall": 2534, "gladys": 22386, "##tea": 27058, "grabbed": 4046, "harrison": 6676, "310": 17196, "[unused309]": 314, "lectures": 8921, "confusing": 16801, "dunn": 14145, "indicators": 20390, "span": 8487, "cheek": 5048, "protagonist": 10191, "conducted": 4146, "ethan": 6066, "appointing": 28050, "hunched": 20498, "##nified": 25201, "[unused877]": 882, "revenue": 6599, "smaller": 3760, "##`": 29639, "king": 2332, "slump": 28702, "disposition": 22137, "strict": 9384, "commune": 5715, "kinda": 17704, "##giri": 23243, "grab": 6723, "christine": 10941, "owen": 7291, "hewitt": 19482, "hawk": 9881, "squirrels": 29384, "george": 2577, "food": 2833, "harlow": 22545, "boarding": 9405, "casualties": 8664, "##crats": 23423, "[unused224]": 229, "hank": 9180, "320": 13710, "stench": 21555, "1967": 3476, "vox": 29450, "##vs": 15088, "##comb": 18274, "palazzo": 18482, "drake": 7867, "marcos": 14810, "helmet": 10412, "\u10dd": 1450, "\u524d": 1776, "rear": 4373, "silas": 18553, "bacterium": 24024, "pre": 3653, "selling": 4855, "pretend": 9811, "mature": 9677, "##ble": 3468, "walkers": 22559, "\u092c": 1329, "focusing": 7995, "guest": 4113, "explore": 8849, "trek": 10313, "##arty": 23871, "ringo": 25589, "##yin": 25811, "##dermott": 29370, "##just": 29427, "[unused57]": 58, "floral": 18686, "carlisle": 13575, "chair": 3242, "screening": 11326, "tighter": 12347, "selection": 4989, "effect": 3466, "##bury": 4917, "##bbe": 19473, "called": 2170, "##bers": 17198, "plum": 22088, "##asia": 15396, "frontiers": 28750, "apical": 29197, "[unused513]": 518, "\u10d4": 1442, "siberian": 21822, "deliveries": 23534, "d": 1040, "germanic": 15139, "christian": 3017, "##\u1175": 30019, "north": 2167, "luz": 26214, "\u2153": 1581, "grunted": 14922, "##\u03b7": 24824, "restraining": 28285, "tasting": 18767, "##avian": 21654, "deliberately": 9969, "approaches": 8107, "griffith": 14135, "\u6c37": 1895, "##pkins": 29531, "silicon": 13773, "pronounced": 8793, "refurbished": 18662, "substituted": 17316, "iced": 28248, "auxiliary": 9830, "studies": 2913, "squire": 21263, "corn": 9781, "\u795e": 1925, "##ido": 13820, "upstream": 13909, "lose": 4558, "##oe": 8913, "kam": 27829, "buffalo": 6901, "lonely": 9479, "ching": 19992, "garry": 21507, "sonic": 12728, "raked": 22438, "classical": 4556, "##ih": 19190, "propellers": 23405, "[unused711]": 716, "scientist": 7155, "##01": 24096, "martinique": 29365, "award": 2400, "12th": 5940, "tatar": 29241, "collaboration": 5792, "scholars": 5784, "##ship": 9650, "oman": 16640, "##ising": 9355, "renewable": 13918, "##ped": 5669, "finalized": 23575, "michael": 2745, "capitalist": 19640, "disney": 6373, "reaper": 19559, "[unused855]": 860, "pedal": 15749, "corresponds": 14788, "attempts": 4740, "husky": 18758, "wroc\u0142aw": 25160, "barren": 20225, "indus": 27746, "##bine": 16765, "axis": 8123, "1891": 6607, "finally": 2633, "preston": 8475, "##zes": 11254, "diversion": 20150, "ile": 17869, "benign": 28378, "capitol": 9424, "strangers": 12358, "sharon": 10666, "business": 2449, "gag": 18201, "sediments": 20476, "restored": 5854, "##\u3089": 30211, "guild": 9054, "blended": 19803, "##hic": 16066, "jing": 21536, "shreveport": 23740, "steering": 9602, "##rce": 19170, "mean": 2812, "##rdy": 17460, "brook": 9566, "addresses": 11596, "goodwin": 19928, "\u201e": 1525, "##tina": 13770, "##pani": 26569, "340": 16029, "crime": 4126, "##pal": 12952, "brandy": 17951, "tents": 17732, "1649": 26538, "different": 2367, "222": 19015, "sprawled": 21212, "yards": 4210, "smart": 6047, "##tis": 7315, "americas": 10925, "bloom": 13426, "##ners": 16912, "cooks": 26929, "moshe": 27123, "1835": 10150, "exam": 11360, "carrying": 4755, "puck": 22900, "hms": 7220, "montreal": 5548, "witnessing": 24740, "asiatic": 23983, "saturdays": 18860, "exemplary": 27792, "raises": 13275, "av": 20704, "marcia": 22548, "dedication": 12276, "grooves": 25880, "36": 4029, "heating": 10808, "##est": 4355, "options": 7047, "expanding": 9186, "triumph": 10911, "len": 18798, "descendants": 8481, "##sher": 19603, "dictatorship": 18944, "ensuing": 13831, "crazy": 4689, "##lic": 10415, "spanned": 18212, "template": 23561, "cochin": 28982, "##100": 18613, "sampled": 18925, "##rry": 12244, "m3": 29061, "markings": 13967, "author": 3166, "balancing": 20120, "metre": 7924, "cell": 3526, "alistair": 23752, "freight": 8441, "continue": 3613, "##chai": 24925, "uno": 27776, "gerais": 29220, "genera": 11416, "commenced": 8420, "slipping": 11426, "thanked": 15583, "britannia": 24677, "squat": 26783, "\u1d63": 1508, "##erence": 20935, "chet": 25157, "##evsky": 27015, "specialists": 15744, "gardening": 21529, "[unused936]": 941, "bamboo": 15216, "##ganj": 22738, "##swick": 27720, "feature": 3444, "nyc": 16392, "darby": 25844, "witnessed": 9741, "laureate": 17656, "arrivals": 25470, "fires": 8769, "##ht": 11039, "rocco": 28167, "##ouk": 27967, "adding": 5815, "superficial": 23105, "##yi": 10139, "posture": 16819, "thomas": 2726, "colbert": 23928, "streetcar": 21420, "variable": 8023, "rash": 23438, "chile": 7029, "evenly": 18030, "##edo": 26010, "frame": 4853, "archway": 28189, "patricia": 10717, "remotely": 19512, "fluffy": 27036, "nexus": 26041, "wayne": 6159, "garion": 12523, "isles": 14195, "stein": 14233, "jackets": 17764, "otter": 22279, "here": 2182, "morris": 6384, "##sons": 23345, "php": 25718, "chance": 3382, "rihanna": 25439, "fin": 10346, "##sner": 20479, "defence": 4721, "must": 2442, "brahms": 28419, "bassett": 28303, "[unused924]": 929, "todd": 6927, "##\u0925": 29860, "lucian": 18218, "1850": 7973, "##jee": 16963, "unite": 15908, "frustration": 9135, "strip": 6167, "instrumental": 6150, "##mps": 25370, "##erre": 28849, "loren": 28779, "##\u0e27": 29955, "##bh": 23706, "nwa": 15737, "##manship": 21530, "encouraging": 11434, "disciplinary": 17972, "brief": 4766, "elects": 27161, "\u092e": 1331, "infiltrate": 29543, "priestess": 27677, "backed": 6153, "friar": 25287, "acquisition": 7654, "searching": 6575, "pyramid": 11918, "limb": 15291, "adulthood": 20480, "resultant": 28573, "##\u099f": 29895, "example": 2742, "environment": 4044, "punk": 7196, "baptism": 18336, "tombstone": 26671, "ventral": 23420, "ioc": 25941, "##ulated": 8898, "313": 22997, "pandora": 19066, "marc": 7871, "theft": 11933, "jameson": 22324, "##ves": 6961, "ceylon": 16447, "##ogo": 22844, "[unused931]": 936, "townships": 13991, "becca": 22140, "continual": 27222, "austria": 5118, "##lit": 15909, "235": 17825, "##osh": 17369, "therapy": 7242, "genie": 22519, "sourced": 23184, "separation": 8745, "plane": 4946, "##ap": 9331, "featherweight": 27145, "mongols": 22235, "nicholls": 27043, "suffered": 4265, "admiring": 24588, "intimacy": 20893, "[unused442]": 447, "females": 3801, "hug": 8549, "trust": 3404, "##backs": 12221, "vaccine": 17404, "##dina": 18979, "bunker": 15742, "##nting": 24360, "cadillac": 20425, "countless": 14518, "alzheimer": 21901, "zombies": 14106, "regulars": 24945, "moans": 24675, "greeks": 13176, "numb": 15903, "somewhere": 4873, "threatens": 17016, "axel": 18586, "shared": 4207, "##arth": 22425, "editions": 6572, "##relli": 22948, "croats": 26222, "today": 2651, "transformers": 19081, "##\u660e": 30391, "290": 17222, "sponsors": 13162, "downstream": 13248, "ios": 16380, "maximus": 21692, "1736": 28192, "##\u8449": 30469, "weimar": 20695, "1869": 7845, "##zzo": 12036, "rocking": 14934, "oils": 20631, "efforts": 4073, "purse": 8722, "slicing": 26514, "viewer": 13972, "thigh": 10120, "##ense": 16700, "nouveau": 25272, "##mania": 27010, "halfway": 8576, "##bbed": 15499, "fantasia": 29203, "magnet": 16853, "\u02d0": 1150, "atop": 10234, "##\u00b9": 27904, "eurovision": 12714, "crazed": 28343, "vogel": 27063, "\u062e": 1277, "##tory": 7062, "volley": 28073, "fringe": 13548, "passion": 6896, "matthew": 5487, "##22": 19317, "##code": 16044, "1743": 25615, "1809": 12861, "##tan": 5794, "\u2020": 1526, "siberia": 16881, "ko": 12849, "migratory": 22262, "##rin": 6657, "1672": 27253, "retracted": 28214, "commanding": 7991, "pumps": 15856, "newfound": 27608, "[unused2]": 3, "##uni": 19496, "aka": 9875, "\u21a6": 1588, "superb": 21688, "##\u3093": 30217, "damon": 11317, "\u5948": 1814, "oxygen": 7722, "keyboard": 9019, "killer": 6359, "amir": 18904, "##nge": 15465, "female": 2931, "troops": 3629, "garland": 17017, "[unused389]": 394, "presence": 3739, "##yan": 7054, "clubhouse": 22067, "ashford": 26545, "##\u79c0": 30454, "annoying": 15703, "##sef": 20106, "began": 2211, "treason": 14712, "teaming": 27025, "##ssler": 23385, "chalmers": 29069, "desert": 5532, "##ues": 15808, "defeated": 3249, "\u0996": 1354, "##bate": 20179, "\u3057": 1657, "##\u306b": 30194, "##\u05e5": 29808, "only": 2069, "calmed": 20869, "penitentiary": 29569, "\u6cd5": 1901, "##ir": 4313, "##\u0e40": 29959, "battle": 2645, "numbered": 8597, "eco": 17338, "celebrations": 12035, "\u043d": 1192, "starts": 4627, "pendulum": 28300, "gideon": 12137, "##rasia": 27839, "perpendicular": 19581, "trieste": 25199, "sherwood": 19427, "\u30db": 1722, "##\u1d35": 30029, "maximal": 29160, "\u3044": 1647, "empirical": 17537, "virginity": 26970, "heavier": 11907, "##mei": 26432, "derby": 7350, "allegiance": 14588, "hail": 16889, "campaigning": 18524, "gown": 11739, "tobin": 28096, "ballad": 11571, "unix": 19998, "primarily": 3952, "vc": 18315, "##iman": 18505, "##du": 8566, "gora": 26967, "##lby": 14510, "[unused116]": 121, "rely": 11160, "fielded": 20988, "vichy": 29177, "announced": 2623, "internet": 4274, "elise": 14251, "gravely": 28070, "accurately": 14125, "##scope": 26127, "##ange": 22043, "vicious": 13925, "restructuring": 18322, "##riation": 18769, "fined": 16981, "##\u90ce": 30484, "rage": 7385, "[unused737]": 742, "thursday": 9432, "rejecting": 21936, "angled": 18756, "apocalypse": 16976, "choke": 16769, "jeanne": 14537, "##lver": 26229, "francois": 8173, "stumbled": 9845, "plunged": 16687, "earned": 3687, "cash": 5356, "##po": 6873, "citizen": 6926, "anita": 12918, "##tag": 15900, "1785": 17262, "##hone": 27406, "livelihood": 24585, "deafening": 28840, "securely": 28999, "oversaw": 14105, "awkward": 9596, "callahan": 25668, "##ndra": 17670, "quarries": 27069, "##ig": 8004, "##phones": 19093, "##rom": 21716, "##oux": 28700, "boxed": 27554, "polite": 13205, "should": 2323, "##sb": 19022, "##ven": 8159, "surroundings": 11301, "craftsmen": 25736, "producers": 6443, "discussed": 6936, "distortion": 20870, "steer": 20634, "overwhelmingly": 24783, "##werk": 29548, "songwriters": 20602, "##burgh": 15496, "visitor": 10367, "coyotes": 26880, "##ver": 6299, "##\u0637": 29828, "covers": 4472, "sequel": 8297, "gorgeous": 9882, "##elial": 24587, "mk": 12395, "ngos": 22165, "conclusion": 7091, "attraction": 8432, "ideally": 28946, "manchester": 5087, "hotels": 9275, "hasn": 8440, "268": 25143, "average": 2779, "##eca": 19281, "##ard": 4232, "enamel": 29484, "\u6771": 1879, "[unused596]": 601, "evaluate": 16157, "1805": 13126, "##copic": 26461, "handful": 9210, "erected": 7019, "dorothy": 9984, "dorset": 15367, "ignited": 22395, "##flow": 12314, "popularized": 20339, "impression": 8605, "andrei": 18125, "ions": 15956, "depend": 12530, "subsistence": 27667, "true": 2995, "##70": 19841, "crisis": 5325, "109": 11518, "14th": 6400, "letters": 4144, "frowning": 14587, "monde": 23117, "1822": 12307, "##lei": 23057, "##stems": 29189, "##kulam": 28871, "conditions": 3785, "[unused555]": 560, "sanitation": 18723, "##nko": 16107, "salute": 17664, "vibrated": 27801, "lacrosse": 13488, "\u4e4b": 1749, "##ets": 8454, "adequate": 11706, "##\u25a0": 30144, "trafficking": 11626, "emphasizing": 22671, "servant": 7947, "full": 2440, "##\u98a8": 30503, "yunnan": 21607, "jaws": 16113, "sunset": 10434, "russians": 12513, "##ics": 6558, "deposit": 12816, "##isto": 20483, "sensations": 21378, "227": 21489, "palaces": 22763, "##avs": 29553, "laughs": 11680, "##\u795e": 30451, "afraid": 4452, "##eus": 10600, "manufacturing": 5814, "alongside": 4077, "##esses": 26636, "eucalyptus": 27111, "requests": 11186, "boil": 26077, "marko": 28003, "[unused248]": 253, "odd": 5976, "jen": 15419, "cheering": 24867, "\u694a": 1883, "carbonate": 26427, "asleep": 6680, "generating": 11717, "lunatic": 26594, "frustrating": 25198, "arcs": 29137, "##11": 14526, "suggestion": 10293, "skipping": 25978, "zeke": 18270, "##rell": 16230, "frontman": 21597, "nurses": 11500, "freshmen": 26612, "apr": 19804, "longed": 23349, "atletico": 16132, "whatever": 3649, "painting": 4169, "##frame": 15643, "aims": 8704, "25": 2423, "wipe": 13387, "assess": 14358, "crust": 19116, "barriers": 13500, "##hosis": 25229, "hardcover": 20990, "\u0569": 1224, "now": 2085, "exquisite": 19401, "denis": 11064, "preserving": 15224, "visually": 17453, "##tour": 21163, "cid": 28744, "56th": 29087, "roth": 12211, "##tern": 16451, "cameroon": 13841, "workforce": 14877, "hangs": 17991, "appeared": 2596, "vulture": 27588, "marches": 20691, "clouded": 26761, "##inae": 16414, "wyatt": 12986, "authorised": 19256, "southwest": 4943, "##ry": 2854, "good": 2204, "154": 16666, "twenty20": 22240, "##_": 29638, "mathematician": 13235, "gardener": 19785, "governmental": 10605, "namely": 8419, "##ieving": 25587, "[unused39]": 40, "[unused980]": 985, "[unused601]": 606, "unsuccessful": 7736, "##\u044f": 17432, "thwarted": 28409, "inflation": 14200, "loyola": 21580, "##vity": 24872, "postal": 10690, "\u0f58": 1432, "gasoline": 13753, "##unes": 26639, "pills": 15345, "miami": 5631, "electronics": 8139, "##\u6771": 30405, "branching": 23346, "styling": 20724, "##bilis": 27965, "essence": 11305, "cricket": 4533, "pius": 14363, "unlock": 19829, "clicks": 29225, "xiv": 15939, "b1": 29491, "wildly": 13544, "##ff": 4246, "##firm": 27972, "nagoya": 24425, "crater": 11351, "repetitive": 23563, "tate": 9902, "anthropologist": 21571, "basins": 22739, "library": 3075, "im": 10047, "\u2502": 1616, "##\u05da": 29797, "wills": 17234, "##gm": 21693, "bombardier": 29143, "villages": 4731, "republic": 3072, "doorbell": 25422, "rosenthal": 29062, "vans": 21994, "coal": 5317, "crouch": 21676, "##rdan": 26992, "textbook": 16432, "##croft": 14716, "charities": 15430, "##oca": 24755, "legislative": 4884, "whenever": 7188, "limitations": 12546, "[unused556]": 561, "ascending": 22316, "eyed": 7168, "bare": 6436, "ufc": 11966, "##oku": 21940, "spines": 20352, "##imeter": 19198, "amber": 8994, "scales": 9539, "##rank": 26763, "beside": 3875, "sophie": 8234, "centimeters": 18119, "donkey": 20325, "##tma": 29418, "plainly": 24250, "mad": 5506, "lakes": 6597, "exception": 6453, "devastating": 14886, "##\u0937": 29873, "1767": 21502, "1798": 13036, "npr": 21411, "1790": 13393, "\u8279": 1939, "risen": 13763, "vegetarian": 23566, "graduated": 3852, "simone": 14072, "fluent": 19376, "degree": 3014, "helium": 22764, "honduras": 14373, "cain": 11557, "traditional": 3151, "freaks": 29526, "baghdad": 13952, "[unused937]": 942, "niagara": 15473, "bayern": 21350, "sonny": 13584, "##duction": 16256, "##ifice": 23664, "muir": 23110, "neural": 15756, "motown": 22654, "conception": 13120, "infringement": 20701, "14": 2403, "neville": 14871, "gonzaga": 26840, "breaststroke": 28164, "martin": 3235, "##awa": 10830, "implies": 12748, "digging": 10443, "phillip": 10852, "compiler": 21624, "iranian": 7726, "schizophrenia": 23683, "##balance": 26657, "nanjing": 21455, "punish": 16385, "pennant": 22690, "tang": 9745, "kindergarten": 11793, "2a": 23409, "outing": 26256, "cumbria": 25559, "307": 24559, "\u0263": 1117, "voters": 7206, "bulldogs": 15120, "aback": 26575, "spontaneously": 27491, "uncovered": 14486, "sparrow": 19479, "archived": 9749, "##ect": 22471, "\u2095": 1564, "curse": 8364, "rooted": 15685, "##wear": 16689, "1782": 16890, "ulysses": 22784, "##erving": 25164, "passed": 2979, "##su": 6342, "##vine": 20534, "verve": 29230, "assignments": 14799, "clearer": 24509, "##rm": 10867, "honesty": 16718, "##bf": 29292, "##vin": 6371, "sl": 22889, "##oses": 27465, "##meister": 28824, "neoclassical": 22657, "provided": 3024, "baltic": 11275, "192": 17613, "of": 1997, "climbing": 8218, "[unused602]": 607, "[unused984]": 989, "rpm": 11575, "\u0bb5": 1394, "farewell": 13407, "##\uff08": 30513, "plates": 7766, "[unused520]": 525, "suggestions": 15690, "syllable": 16353, "fest": 17037, "arkansas": 6751, "memo": 24443, "juliette": 24696, "bunch": 9129, "bricks": 14219, "reserve": 3914, "strongest": 10473, "##it": 4183, "jobs": 5841, "entries": 10445, "hostess": 22566, "encounters": 11340, "##chenko": 25872, "cia": 9915, "starving": 18025, "bribes": 29117, "leaked": 15748, "fluid": 8331, "videos": 6876, "##\u028e": 29701, "demonstrating": 14313, "species": 2427, "##icient": 20132, "demand": 5157, "##trics": 29392, "##ifies": 14144, "folds": 15439, "distributed": 5500, "discus": 26047, "1761": 21364, "assigns": 24022, "##tute": 24518, "stepped": 3706, "physics": 5584, "jun": 12022, "ins": 16021, "indirectly": 17351, "##rini": 22612, "##\u30d8": 30247, "leaves": 3727, "obstacles": 15314, "motivation": 14354, "##\u30ef": 30262, "albrecht": 25542, "currie": 20667, "wines": 14746, "department": 2533, "##nail": 25464, "regulatory": 10738, "deities": 17091, "\u0915": 1315, "dom": 14383, "950": 20317, "mecca": 21340, "##lewood": 26580, "correctional": 20873, "joel": 8963, "models": 4275, "happy": 3407, "##cky": 17413, "conduct": 6204, "debated": 15268, "darkly": 27148, "forgiveness": 17213, "forecast": 19939, "championship": 2528, "##hai": 10932, "ages": 5535, "debuting": 24469, "1680": 24621, "patch": 8983, "230": 11816, "\u5e73": 1839, "##ggles": 24989, "feathers": 12261, "manipulate": 17708, "howie": 28211, "depleted": 22595, "##\u098f": 29887, "greatest": 4602, "[unused365]": 370, "glaciers": 21193, "basket": 10810, "##ge": 3351, "compact": 9233, "sonar": 24609, "##tight": 26143, "excavations": 14018, "##deck": 26547, "dream": 3959, "dioceses": 26586, "meteorological": 20557, "fans": 4599, "cartel": 21680, "##kas": 13716, "unsafe": 25135, "##ical": 7476, "churning": 26765, "##rchy": 29389, "change": 2689, "probably": 2763, "##isman": 20257, "1995": 2786, "dwarfs": 28984, "pulsing": 23139, "norwich": 12634, "raaf": 22709, "##hane": 28006, "##\u1112": 30005, "opus": 16895, "section": 2930, "gum": 16031, "[unused67]": 68, "stoke": 13299, "[unused255]": 260, "vr": 27830, "carousel": 27628, "crawley": 28854, "fiddle": 15888, "outright": 13848, "##ice": 6610, "drawers": 22497, "forewings": 13211, "gathering": 7215, "solitude": 22560, "##oi": 10448, "##aka": 11905, "hammersmith": 28420, "babies": 10834, "eli": 12005, "stupidity": 28072, "concussion": 23159, "dixie": 18910, "dome": 8514, "##cote": 19800, "maker": 9338, "##ski": 5488, "resurrection": 15218, "richest": 18429, "renegade": 28463, "\u307b": 1676, "##izations": 22318, "broadcasts": 8960, "les": 4649, "electrons": 15057, "\u0939": 1339, "android": 11924, "rewarded": 14610, "mammalian": 26524, "hague": 14575, "switch": 6942, "practice": 3218, "audio": 5746, "registering": 25719, "everyone": 3071, "steady": 6706, "robb": 26211, "percent": 3867, "ao": 20118, "uss": 7234, "exodus": 16388, "##rgh": 27172, "##odon": 28716, "##lena": 20844, "festival": 2782, "foundations": 10100, "enrollment": 10316, "disappeared": 5419, "[unused404]": 409, "##54": 27009, "olympian": 25977, "##roved": 26251, "1629": 27882, "librarian": 13850, "1654": 27445, "julie": 7628, "ole": 15589, "cooperate": 17654, "symbolism": 22050, "attendees": 19973, "1817": 12529, "dies": 8289, "jammed": 21601, "youthful": 22446, "medley": 13863, "scenarios": 16820, "moravian": 28131, "##screen": 18182, "\u0643": 1293, "resting": 8345, "keller": 16155, "##ieu": 17301, "arranger": 13981, "rosie": 15820, "composure": 23619, "antrim": 24142, "petersen": 22615, "dams": 17278, "1766": 21410, "ups": 11139, "views": 5328, "fellowship": 7881, "karate": 16894, "shipment": 22613, "incorrect": 16542, "resentment": 20234, "##tlement": 24007, "inhibition": 23586, "decreed": 28447, "##clops": 28659, "hum": 14910, "##ywood": 26985, "existence": 4598, "existing": 4493, "proposals": 10340, "volunteered": 14382, "boy": 2879, "arabia": 9264, "##\u7687": 30443, "##tch": 10649, "ginger": 14580, "particular": 3327, "shrinking": 28375, "faculties": 18658, "fusiliers": 27207, "jupiter": 13035, "##mobile": 17751, "##ls": 4877, "produce": 3965, "##dates": 27122, "caracas": 21675, "consciously": 24447, "\u68ee": 1882, "##\u2153": 30109, "##cule": 21225, "spiders": 14160, "##zaki": 18637, "eye": 3239, "grimm": 24287, "collections": 6407, "connects": 8539, "maintains": 9319, "##lore": 20186, "fingerprints": 27556, "##olo": 12898, "fierce": 9205, "\u0281": 1128, "abuses": 21078, "bharatiya": 24243, "badly": 6649, "##oese": 23379, "[unused900]": 905, "1872": 7572, "flowers": 4870, "sociologist": 25106, "dundee": 14252, "1738": 28009, "\u0565": 1223, "##eiro": 17166, "##mble": 19661, "context": 6123, "renovation": 10525, "##\u3075": 30200, ">": 1028, "bounty": 17284, "bach": 10384, "\u02bc": 1146, "showtime": 23811, "880": 26839, "theresa": 14781, "##ration": 8156, "\u0640": 1290, "multitude": 20889, "begged": 12999, "raising": 6274, "acquire": 9878, "lola": 15137, "##\u0bb2": 29928, "tucker": 9802, "[unused691]": 696, "shock": 5213, "dump": 15653, "[unused423]": 428, "##\u6cb3": 30425, "minded": 13128, "coloration": 28757, "sid": 15765, "##hope": 26441, "##qua": 16211, "experimenting": 23781, "dj": 6520, "powerful": 3928, "hopefully": 11504, "fell": 3062, "porter": 8716, "##bner": 29388, "sampling": 16227, "mouth": 2677, "##aq": 20784, "##anor": 27869, "tatiana": 22725, "rotating": 13618, "##\u27e8": 30155, "interviews": 7636, "annum": 28907, "filled": 3561, "##ain": 8113, "encourage": 8627, "##vi": 5737, "##cht": 10143, "spring": 3500, "frozen": 7708, "cartoonist": 19659, "##\u06c1": 29845, "clinton": 7207, "racecourse": 15948, "accountable": 26771, "reid": 9027, "elisabeth": 12877, "credited": 5827, "plush": 27729, "stepmother": 26959, "flushed": 12953, "preoccupied": 23962, "descends": 23328, "mendoza": 18021, "ro": 20996, "##bly": 6321, "honolulu": 16598, "analytics": 25095, "grupo": 26678, "[unused882]": 887, "anterior": 15099, "sole": 7082, "[unused817]": 822, "malaysian": 11843, "##cted": 10985, "attitudes": 13818, "motif": 16226, "221": 19594, "fk": 14352, "attention": 3086, "##\u09a7": 29901, "heaven": 6014, "fumble": 19576, "##haven": 14650, "bracing": 25919, "##jon": 14339, "##ew": 7974, "displayed": 6913, "rat": 9350, "199": 20713, "lay": 3913, "##lars": 28695, "##erry": 19826, "gma": 20917, "noel": 10716, "shook": 3184, "over": 2058, "closure": 8503, "unions": 9209, "falcons": 14929, "favored": 12287, "curator": 13023, "##evic": 17726, "helene": 20149, "tripoli": 21841, "tavi": 24283, "queer": 19483, "sincere": 18006, "found": 2179, "ramsay": 19460, "enclave": 25867, "##\u099b": 29893, "faults": 19399, "skins": 21049, "encompass": 25281, "meters": 5563, "pottery": 11378, "hybrids": 23376, "##hita": 23935, "##yles": 26274, "##rwin": 27349, "energetic": 18114, "sugar": 5699, "##skin": 29334, "##rnik": 26437, "##\u1d4f": 30037, "enjoyment": 20195, "organisations": 8593, "solo": 3948, "ruling": 6996, "##ocks": 25384, "dimensional": 8789, "containment": 29174, "gymnasium": 11288, "sandals": 24617, "##lithic": 28508, "##mah": 25687, "##ologists": 16886, "guard": 3457, "##\u043e\u0432": 19259, "succeeds": 21645, "[unused551]": 556, "sins": 15516, "batting": 9640, "##\u00b0": 7737, "tobias": 16858, "\u00f8": 1100, "intercollegiate": 21587, "cai": 29080, "[unused168]": 173, "ssr": 20896, "customers": 6304, "bengals": 23227, "##titles": 27430, "injury": 4544, "savior": 24859, "##smo": 25855, "contain": 5383, "trusts": 20278, "watkins": 17055, "when": 2043, "arrested": 4727, "fitzroy": 21870, "rebuilding": 14584, "persona": 16115, "conversation": 4512, "onwards": 9921, "660": 20982, "prohibition": 13574, "##rook": 25399, "\u0431": 1181, "##lassified": 24938, "##\u5f8c": 30372, "[unused511]": 516, "##quisite": 24871, "guessed": 11445, "bankrupt": 17482, "evacuated": 13377, "##morphic": 18078, "##script": 22483, "tatum": 25913, "ran": 2743, "powers": 4204, "53": 5187, "fake": 8275, "creating": 4526, "deceased": 10181, "[unused920]": 925, "rematch": 18229, "##\u00a5": 29648, "localities": 19664, "##\u4e8c": 30278, "##aar": 26526, "proceedings": 8931, "spruce": 19893, "p": 1052, "##rani": 21578, "1645": 26081, "54th": 29570, "harvesting": 21534, "[unused390]": 395, "crowe": 25657, "moritz": 28461, "##ndi": 16089, "emergencies": 26360, "silva": 11183, "conceptual": 17158, "##yard": 14132, "##\u65b9": 30389, "sustainable": 9084, "##jord": 24876, "peggy": 14911, "##\u00f0": 29668, "clarke": 8359, "##ground": 16365, "feudal": 16708, "align": 25705, "distinctive": 8200, "##uation": 14505, "##icular": 21412, "\u02b7": 1143, "##jected": 24455, "salsa": 26509, "##\u3053": 30181, "giggle": 17565, "novella": 20674, "##ins": 7076, "repairing": 26296, "ty": 5939, "174": 19492, "silesian": 20453, "##free": 23301, "so": 2061, "##sul": 23722, "devoted": 7422, "embracing": 23581, "##ape": 24065, "saigon": 24001, "sequences": 10071, "##cre": 16748, "fontaine": 25749, "lair": 21039, "alta": 23647, "atkinson": 18646, "ct": 14931, "[unused780]": 785, "fulbright": 26695, "[unused380]": 385, "[unused461]": 466, "\u03be": 1168, "unesco": 12239, "hosted": 4354, "\u30aa": 1699, "sexually": 12581, "##shin": 17426, "memorandum": 20336, "progressively": 20519, "and": 1998, "lock": 5843, "implementations": 24977, "##bau": 27773, "astronomer": 15211, "debuted": 6006, "www": 7479, "combines": 13585, "ours": 14635, "##tling": 15073, "random": 6721, "##mir": 14503, "saga": 12312, "paid": 3825, "imports": 17589, "##dez": 24601, "##wart": 18367, "guiding": 14669, "##fed": 25031, "egg": 8288, "ulrich": 19619, "##igate": 28731, "spread": 3659, "allegations": 9989, "tip": 5955, "competitors": 10159, "##nally": 26827, "vogue": 17734, "##zam": 20722, "cuban": 9642, "regeneration": 20045, "brilliant": 8235, "##55": 24087, "viking": 12886, "selena": 19166, "cinematographer": 19245, "edna": 21051, "##cuting": 29163, "lisa": 7059, "reprint": 25364, "##dice": 24598, "summit": 6465, "flies": 10029, "sucked": 8631, "restricted": 7775, "##pina": 26787, "pak": 22190, "##rem": 28578, "locking": 14889, "##ael": 21147, "##hof": 14586, "derived": 5173, "[unused205]": 210, "daytime": 12217, "##grove": 21525, "1841": 9840, "meade": 26501, "earlier": 3041, "fossils": 11954, "impatiently": 19951, "##'": 29618, "blazers": 28513, "[unused211]": 216, "##gon": 7446, "fulfilling": 21570, "sodium": 13365, "pena": 19409, "inputs": 20407, "middleton": 17756, "florida": 3516, "diaries": 18707, "withdrawn": 9633, "smack": 21526, "[unused951]": 956, "\u0294": 1139, "mesopotamia": 25889, "arrives": 8480, "yell": 14315, "##card": 11522, "create": 3443, "widowed": 22874, "coating": 18898, "officially": 3985, "1954": 4051, "woolf": 29572, "francais": 22357, "##suit": 28880, "watered": 27129, "oz": 11472, "##break": 23890, "bu": 20934, "##\u0e21": 29951, "noteworthy": 19144, "##eck": 11012, "demonic": 23170, "canning": 24549, "difference": 4489, "lion": 7006, "dorchester": 27252, "1659": 28288, "tuna": 24799, "##gree": 28637, "talk": 2831, "##etz": 26327, "blackberry": 25935, "pandit": 29331, "undisclosed": 18206, "manuscript": 8356, "\u00b9\u2044\u2082": 18728, "##metric": 12589, "rowe": 20538, "donetsk": 29151, "sidney": 11430, "sensor": 13617, "daemon": 12828, "bari": 22466, "model": 2944, "##iens": 24836, "julien": 19290, "blackmail": 25044, "##eva": 13331, "rb": 21144, "persons": 5381, "fights": 9590, "counters": 24094, "resembles": 12950, "blizzard": 21689, "airlines": 7608, "##urst": 29402, "bacteria": 10327, "consider": 5136, "##\u00b4": 29658, "endangered": 10193, "semifinal": 16797, "involved": 2920, "\u03c3": 1173, "shed": 8328, "crambidae": 21585, "funnel": 25102, "##vina": 17948, "sparta": 21251, "saturn": 14784, "continuation": 13633, "arcadia": 25178, "tells": 4136, "apron": 20376, "picasso": 22457, "tissue": 8153, "fearless": 22518, "hailed": 16586, "rosy": 26851, "luggage": 17434, "switching": 11991, "##\u05e6": 29809, "##ntine": 26730, "school": 2082, "fowler": 14990, "suitcase": 15940, "influential": 6383, "chained": 22075, "graz": 26918, "noses": 27518, "hesitantly": 24626, "platinum": 8899, "estimates": 10035, "affiliate": 8727, "##uter": 19901, "loving": 8295, "spain": 3577, "dismissal": 15322, "reward": 10377, "newcomer": 16866, "copeland": 27303, "##shire": 7430, "ashok": 28916, "##uka": 15750, "\u2091": 1561, "mcmahon": 17741, "inspire": 18708, "1748": 24445, "##vered": 25896, "46": 4805, "##arts": 20591, "##centric": 22461, "sigh": 6682, "relegated": 7049, "kepler": 28219, "snatched": 14177, "cole": 5624, "apologized": 17806, "pp": 4903, "bookstore": 21785, "scarcely": 20071, "relativity": 20805, "dent": 21418, "auschwitz": 24363, "prism": 26113, "dudley": 12648, "reveal": 7487, "amulet": 25087, "276": 25113, "##\u110c": 30000, "\u00a33": 28182, "shooters": 28310, "inflated": 29561, "tube": 7270, "fauna": 15018, "##yra": 19563, "##mouth": 14359, "2016": 2355, "negotiation": 19905, "##weig": 27204, "fort": 3481, "surprise": 4474, "denotes": 14796, "##otte": 28495, "dunedin": 22020, "open": 2330, "adjacent": 5516, "##ail": 12502, "##tated": 16238, "##\u1d43": 30032, "[unused812]": 817, "##rat": 8609, "signifies": 27353, "pleaded": 12254, "helicopter": 7739, "##rlin": 19403, "former": 2280, "politician": 3761, "\u03c8": 1178, "sicily": 12071, "accustomed": 17730, "\u0142odz": 17814, "deportation": 23702, "rodeo": 18936, "fascist": 14870, "##zoo": 23221, "sits": 7719, "licking": 17033, "adamant": 29502, "aggressive": 9376, "perch": 21836, "gaza": 14474, "reprised": 22598, "ram": 8223, "##nare": 26148, "1894": 6539, "slated": 18517, "locomotives": 7830, "##parts": 26950, "cupping": 25076, "critics": 4401, "weapons": 4255, "medallist": 28595, "intermittent": 23852, "ashore": 16145, "activism": 16841, "fathers": 11397, "tongues": 19677, "antarctic": 10227, "peel": 14113, "special": 2569, "balls": 7395, "mandated": 16714, "sakura": 23066, "means": 2965, "confined": 12302, "sultanate": 21308, "\u00b3": 1083, "70th": 26934, "[unused857]": 862, "commissioning": 21612, "teach": 6570, "papyrus": 29575, "##ej": 20518, "naturalist": 19176, "sharp": 4629, "insane": 9577, "\u1174": 1482, "commissioned": 4837, "vehicle": 4316, "beats": 10299, "thou": 15223, "flickered": 15999, "confront": 14323, "shrub": 15751, "##ju": 9103, "##\u044a": 29755, "chuckled": 10252, "excelled": 23081, "[unused253]": 258, "illuminated": 14640, "giovanni": 9136, "donation": 13445, "##rino": 17815, "capital": 3007, "1630": 24994, "##max": 17848, "##sure": 28632, "violet": 8766, "hunt": 5690, "emile": 17127, "gunmen": 28932, "lexie": 24123, "lantern": 12856, "bowman": 19298, "oboe": 22523, "inspections": 29589, "aspiring": 22344, "suppliers": 20141, "surfer": 27747, "91": 6205, "texans": 23246, "##\u6e05": 30429, "\u0153": 1107, "slovak": 12747, "maps": 7341, "\u03bc": 1166, "barnett": 20073, "vamp": 20279, "##some": 14045, "thus": 2947, "[unused923]": 928, "1834": 10700, "adhere": 25276, "##\u20b9": 30104, "[unused502]": 507, "##metry": 24327, "[unused674]": 679, "pouch": 21445, "[unused966]": 971, "censorship": 15657, "##\u0633": 29824, "josephine": 16117, "audiences": 9501, "\u092f": 1332, "1804": 13140, "pillar": 14809, "swam": 16849, "montane": 21704, "##25": 17788, "behold": 27541, "danes": 27476, "##iance": 28335, "tie": 5495, "salford": 23001, "harding": 15456, "##ever": 22507, "##ents": 11187, "poisoning": 16149, "295": 21679, "##balls": 18510, "j": 1046, "strewn": 25259, "grain": 8982, "founder": 3910, "disadvantage": 20502, "judge": 3648, "peaks": 11373, "coupling": 19780, "divides": 20487, "destroying": 9846, "salim": 27490, "horrific": 23512, "stain": 21101, "plumbing": 27902, "endelle": 29581, "heroism": 27117, "nor": 4496, "##uk": 6968, "tbs": 29584, "##dling": 14423, "pasha": 14292, "judas": 25326, "namibia": 15408, "prop": 17678, "battlefield": 11686, "asher": 17243, "##ype": 18863, "primaries": 27419, "tank": 4951, "[unused701]": 706, "\u9762": 1976, "##yre": 16363, "##nds": 18376, "##vu": 19722, "terminate": 20320, "devised": 14917, "[unused221]": 226, "bruises": 18438, "thanks": 4283, "centralized": 22493, "unspecified": 25851, "##kota": 27380, "momentary": 29089, "##\u0642": 29834, "wharton": 24249, "##ly": 2135, "noticing": 15103, "##wave": 16535, "collaborators": 21315, "family": 2155, "monthly": 7058, "eagles": 8125, "une": 16655, "presidency": 8798, "##\u0446": 29751, "cocked": 13179, "press": 2811, "sauce": 12901, "passions": 25289, "racial": 5762, "##cher": 7474, "cincinnati": 7797, "##bian": 15599, "##ffen": 18032, "busiest": 20530, "\u0575": 1230, "ate": 8823, "nutrient": 26780, "carpets": 27997, "[unused23]": 24, "internment": 29041, "prolonged": 15330, "1624": 28531, "##aghan": 26685, "symptoms": 8030, "destroyed": 3908, "gmina": 7061, "cora": 17195, "classes": 4280, "types": 4127, "songwriter": 6009, "##hs": 7898, "exploring": 11131, "mystic": 17477, "##avi": 18891, "otis": 18899, "residences": 14094, "fiji": 11464, "\u98df": 1978, "##lized": 28931, "united": 2142, "\u00a9": 1075, "dem": 17183, "bubbles": 17255, "olympiad": 25225, "##lwyn": 29287, "scholar": 6288, "alliances": 21277, "thong": 27468, "decorate": 29460, "conrad": 10931, "begs": 27591, "consoles": 22659, "do": 2079, "1988": 2997, "##eak": 25508, "case": 2553, "cork": 8513, "marriage": 3510, "[unused1]": 2, "wilde": 18575, "##cious": 18436, "godfather": 23834, "packaging": 14793, "dictator": 21237, "betting": 19244, "wc": 15868, "##eses": 23072, "hezbollah": 25713, "doctorate": 8972, "subsidiaries": 20178, "escape": 4019, "##\u05d1": 29789, "words": 2616, "accession": 16993, "salon": 11090, "disclosed": 21362, "uniformly": 27423, "employs": 13495, "knock": 7324, "##ces": 9623, "saloon": 17078, "sweater": 14329, "prasad": 17476, "designers": 11216, "1961": 3777, "##jun": 19792, "coordinate": 13530, "##church": 22743, "lansing": 22304, "hitter": 18694, "doll": 10658, "##dre": 16200, "sci": 16596, "aim": 6614, "optional": 11887, "bellevue": 26756, "##oja": 22918, "343": 27810, "trustees": 9360, "##nington": 23155, "seminole": 28909, "31": 2861, "lal": 21348, "code": 3642, "threw": 4711, "##uss": 17854, "aramaic": 28934, "franciscan": 19420, "thrive": 25220, "offer": 3749, "tony": 4116, "volkswagen": 18817, "intensity": 8015, "courtyard": 10119, "##\u02b3": 29708, "customized": 28749, "rand": 14566, "determining": 12515, "blend": 12586, "##escu": 19434, "mein": 24182, "[unused636]": 641, "fists": 10006, "eastward": 17318, "##mise": 28732, "des": 4078, "capsule": 18269, "gail": 18576, "##t": 2102, "belarusian": 15626, "substitution": 20885, "darkness": 4768, "attempting": 7161, "\u624c": 1859, "waltz": 17569, "election": 2602, "##ively": 14547, "greet": 17021, "companies": 3316, "##yuan": 17236, "chloe": 9318, "aa": 9779, "1721": 27689, "led": 2419, "indian": 2796, "parallels": 18588, "stretch": 7683, "abigail": 15983, "##iting": 15402, "brigham": 22727, "motivated": 12774, "advisers": 24205, "319": 26499, "tibetan": 11953, "kung": 18577, "##ritan": 25279, "october": 2255, "occupants": 18837, "showed": 3662, "mayhem": 26865, "##dome": 26173, "admits": 14456, "##oche": 23555, "greed": 22040, "darkest": 23036, "##\u306f": 30198, "##claim": 25154, "flexed": 24244, "retain": 9279, "rodney": 13898, "severed": 16574, "gasping": 17054, "developing": 4975, "##mler": 18602, "reactors": 22223, "##analysis": 25902, "regulates": 26773, "1609": 28058, "depression": 6245, "laser": 9138, "reflected": 7686, "monday": 6928, "bce": 10705, "ness": 23384, "fm": 4718, "approached": 5411, "gujarat": 14288, "descending": 15127, "nw": 22064, "##az": 10936, "##\u10d0": 29974, "productive": 13318, "isa": 18061, "turk": 22883, "etc": 4385, "geology": 13404, "sikh": 17246, "##sea": 17310, "stop": 2644, "loading": 10578, "shapiro": 24630, "relating": 8800, "craters": 27561, "##rion": 14772, "##rogated": 26565, "##\u05e1": 29804, "miller": 4679, "mastered": 15682, "##\u062a": 29817, "zachary": 19474, "trash": 11669, "##eous": 14769, "merrill": 16239, "outline": 12685, "midi": 22265, "##vb": 26493, "ie": 29464, "chemicals": 12141, "struggle": 5998, "siege": 6859, "##erated": 16848, "expanded": 4423, "synonym": 10675, "lowland": 15234, "paste": 19351, "wild": 3748, "pickering": 27078, "corpses": 18113, "ceremonies": 10912, "graduate": 4619, "##51": 22203, "##d": 2094, "tres": 24403, "##\u06d2": 29846, "nods": 11232, "yankee": 17652, "##rte": 19731, "wing": 3358, "##naire": 20589, "novelty": 21160, "sham": 25850, "unmistakable": 24219, "bog": 22132, "1832": 10212, "1801": 12410, "##\u05d6": 29793, "insists": 16818, "blake": 6511, "turnbull": 26439, "chief": 2708, "telephone": 7026, "penalties": 12408, "1896": 6306, "arrive": 7180, "holdings": 9583, "cartridges": 22998, "shaman": 23610, "revive": 17995, "quinlan": 28451, "spoken": 5287, "fernando": 9158, "trenches": 19874, "mythology": 11327, "pointed": 4197, "atomic": 9593, "succession": 8338, "defeating": 6324, "moths": 14885, "##ful": 3993, "##\u2ea9": 30158, "accounted": 14729, "springs": 6076, "##\u2605": 30147, "chun": 20979, "tammy": 19971, "scoffed": 26326, "620": 23612, "playoff": 7808, "foreword": 23059, "bright": 4408, "##path": 15069, "scarlett": 20862, "##tura": 27431, "suzy": 28722, "##illy": 20577, "stillness": 29435, "syllables": 20732, "corrections": 20983, "mercenaries": 19331, "##\u057a": 29780, "\u05d9": 1250, "grandmaster": 27101, "1885": 6571, "[unused672]": 677, "[unused162]": 167, "fearing": 14892, "soho": 23771, "walking": 3788, "\u116f": 1479, "tubes": 10868, "bio": 16012, "rhea": 24775, "##\u5bb6": 30351, "##tm": 21246, "cao": 12966, "\u05e0": 1257, "mbc": 27262, "hoped": 5113, "introductory": 23889, "deposition": 19806, "encyclopedia": 12204, "closed": 2701, "wrought": 18481, "amplified": 26986, "inward": 20546, "##enham": 23580, "sung": 7042, "##era": 6906, "##lot": 10994, "\u221e": 1601, "base": 2918, "mgm": 15418, "came": 2234, "peat": 23366, "yearbook": 24803, "[unused33]": 34, "mu": 14163, "##ented": 14088, "##hma": 22444, "atrium": 26204, "intensive": 11806, "scrolling": 28903, "nicola": 17388, "tomb": 8136, "mia": 8764, "bea": 26892, "retire": 11036, "widely": 4235, "enchanted": 22454, "hormone": 18714, "header": 20346, "adults": 6001, "attendant": 16742, "##tails": 22081, "sip": 10668, "bedford": 12003, "rani": 21617, "wellington": 8409, "##nard": 16564, "harmful": 17631, "flair": 22012, "cassie": 8869, "[unused121]": 126, "bolivar": 22118, "##\u2202": 30120, "realism": 15650, "howl": 22912, "catalyst": 16771, "investigated": 10847, "##gard": 13444, "intervention": 8830, "1704": 27769, "samples": 8168, "dept": 29466, "\u0292": 1138, "handy": 18801, "##ines": 10586, "[unused509]": 514, "##row": 10524, "heights": 7535, "##nbc": 28957, "them": 2068, "genesis": 11046, "awkwardly": 18822, "##sen": 5054, "##\u1162": 30007, "saskatchewan": 10068, "[unused621]": 626, "brushing": 12766, "males": 3767, "moor": 16808, "indigenous": 6284, "retreated": 11672, "manchu": 26650, "longest": 6493, "##)": 29620, "drills": 28308, "karen": 8129, "reply": 7514, "accommodations": 26167, "##nna": 9516, "##zation": 9276, "mischievous": 25723, "deeply": 6171, "greenberg": 24190, "##ance": 6651, "##\u0f63": 29971, "hanna": 10579, "improving": 9229, "liberal": 4314, "joyah": 27098, "flanked": 15874, "##oun": 23709, "tobago": 17247, "[unused597]": 602, "balanced": 12042, "balloon": 13212, "boiled": 17020, "brant": 29182, "cruisers": 16722, "compositions": 9265, "classmates": 19846, "[unused284]": 289, "##nitz": 22792, "appearance": 3311, "praying": 14488, "##ciency": 29125, "##et": 3388, "[unused258]": 263, "[MASK]": 103, "##ique": 7413, "##ul": 5313, "malta": 9933, "backseat": 19978, "\u092a": 1328, "##brand": 23544, "##\u10d5": 29979, "waterloo": 13784, "comedy": 4038, "141": 15471, "\u25cf": 1619, "##scan": 29378, "refined": 15514, "##case": 18382, "##hill": 7100, "##mmon": 24521, "##wer": 13777, "offended": 15807, "ministries": 16410, "mandy": 18193, "defeats": 14222, "##claiming": 27640, "##lidae": 21595, "roles": 4395, "1921": 4885, "slice": 14704, "ir": 20868, "\u6c35": 1894, "neighboring": 8581, "complexes": 15420, "wedge": 17632, "researching": 20059, "dotted": 20384, "s": 1055, "##tucket": 29315, "bien": 29316, "modernization": 20181, "clip": 12528, "1989": 2960, "##h": 2232, "glide": 21096, "benz": 17770, "crook": 19302, "parcels": 28998, "scarlet": 11862, "battalions": 10157, "eastenders": 28936, "culturally": 20547, "##ory": 10253, "##ntation": 23436, "##\u5e78": 30367, "##iz": 10993, "seal": 7744, "compliment": 19394, "plump": 26731, "punishment": 7750, "conditioned": 22442, "equestrian": 19191, "[unused357]": 362, "older": 3080, "communist": 4750, "curry": 15478, "##aer": 27867, "##ffie": 29055, "jamal": 24132, "cliffs": 13333, "pants": 6471, "pac": 14397, "crept": 13147, "norton": 10770, "netball": 25034, "[PAD]": 0, "ceremony": 5103, "curtis": 9195, "childless": 26983, "[unused370]": 375, "sloane": 17558, "daytona": 18226, "backlash": 25748, "##tius": 22638, "##rac": 22648, "software": 4007, "\u05df": 1256, "retrieval": 26384, "idols": 24438, "##hetic": 20086, "seemed": 2790, "arid": 17511, "##rian": 6862, "essays": 8927, "1903": 5778, "danube": 16212, "coded": 22402, "tension": 6980, "mixes": 21109, "stacy": 18566, "##\u03c0": 29731, "##\u706b": 30432, "curtiss": 26431, "gb": 16351, "celebrated": 6334, "##ckman": 24080, "##arte": 24847, "sprayed": 25401, "straining": 21366, "[unused678]": 683, "answered": 4660, "fountains": 23497, "##ieg": 28872, "persuaded": 11766, "often": 2411, "july": 2251, "dagger": 10794, "##yya": 19903, "arrows": 12563, "makeshift": 19368, "killed": 2730, "ensembles": 21528, "major": 2350, "##ridge": 9438, "prodigy": 28334, "[unused74]": 75, "##ike": 17339, "nod": 7293, "3": 1017, "twilight": 13132, "##\u6b62": 30413, "##dry": 21190, "measure": 5468, "stormy": 24166, "##rzburg": 29136, "gifford": 29360, "tracks": 3162, "ecuador": 10378, "surveyor": 17169, "fry": 14744, "tully": 25724, "gal": 14891, "starvation": 22611, "##aith": 22465, "rankin": 25772, "##mous": 27711, "birmingham": 6484, "finance": 5446, "intern": 25204, "baron": 5797, "winslow": 26600, "beit": 28236, "knows": 4282, "approach": 3921, "##\u6709": 30399, "jana": 23341, "alike": 11455, "poking": 21603, "miranda": 9392, "forming": 5716, "##mament": 28119, "lists": 7201, "##\u5c07": 30354, "[unused20]": 21, "britten": 29429, "waller": 23550, "gaulle": 28724, "##\u014b": 29673, "fatty": 19101, "logging": 15899, "veterans": 8244, "joked": 19700, "concacaf": 22169, "1860": 7313, "gulp": 26546, "buckley": 17898, "##ited": 17572, "ipswich": 15435, "##abe": 16336, "lcd": 27662, "knotted": 27039, "runner": 5479, "cluster": 9324, "reveals": 7657, "[unused364]": 369, "weighs": 21094, "##lley": 25105, "authority": 3691, "respective": 7972, "feat": 8658, "baroness": 21479, "##icate": 24695, "##gated": 11644, "gardner": 11764, "tenderly": 26596, "eating": 5983, "cannot": 3685, "\u0632": 1281, "institute": 2820, "implant": 27159, "aw": 22091, "##anov": 25417, "##ght": 13900, "folks": 12455, "inspected": 20456, "friction": 15012, "\u30b3": 1704, "edouard": 21627, "nominations": 9930, "##logie": 27095, "crane": 11308, "cyclone": 11609, "along": 2247, "oval": 9242, "intentions": 11174, "##\u02b7": 29709, "##orous": 25373, "##iba": 18410, "##psy": 18075, "vaudeville": 19698, "##holder": 14528, "spears": 13957, "[unused583]": 588, "turmoil": 17930, "##aus": 20559, "\u1d2c": 1490, "##ental": 21050, "byte": 24880, "stu": 24646, "certificate": 8196, "reaction": 4668, "museo": 19713, "mimi": 20705, "##\u091c": 29855, "eagle": 6755, "ik": 20912, "[unused500]": 505, "chapman": 11526, "\u0cb0": 1401, "regularly": 5570, "colts": 14390, "[unused358]": 363, "dance": 3153, "regretted": 18991, "pistons": 24399, "worries": 15508, "\u00a3": 1069, "##une": 9816, "dissolved": 8314, "successfully": 5147, "flopped": 24723, "[unused802]": 807, "stylistic": 24828, "##vara": 24516, "mayer": 14687, "##tzer": 29546, "couples": 6062, "mumbled": 11567, "\u10e0": 1451, "30th": 13293, "accommodated": 28959, "javier": 13824, "warming": 12959, "##logram": 24915, "serpent": 16517, "amplifiers": 28633, "primitive": 10968, "household": 4398, "[unused165]": 170, "##sund": 25168, "populated": 10357, "nr": 17212, "##uddin": 17375, "##\u2074": 30073, "chambers": 8477, "canonical": 18562, "beads": 17530, "##carbon": 26190, "flashes": 16121, "dennis": 6877, "##orus": 21694, "1848": 7993, "consortium": 12360, "muster": 20327, "##rella": 21835, "publicly": 7271, "##ne": 2638, "##vert": 16874, "\u7f8e": 1935, "##vian": 18073, "##right": 15950, "junctions": 27169, "sullivan": 7624, "remainder": 6893, "hovered": 18190, "##gata": 26589, "likeness": 28275, "##65": 26187, "\u0127": 1103, "wander": 17677, "archdiocese": 12658, "friendships": 28956, "skier": 21294, "##\u611b": 30379, "peterborough": 17587, "##tt": 4779, "woven": 17374, "receipts": 28258, "organising": 21317, "[unused544]": 549, "##\u044b": 29113, "messiah": 22112, "130": 7558, "\u1107": 1460, "extinguished": 27705, "##cian": 14483, "economies": 18730, "becoming": 3352, "eugen": 29273, "[unused345]": 350, "introduction": 4955, "kashmir": 13329, "koppen": 20139, "beaver": 13570, "patients": 5022, "flourish": 24299, "strangely": 13939, "##omba": 24991, "cooperative": 10791, "crypt": 19888, "cans": 18484, "briefs": 28760, "utilized": 12550, "quarry": 12907, "orchards": 22976, "component": 6922, "abolition": 15766, "transforms": 21743, "##lifting": 26644, "performance": 2836, "broad": 5041, "cafe": 7668, "loaned": 13190, "packers": 15285, "european": 2647, "region": 2555, "truly": 5621, "spraying": 29035, "tonight": 3892, "extra": 4469, "##\u043f": 29746, "##\u10e1": 29988, "\u1d9c": 1511, "jack": 2990, "grade": 3694, "900": 7706, "montana": 8124, "tries": 5363, "furniture": 7390, "tufts": 25252, "compatibility": 21778, "fangs": 11738, "flood": 7186, "announces": 17472, "douglas": 5203, "bobo": 27418, "vista": 13005, "38th": 22051, "mis": 28616, "hysteria": 29004, "lee": 3389, "carter": 5708, "##jit": 18902, "plastered": 21832, "bounced": 13605, "arbitrary": 15275, "fulfillment": 29362, "sketches": 12741, "cake": 9850, "fellowships": 27298, "paralyzed": 22348, "blanca": 27538, "\u0dbb": 1405, "catastrophic": 23546, "montgomery": 8482, "confederacy": 18179, "proportional": 14267, "[unused503]": 508, "insides": 19008, "##chen": 8661, "persian": 4723, "##nted": 14706, "continents": 17846, "##liest": 21292, "jumping": 8660, "boost": 12992, "##ald": 19058, "##oms": 22225, "prequel": 28280, "yes": 2748, "##don": 5280, "ancestor": 13032, "harm": 7386, "rebounds": 11049, "html": 16129, "##holm": 18884, "1500": 10347, "involvement": 6624, "##phone": 9864, "scarred": 21985, "completion": 6503, "penis": 19085, "endings": 21306, "ukrainian": 5969, "designation": 8259, "##uing": 25165, "[unused91]": 92, "specific": 3563, "impaired": 18234, "sights": 15925, "docked": 25727, "rowing": 12037, "##hand": 11774, "caitlin": 27555, "harden": 28751, "wheeling": 29142, "##\u0f58": 29968, "##\u2116": 30106, "sang": 6369, "##\u6587": 30387, "##nc": 12273, "pepsi": 27237, "weed": 17901, "administering": 28965, "reeves": 17891, "bam": 25307, "mozambique": 16274, "coli": 27441, "bathing": 17573, "ugly": 9200, "\u5289": 1777, "comply": 14037, "bing": 17620, "tiled": 26510, "equation": 8522, "excited": 7568, "##enberg": 11029, "manuscripts": 10485, "eclipse": 13232, "monarchy": 12078, "tribune": 10969, "ibrahim": 13477, "##eur": 11236, "bucket": 13610, "##\u3081": 30206, "liability": 14000, "advising": 23875, "lessons": 8220, "##\u90e8": 30486, "grow": 4982, "forces": 2749, "##ai": 4886, "admitting": 17927, "##lth": 24658, "309": 25048, "dorm": 19568, "seated": 8901, "##wheel": 22920, "nintendo": 10022, "conspiracy": 9714, "##urn": 14287, "scooted": 24289, "possibility": 6061, "##roids": 29514, "configurations": 22354, "correspondence": 11061, "1871": 7428, "sink": 7752, "crafted": 19275, "wang": 7418, "missionary": 8696, "rape": 9040, "primera": 14837, "miniseries": 13612, "##cu": 10841, "##iser": 17288, "champions": 3966, "tragedy": 10576, "medina": 15761, "slave": 6658, "barlow": 17803, "enjoyed": 5632, "washed": 8871, "##falls": 28067, "centennial": 15483, "##400": 29537, "reliable": 10539, "paperback": 13611, "1646": 28783, "##neil": 27276, "51": 4868, "bowie": 14598, "showcased": 22443, "freyja": 7075, "##page": 13704, "principals": 27928, "##nath": 16207, "laws": 4277, "##ually": 28488, "sheds": 25999, "wooden": 4799, "del": 3972, "##ided": 14097, "##lein": 19856, "garlic": 20548, "stadium": 3346, "rendezvous": 20558, "specialised": 17009, "marred": 24563, "\u1165": 1472, "outdoors": 19350, "drawer": 13065, "##kell": 18690, "mixed": 3816, "##odes": 19847, "conceived": 10141, "hawthorn": 21671, "[unused770]": 775, "earning": 7414, "bathurst": 21897, "masovian": 23703, "gogh": 26603, "adapt": 15581, "cylinders": 18729, "tong": 15740, "##islav": 19834, "poke": 26202, "##class": 26266, "pamela": 17217, "anthropological": 28395, "film": 2143, "[unused517]": 522, "\u72ac": 1908, "sponsor": 10460, "##ques": 10997, "f": 1042, "##sser": 18116, "##\u5409": 30319, "essential": 6827, "opponents": 7892, "graphic": 8425, "dinamo": 22306, "delgado": 26532, "awesome": 12476, "migration": 9230, "##eries": 28077, "galen": 21062, "##am": 3286, "##arable": 25236, "##dote": 23681, "specimen": 11375, "##\u2011": 30049, "cartridge": 15110, "separates": 18600, "fusion": 10077, "shores": 13312, "cn": 27166, "3d": 7605, "toulouse": 17209, "yeah": 3398, "##pee": 28084, "final": 2345, "expected": 3517, "phillips": 8109, "sheridan": 13243, "simmons": 13672, "##uram": 27618, "gore": 13638, "##lash": 27067, "airfields": 25278, "conway": 14783, "prediction": 17547, "##horse": 23024, "favoured": 16822, "anthologies": 25675, "jon": 6285, "disgusting": 19424, "remake": 12661, "colchester": 20115, "\u03b3": 1157, "sound": 2614, "sunrise": 13932, "##\u6bd4": 30416, "1826": 11931, "entitled": 4709, "killers": 15978, "beneath": 4218, "kara": 13173, "alma": 11346, "##pel": 11880, "reggae": 15662, "##ossa": 21842, "##stle": 22516, "##less": 3238, "1950s": 4856, "[unused785]": 790, "monitors": 15410, "skinned": 19937, "accessories": 16611, "northeast": 4794, "1917": 4585, "thinking": 3241, "bombay": 11831, "hillary": 18520, "exists": 6526, "chevy": 29009, "reunite": 25372, "\u2071": 1537, "dinner": 4596, "spectra": 29237, "normally": 5373, "breathless": 16701, "justices": 19867, "libby": 19533, "##tre": 7913, "otto": 8064, "wore": 5078, "asia": 4021, "ob": 27885, "vocal": 5554, "sean": 5977, "flick": 17312, "ska": 24053, "2008": 2263, "dustin": 24337, "cardinal": 7185, "1963": 3699, "reminder": 14764, "##gas": 12617, "authentic": 14469, "expense": 10961, "enthusiast": 29550, "migrants": 16836, "centimetres": 13935, "conservation": 5680, "\u30d5": 1720, "terminals": 17703, "christi": 21359, "[unused27]": 28, "\u208a": 1557, "cerambycidae": 13168, "orderly": 23589, "cactus": 23265, "##lled": 11001, "burning": 5255, "horses": 5194, "basics": 24078, "shooting": 5008, "pembroke": 21457, "marlborough": 22830, "cass": 16220, "comune": 21130, "##iri": 15735, "##llation": 20382, "exchanges": 15800, "zhejiang": 26805, "suddenly": 3402, "##anger": 25121, "predict": 16014, "messengers": 28938, "nee": 7663, "\u209b": 1570, "bulb": 20581, "regis": 20588, "##ffey": 24513, "gene": 4962, "considerably": 9839, "##tc": 13535, "canoe": 14347, "stitch": 26035, "erin": 11781, "yesterday": 7483, "substantial": 6937, "subcommittee": 18052, "display": 4653, "henrietta": 20775, "##ouin": 25058, "##phus": 25255, "casey": 9036, "rann": 26312, "practicing": 12560, "avant": 14815, "testify": 19919, "dodge": 11898, "brought": 2716, "##hal": 8865, "amused": 11770, "canceled": 13261, "locke": 18343, "[unused753]": 758, "guam": 16162, "seymour": 13254, "##cede": 22119, "halifax": 10475, "##rop": 18981, "practices": 6078, "ina": 27118, "collapsing": 22724, "dynasty": 5321, "maximilian": 18838, "hers": 5106, "guess": 3984, "partisan": 14254, "dans": 18033, "totaled": 23596, "libertadores": 27968, "frescoes": 23360, "painful": 9145, "villagers": 11904, "sell": 5271, "##ire": 7442, "heiress": 20020, "stage": 2754, "##lving": 25780, "kaufman": 23699, "mas": 16137, "##abad": 10542, "daly": 18509, "penalty": 6531, "olson": 21583, "##shed": 14740, "\u5b66": 1817, "sovereign": 11074, "unaffected": 24720, "comprehensive": 7721, "lviv": 23814, "presidents": 11274, "homestead": 14473, "nerve": 9113, "##breaker": 21204, "[unused655]": 660, "modeling": 11643, "promotion": 4712, "##ad": 4215, "cisco": 26408, "aubrey": 18961, "wednesday": 9317, "everybody": 7955, "conversely": 18868, "filming": 7467, "speed": 3177, "sbs": 21342, "freezing": 12809, "##4th": 26724, "shiny": 12538, "isolation": 12477, "##isan": 29196, "mx": 25630, "arteries": 28915, "leadership": 4105, "##ific": 18513, "whites": 12461, "colony": 5701, "grenade": 17038, "anglia": 24217, "##atal": 27815, "\u266d": 1627, "eagerly": 17858, "sector": 4753, "orr": 26914, "unchanged": 15704, "answering": 10739, "danielle": 18490, "widows": 24835, "ratio": 6463, "##ingham": 16445, "physicist": 13702, "##run": 15532, "armour": 12371, "estrada": 26482, "leftist": 24247, "##bilities": 14680, "madness": 12013, "protestant": 8330, "accountant": 17907, "respond": 6869, "albuquerque": 19334, "##pants": 27578, "hardy": 9532, "underwear": 14236, "affect": 7461, "##\u2081": 11871, "noelle": 22336, "sensed": 10596, "curves": 10543, "juan": 5348, "impose": 17607, "valuable": 7070, "cooking": 8434, "senators": 10153, "cock": 10338, "pursuing": 11828, "vertebrae": 25517, "##llar": 17305, "area": 2181, "permit": 9146, "##ku": 5283, "steep": 9561, "gamble": 18503, "shaking": 5513, "princeton": 9173, "stocks": 15768, "softness": 27012, "chaplain": 14011, "meantime": 12507, "kamen": 22099, "##\u0282": 29695, "vocalist": 8032, "titled": 4159, "surreal": 16524, "fiercely": 16265, "purchase": 5309, "kendrick": 25341, "sellers": 19041, "asahi": 29465, "##lessness": 24913, "whole": 2878, "##pies": 13046, "##ki": 3211, "rural": 3541, "yielded": 17544, "search": 3945, "centres": 8941, "paz": 18183, "piccolo": 29368, "einstein": 15313, "toward": 2646, "drowned": 12805, "source": 3120, "muscular": 13472, "##hey": 14844, "avoids": 26777, "[unused457]": 462, "seine": 16470, "dumont": 25830, "marjorie": 21562, "##zily": 28431, "holster": 29447, "drunken": 15967, "##iated": 15070, "raven": 10000, "devastation": 25594, "maccabi": 24055, "hunger": 9012, "[unused105]": 110, "\u30e2": 1727, "dissatisfaction": 28237, "##ros": 7352, "besides": 4661, "##keeping": 18321, "flew": 5520, "ordnance": 14445, "amalgamation": 21968, "rigged": 25216, "##ho": 6806, "##den": 4181, "nine": 3157, "##zog": 28505, "locating": 26339, "colder": 21399, "deity": 12764, "progressing": 27673, "##kia": 21128, "languages": 4155, "done": 2589, "##\u0905": 29847, "##\u5bae": 30350, "sons": 4124, "watery": 28259, "minas": 21750, "managing": 6605, "frightening": 17115, "##tri": 18886, "affair": 6771, "kirby": 15129, "tulsa": 16631, "jimenez": 22790, "locals": 10575, "collisions": 28820, "naturalized": 27558, "lordship": 20698, "centre": 2803, "##brates": 25258, "dona": 24260, "burke": 9894, "##hara": 11077, "apparatus": 14709, "##mmer": 15810, "1666": 27407, "[unused611]": 616, "connie": 16560, "prisoners": 5895, "##proof": 18907, "kingdom": 2983, "joshua": 9122, "gypsy": 16006, "inherently": 26096, "soil": 5800, "teammate": 10809, "avila": 29079, "wounds": 8710, "tumble": 28388, "oppression": 20489, "##hort": 27794, "##nee": 24045, "##lism": 28235, "##;": 29628, "plug": 13354, "1966": 3547, "\u0142": 1105, "straightened": 11168, "association": 2523, "##woods": 25046, "burned": 5296, "convict": 20462, "workplace": 16165, "voiced": 6126, "sweeping": 12720, "compulsory": 14770, "altering": 22552, "offering": 5378, "transmit": 19818, "shaggy": 25741, "penetration": 20015, "symbol": 6454, "giants": 7230, "650": 13757, "ling": 17002, "rancho": 18123, "bel": 19337, "tis": 22320, "vortex": 23463, "crash": 5823, "greeting": 14806, "gathers": 29438, "nana": 17810, "kilda": 22633, "roaming": 24430, "ahl": 18347, "stainless": 18676, "finer": 26954, "sanctioned": 14755, "chemical": 5072, "lit": 5507, "philanthropic": 25321, "protections": 28548, "prohibit": 23469, "raining": 24057, "sequencing": 24558, "wheeler": 12819, "antonia": 24272, "##zine": 21254, "inversion": 28527, "lau": 21360, "massimo": 28080, "##raj": 14220, "employee": 7904, "wilhelm": 9070, "collecting": 9334, "replacing": 6419, "machines": 6681, "##gang": 24930, "behavioral": 14260, "attire": 20426, "##\u0433": 29741, "claw": 15020, "wielding": 26974, "awaiting": 15497, "rpg": 22531, "company": 2194, "clair": 17936, "binds": 20817, "1898": 6068, "##cit": 26243, "bedfordshire": 28430, "scenic": 12916, "##\u592a": 30338, "promised": 5763, "tabitha": 21581, "##mic": 7712, "loads": 15665, "plague": 11629, "audrey": 14166, "spotting": 27963, "paddle": 20890, "##\u0432": 25529, "bc": 4647, "##taro": 28160, "leyte": 27214, "paradigm": 20680, "##vor": 14550, "sadly": 13718, "randy": 9744, "tanner": 12780, "statutes": 18574, "liner": 11197, "mac": 6097, "##rk": 8024, "arlington": 13929, "[unused736]": 741, "hips": 6700, "boring": 11771, "##hana": 15788, "sawmill": 24744, "##\u2019": 30056, "[unused158]": 163, "irrigation": 12442, "christoph": 21428, "1892": 6527, "doubles": 7695, "divinity": 16968, "worn": 6247, "##enstein": 21819, "1641": 25702, "hating": 22650, "salem": 10389, "virgil": 17270, "##ographic": 13705, "extremely": 5186, "circling": 18519, "boxer": 10423, "bathroom": 5723, "lobbied": 26421, "##tarian": 28897, "##qu": 28940, "citadel": 15364, "lineup": 10515, "ventured": 20510, "1990s": 4134, "waterfall": 14297, "armagh": 24678, "##ged": 5999, "##eased": 25063, "reluctance": 21662, "frequency": 6075, "gilded": 23880, "exclude": 23329, "removing": 9268, "fractures": 28929, "grocery": 13025, "latin": 3763, "symbolic": 12613, "##mbre": 19908, "hypothetical": 25613, "barges": 27712, "seeds": 8079, "##zuka": 22968, "maltese": 18563, "wilson": 4267, "##rber": 20473, "##\u771f": 30447, "moat": 25266, "spans": 14798, "##ulent": 27581, "neumann": 22860, "hungry": 7501, "upon": 2588, "lobby": 9568, "##elin": 18809, "coincidentally": 27542, "ravens": 17272, "##\u301c": 30171, "ousted": 28368, "##\u6c37": 30421, "wesley": 11482, "reservation": 11079, "wallet": 15882, "kitchen": 3829, "talent": 5848, "prestigious": 8919, "hawthorne": 23440, "mutants": 23892, "singer": 3220, "granny": 19794, "speedway": 10688, "##oof": 21511, "pretending": 12097, "premiered": 5885, "gallo": 25624, "printing": 8021, "dismissing": 28913, "israelis": 28363, "withdrawing": 21779, "jules": 11044, "kun": 28919, "joyce": 11830, "##rain": 21166, "robber": 27307, "hummed": 26747,
[...]
