{"\u2581preliminary": 8685, "kow": 11247, "\u2581tent": 6797, "\u2581marcia": 22273, "\u2581chuckled": 10591, "\u25811984": 1930, "mite": 15958, "\u2581defined": 2811, "\u2581buc": 11454, "\u2581haines": 28872, "\u25811996": 1371, "\u2581assumption": 12027, "\u2581earliest": 4448, "gin": 5831, "\u2581streams": 9464, "394": 25058, "int": 6391, "pati": 10563, "\u2581cooperation": 5876, "\u2581crater": 9980, "osta": 21501, "\u2581garion": 13477, "\u2581repaired": 15552, "lessly": 9687, "\u2581exercised": 20739, "\u2581shortstop": 26332, "idze": 29113, "ria": 2548, "sts": 10044, "\u2581exploded": 10426, "vel": 6532, "\u2581revere": 25303, "neither": 25994, "en": 219, "ward": 2826, "\u2581dru": 15708, "\u2581brutality": 26615, "\u2581arn": 12741, "\u2581healthcare": 9809, "\u2581stoic": 24556, "invasive": 18984, "\u2581speak": 1960, "kura": 15205, "\u2581subdued": 23285, "\u2581tubular": 27204, "ga": 1136, "\u2581culp": 26632, "portuguese": 19801, "\u2581dismissed": 6446, "\u2581orphan": 11728, "\u2581allegedly": 9462, "\u2581flush": 15017, "sometimes": 9310, "\u2581unexplained": 29966, "\u2581thousands": 3805, "\u2581starboard": 27210, "ification": 4634, "\u2581synthetic": 13831, "\u2581coiled": 27067, "20,000": 16485, "nama": 20981, "\u2581settlements": 7434, "\u2581spaniards": 23202, "\u2581harmful": 20297, "\u2581amidst": 19457, "\u2581historians": 7489, "107": 18565, "gues": 12831, "skoye": 29954, "\u2581rai": 6623, "isn": 19591, "cena": 18949, "\u2581check": 2631, "\u2581addiction": 13673, "extraterrestrial": 28158, "\u2581fragment": 14847, "98": 3804, "\u2581else": 962, "\u2581disputes": 13121, "5%": 1933, "gla": 9984, "\u2581na": 1775, "\u2581greeted": 12268, "\u2581cyst": 22728, "seriously": 26171, "\u2581monograph": 19579, "dice": 8779, "rata": 13561, "\u2581kraus": 21571, "\u2581gmina": 5959, "\u2581jason": 2924, "\u2581montgomery": 7978, "\u2581kinase": 22282, "\u2581reminiscent": 16384, "\u2581josie": 18403, "oran": 16163, "\u2581hover": 21350, "\u2581shuddered": 15497, "\u2581reelection": 20140, "gl": 8430, "\u2581trey": 16705, "\u2581gyr": 27993, "\u2581crawford": 10607, "\u2581readily": 13563, "\u2581credibility": 23959, "\u2581behaviour": 7727, "\u25811843": 12522, "glass": 11539, "jar": 6300, "\u2581shanti": 29335, "\u2581cj": 23396, "\u2581weigh": 13415, "tra": 1939, "\u2581cook": 3800, "\u2581beau": 7821, "\u2581predominantly": 9066, "cup": 10407, "\u2581fulfill": 14313, "\u2581euro": 4669, "\u2581bahamas": 20394, "\u2581neutrino": 29700, "\u2581souls": 9874, "\u2581glow": 6839, "\u2581bleed": 20097, "\u2581peace": 1728, "franc": 8994, "\u2581ordnance": 16795, "\u2581certificate": 6259, "\u2581kenya": 7050, "\u2581appreciation": 13298, "categor": 14375, "\u2581tangled": 16515, "\u2581shipwreck": 23808, "\u2581xviii": 29711, "\u2581graz": 12098, "\u2581discovering": 15799, "\u2581wien": 22865, "\u2581awkward": 9309, "xia": 9907, "\u2581bothering": 18968, "\u2581unknown": 2562, "\u2581outlet": 15399, "\u2581decade": 3953, "\u2581clapping": 28110, "those": 13577, "\u2581gal": 5027, "guide": 17599, "\u2581genuinely": 18826, "\u2581tips": 11034, "shik": 24865, "\u2581pater": 24928, "platte": 26971, "loop": 18786, "\u2581francais": 26177, "\u2581excelled": 24737, "\u2581verbal": 11670, "hispanic": 28023, "\u2581fief": 26031, "\u2581terror": 6032, "\u2581kok": 15619, "\u2581opens": 8965, "\u2581modification": 16135, "\u2581dentist": 23098, "\u25811893": 6397, "\u2581forewing": 28685, "\u2581annabelle": 27105, "zie": 9544, "lash": 9545, "\u2581tested": 7631, "\u2581dillon": 16103, "\u2581lodged": 23278, "\u2581colleges": 7357, "\u2581foolish": 12596, "\u2581seamus": 27614, "serbian": 17426, "\u2581agustin": 26268, "\u2581oversaw": 16240, "mask": 23265, "\u2581samaritan": 29421, "are": 1509, "\u2581smooth": 3905, "\u2581crisp": 11497, "ager": 14892, "\u2581raymond": 6873, "\u2581creepy": 20251, "\u2581baked": 22163, "\u2581peaked": 5726, "\u2581cry": 3687, "cius": 23139, "guilla": 29072, "\u2581cylindrical": 21397, "\u2581relationship": 1429, "\u2581cardinal": 5967, "\u2581marietta": 29394, "ornith": 22210, "\u2581tell": 494, "\u2581graeme": 24233, "witt": 13098, "\u2581odin": 25103, "\u2581sheet": 6125, "eh": 4362, "cast": 6146, "\u2581resurrection": 17525, "cyclic": 15888, "\u2581lure": 14411, "\u2581yemen": 12911, "\u2581communism": 18692, "\u2581ras": 7172, "\u2581powell": 9478, "ophilus": 25834, "\u2581participated": 2471, "\u2581officers": 2041, "\u2581vai": 17136, "\u25811972": 2249, "\u2581glued": 25521, "\u2581music": 232, "\u2581founded": 785, "\u2581envelope": 9127, "\u2581judah": 25822, "\u2581series": 231, "\u2581turnpike": 18017, "\u2581temporal": 17877, "\u2581inadvertently": 23294, "\u2581auditor": 19172, "\u2581blanchard": 27621, "\u2581peaking": 14915, "\u2581anglo": 6750, "\u2581interjected": 29512, "\u2581brett": 12704, "mata": 12724, "\u2581persuaded": 12883, "\u2581crosby": 16185, "\u2581accept": 3440, "lle": 6696, "\u2581benchmark": 25324, "\u2581stature": 23103, "\u2581recurrent": 28788, "\u2581cells": 2934, "\u2581laboratory": 4746, "\u2581convincing": 13650, "\u2581confer": 21748, "\u2581accuse": 18302, "\u2581fighter": 3580, "\u2581appoint": 11192, "\u2581urgent": 15639, "dan": 2793, "\u2581quota": 18740, "\u2581assisting": 15721, "ego": 8811, "kee": 11821, "\u2581injustice": 20406, "\u2581fool": 5345, "\u2581gallons": 21294, "luk": 14602, "\u2581converter": 25893, "\u2581mow": 18948, "2006": 2821, "\u25811865": 6636, "aff": 6752, "interest": 16208, "\u2581pieter": 21323, "\u2581wrexham": 28008, "\u2581approximately": 1357, "\u2581moses": 10373, "\u2581spans": 16967, "qualifying": 28253, "\u2581abd": 11249, "\u2581cadence": 25596, "\u2581tunic": 21332, "\u2581automotive": 14699, "\u2581michigan": 2503, "\u2581passages": 16139, "\u2581qualifications": 18752, "\u2581fluttering": 26200, "\u2581agreements": 12267, "\u2581yoko": 20572, "\u2581termination": 21343, "\u2581insulation": 27408, "\u2581m": 307, "according": 18821, "alone": 17979, "\u2581maxwell": 11527, "\u2581credits": 5748, "ach": 3211, "\u2581lighter": 9359, "ej": 10022, "athlete": 23458, "\u2581rath": 14902, "\u2581systematic": 12223, "brien": 9751, "\u2581havoc": 23899, "\u2581textile": 9770, "\u2581vanderbilt": 20157, "\u2581conventions": 15117, "\u2581alamo": 21583, "kopf": 23769, "z": 380, "\u2581vila": 16937, "\u2581pegasus": 28824, "\u2581buffer": 17497, "\u2581dependencies": 29411, "\u2581disrepair": 27495, "\u2581grain": 6059, "\u2581beatty": 27717, "\u2581approaching": 8371, "hor": 6778, "\u2581kidnapper": 28341, "\u2581fiercely": 19139, "\u2581schuster": 26061, "\u2581vaccination": 27909, "\u2581complain": 15310, "\u2581shaped": 9733, "\u2581russian": 1154, "\u2581bumped": 22315, "\u2581winced": 18220, "\u2581luxurious": 22534, "hunter": 15214, "\u2581imitation": 20660, "\u2581duchy": 11636, "\u2581tuft": 20315, "\u2581&": 279, "\u2581england": 648, "\u2581invented": 8854, "\u2581banished": 23186, "letter": 19535, "\u2581filipino": 9731, "\u2581centenary": 20029, "\u2581hasn": 9979, "\u2581substitution": 19910, "provoking": 28913, "\u2581zander": 29127, "\u2581unfortunate": 17362, "\u2581opinion": 4052, "\u2581rumored": 25625, "\u2581lift": 5360, "\u2581pl": 12443, "\u2581fledgling": 26658, "\u2581masa": 10816, "\u2581issued": 2212, "1973": 7648, "\u2581helm": 10219, "\u2581remastered": 22300, "\u2581jewel": 12734, "\u2581ventral": 23827, "reviewed": 19888, "\u2581bee": 12092, "\u2581ob": 5122, "\u2581achievement": 5111, "\u2581repeal": 21909, "\u2581transforming": 22335, "sym": 7261, "\u2581helplessly": 26291, "\u2581censor": 17361, "dust": 18299, "\u2581writes": 6215, "\u2581hurt": 1500, "\u2581ped": 12855, "\u2581impacted": 22676, "\u2581duration": 9403, "\u2581insurance": 4225, "intuitive": 24392, "\u2581ki": 3017, "cies": 10807, "\u2581sanctum": 29406, "\u2581cape": 3041, "\u2581subsidiaries": 22770, "\u2581extermination": 29962, "hem": 9763, "\u2581guan": 18155, "blast": 18818, "\u2581length": 1476, "chev": 13860, "\u2581les": 3921, "\u2581quadrant": 27203, "\u2581wildcat": 29265, "\u2581epilepsy": 28405, "sco": 8328, "wald": 6501, "\u2581persisted": 22125, "\u2581benevolent": 27001, "\u2581cordelia": 29746, "\u2581fictional": 6079, "\u2581accepts": 16548, "\u2581wings": 3433, "\u2581hips": 5830, "tai": 7962, "\u2581padded": 24013, "\u2581prison": 1934, "\u2581pediatric": 19134, "\u2581bones": 4915, "\u2581loved": 2199, "calais": 25129, "\u2581bihar": 16707, "\u2581emergencies": 26888, "\u2581chloe": 9376, "chner": 21768, "\u2581seine": 20238, "\u2581helen": 4659, "\u2581hoover": 20113, "\u2581bubbling": 26977, "without": 14506, "\u2581sage": 9527, "bride": 20852, "possibly": 21628, "\u2581lotus": 15175, "\u2581bab": 8514, "\u2581blocks": 5198, "\u2581permitting": 26739, "\u2581collectively": 15433, "\u2581strapped": 21453, "\u2581nunez": 28338, "\u2581stir": 13216, "\u2581stealth": 20925, "\u2581tumble": 21065, "\u2581wetland": 24699, "berger": 8135, "\u2581ferris": 23530, "\u2581grubb": 28478, "\u2581scholarship": 5403, "\u2581unlikely": 10387, "\u2581venture": 5998, "\u2581cavity": 19670, "\u2581examinations": 17725, "\u2581essentially": 7398, "\u2581malik": 15905, "\u2581ecuadorian": 28945, "\u2581plumbing": 28845, "\u2581grouping": 19288, "xa": 6791, "holding": 14681, "acchi": 27123, "\u2581sq": 4444, "\u2581kol": 6348, "\u2581199495": 28520, "\u2581ottawa": 7591, "\u2581dozens": 10273, "nothing": 8297, "\u2581sarah": 3069, "\u2581drained": 12466, "\u2581vojvodina": 28732, "\u2581suggests": 5049, "isch": 10435, "\u2581sunni": 19459, "\u2581livestock": 12399, "\u2581jonny": 28082, "\u25811960": 1328, "\u2581nee": 12616, "\u2581rot": 8629, "sharing": 25213, "\u2581danger": 3589, "fin": 5617, "\u2581sound": 646, "\u2581mott": 19072, "kul": 12065, "\u2581exchequer": 28930, "robert": 17004, "\u2581marta": 20929, "\u2581cumbria": 26731, "wang": 9967, "zano": 19202, "\u2581eaton": 20107, "\u2581cornish": 20828, "\u2581sant": 12987, "\u2581spl": 11202, "\u2581deliver": 5879, "osis": 8076, "\u2581coulter": 27978, "mitte": 18568, "\u2581jin": 5627, "\u2581giggle": 14300, "\u2581mike": 1713, "3,500": 20071, "\u2581hobbs": 26434, "\u2581natalie": 12216, "\u2581blown": 13157, "\u2581parlor": 19989, "\u2581compile": 26561, "puzha": 29952, "driven": 14489, "\u2581tal": 8808, "\u2581gloucester": 14937, "ze": 1734, "\u2581nottingham": 12186, "\u2581tendency": 12621, "\u2581port": 1295, "rous": 6947, "\u2581choreography": 20082, "\u2581unsettling": 28947, "\u2581raised": 1127, "\u2581piece": 1855, "\u2581ashton": 16167, "\u2581came": 281, "naga": 19048, "\u2581are": 50, "verse": 9453, "\u2581strengthened": 15908, "culture": 12518, "confucian": 25159, "\u2581cone": 11085, "\u2581berth": 9740, "\u2581withdrew": 5978, "\u2581marguerite": 18319, "cca": 6909, "\u2581fun": 2414, "\u2581fang": 14966, "\u2581beads": 21157, "\u2581marrow": 26361, "\u2581hurdle": 24387, "\u2581software": 2306, "fir": 17482, "\u2581#8": 23751, "\u2581glistening": 26770, "\u2581alpine": 11230, "\u2581ozone": 27931, "\u2581resilience": 29882, "cd": 6324, "02": 3564, "\u2581strained": 13904, "jim": 21476, "\u2581eliza": 13553, "\u2581plurality": 28849, "\u2581source": 1267, "\u2581touched": 3491, "\u2581presses": 16527, "338": 25030, "entine": 22092, "\u2581spare": 8001, "\u2581chapters": 10722, "\u2581congolese": 29407, "\u2581ricardo": 15548, "\u2581reuben": 20070, "\u2581missiles": 11822, "\u2581fielding": 18231, "\u2581technician": 12664, "\u2581panda": 16982, "ki": 1520, "\u2581sequences": 11173, "\u2581dye": 14943, "\u2581rewrite": 27891, "\u2581romero": 20447, "amon": 21785, "\u2581kenneth": 8757, "\u25811851": 9965, "\u2581aztec": 18392, "\u2581lamina": 26035, "\u2581leonid": 22946, "relief": 28821, "\u2581reopened": 12713, "yana": 11003, "\u2581duval": 21987, "\u25811963,": 10406, "\u2581$5": 8367, "\u2581themes": 6876, "\u2581compromised": 22884, "\u2581cops": 10949, "\u2581knockout": 11676, "\u2581orientation": 10245, "\u2581mccartney": 18636, "\u2581tribute": 6081, "shu": 7838, "148": 14247, "\u2581products": 1985, "\u2581wipe": 11500, "\u2581privy": 16449, "\u2581quarter": 2650, "zhou": 6434, "\u2581tally": 20391, "\u2581system": 329, "hyster": 26912, "\u2581controller": 9919, "\u2581emphasized": 14883, "\u2581irritating": 27569, "\u2581flickered": 18112, "constant": 29639, "\u2581grades": 7400, "\u2581schw": 14289, "\u2581viral": 14987, "\u2581flicker": 18709, "rigo": 20412, "\u2581updates": 16779, "\u2581owe": 10441, "les": 1355, "ero": 5103, "\u2581reincarnation": 29297, "\u2581fda": 21651, "\u2581magnate": 24267, "\u2581removed": 1974, "180": 8888, "\u2581kul": 10668, "cw": 18822, "\u2581grimsby": 26163, "\u2581thanksgiving": 17300, "1655": 28076, "hobo": 27698, "\u2581everybody": 8903, "mary": 17396, "\u2581generate": 7920, "weg": 19844, "\u2581better": 574, "\u2581apologizing": 29839, "\u2581zi": 7967, "\u2581reckon": 17453, "cte": 22447, "gh": 4780, "\u2581mock": 10506, "\u2581middlesex": 15454, "\u2581preceded": 12421, "\u2581motel": 16046, "liter": 12438, "237": 21954, "\u2581periodically": 19886, "adult": 27055, "\u2581cairn": 18199, "\u2581infiltrate": 21356, "\u2581constitutes": 20362, "open": 10157, "\u2581immature": 28176, "connor": 12556, "\u2581daphne": 19292, "\u2581chopper": 26693, "\u25811936": 4122, "uddy": 28085, "335": 22651, "sion": 5991, "\u2581bert": 11502, "\u2581determining": 13521, "bello": 21858, "\u2581ewing": 25820, "\u2581relaunched": 27514, "\u2581mutiny": 22095, "\u2581nawab": 24548, "ket": 7572, "\u2581steamship": 23605, "\u2581rudder": 23983, "\u2581gonzalez": 10895, "\u2581kern": 20805, "hand": 3203, "\u2581forbade": 28035, "our": 4110, "\u2581elisa": 25175, "\u2581clerk": 6116, "\u2581telepathic": 26543, "\u2581axiom": 21148, "\u2581intentions": 12075, "\u2581angelina": 26743, "bry": 10620, "\u2581lamar": 18674, "\u2581mud": 5006, "\u2581document": 4492, "bar": 1850, "sey": 4228, "\u2581sam": 1113, "fat": 13063, "ambul": 28400, "\u2581wad": 11941, "\u2581800": 7993, "\u2581iglesia": 26564, "\u2581reflects": 11967, "\u2581rebellion": 6386, "\u2581lace": 9993, "\u2581eleanor": 11097, "%": 11881, "\u2581vocational": 15074, "esteem": 17635, "\u2581kenji": 27343, "gibbon": 27383, "\u2581denote": 21736, "\u2581assumed": 3632, "\u2581receipt": 20069, "\u2581mcc": 7263, "\u2581cycle": 4150, "pto": 17236, "eri": 6137, "\u2581bethany": 19419, "aver": 11937, "\u2581clown": 14833, "named": 11482, "\u2581stoop": 22150, "\u2581garrison": 6799, "\u2581higher": 1184, "\u2581collin": 21480, "ucci": 9438, "\u2581considered": 724, "oti": 15364, "\u2581thorough": 17509, "\u2581counterpart": 14661, "\u2581fitzroy": 24103, "\u2581precisely": 11628, "\u2581sedan": 16079, "\u2581molo": 26323, "\u2581flown": 11261, "\u2581conti": 21217, "\u2581jude": 10750, "91": 4472, "vor": 5771, "\u2581corrugated": 27236, "\u2581eh": 16177, "semifinals": 19044, "\u2581rou": 8341, "286": 24046, "n": 103, "\u2581snowy": 23754, "\u2581thereafter": 6045, "\u2581sits": 7550, "\u2581servants": 9117, "\u2581sinatra": 21491, "\u2581dispatched": 16520, "\u2581hermit": 22368, "\u2581sustain": 15534, "\u2581lokomotiv": 28612, "\u2581essendon": 27103, "proof": 13266, "\u2581annexation": 21261, "\u2581swipe": 27246, "\u2581altered": 8745, "\u2581lets": 6884, "\u2581savi": 18628, "\u2581avro": 28935, "\u2581hallway": 5472, "\u2581rebuilt": 6465, "families": 7000, "rain": 8664, "149": 14663, "\u2581mendoza": 20778, "\u2581hillside": 18956, "\u2581poised": 25251, "\u2581harry": 2706, "train": 11809, "\u2581crate": 19904, "hy": 5608, "mori": 14995, "\u2581cultivate": 27863, "\u2581abolitionist": 27299, "\u2581threatening": 9811, "\u2581reaches": 5539, "\u2581foremost": 18369, "\u2581gazing": 19325, "\u2581absolutely": 6916, "1922": 13556, "\u2581anchorage": 22602, "\u2581wrongdoing": 29332, "\u2581lever": 12785, "anga": 7619, "\u2581angered": 21474, "\u2581eaten": 8792, "abdu": 28962, "\u2581unionist": 16234, "\u2581organization": 1165, "\u2581classroom": 10188, "ende": 17264, "\u2581huntsville": 29106, "tur": 2517, "\u2581owns": 15250, "\u2581airbus": 22903, "\u2581elf": 15704, "\u2581disturbing": 16804, "\u2581implication": 26273, "\u2581maratha": 26482, "described": 27701, "\u2581sean": 4722, "\u2581weinberg": 27981, "paced": 15265, "ration": 5946, "\u2581burns": 7110, "\u2581refer": 5017, "sail": 18921, "\u2581torches": 26675, "\u2581extravagant": 27589, "c": 150, "lehr": 26427, "\u2581honeycomb": 29806, "does": 10739, "\u2581billy": 3769, "\u2581criticizing": 23900, "\u2581keeps": 8968, "when": 3185, "hausen": 9975, "elles": 15821, "\u2581adelaide": 6851, "\u2581auschwitz": 26657, "\u2581corsica": 22748, "\u2581kabul": 23310, "271": 24363, "\u2581verbs": 19363, "\u2581invite": 10275, "\u2581ma": 1216, "\u2581squadron": 1942, "\u2581auckland": 8491, "\u2581chairman": 1757, "\u2581protocols": 19957, "\u258135": 2694, "\u2581monster": 5100, "\u2581bonnet": 24112, "\u2581marlborough": 25933, "\u2581schism": 26983, "stead": 6849, "ancy": 10821, "\u2581migrated": 14204, "\u2581transition": 4513, "\u2581administra": 27932, "og": 5598, "\u2581irrational": 22596, "\u2581archives": 8111, "bron": 13480, "\u2581encircle": 20046, "evil": 16262, "\u2581immigrants": 6925, "\u2581hydro": 6424, "ensen": 21158, "\u2581passer": 21889, "\u2581questionable": 23436, "\u2581unearthed": 28348, "165": 11077, "having": 13693, "\u2581stack": 7566, "\u2581laredo": 29564, "\u2581engaging": 13116, "\u2581graph": 7210, "depend": 19038, "album": 14340, "\u25811975": 2419, "\u2581january": 320, "\u2581pagoda": 26298, "\u2581expect": 4186, "\u2581restless": 15487, "caul": 19794, "213": 20240, "cot": 9546, "\u2581yadav": 28587, "\u2581nominee": 9904, "\u2581aimee": 26189, "\u2581repeated": 4251, "\u2581dale": 8711, "experience": 28083, "september": 8290, "\u2581spider": 5650, "donnell": 18306, "\u2581represent": 3501, "\u2581sir": 927, "van": 2686, "\u2581bruise": 24127, "\u2581motionless": 23049, "\u2581corridor": 5222, "\u2581subsidies": 23996, "\u2581caffeine": 29114, "bend": 21091, "\u2581communicate": 8709, "\u2581drying": 21473, "\u2581papi": 24796, "\u2581wyndham": 29457, "\u2581taekwondo": 28406, "\u2581active": 1348, "ologie": 13331, "okie": 17391, "con": 1126, "\u2581operatic": 25489, "\u2581segment": 5631, "\u2581dolls": 16673, "\u2581hawker": 24456, "\u2581intelligence": 2872, "\u2581adviser": 10430, "\u2581described": 745, "\u2581notices": 17528, "\u2581facilitated": 23081, "bring": 16883, "dahl": 12813, "\u2581obe": 14222, "scenes": 25831, "figur": 13549, "\u2581embassy": 8292, "\u2581affection": 11877, "\u2581fru": 13394, "175": 15578, "\u2581represented": 1622, "signed": 13472, "positive": 21299, "vika": 26783, "408": 26621, "\u2581jupiter": 14725, "\u2581pick": 2036, "\u2581rafael": 11391, "\u2581trainee": 22065, "ias": 9814, "\u2581curate": 26245, "\u2581dishes": 11217, "\u2581surprisingly": 11701, "\u2581chimed": 28508, "\u2581shortest": 23576, "bp": 17620, "\u2581remove": 4681, "knowledge": 28774, "\u2581praise": 7214, "stru": 11602, "naut": 12716, "\u2581baj": 22625, "\u2581mulder": 28886, "\u2581trial": 2178, "\u2581amalgamated": 20247, "\u2581dunn": 11086, "\u2581geoff": 16538, "\u2581jericho": 19911, "\u2581reasoning": 15543, "\u2581munich": 7013, "\u2581zyg": 27529, "ern": 10952, "\u2581retaining": 14151, "\u2581grassland": 16816, "\u2581uyghur": 29095, "\u2581psychotherapy": 29473, "avan": 15223, "\u2581jasmine": 15885, "\u2581together": 429, "\u2581sailing": 8165, "lava": 15372, "\u2581announcer": 14004, "\u2581implies": 14298, "\u2581henrietta": 23153, "\u2581brief": 2698, "\u2581conduct": 3989, "\u2581favor": 3654, "\u2581devon": 6278, "\u2581affects": 15476, "\u2581melrose": 29602, "000": 3993, "eng": 4367, "\u2581plant": 1321, "\u2581depicting": 11235, "\u2581lateral": 12812, "\u2581imprisonment": 10521, "wish": 16871, "\u2581confirmed": 2842, "\u2581historical": 1668, "dominated": 27206, "\u2581towed": 22155, "\u2581skin": 1188, "\u2581kuro": 20288, "\u2581rumors": 12168, "winkle": 29304, "\u2581peabody": 23234, "pathy": 17494, "ed": 69, "\u2581pipe": 7642, "obo": 17110, "\u2581clues": 18843, "\u2581sampson": 24847, "arily": 18966, "\u258113": 539, "\u2581province": 971, "\u2581locker": 11953, "\u2581useless": 12858, "\u2581strips": 15383, "\u2581groom": 13399, "\u2581deliberation": 27708, "\u2581favoured": 19395, "mash": 21168, "\u2581residing": 6291, "\u2581coastline": 16509, "shiro": 18676, "\u2581down": 125, "om": 2636, "\u2581scorpion": 18532, "\u2581parkinson": 22003, "ene": 4622, "mali": 19430, "\u2581above": 784, "\u2581depot": 7382, "\u2581x": 993, "\u2581theological": 9302, "\u2581undergo": 12329, "\u2581peek": 14918, "dick": 15323, "gina": 13362, "lip": 6013, "\u2581bak": 10917, "1883": 22886, "\u2581siding": 16227, "\u2581spartak": 27612, "\u2581compassionate": 28549, "costa": 23169, "\u2581assassination": 9335, "\u2581neighbour": 22245, "\u2581glory": 7916, "\u2581rituals": 15233, "\u2581audible": 22027, "forest": 21408, "\u2581tay": 14159, "\u2581beatrice": 17119, "\u2581genie": 24029, "\u2581store": 1718, "\u2581cleansing": 28165, "\u2581angular": 18270, "\u2581camouflage": 21161, "\u2581thesis": 10452, "max": 8304, "\u2581estate": 2028, "found": 12235, "\u2581marathon": 8036, "\u2581expanse": 23736, "\u2581initiated": 6900, "\u2581interesting": 4883, "mann": 1897, "\u2581indicative": 26928, "gall": 14074, "\u2581alvarez": 19070, "1744": 26700, "\u2581lacey": 19491, "\u2581numbering": 18404, "kill": 7577, "\u2581drinking": 4854, "\u2581angelo": 14840, "118": 11479, "asco": 16568, "\u2581jenny": 8369, "\u2581manfred": 20180, "\u2581preserved": 6190, "iglio": 25851, "\u2581valdez": 29425, "\u2581sacra": 18180, "ographic": 11113, "\u2581mccain": 22098, "72": 4009, "ish": 1595, "\u2581headquarters": 2379, "\u2581kru": 10966, "\u2581panoramic": 28581, "\u2581stratford": 21396, "hb": 18098, "\u2581activate": 18163, "\u2581vigorously": 24251, "\u2581skirmish": 18669, "\u2581jura": 25925, "\u2581gradient": 17442, "acyl": 28686, "\u2581commercial": 1439, "loc": 10799, "\u2581live": 515, "\u2581monterey": 23036, "lieb": 23645, "\u2581iraqi": 8567, "\u2581contributing": 7548, "\u25814,": 2193, "ivism": 24367, "\u2581wilkins": 24703, "\u2581laid": 2488, "\u2581vessels": 5411, "\u2581drugged": 27693, "leg": 6727, "\u2581tactics": 9925, "\u2581clifton": 18541, "\u2581animation": 6236, "\u2581correlated": 26358, "\u2581homer": 11664, "cross": 7703, "\u2581predator": 17019, "\u2581soothing": 17252, "\u2581floods": 17015, "\u2581ending": 3119, "208": 19793, "\u2581sunk": 11254, "\u2581demetri": 25677, "\u2581dashboard": 26478, "\u2581florence": 7243, "\u2581bandage": 17263, "\u2581gaunt": 27792, "\u2581maverick": 21050, "placed": 12449, "\u2581sour": 12642, "\u2581sections": 4501, "technical": 22307, "\u2581contemplating": 27412, "\u2581embraced": 15843, "\u2581taft": 21581, "\u2581glazed": 23533, "\u2581dolphin": 20462, "\u2581dense": 8943, "\u2581muk": 15271, "\u2581kurdistan": 26146, "\u2581kilometres": 1971, "breaker": 14006, "\u2581carpenter": 9950, "\u2581greenwood": 19369, "mec": 21380, "\u2581berna": 25274, "gol": 10335, "\u2581hovered": 21033, "\u2581loves": 9330, "fleur": 18595, "finder": 18639, "\u2581stimulation": 23837, "\u2581purcell": 28216, "\u2581montenegrin": 25141, "08": 3099, "\u2581matri": 21742, "\u2581rein": 7102, "\u2581week": 877, "mani": 8002, "\u2581pumped": 20051, "valent": 17550, "2:1": 28763, "\u2581laura": 5837, "\u2581cole": 3438, "aris": 14688, "\u2581those": 273, "\u2581finished": 842, "\u2581notation": 15591, "\u2581habsburg": 17699, "bella": 15889, "\u2581shri": 10625, "\u2581bona": 16946, "filtration": 21845, "\u2581algiers": 24986, "\u258113,": 3883, "\u2581craftsmen": 26966, "ral": 5284, "\u2581greece": 4309, "\u2581female": 1064, "\u2581luciano": 26305, "thorax": 23434, "\u2581barn": 5099, "\u2581named": 377, "loaded": 22546, "\u2581sentenced": 6653, "\u2581toulon": 27994, "\u2581devise": 29276, "\u2581morality": 18288, "\u2581calvin": 9501, "\u2581engulfed": 26241, "\u2581cooperative": 9455, "worker": 22560, "\u2581essays": 9208, "reiter": 27634, "\u2581brem": 25031, "\u2581motorway": 13293, "\u2581offspring": 14504, "\u2581emm": 22909, "\u2581lighthouse": 9853, "\u2581follow": 1740, "\u2581sciences": 2623, "\u2581recommendation": 14066, "\u2581bernardino": 24000, "\u258116": 347, "\u25814,000": 13845, "sp": 3401, "\u2581frigate": 12854, "oo": 4328, "\u2581compliance": 14969, "\u2581antarctica": 14124, "\u2581exert": 18819, "\u2581floating": 8319, "\u2581solely": 9748, "\u2581dy": 9841, "\u2581painter": 3810, "\u2581provincial": 3585, "ranking": 14675, "\u2581climate": 3045, "\u2581human": 585, "\u2581precision": 13133, "391": 26740, "tournament": 29508, "sentimental": 23379, "\u2581clashed": 25374, "\u2581snout": 19016, "\u2581fianna": 29303, "\u2581loan": 3826, "\u2581quebec": 4107, "pmid": 22203, "445": 26399, "\u2581prepared": 3268, "\u2581doi": 9829, "\u2581weighed": 14088, "\u2581controls": 8671, "ties": 3915, "\u2581kami": 17246, "\u2581maroon": 18739, "geschichte": 22501, "\u2581supervisor": 9248, "\u2581day": 208, "lov": 5942, "\u2581weasel": 26773, "\u2581equations": 12853, "grown": 16347, "\u2581twitter": 10623, "\u2581pumping": 16655, "david": 15466, "\u2581cougar": 21272, "1864": 25209, "\u2581metabolite": 28842, "\u2581unfortunately": 6200, "\u2581gathered": 4744, "\u25811883": 7683, "between": 14427, "fuku": 20850, "\u2581playwright": 10061, "276": 23802, "sanctioned": 15927, "\u2581mastered": 18716, "\u2581nights": 6472, "\u2581sami": 16611, "\u258153": 6207, "idae": 3127, "\u2581suspiciously": 24094, "wal": 6423, "\u2581schmidt": 15217, "nigg": 27980, "\u2581announce": 16665, "\u2581degrees": 4442, "\u2581accountability": 20172, "\u2581genus": 1784, "prabha": 27647, "\u2581spotlight": 19135, "rar": 15011, "ardi": 14371, "often": 14855, "trophic": 25091, "\u2581travellers": 22198, "\u25811850": 6758, "rsa": 22038, "\u2581kom": 8028, "\u2581wont": 7290, "\u2581edith": 14537, "\u2581elements": 2065, "zhong": 13066, "\u2581hartman": 22369, "\u2581county": 271, "\u2581uneasy": 18689, "\u2581consent": 8539, "\u2581calculating": 22937, "\u2581$12": 22342, "134": 13837, "eph": 17600, "\u2581yash": 28317, "\u2581fremantle": 23312, "\u2581quadri": 22397, "\u2581convicted": 7505, "\u2581realised": 12514, "ition": 9861, "\u2581promoting": 7248, "\u2581baldwin": 11674, "\u2581unusual": 4706, "qual": 14512, "\u2581sacks": 17259, "\u2581nebraska": 8574, "\u2581denmark": 4913, "\u2581powerhouse": 25134, "\u2581pleased": 7130, "\u2581rejection": 14901, "\u2581illustration": 16811, "\u2581atletico": 18874, "\u2581guise": 22681, "\u2581kellan": 21426, "angel": 13539, "\u2581marries": 22172, "\u2581truth": 1770, "1768": 22004, "\u25811939": 3628, "pipe": 15185, "\u2581restroom": 23439, "zou": 22219, "\u2581arabian": 15791, "essential": 24219, "pacific": 15228, "\u2581obverse": 29991, "fy": 9596, "centric": 20829, "\u2581hock": 24399, "\u2581escort": 7345, "bourg": 12413, "\u2581interstate": 6859, "\u2581humanist": 23890, "\u2581accessory": 26371, "\u2581successfully": 3673, "ravan": 24534, "\u2581jillian": 28000, "\u2581reside": 14670, "\u2581deepest": 19944, "\u2581exhaled": 18751, "\u2581ornamental": 20012, "\u2581stops": 6604, "\u2581paralympic": 19261, "\u2581metallurg": 22993, "\u2581evicted": 27141, ":02": 21825, "\u2581burgeoning": 29936, "\u25811874": 8420, "\u2581old": 315, "\u2581hopped": 19703, "return": 24632, "\u2581inductee": 25003, "\u2581seaplane": 27423, "fjord": 13430, "\u25811952": 3439, "\u2581memo": 22236, "\u2581clatter": 22044, "2017": 5235, "frank": 15502, "\u2581analyzed": 19214, "\u2581compressor": 26810, "\u2581sawyer": 15098, "\u2581bil": 9788, "\u2581competed": 2147, "\u2581riga": 18882, "\u2581monte": 5468, "\u2581twig": 19690, "\u2581wight": 20691, "\u2581hatch": 6882, "\u2581cw": 15739, "host": 11694, "\u2581perfectly": 5759, "q": 1251, "islamic": 26258, "rade": 13065, "\u2581slack": 13672, "strong": 15004, "foli": 23237, "\u2581explorer": 8520, "enthal": 19173, "\u2581ezekiel": 28232, "\u2581warmed": 20435, "\u2581tears": 2349, "\u2581fern": 12061, "\u2581lancaster": 10455, "\u2581superficial": 22487, "\u2581gestation": 29336, "\u2581darting": 25680, "unga": 16769, "\u2581barrio": 22966, "ready": 15193, "\u2581olfactory": 29251, "\u2581noticing": 18130, "\u2581rhythm": 4568, "\u2581detail": 6110, "\u2581meaningless": 27095, "\u2581retort": 28593, "\u2581affectionately": 28168, "\u2581diameter": 5681, "\u25811000": 6150, "quadra": 26849, "but": 811, "tors": 10778, "\u2581rotated": 24107, "\u2581prospect": 8263, "\u2581thal": 15167, "\u2581slay": 21866, "whether": 26340, "pin": 3489, "\u2581consistency": 22061, "\u2581wwe": 13196, "\u2581tavi": 19987, "\u2581physical": 1825, "\u25811994,": 5829, "\u25811828": 15072, "\u2581telenovela": 24442, "\u2581faust": 17366, "8,500": 29292, "\u2581tendon": 24704, "\u2581neumann": 25557, "roux": 21175, "\u2581ponte": 22958, "\u2581hannibal": 26527, "19": 1433, "news": 14962, "\u2581where": 113, "\u2581starred": 5068, "nonsense": 16684, "\u2581bullock": 25069, "above": 29535, "\u2581safety": 2108, "\u2581morale": 21838, "\u2581octave": 22582, "\u2581whirlwind": 29096, "\u2581macpherson": 29134, "\u2581sneaking": 23037, "truth": 23266, "\u2581truncat": 22328, "\u2581upgraded": 9958, "\u2581teutonic": 29810, "\u2581honey": 5439, "\u2581might": 530, "\u2581whales": 20735, "\u2581wardrobe": 20405, "\u2581of": 16, "\u2581gdansk": 21809, "\u2581stink": 18313, "\u2581shopping": 4884, "\u2581box": 1649, "\u2581wei": 7875, "\u2581homemade": 27269, "\u2581squeezing": 17732, "\u2581racecourse": 17654, "omir": 25953, "\u2581weather": 2580, "\u2581nashville": 8638, "\u2581sindh": 17251, "\u2581spinal": 18798, "\u2581trapper": 29288, "\u25811929": 4643, "\u2581mun": 6492, "\u2581arbitration": 20352, "geon": 19480, "\u2581swim": 9221, "\u2581hammersmith": 28408, "\u2581closest": 6993, "\u2581punching": 22249, "enfant": 28401, "el": 532, "\u2581football": 435, "\u2581relation": 5827, "radio": 11129, "vers": 5498, "origin": 28486, "\u2581retaliation": 20690, "\u2581reindeer": 28951, "\u2581demanding": 10025, "\u258190%": 16370, "\u2581convenience": 16517, "\u2581hoffman": 17730, "zeit": 20133, "\u2581dialog": 28223, "\u2581sauce": 12182, "\u258110,": 3266, "\u2581faux": 27982, "\u2581paving": 28134, "\u2581village": 399, "izer": 11907, "\u2581+": 2754, "\u2581tale": 5873, "\u2581teamed": 14860, "\u2581cerro": 26480, "\u2581rampage": 28533, "\u2581grind": 16913, "\u2581money": 875, "\u2581politically": 10979, "\u2581technological": 10381, "\u2581taj": 17464, "\u2581supervision": 10808, "eda": 11980, "physiolog": 24609, "\u2581uzbekistan": 19607, "nv": 20763, "\u2581dancing": 4626, "\u2581generator": 15286, "\u2581purse": 7556, "oux": 20074, "\u2581dissolve": 21256, "\u2581kraj": 28362, "\u2581coughed": 21713, "\u2581speed": 1362, "\u2581orbit": 5966, "flo": 14712, "\u2581sprang": 17548, "\u2581regardless": 7148, "\u2581enjoyed": 4410, "\u2581officer": 1069, "\u2581rogers": 6924, "quarter": 11793, "\u2581mackenzie": 12130, "\u2581danube": 19366, "\u2581presentation": 6364, "\u2581assumptions": 20751, "\u2581rob": 3830, "\u2581pope": 3075, "1919": 13329, "\u2581fictitious": 24596, "\u2581reintroduced": 28391, "platform": 27035, "\u2581consists": 2043, "78": 4130, "\u2581pleistocene": 27706, "\u2581collar": 8203, "wd": 14733, "\u2581interchange": 6617, "\u2581forcibly": 22473, "\u2581pineapple": 28790, "\u2581export": 7487, "\u25811941": 3420, "scented": 27347, "\u2581donnelly": 27976, "\u2581lights": 3411, "gnostic": 21944, "\u2581filtering": 25272, "\u2581awaken": 22429, "iah": 9119, "\u2581nevada": 7360, "\u2581seating": 12011, "ir": 1523, "dum": 12617, "hoku": 22176, "\u2581bidder": 28198, "\u2581alligator": 26718, "\u2581mon": 3521, "\u2581unrestricted": 29702, "\u2581palette": 27349, "\u2581jumped": 4298, "\u2581proposal": 5149, "rone": 17547, "3%": 2560, "\u2581replacement": 4610, "\u2581mabel": 21712, "\u2581camille": 19183, "\u2581citing": 8920, "\u2581halo": 14923, "\u2581britton": 27681, "\u2581modelling": 23089, "malo": 21114, "\u2581really": 510, "\u2581vote": 2018, "\u2581resigned": 3861, "\u2581groundbreaking": 25353, "\u2581flushed": 14420, "\u2581cynical": 26687, "\u2581bragg": 20402, "rel": 7256, "\u2581argent": 15629, "lington": 17181, "\u2581sustainable": 9206, "\u2581garment": 14936, "\u2581walter": 3011, "\u2581trilogy": 12841, "\u2581weight": 1763, "ries": 2829, "\u2581dissertation": 16034, "yep": 17754, "\u2581battered": 21243, "\u2581alien": 5597, "\u2581newton": 8124, "ref": 14057, "amba": 7483, "\u2581#2": 7921, "\u2581caused": 1497, "\u25811918,": 12095, "large": 11312, "asa": 8588, "\u2581avenue": 2054, "pora": 23966, "\u2581syrian": 8952, "\u2581rustle": 26247, "wide": 8077, "\u2581turf": 16639, "\u2581gave": 492, "\u2581managers": 12657, "\u2581poisoning": 18755, "\u2581monmouth": 19063, "\u2581fiber": 13197, "\u2581helium": 24551, "\u2581aviator": 21227, "\u2581facilities": 2450, "\u2581marten": 25232, "\u2581centurion": 26821, "\u2581monoplane": 29226, "\u2581celia": 20283, "\u2581sas": 9233, "\u2581inclusive": 21493, "\u2581dealer": 11774, "\u2581cellular": 14844, "\u2581glance": 4828, "iken": 21862, "\u2581ulm": 25877, "\u2581embroidered": 25050, "\u2581concentrated": 7910, "\u2581slalom": 21791, "\u2581indiana": 3942, "tone": 7117, "\u2581coordination": 13209, "challenge": 27808, "\u2581dixon": 12696, "former": 12051, "\u2581nickelodeon": 23638, "\u2581tucked": 9299, "\u2581mystical": 20833, "\u2581includes": 1103, "fund": 16372, "\u2581shao": 23509, "sonic": 17766, "\u2581taut": 20473, "\u2581mocking": 18446, "\u2581custom": 5816, "\u2581auburn": 14244, "\u2581xvi": 16784, "\u2581owing": 11786, "\u2581separately": 10714, "\u2581particularly": 1653, "ome": 6651, "\u2581rainbow": 10080, "\u2581hook": 5559, "\u2581lurched": 23927, "mod": 13670, "275": 19316, "\u2581niagara": 17085, "old": 1218, "political": 14158, "\u2581wi": 4807, "\u2581accidental": 20210, "ettes": 16116, "dap": 20472, "\u2581guangdong": 23940, "melo": 21008, "\u2581quantitative": 22122, "\u2581barack": 15849, "\u2581aggression": 17886, "\u2581echo": 8117, "\u2581messiah": 24738, "operative": 9493, "page": 6486, "\u2581gabriel": 4337, "\u2581chaos": 8205, "\u2581legitimate": 11912, "\u2581custody": 10432, "\u2581liking": 19007, "\u2581cathode": 29949, "\u2581greaves": 27594, "\u2581unesco": 13181, "\u2581talents": 13425, "\u2581cbe": 19411, "\u2581observer": 9855, "\u2581primitive": 11473, "\u2581paxton": 27697, "\u2581depiction": 12506, "\u2581simone": 16450, "\u2581slant": 18759, "\u2581finlay": 27892, "hika": 19246, "\u2581northeast": 3422, "\u2581editor": 1835, "logy": 12509, "\u2581naf": 24092, "\u2581articulation": 27818, "\u2581disliked": 21197, "\u2581cuddle": 28428, "dai": 9394, "\u2581cleavage": 27985, "\u2581gossip": 13697, "\u2581charred": 28077, "\u2581enigmatic": 29319, "quest": 10351, "dis": 2906, "\u2581declan": 18932, "firm": 20590, "painted": 19545, "zumi": 22475, "\u2581realizes": 12197, "\u2581revenues": 14921, "\u2581eradicate": 27372, "\u2581townspeople": 27419, "ico": 7776, "\u258171": 8966, "\u2581tide": 8251, "\u2581synthesis": 10376, "\u2581learns": 11346, "\u2581128": 13218, "\u2581coil": 14759, "\u2581reins": 20121, "\u2581hertfordshire": 22421, "\u2581staircase": 10768, "gator": 15807, "paper": 17945, "\u2581behest": 28307, "\u2581jenna": 15668, "\u2581oklahoma": 4733, "\u2581rna": 14211, "jacques": 25747, "\u2581adriatic": 25751, "\u2581trance": 17793, "fiction": 11820, "contin": 13391, "\u2581because": 185, "rb": 7549, "\u2581arriving": 6426, "\u2581competitor": 13638, "affe": 16819, "\u2581climb": 4771, "\u2581reb": 21520, "thoracic": 29167, "\u2581idiot": 8563, "\u2581scarlett": 23158, "\u2581rosalie": 29090, "\u2581pace": 4312, "\u2581shimmer": 21226, "\u2581verde": 14944, "\u2581amnesty": 18304, "\u2581uhf": 24228, "\u2581stumbled": 10282, "ne": 556, "\u2581bernard": 5537, "\u2581saul": 15268, "\u2581$10,000": 21756, "mail": 8079, "\u2581richmond": 5820, "\u2581#3": 11489, "lea": 7199, "\u2581amused": 12824, "\u2581widow": 5151, "\u2581bod": 9634, "\u2581kidnapping": 15748, "\u2581mount": 2149, "\u2581nursery": 15148, "1,800": 22377, "\u2581wichita": 21666, "\u2581seated": 9289, "\u2581singular": 12217, "\u2581worthwhile": 29604, "\u2581iris": 11057, "\u2581ferry": 5901, "\u2581directing": 10329, "\u2581sectors": 12653, "\u2581fluttered": 21303, "wrenching": 29436, "\u2581stub": 21354, "tan": 2463, "\u2581ipswich": 17813, "\u2581precinct": 18974, "sson": 4449, "so": 656, "\u2581vivo": 25848, "\u2581hormone": 13996, "runner": 12993, "\u2581budget": 3391, "emann": 19627, "\u2581galaxies": 24594, "\u2581panic": 5083, "\u2581ghost": 3995, "\u2581gaa": 20085, "\u2581appleton": 27492, "\u2581eyed": 13254, "\u2581splashed": 24760, "\u2581hungary": 5398, "\u2581antagonist": 14648, "lex": 20718, "\u2581clifford": 16020, "\u2581proprietor": 19654, "sweden": 29188, "\u2581towel": 8666, "\u2581cancer": 2637, "course": 17556, "\u2581malt": 21479, "\u2581bonded": 23819, "\u2581editions": 6179, "\u2581drank": 11878, "\u2581ambushed": 24753, "\u2581ol": 6304, "\u2581proceeding": 20459, "70,000": 17741, "\u2581gangster": 18378, "\u2581handbook": 16582, "yat": 11532, "lock": 3966, "\u25811969,": 9572, "rz": 10693, "\u2581timeline": 18398, "koma": 25343, "peter": 13734, "\u2581kitt": 18913, "route": 20179, "\u2581energ": 21823, "\u2581taco": 27755, "\u2581practical": 5713, "\u2581didn": 223, "drive": 14573, "\u2581raids": 12472, "\u2581gundam": 26240, "\u2581wisconsin": 4078, "outs": 12638, "liche": 20645, "68%": 27504, "\u2581bruises": 21586, "affin": 19704, "\u2581bitterness": 24996, "\u2581effort": 2150, "\u2581technical": 2447, "ner": 1031, "\u2581database": 6018, "\u2581lantern": 11585, "\u2581sued": 13354, "\u2581forearm": 14464, "\u2581monta": 17135, "\u2581contour": 23272, "\u2581lunatic": 25974, "\u2581employs": 15315, "\u2581commencement": 24449, "\u2581captive": 10800, "\u2581monetary": 13720, "\u25811815": 13028, "\u2581petersburg": 7979, "\u2581volumes": 6127, "existing": 21341, "\u2581celine": 26512, "\u2581billion": 2786, "\u2581kowalski": 28783, "\u2581mcpherson": 26959, "\u2581colored": 10133, "\u2581eminem": 29388, "\u2581fen": 8092, "\u2581palmer": 7699, "\u2581ingredient": 23933, "\u2581stake": 7109, "\u2581kob": 22925, "\u2581excursion": 20689, "\u2581tuesday": 9369, "\u2581anton": 7733, "ikki": 25887, "\u2581spec": 12737, "\u2581clement": 8473, "\u2581hind": 8065, "\u2581hazard": 13070, "\u2581gift": 4207, "\u2581innovator": 27856, "\u2581arcade": 10414, "810": 20219, "\u2581chopped": 26964, "syn": 9507, "1733": 27815, "\u2581sweden": 3249, "\u2581legendary": 9082, "\u2581hesitate": 16719, "\u2581zwei": 29774, "\u2581manifest": 13160, "\u2581carla": 19739, "\u2581penetrate": 20309, "\u2581morning": 959, "amir": 14922, "\u2581intervened": 23575, "tape": 25561, "\u2581question": 1301, "spring": 15827, "\u2581institutes": 17416, "\u2581marino": 18500, "\u2581bags": 9089, "\u2581asia": 2394, "\u2581waves": 5097, "\u2581memorandum": 23128, "\u2581hissed": 11962, "ender": 13630, "\u2581two": 81, "phus": 20856, "\u2581filly": 23786, "\u2581cigarettes": 18795, "\u2581nak": 13053, "\u2581chicago": 1360, "cyto": 16483, "\u2581wilderness": 10576, "\u2581puzzle": 9164, "\u2581hedge": 12857, "\u25812010,": 1534, "\u2581buch": 17245, "logue": 21392, "\u2581nebula": 23922, "\u2581rake": 21009, "\u2581wilde": 19314, "\u2581settings": 12410, "lept": 23101, "\u2581faulkner": 27022, "\u2581openly": 10764, "\u2581droplets": 27292, "\u2581kira": 15105, "nico": 18942, "\u2581cable": 4454, "\u2581abuse": 5129, "test": 10543, "\u2581rudi": 26439, "eastern": 7842, "\u2581onwards": 10195, "\u2581trembling": 10673, "\u2581persona": 17249, "\u2581heirs": 19785, "\u2581assassinated": 18891, "\u2581headline": 10596, "student": 24822, "ris": 2777, "\u2581apron": 21247, "\u2581ghosh": 27737, "\u2581theodor": 17373, "\u2581siege": 5647, "\u2581penal": 16197, "\u2581pulse": 6181, "\u2581huntington": 18682, "\u2581hindu": 5762, "\u2581limited": 1317, "\u2581bluegrass": 23532, "\u258177": 8750, "\u2581kup": 25626, "\u2581actually": 1121, "tsi": 14080, "\u2581slower": 14085, "bon": 5566, "\u2581woman": 524, "\u25811870": 5560, "\u2581darwin": 11210, "uction": 21263, "utz": 22017, "designated": 12856, "\u2581primaries": 28585, "\u258112,": 3623, "\u2581brun": 9259, "\u2581kane": 7314, "\u2581foreword": 25552, "\u2581ribs": 11021, "\u2581discrimination": 9628, "\u2581prick": 14350, "\u2581sr": 3441, "\u2581international": 294, "ukrainian": 17296, "\u2581abolish": 23376, "wi": 3976, "\u2581rises": 10286, "\u2581sheep": 6485, "lyn": 4859, "\u2581detection": 11643, "iensis": 21708, "\u2581plural": 13981, "\u2581suk": 19352, "bbe": 13813, "18%": 23501, "\u2581recognised": 7163, "\u2581whereupon": 27098, "\u2581instantly": 6064, "\u2581republicans": 12730, "\u2581reveals": 7082, "\u2581funnel": 20983, "\u2581pronounced": 10540, "\u2581limousine": 27041, "\u2581confederacy": 20675, "\u2581whitaker": 27960, "\u2581ticket": 6133, "\u2581speaks": 9381, "\u2581hit": 770, "\u2581snyder": 19669, "\u2581obituary": 23852, "we": 458, "\u2581could": 110, "nihil": 28248, "cla": 7232, "\u2581teenager": 11096, "\u2581kuhn": 26864, "\u2581completion": 5392, "\u2581scarce": 21169, "eter": 12382, "\u2581tightly": 6556, "\u2581kibbutz": 28599, "\u2581recipient": 7340, "\u2581au": 10343, "\u2581nao": 23950, "jet": 10307, "\u2581lying": 3262, "\u2581transaction": 12799, "\u2581successor": 4558, "\u2581websites": 13931, "lace": 16029, "\u2581beijing": 6579, "rant": 7874, "\u25811928,": 14696, "\u2581katrina": 19657, "way": 1443, "\u2581coincidence": 17931, "zed": 10590, "bab": 17537, "\u2581stigma": 19368, "\u2581gould": 15153, "\u2581halfway": 8423, "\u2581eireann": 28440, "increment": 28461, "\u2581opaque": 29068, "khet": 29210, "linguistic": 29728, "\u2581difficult": 1956, "\u2581kong": 2492, "\u2581stares": 17257, "\u2581capo": 21150, "\u2581requests": 12279, "1989": 5380, "\u2581icon": 9801, "\u2581kendra": 15398, "\u2581severed": 18911, "\u2581backing": 3931, "\u2581chains": 8864, "\u2581boca": 21592, "ethylene": 25005, "\u25811996,": 5405, "cae": 19189, "cular": 20163, "\u2581murat": 27811, "oh": 1134, "thousand": 27904, "\u2581bribe": 17564, "\u2581trois": 25522, "\u2581formed": 843, "mos": 7076, "\u2581dna": 5030, "\u2581warship": 24733, "medium": 28451, "\u2581blade": 4979, "\u2581annie": 8179, "eger": 13699, "esco": 16897, "\u2581ideas": 3478, "\u2581moderately": 20773, "186": 21612, "\u2581rig": 10960, "1676": 28102, "\u2581journalist": 3358, "\u2581uppsala": 26771, "\u2581macau": 15700, "\u2581graphics": 8351, "\u2581evacuate": 25247, "\u2581kylie": 9084, "\u2581rochester": 11425, "\u25811700": 18702, "\u2581mason": 5363, "\u2581theorem": 9532, "\u2581beloved": 12440, "\u2581austen": 25650, "bau": 17475, "\u2581rte": 23322, "\u2581misfortune": 27389, "\u2581criticized": 5280, "\u2581quasi": 17875, "\u2581carried": 1521, "\u2581cartoonist": 19176, "\u2581sydney": 2278, "\u2581accelerating": 28968, "\u2581pyotr": 29779, "\u2581volunteers": 6592, "1906": 18245, "\u2581freighter": 25287, "\u2581fiberglass": 29670, "\u2581philipp": 16914, "\u2581plagiar": 29851, "fil": 11924, "\u2581gibb": 18814, "\u2581comet": 15625, "\u2581larry": 5758, "\u2581fragments": 10837, "enia": 15064, "\u2581cali": 10352, "\u2581bollywood": 18725, "\u2581partly": 5794, "\u2581corroborat": 29299, "\u2581infections": 18460, "\u2581quinn": 8565, "\u2581peaks": 13353, "\u2581merciless": 27973, "\u2581formidable": 20839, "\u2581jackson": 2303, "shore": 11294, "\u2581warned": 6676, "ochi": 20307, "\u2581marga": 23035, "\u2581comcast": 29600, "\u2581bamboo": 16998, "prestige": 15930, "vine": 15867, "\u2581decoration": 11824, "\u2581attitudes": 16510, "\u2581microwave": 19530, "summer": 17844, "\u2581spread": 1789, "rahman": 12709, "\u2581flames": 6703, "\u2581militants": 19681, "\u25811869": 8729, "1963": 9271, "oxford": 26028, ":22": 21660, "\u2581portion": 2980, "\u2581arabs": 18390, "\u2581brann": 28081, "\u2581wrecked": 21589, "\u2581artists": 1542, "\u2581districts": 3872, "\u2581surname": 11311, "\u2581hitchcock": 22043, "\u2581barrow": 14807, "\u2581ballots": 19791, "\u2581familiarity": 26852, "\u2581complied": 27498, "\u2581danielle": 21483, "\u2581neighbor": 12700, "1916": 15116, "\u2581wounded": 4013, "\u2581gee": 15499, "\u2581aft": 18465, "\u2581catapult": 26887, "\u2581noble": 5395, "\u2581fastened": 26029, "\u2581trophy": 4084, "\u2581grandma": 15707, "\u2581leaping": 24172, "litz": 15359, "\u2581mosque": 6963, "gaon": 15816, "\u2581billboard": 3304, "1903": 18672, "\u2581rubble": 19541, "\u2581annually": 5688, "\u2581sign": 1676, "rian": 5008, "\u2581nh": 12109, "ren": 2789, "\u2581estonian": 13244, "\u2581bmx": 29085, "onga": 22158, "ada": 4405, "\u2581imposed": 10787, "kovsky": 21400, "\u2581projects": 2314, "tp": 13726, "\u2581curiously": 19385, "\u2581cannabis": 20125, "belgium": 29366, "abilis": 24715, "\u2581pitching": 17243, "llo": 6880, "\u2581fourteenth": 17614, "\u2581stayed": 2791, "\u2581horde": 18429, "epa": 14189, "\u2581steps": 2382, "\u2581jagger": 25575, "ism": 756, "\u2581highway": 1459, "\u2581association": 607, "cek": 21940, "\u2581owned": 1467, "\u2581three": 132, "460": 17107, "kou": 14390, "kei": 15455, "\u2581carrot": 21555, "\u2581cantonese": 25147, "vi": 1755, "\u2581succumb": 26968, "union": 17162, "\u2581evolving": 22363, "\u2581commerce": 5577, "\u2581trolleybus": 29787, "\u2581judy": 13817, "\u2581convex": 20292, "\u2581marcus": 5767, "\u2581claremont": 25694, "\u2581tortured": 13634, "\u2581croydon": 23441, "\u2581imam": 16026, "\u2581reinhard": 25560, "\u2581schools": 1055, "russia": 18455, "pf": 7721, "\u2581pitchfork": 23374, "1845": 27068, "\u2581phi": 13424, "\u2581mickey": 12022, "\u2581intertwined": 28613, "een": 7500, "tinted": 27260, "\u2581vinny": 28852, "\u2581struggles": 13131, "\u2581jardin": 22989, "chemical": 16417, "\u2581mu": 2832, "\u2581using": 568, "cept": 13433, "\u2581investigation": 3193, "ridden": 15267, "\u2581sarawak": 24194, "\u2581rogue": 12018, "\u2581soyuz": 29474, "\u2581intensity": 7871, "\u2581$15": 19463, "\u2581heating": 12398, "\u2581welt": 20415, "number": 16299, "script": 8741, "\u2581emotionally": 17985, "\u2581precaution": 20474, "tsuka": 25695, "\u2581encouraging": 11764, "\u2581slaves": 6476, "\u2581stepping": 9451, "\u2581affinity": 19211, "\u2581chased": 14732, "\u25811995,": 5701, "\u25811927": 5022, "\u2581patron": 7419, "999": 23170, "\u2581influx": 20211, "\u2581pavlo": 28760, "\u2581surrendered": 11363, "\u2581forensic": 15218, "\u2581hilltop": 25411, "\u2581hence": 5796, "\u2581worldwide": 3497, "\u2581sophie": 7941, "\u2581gur": 8239, "\u2581graduation": 6860, "\u2581metallic": 12052, "\u2581ghz": 29975, "cv": 12732, "\u2581psychopath": 26153, "\u2581muppet": 29342, "\u2581gamb": 13132, "\u2581maha": 6421, "\u2581registration": 8587, "\u2581ecology": 15470, "\u2581whig": 19409, "\u2581puff": 11002, "\u2581surgeons": 20073, "unde": 12239, "\u2581police": 698, "\u2581competition": 1076, "hh": 10681, "65": 3577, "\u2581tit": 10054, "\u2581australasian": 28795, "\u2581mystic": 13380, "\u2581dempsey": 27968, "\u2581install": 16146, "\u2581interpretations": 18294, "\u2581step": 1424, "\u2581hard": 552, "s": 18, "\u2581windshield": 21273, "\u2581eileen": 22346, "\u2581workers": 2004, "\u2581liberation": 7581, "dik": 19191, "\u2581afraid": 2910, "\u2581zimmer": 27017, "\u2581trans": 2982, "\u2581skating": 10552, "\u2581sac": 9595, "eba": 17527, "\u2581exaggerated": 19200, "ophora": 21636, "eno": 8625, "\u2581negotiator": 29116, "\u2581italy": 1591, "\u2581hillsborough": 28793, "\u2581sloane": 20112, "oza": 20551, "tomo": 24070, "tano": 18278, "\u2581coleridge": 29835, "\u2581subtract": 27031, "motion": 15745, "\u2581courier": 19418, "securit": 28835, "\u2581miniature": 12226, "\u2581farmhouse": 17695, "\u2581seizure": 16138, "\u2581substrate": 13628, "1954": 10326, "\u258122": 1024, "vc": 8990, "mora": 21312, "\u2581mariano": 25252, "\u2581mou": 11901, "contact": 29912, "\u2581fig": 15012, "\u2581niall": 24179, "\u2581or": 54, "\u2581bond": 3428, "\u2581http": 7775, "\u2581insult": 13396, "\u2581virginity": 27069, "\u2581daniels": 15369, "\u2581pectoral": 28422, "\u2581mehmed": 29764, "\u2581massey": 24401, "\u2581counted": 8799, "291": 24114, "girls": 16443, "denominational": 27433, "\u2581number": 234, "\u2581scientific": 2272, "\u2581oppressive": 28233, "\u25811952,": 12935, "\u2581memoirs": 15886, "\u2581bases": 8426, "\u2581$1": 3742, "770": 20810, "\u2581kampala": 29204, "\u2581ran": 717, "\u2581dissident": 23875, "onyx": 25764, "\u2581kyle": 6584, "1936": 11273, "quil": 18504, "\u2581bite": 5804, "\u2581filled": 1943, "\u2581initiatives": 12049, "bwv": 28211, "y": 93, "\u2581leather": 4335, "ved": 4763, "\u2581reliable": 11398, "\u2581horrific": 25142, "\u2581specifies": 27669, "\u2581hannah": 8257, "465": 25651, "\u2581annex": 17414, "\u2581quotation": 22786, "\u2581pittsburgh": 5371, "discipline": 28974, "khar": 11335, "fah": 24768, "\u2581kathy": 17006, "30%": 12334, "combe": 11598, "\u2581episcop": 28891, "\u2581defender": 7923, "\u2581enduring": 19909, "\u2581benito": 26030, "\u2581quarantine": 26937, "\u2581afc": 11667, "\u2581demoted": 27050, "scape": 13109, "weight": 8696, "\u2581search": 2122, "\u2581mirror": 3402, "\u2581grocery": 14814, "blin": 23378, "\u2581smithsonian": 18305, "\u2581speculation": 11903, "\u2581haven": 2933, "fulness": 18922, "\u2581angus": 12930, "\u2581wiped": 7891, "\u2581haig": 26654, "\u2581bahadur": 23598, "\u2581phosphorus": 27258, "\u2581stratton": 29798, "\u2581picks": 13267, "\u2581begin": 2348, "\u2581bose": 22629, "\u2581earldom": 29519, "\u2581cra": 6803, "\u2581lbf": 22751, "\u2581gambia": 25212, "\u2581mukherjee": 28006, "fumi": 28666, "\u2581kayak": 24439, "thi": 7343, "\u2581marti": 21139, "\u2581todd": 6176, "\u2581nicolas": 10254, "\u2581manual": 5132, "limited": 23012, "105": 16242, "\u2581pure": 4267, "\u2581filmmaking": 25558, "\u2581nab": 16142, "\u2581trout": 14207, "\u2581korean": 3111, "friendly": 15950, "\u2581****": 27311, "\u2581fernando": 9352, "\u2581report": 1330, "western": 6514, "magic": 21200, "\u2581understood": 4014, "john": 7373, "\u2581indicted": 24500, "embo": 24562, "\u2581prejudice": 17287, "\u2581basilica": 14089, "\u2581yours": 10940, "aaa": 22160, "rada": 12779, "\u2581raspberry": 29476, "\u2581logic": 7085, "rim": 14786, "marne": 27346, "hl": 3712, "\u2581masjid": 28540, "\u2581jesus": 3121, "\u2581sorts": 14357, "\u2581croix": 23190, "\u2581nu": 3152, "\u2581wines": 18476, "cutaneous": 29703, "\u2581innocent": 5490, "\u2581storage": 4326, "\u2581ruth": 6313, "stat": 10631, "cat": 5782, "\u2581from": 37, "\u2581signifies": 28590, "\u2581poplar": 28277, "\u2581lover": 6510, "\u2581constitution": 2852, "high": 4542, "piece": 6595, "\u2581brethren": 19874, "\u2581summon": 11752, "\u2581kaba": 25418, "\u2581jimenez": 24579, "\u2581ecological": 12996, "\u2581reprimand": 26475, "\u2581resentment": 22208, "\u258152": 5135, "\u2581disappearance": 13543, "\u2581sleep": 1742, "\u2581administrator": 8890, "\u2581ox": 7506, "\u2581rodgers": 17910, "\u2581vhf": 28699, "\u2581glendale": 28642, "\u2581restaurant": 3284, "\u2581cia": 10555, "\u2581nodding": 13761, "420": 18021, "\u2581soda": 16207, "\u2581reorganized": 15443, "\u2581replay": 13942, "\u2581pat": 2678, "\u2581identified": 2889, "\u2581henley": 23223, "\u2581montreal": 4400, "\u2581vowed": 20480, "ocracy": 25346, "\u2581disqualified": 16398, "\u2581fayette": 29052, "inspired": 20667, "\u2581halls": 14279, "enfeld": 20987, "\u2581luton": 20586, "\u2581auditorium": 11815, "\u2581mps": 15103, "\u2581brunette": 27943, "\u2581warner": 5875, "ehler": 26495, "\u2581garnered": 14352, "\u2581consolidation": 19666, "\u2581sato": 19689, "\u2581visions": 14766, "\u2581zo": 9017, "\u2581clamp": 20759, "\u2581default": 12838, "\u2581deputy": 2454, "rock": 4651, "\u2581detailed": 6036, "mell": 19031, "\u2581scuttled": 29809, "nard": 10533, "\u2581tying": 19160, "48": 3216, "\u2581moron": 24932, "\u2581scorch": 21706, "1983": 6666, "\u25811857": 9147, "sky": 2397, "\u2581rajendra": 28936, "\u2581balfour": 28339, "ko": 921, "\u2581f": 398, "\u2581ships": 2034, "pond": 17738, "\u2581baffled": 29027, "\u2581poisoned": 20916, "\u2581xuan": 21203, "ry": 622, "oz": 8531, "\u2581gunboat": 25383, "\u2581amos": 16326, "\u2581belong": 6219, "on": 218, "besides": 22356, "\u2581integral": 9315, "\u2581kj": 20592, "\u2581contingency": 29775, "\u2581guyana": 21347, "\u2581gore": 13893, "82": 4075, "hm": 7015, "\u2581skies": 18586, "\u2581implications": 14747, "\u2581giro": 15203, "114": 19782, "\u2581unless": 4003, "assa": 12692, "44": 4268, "ano": 3571, "novic": 18925, "imov": 20166, "\u2581whistling": 25931, "\u2581slipping": 12723, "\u2581oricon": 23499, "\u2581blaming": 26738, "phar": 20138, "\u2581cannon": 6689, "\u2581dunlop": 27578, "ayya": 23561, "tal": 3663, "joseph": 18624, "his": 4398, "\u2581marvin": 15801, "\u2581lig": 13721, "\u2581dungeon": 12645, "\u2581cheerleading": 26867, "\u2581dynamics": 12289, "\u2581finals": 5230, "hak": 10076, "\u2581appreciate": 8831, "'": 22, "\u2581matt": 2315, "1855": 25819, "1856": 26640, "\u2581sab": 11303, "2009": 2849, "coming": 9076, "\u2581ligue": 20482, "\u2581commission": 1312, "\u2581killing": 2389, "raid": 23539, "\u2581balan": 16416, "\u2581digital": 1888, "agan": 13464, "propelled": 18079, "\u2581stri": 20899, "plant": 17345, "\u2581grace": 2784, "ske": 5835, "ering": 7882, "\u2581coordinating": 22485, "\u2581jiangsu": 28261, "\u2581140": 10008, "\u2581dose": 11654, "\u2581gardner": 12757, "nev": 14644, "\u2581bet": 5676, "rub": 17791, "\u2581poured": 8336, "\u2581prostate": 26897, "\u2581leningrad": 18965, "cune": 24351, "\u258130,": 4093, "\u2581desire": 3150, "\u2581ber": 5914, "\u2581leblanc": 29893, "\u2581inherit": 17569, "cino": 18690, "\u2581palestinian": 8035, "\u2581hue": 11542, "\u2581kickoff": 24701, "lika": 24047, "\u2581chav": 27208, "\u2581bucharest": 16406, "\u2581subdue": 29306, "\u25811954": 3582, "\u2581census": 975, "\u2581herself": 958, "\u2581oddly": 17459, "\u2581exported": 18011, "rit": 8352, "udo": 18601, "\u2581carnival": 11810, "kes": 7218, "\u2581cypress": 23815, "\u2581counsel": 8206, "\u2581eternal": 10987, "\u2581smash": 12349, "1728": 27548, "\u2581says": 898, "\u2581adjoining": 14894, "\u2581garland": 18154, "\u2581vector": 7497, "\u2581ymca": 28124, "\u2581bergen": 13272, "kane": 20821, "\u2581reality": 2902, "cause": 17560, "oderm": 25584, "\u2581whitley": 27174, "\u2581brody": 22584, "\u2581cuts": 7960, "\u2581livelihood": 23663, "\u2581compensation": 9463, "\u2581ornament": 16314, "1849": 25648, "\u2581augsburg": 26413, "\u2581expected": 1727, "\u2581plug": 10922, "\u2581atmospheric": 13590, "\u2581tragedy": 11447, "\u2581infamous": 15865, "\u2581industrialist": 21196, "scientific": 28161, "nosed": 26752, "\u2581encrypted": 29403, "\u2581substantive": 28054, "\u2581intellect": 25371, "\u2581will": 129, "\u2581worship": 5160, "berk": 15371, "\u2581improved": 3999, "\u2581candidacy": 19912, "\u2581pediment": 26871, "\u2581accompanies": 29062, "\u2581maclean": 24569, "\u2581policy": 1486, "\u2581salad": 14754, "\u2581odessa": 22312, "\u2581drivers": 5783, "\u2581valid": 7394, "\u2581starbucks": 28566, "\u2581playful": 20698, "\u2581triumph": 9232, "\u2581cloth": 6628, "\u2581gunfire": 19079, "\u2581janet": 10458, "then": 2504, "\u2581quartet": 7731, "\u2581surveillance": 10130, "\u2581jakob": 19105, "\u2581touring": 6143, "\u2581mammals": 13107, "\u2581diary": 9923, "\u2581depending": 4758, "ario": 8756, "\u2581dynamite": 24146, "\u2581wilton": 27166, "\u2581fingertips": 13167, "zinger": 24288, "\u2581indonesia": 5118, "\u2581pose": 10810, "conduct": 24573, "\u2581exemplified": 28668, "chay": 24676, "\u2581stays": 16192, "\u2581remorse": 22854, "\u2581translating": 25237, "\u2581sparrow": 18876, "empty": 26542, "\u2581brush": 7588, "hur": 6230, "\u2581responding": 15887, "521": 23891, "heaven": 25146, "qu": 5495, "\u2581stamp": 10151, "\u2581soul": 2069, "\u2581hayden": 15575, "\u2581hooper": 26066, "\u2581styles": 6443, "graha": 28014, "\u2581totally": 5139, "\u2581radical": 5422, "\u2581jesse": 6841, "\u2581cheerfully": 27585, "\u2581trash": 10744, "\u2581breakup": 20345, "\u2581modelled": 25659, "\u2581disneyland": 26831, "\u2581commune": 3903, "\u2581meri": 21210, "\u2581jen": 7965, "\u2581pink": 3164, "\u2581200203": 24328, "\u2581prayers": 13889, "auvergne": 29985, "\u2581genesis": 13172, "jitsu": 27381, "\u2581clothing": 4774, "\u2581mario": 7204, "nb": 13502, "heath": 21857, "\u2581disadvantage": 13387, "\u2581recapture": 27953, "\u2581integrated": 5547, "qualified": 22120, "\u2581flamenco": 29146, "\u2581prosecute": 29151, "\u2581christy": 23528, "oko": 10976, "\u2581respect": 2873, "\u2581darcy": 20052, "\u2581exhibiting": 25581, "gua": 15258, "\u2581quintet": 21010, "\u2581husk": 26776, "\u2581grieving": 29963, "\u2581purification": 28640, "largest": 17116, "\u2581tacit": 27128, "129": 13320, "ghaz": 19394, "\u2581hornet": 19299, "\u2581brooklyn": 5638, "\u2581haydn": 26941, "\u2581stunning": 16173, "\u2581wingspan": 9197, "\u2581blot": 25613, "\u2581hold": 1027, "\u2581fir": 16113, "\u2581risks": 12176, "research": 26619, "\u25812000": 824, "\u25812009,": 1654, "\u2581miocene": 27709, "ial": 2815, "\u2581instituted": 17344, "\u2581provinces": 6590, "\u2581fascia": 25218, "\u2581kessler": 29538, "\u2581cheyenne": 20030, "\u2581critical": 2507, "\u2581route": 858, "mbe": 10045, "\u2581stochastic": 29298, "\u2581committed": 4164, "\u2581resumed": 7379, "\u2581weighing": 17468, "haran": 23843, "evi": 11751, "13%": 21383, "306": 23668, "arte": 11430, "\u2581terrible": 5803, "\u2581mainline": 22848, "\u2581moines": 25951, "\u2581cinematography": 18839, "containing": 26425, "\u2581commodity": 22845, "\u2581person": 840, "\u2581allie": 20120, "\u2581fries": 18394, "hiro": 13855, "\u2581big": 580, "matter": 24700, "\u2581dependent": 9063, "\u2581entropy": 25587, "\u2581conscientious": 29960, "\u2581grab": 4931, "\u2581brittany": 13770, "\u2581jane": 3175, "1962": 9110, "\u2581income": 1587, "\u2581windsor": 10784, "\u2581johnson": 2050, "\u2581distracting": 26160, "\u2581incorporate": 14710, "\u2581sunset": 10619, "\u2581disconnect": 29363, "\u2581wr": 8845, "247": 22549, "lam": 4445, "\u2581tricho": 27232, "alina": 18977, "close": 14330, "\u2581cray": 19908, "\u2581clemens": 27648, "101": 12811, "azam": 26825, "\u2581conduit": 27914, "319": 24178, "rag": 11208, "\u2581velocity": 10700, "jhl": 27116, "\u2581nga": 14499, "\u25811799": 18150, "aksha": 22766, "\u2581vlad": 16219, "\u2581fellows": 17393, "\u2581manifestation": 20216, "\u2581proctor": 27918, "rrell": 14590, "\u2581judged": 15515, "\u2581everything": 796, "\u2581during": 112, "westerly": 26282, "\u2581hilbert": 28059, "\u2581slung": 23337, "\u2581alonso": 19672, "op": 2594, "\u2581shut": 2218, "\u2581diminish": 21174, "\u2581mist": 8140, "\u2581lands": 3912, "\u2581tilting": 24382, "\u2581sisters": 3945, "\u2581raleigh": 19194, "\u2581tensed": 17896, "\u2581vocabulary": 18630, "\u2581supportive": 18683, "\u2581tugged": 11212, "\u2581conformation": 28315, "\u2581diablo": 28664, "1938": 11679, "\u2581102": 10913, "phi": 7805, "ate": 1373, "ahn": 21543, "\u2581anatomical": 26506, "\u2581lang": 4544, "translated": 26390, "cic": 9946, "\u2581francois": 8042, "nant": 11028, "\u2581fem": 21199, "\u2581terence": 25375, "\u2581podium": 14955, "\u2581formations": 16798, "criminal": 27862, "wether": 28342, "\u2581guido": 20966, "\u2581pillai": 29023, "\u2581zaragoza": 27707, "\u2581gb": 14857, "\u2581activities": 1648, "wari": 18104, "778": 24658, "ak": 1378, "\u2581cum": 10611, "\u2581sore": 14230, "nis": 4192, "haupt": 19757, "\u2581communities": 2584, "\u2581knoxville": 23529, "network": 24106, "\u2581calm": 3562, "\u2581groaning": 26602, "ncia": 22599, "\u25811990": 961, "\u2581exploitation": 16687, "\u2581unaffected": 25916, "\u2581web": 2741, "\u2581operates": 4554, "uga": 7149, "\u2581pedestal": 25084, "\u2581epistle": 26383, "\u2581utilization": 28071, "\u2581hired": 3658, "\u2581yunnan": 23496, "\u2581emil": 16122, "266": 24311, "\u2581dj": 3857, "\u2581crowds": 15648, "\u2581descending": 16526, "lun": 10541, "\u2581decommissioned": 16161, "\u2581sorority": 28346, "\u2581tim": 2574, "\u258111": 547, "\u2581admiring": 26041, "hsi": 26344, "\u25811899": 6039, "\u2581retorted": 24838, "\u2581metres": 1866, "hallow": 26676, "awa": 6606, "640": 19780, "kick": 16098, "\u2581strang": 25802, "\u2581important": 681, "\u2581haa": 17295, "\u2581emerged": 5015, "ots": 15474, "\u2581novelty": 24301, "\u2581tramp": 17388, "53": 4022, "\u2581jabbed": 29871, "\u2581sebastian": 5337, "\u2581chairperson": 22385, "plica": 25971, "2,200": 27064, "\u2581endless": 11340, "\u2581biographies": 24806, "\u2581fork": 8777, "\u2581ke": 2270, "sef": 16141, "cranial": 28555, "\u2581ron": 4446, "\u2581newcastle": 7892, "\u2581sparkling": 19499, "\u2581portraits": 10354, "ona": 5207, "\u2581eastenders": 29033, "\u2581electrons": 17790, "\u2581dialogue": 6402, "80%": 24516, "wip": 27803, "\u2581charlemagne": 27907, "\u2581shareholder": 21941, "\u2581imported": 11808, "\u2581spending": 4837, "\u2581math": 5057, "\u2581ncaa": 4693, "eigen": 23556, "\u2581dresses": 16591, "\u2581sacred": 5938, "utta": 23339, "\u2581contrasted": 24873, "1852": 26573, "\u2581foothills": 20923, "\u2581grasp": 10677, "\u2581susanna": 27743, "priest": 24310, "\u2581canon": 5742, "\u2581complement": 10838, "\u2581muscle": 5274, "\u2581supporter": 10067, "ber": 2102, "\u2581waving": 13499, "\u2581cameron": 6455, "\u2581irwin": 20416, "\u2581restraint": 18058, "fifth": 19311, "\u2581procedure": 7004, "\u2581settler": 20822, "\u2581blanche": 16768, "\u2581present": 734, "ovi": 13624, "\u2581foreman": 20998, "will": 5580, "\u2581bloomberg": 24907, "\u2581agree": 4524, "\u2581expeditions": 17842, "\u2581herbs": 19425, "\u2581annoyance": 20106, "\u2581shrewsbury": 20881, "dio": 6921, "cano": 16469, "1956": 9714, "\u2581augmented": 22392, "\u2581blunder": 29889, "\u2581dip": 11453, "\u2581surge": 10703, "\u2581crept": 14249, "\u2581leukemia": 26502, "\u2581including": 215, "\u2581producing": 4081, "ef": 6917, "\u2581privateer": 24184, "avo": 13884, "\u2581liu": 7482, "influenced": 25812, "\u2581linguistics": 18165, "vay": 24105, "\u2581emotional": 6090, "reci": 15110, "\u2581regretted": 21680, "\u2581prevent": 2501, "47%": 25907, "historic": 29895, "\u2581mango": 23240, "long": 2701, "\u2581terrestrial": 14739, "\u2581albatros": 29117, "\u2581lesions": 25318, "\u2581inevitable": 15113, "\u2581georgina": 28186, "\u25812005:": 18228, "\u2581tango": 19434, "\u2581vehicle": 2664, "dige": 26164, "care": 9410, "\u2581ph": 4145, "\u2581enrico": 24065, "\u2581joe": 1802, "lost": 13404, "make": 11115, "zuka": 23215, "\u2581taluk": 17535, "\u2581minerals": 15045, "\u2581sutton": 11972, "\u2581sirius": 24213, "vern": 15877, "monger": 28841, "rek": 14646, "\u2581omar": 13461, "\u2581liability": 15086, "\u2581jurist": 20732, "\u2581pseudo": 8452, "mobile": 12571, "thon": 11570, "isation": 4330, "\u2581gau": 6540, "released": 7906, "sted": 10859, "\u2581centralized": 25176, "\u2581rye": 22794, "\u2581increase": 1839, "planned": 27056, "\u2581celebrations": 13463, "\u2581satin": 20376, "columbia": 28597, "shine": 21051, "ba": 969, "\u2581stalin": 11779, "joy": 13970, "\u2581sicily": 13473, "\u2581calcium": 15723, "\u2581commonly": 2524, "\u2581asteroid": 11281, "\u2581you": 42, "\u25811859": 9133, "\u2581mole": 11982, "cera": 15869, "\u2581mansfield": 17855, "610": 17330, "\u2581inevitably": 23637, "\u2581opted": 13920, "\u2581dryly": 23869, "\u2581arrogance": 27179, "\u2581buxton": 29684, "\u2581pretty": 1772, "1839": 27996, "\u2581uplift": 23478, "\u25812013": 616, "\u2581fabric": 6172, "benz": 13890, "\u2581bask": 26104, "kran": 24088, "uncharacteristic": 29959, "\u2581christoph": 23762, "\u2581esperanto": 29193, "3": 240, "ell": 4108, "\u2581borough": 3939, "\u2581mull": 13262, "\u2581tangible": 25968, "ique": 5312, "\u2581coveted": 28185, "\u2581placing": 5861, "\u2581miners": 11981, "\u2581nouveau": 25784, "\u2581rural": 1758, "order": 7861, "\u2581bounty": 19936, "koro": 20724, "\u2581successive": 12002, "easing": 16524, "etto": 11046, "\u2581glossy": 22522, "w": 499, "zal": 10662, "\u2581mayoral": 24060, "\u2581overwhelmingly": 26886, "\u2581seems": 2206, "\u25811642": 27195, "\u2581stuff": 3217, "\u25811900": 3886, "\u2581martha": 8963, "\u2581developers": 10168, "\u2581prussian": 12115, "\u2581rockefeller": 18871, "\u2581supreme": 2510, "kawa": 6965, "pee": 17216, "\u2581utilizing": 19894, "\u2581vinci": 23992, "\u2581voicing": 29651, "\u2581lucifer": 25397, "\u2581lightweight": 13613, "\u2581facility": 2646, "knock": 26927, "\u2581rammed": 28756, "\u2581double": 1494, "\u2581grew": 1642, "\u2581fringe": 11644, "independent": 17390, "born": 381, "\u2581irony": 22847, "\u2581corbett": 25814, "\u2581card": 2056, "\u2581dumont": 26448, "\u2581gender": 4552, "\u2581gm": 12600, "\u2581pleading": 17827, "count": 16549, "\u2581reviewing": 18046, "\u2581frighten": 27266, "\u2581grassy": 24076, "\u2581spitfire": 24447, "dean": 18341, "\u2581vaudeville": 23623, "\u2581versatile": 26278, "yeah": 2685, "tro": 3996, "\u2581lab": 4343, "mah": 12016, "\u25811951": 3813, "\u2581pos": 12928, "\u2581tamara": 22483, "\u2581governorate": 16657, "\u2581finding": 3007, "\u2581governed": 10152, "\u2581debate": 4503, "\u2581overturned": 19228, "\u2581bautista": 28727, "\u2581transcend": 25526, "\u2581apostles": 21465, "\u2581emily": 5220, "\u2581compton": 21308, "\u2581pussy": 21420, "lac": 9439, "\u2581sometimes": 1030, "\u2581talking": 1582, "\u2581bulgarian": 7803, "\u2581fc": 2644, "\u2581accompanied": 4329, "\u2581extends": 9073, "\u2581val": 3347, "\u2581walls": 2021, "tested": 22372, "\u2581brandenburg": 18696, "\u2581galen": 21129, "lor": 7386, "\u2581fabian": 21695, "\u2581ortega": 27185, "\u2581treb": 27310, "\u2581goddess": 6915, "\u2581installed": 4066, "\u2581amphibious": 18635, "football": 27071, "\u2581bind": 10193, "\u2581capp": 21764, "\u2581nuremberg": 22405, "\u2581carbonate": 24763, "\u2581graders": 26372, "\u2581viable": 17347, "several": 29807, "training": 24400, "\u2581believed": 1570, "\u2581progresses": 25512, "\u2581sino": 17959, "ssa": 8234, "\u2581pha": 10781, "\u2581bremen": 18938, "\u2581fate": 4615, "\u2581traveling": 6530, "\u2581photographs": 6060, "kuma": 17141, "\u2581breech": 23198, "\u2581famine": 17286, "lorenz": 23287, "\u2581cocoon": 28152, "\u2581straining": 24048, "\u2581harmonies": 29205, "\u2581philippine": 6983, "\u2581poorly": 10614, "ment": 1130, "\u2581melodic": 18730, "inflicted": 20331, "\u2581bacterial": 20420, "yaka": 23713, "\u258176": 6914, "two": 3734, "follow": 19184, "ina": 1673, "tern": 8766, "\u2581qing": 10683, "\u25811959": 3296, "\u2581counterparts": 16981, "anu": 13334, "\u2581televised": 16064, "\u2581dolphins": 15381, "\u2581hamilton": 3715, "franchi": 23087, "\u2581bellamy": 26705, "\u2581tattered": 29459, "slav": 6151, "\u2581holliday": 29683, "awaited": 21827, "rr": 5932, "\u2581about": 88, "eux": 14564, "\u2581article": 2002, "\u2581chad": 8708, "lead": 11846, "\u2581protected": 3803, "\u2581emp": 16453, "\u2581row": 3131, "\u2581seattle": 4787, "93": 4069, "\u2581envisioned": 21089, "\u2581muta": 22673, "\u2581fer": 4270, "theoretic": 29805, "\u2581barbed": 26524, "\u2581obstacle": 21394, "\u2581vortex": 25674, "\u2581associations": 10642, "owner": 10705, "character": 24589, "\u2581startup": 20205, "clu": 10301, "\u2581acquaintance": 16516, "\u2581romanesque": 20144, "\u2581dario": 26746, "pho": 9906, "\u2581dinamo": 24901, "tory": 14599, "\u2581scripture": 15084, "\u2581curran": 21313, "\u2581etc": 2722, "\u2581linde": 26930, "\u2581plopped": 28536, "\u2581compare": 11590, "\u2581printed": 5317, "\u2581musc": 21967, "\u2581dead": 828, "\u2581owners": 4515, "\u2581comparable": 14109, "\u2581bravo": 20117, "\u2581so": 86, "\u2581emotion": 6691, "\u2581matthews": 13915, "ash": 6031, "hib": 8630, "\u2581applies": 13169, "profile": 14503, "\u2581typing": 25266, "\u2581last": 236, "\u2581intestinal": 28669, "\u2581infant": 8470, "\u2581rui": 23404, "derived": 25891, "\u2581improvised": 23280, "\u2581gods": 4769, "\u2581biography": 8021, "dijk": 28395, "\u2581comfort": 5295, "\u2581disobey": 28235, "\u2581traditions": 7107, "\u2581winners": 3419, "charlie": 28112, "\u2581executing": 25836, "\u2581ivory": 12816, "\u2581plummet": 25808, "\u2581service": 365, "\u2581responsible": 1864, "\u2581bach": 8347, "\u2581tiberius": 28427, "\u2581royalty": 18918, "\u2581slopes": 11063, "dorff": 23042, "erton": 10931, "\u2581ministerial": 21075, "\u2581piper": 12405, "\u2581notified": 22904, "\u2581philosophi": 21646, "eck": 7673, "\u2581saxophonist": 21572, "\u2581alert": 7863, "\u2581handcuffs": 28567, "\u2581kisses": 8211, "\u2581regulate": 13933, "\u2581recovered": 5863, "\u2581strands": 16895, "\u2581kyushu": 27438, "fei": 18564, "\u2581mississippi": 4735, "\u2581limitations": 14070, "\u2581militia": 6848, "\u2581marseille": 17218, "tracks": 8293, "\u2581inflict": 23174, "\u258174": 8871, "\u2581recipe": 20510, "\u2581pump": 9786, "\u2581murdered": 6103, "\u2581outbreak": 7169, "\u2581bikini": 21359, "\u2581bruce": 4171, "\u2581mean": 884, "sam": 6101, "\u2581finish": 2106, "sol": 5594, "\u2581mortar": 12999, "\u2581creator": 9247, "378": 26636, "etsu": 26505, "\u2581vogue": 20549, "\u2581fol": 8938, "\u2581piled": 20919, "\u2581adhesive": 28345, "\u2581gru": 8961, "\u2581clouds": 7742, "millimeter": 22749, "\u2581papa": 9175, "ila": 6048, "\u2581trev": 17420, "\u2581di": 926, "\u2581$3": 5341, "thia": 18067, "ktor": 26182, "\u2581dive": 8523, "das": 8016, "\u2581exceptionally": 20056, "\u2581cowan": 26400, "nelli": 18109, "\u2581formula": 3729, "\u2581napoli": 26154, "\u2581sticker": 25991, "\u2581distinction": 6519, "stylized": 22440, "\u2581usage": 7514, "\u2581lutheran": 9434, "\u2581brutally": 25132, "darshan": 27507, "\u2581toddler": 26635, "\u2581easiest": 27237, "ent": 2291, "cruci": 22010, "\u2581program": 625, "\u2581nov": 16112, "stem": 19432, "cule": 21778, "10": 1036, "\u2581vol": 2250, "\u25811827": 15960, "\u2581monitored": 20575, "\u2581brain": 1964, "lim": 8585, "\u2581seductive": 22828, "\u2581whirling": 29984, "\u2581expose": 13833, "\u2581thermal": 9486, "\u2581elders": 14991, "\u2581jeremiah": 20333, "\u2581celsius": 29616, "\u2581mamluk": 29926, "\u2581negro": 10860, "\u2581elite": 5658, "\u2581tur": 6205, "\u2581trump": 7095, "\u2581adoptive": 26087, "neil": 17632, "\u2581publish": 10824, "\u2581reverence": 29080, "\u2581tectonic": 27025, "\u2581daimyo": 29829, "grave": 9699, "\u2581gotham": 25244, "\u2581inclined": 14664, "\u2581nar": 6588, "\u2581ros": 4949, "ch": 673, "\u2581pronounce": 25059, "\u2581ezio": 25585, "\u2581dragons": 8496, "\u2581altarpiece": 27418, "\u2581ugly": 9212, "\u2581sri": 3103, "rik": 6639, "\u2581surprised": 2948, "\u2581buffalo": 5915, "\u2581breeze": 8785, "\u2581gable": 10224, "\u2581cm": 2390, "\u2581thrill": 13355, "\u258180%": 15254, "\u2581burnett": 15297, "\u2581surreal": 16202, "ggi": 19086, "\u2581sloop": 26286, "\u2581dragged": 7465, "\u2581ruler": 7077, "\u2581algorithm": 9083, "\u2581composure": 26006, "\u2581intensify": 28163, "\u2581willamette": 28811, "154": 13758, "\u2581quake": 24457, "\u2581osbourne": 29709, "\u2581swedish": 3061, "\u2581politely": 19970, "85%": 21853, "\u2581produce": 2213, "har": 2269, "\u2581noon": 10995, "\u2581plastered": 24390, "\u2581directors": 4711, "\u2581evidence": 1445, "enstein": 13002, "\u2581belongs": 7034, "\u2581anime": 8653, "ordinate": 23239, "\u2581isaac": 6491, "\u2581soon": 651, "ador": 10092, "\u2581interrupted": 6354, "\u2581selling": 4355, "5:30": 27885, "\u2581600": 7316, "iki": 9674, "\u2581flesh": 4263, "\u2581battling": 20428, "\u2581700": 10954, "\u2581enemies": 5743, "\u2581not": 52, "dea": 12746, "\u2581sanction": 26534, "dec": 9522, "serv": 10321, "\u2581afterward": 9884, "keep": 12211, "\u2581handicapped": 28389, "assistant": 29086, "delic": 26664, "\u2581selected": 1704, "\u2581clapton": 26188, "of": 1041, "\u2581reload": 27339, "\u2581height": 2947, "\u2581kill": 1177, "\u2581helicopter": 7281, "\u2581sophisticated": 13388, "var": 3311, "player": 14049, "\u2581medallist": 26634, "\u2581exclusively": 7008, "\u2581palace": 2398, "\u258120%": 14140, "\u2581editorial": 7264, "oa": 6941, "\u2581intruder": 20367, "\u2581opposition": 2901, "\u2581kung": 19952, "rhomb": 29112, "joined": 22922, "\u2581thirst": 23144, "1896": 20625, "\u2581clip": 12229, "\u2581enjoyable": 24823, "\u2581audience": 2663, "dim": 14160, "\u2581estrella": 29682, "\u2581milano": 23862, "\u2581list": 968, "\u2581andalusia": 25191, "stick": 10277, "\u2581visibility": 19476, "\u2581scribble": 27607, "\u2581landscape": 4453, "\u2581exhaust": 12179, "oda": 7716, "\u2581perception": 9332, "ahan": 17346, "\u2581symbolic": 12882, "arthur": 24206, "\u2581ambush": 15215, "\u2581densities": 29627, "\u2581miracle": 8162, "\u2581brighton": 10862, "\u2581anticipate": 27967, "dhu": 20557, "\u2581mask": 5983, "\u2581tama": 15292, "\u2581effortlessly": 29088, "\u2581anthem": 10547, "\u2581nilsson": 29446, "\u2581circulate": 29834, "\u2581usually": 951, "rot": 11699, "\u2581intend": 13863, "\u2581cruel": 10030, "\u2581phonetic": 22877, "soldier": 28660, "\u2581outcome": 9774, "\u2581relations": 2649, "arra": 8576, "apparently": 27844, "\u2581devils": 15392, "\u2581transmitter": 10783, "rode": 20887, "hyper": 28356, "\u2581cost": 1516, "43%": 27259, "\u2581appalachian": 20815, "\u2581express": 2999, "gv": 23896, "\u25811989": 1752, "\u2581walton": 15711, "\u2581hetero": 14154, "\u2581springsteen": 27089, "life": 4102, "\u2581belly": 6959, "\u2581line": 293, "\u2581removing": 9096, "\u2581disciplines": 14469, "rath": 19763, "139": 14890, "\u2581patrice": 29338, "\u2581deeds": 18055, "\u2581till": 3924, "\u2581skateboard": 22096, "\u2581cossack": 23113, "\u25817:": 15001, "grady": 20978, "\u2581romney": 22064, "drawn": 19950, "aster": 14075, "\u2581disused": 28276, "\u2581bra": 3985, "\u2581hurry": 8425, "\u2581wonderful": 5934, "\u2581funded": 6726, "ble": 2854, "\u2581missile": 6699, "post": 6962, "\u2581tricks": 13747, "meric": 22199, "\u2581pauline": 18076, "\u2581servicing": 27257, "thwaite": 22844, "european": 12997, "gara": 12108, "\u2581benefited": 22091, "\u2581badly": 5730, "\u2581emilio": 21850, "\u2581fresh": 3180, "cott": 5987, "eon": 11572, "\u2581exists": 5636, "wing": 3546, "\u2581glowed": 19055, "\u2581bbc": 2313, "\u2581studying": 4493, "slovene": 17382, "sugar": 26149, "\u2581gareth": 23839, "hawk": 9390, "\u2581action": 1028, "\u2581bulls": 13069, "arna": 17499, "\u2581jai": 11649, "\u2581debris": 12364, "\u2581sch": 4303, "ales": 14461, "pomeranian": 19694, "\u2581edison": 19770, "\u2581montagu": 20915, "information": 22793, "\u2581grape": 12940, "den": 817, "\u2581historically": 6246, "cut": 4118, "vent": 6645, "media": 8260, "\u2581sprinter": 20924, "\u2581struggle": 4697, "\u2581eyelids": 20335, "\u2581ngc": 27923, "60%": 12978, "\u2581comedies": 25271, "\u2581gasp": 9905, "\u2581$17": 25457, "\u2581purchase": 3301, "\u2581moreover": 9353, "\u2581allocated": 11685, "icola": 23181, "\u2581abel": 14879, "\u2581cit": 17100, "\u2581barracks": 11222, "\u2581papua": 12652, "\u2581harmonica": 19053, "subject": 28743, "\u2581ramon": 10213, "\u2581thoroughly": 13632, "\u2581penis": 20579, "\u2581sox": 9847, "\u2581careful": 5186, "\u2581approximate": 16569, "se": 870, "\u2581secretary": 1386, "ack": 8735, "\u2581micah": 20567, "\u2581wiggle": 19918, "secondary": 24979, "\u2581frau": 19828, "346": 24844, "\u2581attested": 21552, "\u2581vulture": 23812, "\u2581histories": 17480, ":48": 22838, "\u2581kita": 16327, "\u2581kle": 11839, "jr": 13529, "ary": 1857, "\u2581profile": 5296, "\u2581diseases": 7697, "1884": 22152, "\u2581mcnamara": 28633, "\u2581lila": 17882, "\u2581everett": 17328, "second": 5007, "\u2581diet": 6853, "ister": 9959, "\u2581eurobasket": 29312, "chamber": 21290, "\u2581steal": 8680, "zel": 5801, "\u2581khaki": 28156, "\u2581darts": 19906, "\u2581ecole": 15131, "ux": 7147, "\u2581tick": 8809, "\u2581insisted": 6619, "\u2581gladys": 24841, "\u2581incarceration": 28862, "\u2581slew": 28340, "\u2581exertion": 29228, "\u2581soil": 4385, "\u2581averaged": 12493, "\u2581purplish": 29897, "\u2581direction": 1400, "\u2581thank": 3531, "\u2581fuller": 12558, "glu": 13161, "\u2581200910": 15266, "\u2581illumination": 21932, "\u2581tanks": 6707, "birds": 14889, "\u2581ba": 2683, "\u2581revealed": 2204, "\u2581knack": 29212, "\u2581psalm": 17272, "\u2581sleeping": 4777, "\u2581pregnant": 5951, "limb": 22666, "\u2581skid": 22252, "u": 291, "170": 16266, "\u25811916,": 15304, "\u2581chattanooga": 26364, "\u2581eb": 11817, "\u2581manga": 7847, "\u2581snuck": 26165, "\u2581biological": 5869, "\u2581darkness": 3269, "length": 6325, "sio": 11076, "\u2581vasquez": 29780, "\u2581existing": 3149, "\u2581print": 4793, "\u2581plata": 19592, "\u2581populace": 24330, "\u25811943,": 10367, "\u25811938": 4204, "cent": 5089, "\u2581beating": 4785, "\u2581spell": 4762, "\u2581nigel": 13963, "\u2581disillusioned": 29853, "non": 3951, "\u2581dangerous": 3342, "\u2581surged": 22295, "\u2581jenks": 17867, "\u2581handling": 7988, "\u2581strand": 11785, "\u2581charges": 4498, "\u2581fold": 14629, "cl": 5316, "\u2581softer": 22188, "\u2581leasing": 27741, "\u2581nirvana": 27778, "nunciat": 24347, "\u2581dalai": 28572, "\u2581catalog": 10594, "\u2581midway": 13486, "\u2581apprehensive": 29660, "\u2581farthest": 29389, "1,4": 14924, "\u2581slate": 13257, "chro": 19642, "jel": 15236, "\u2581triumphant": 22078, "4/": 12918, "\u2581goblet": 27992, "while": 10144, "\u2581smuggling": 23343, "\u2581popular": 844, "\u2581cc": 8093, "\u2581guiana": 24746, "23%": 25064, "\u2581photograph": 9128, "\u2581requires": 4781, "\u2581healing": 8956, "\u2581escorted": 14553, "\u2581pac": 9049, "\u2581eddie": 4646, "\u2581terrain": 9132, "\u2581indianapolis": 9737, "\u2581bonaparte": 23779, "\u2581champ": 13230, "\u2581mercenary": 24666, "\u2581tesla": 26190, "\u2581neatly": 18620, "\u2581wadysaw": 29018, "cula": 15779, "related": 6203, "\u2581rancher": 24369, "hyun": 20560, "\u2581show": 298, "\u2581ashes": 12040, "\u2581byrne": 16348, "antoni": 17768, "adze": 26673, "\u2581investigate": 7375, "\u2581inspire": 19146, "\u2581computers": 7774, "\u2581governorship": 27930, "\u2581cuisine": 13395, "\u2581merchandise": 17863, "\u2581killed": 841, "\u2581zur": 14131, "\u2581mcgill": 18159, "\u2581path": 2013, "\u2581foliage": 21892, "lot": 5639, "\u2581solve": 8402, "\u2581miserable": 13938, "cilla": 26655, "\u2581insistence": 23270, "atory": 7496, "\u25811832": 12346, "\u2581dolly": 23026, "\u2581pronoun": 18362, "\u2581satisfy": 14711, "tolerant": 23039, "\u2581customized": 28779, "\u2581huh": 11476, "\u2581whatsoever": 22207, "1959": 9611, "\u2581questionnaire": 29499, "\u2581agencies": 5785, "\u2581pronunciation": 16899, "bee": 8506, "\u2581tapered": 29339, "\u2581earning": 6555, "\u2581ensuing": 15296, "\u2581maw": 17693, "\u2581adam": 2406, "band": 5238, "\u2581christian": 1146, "150": 9839, "\u2581germany": 914, "hali": 15643, "\u2581hesse": 18625, "ignac": 26230, "\u2581dubois": 26514, "\u2581category": 3230, "\u25811985,": 8003, "\u2581tributary": 8716, "or": 248, "\u2581scaffold": 27322, "ovan": 23571, "\u2581cec": 23943, "\u2581yale": 7464, "fm": 5223, "eye": 9374, "\u2581wolff": 25179, "\u2581possessive": 20636, "\u2581sites": 3259, "\u2581empty": 2424, "avi": 5271, "\u2581raa": 20851, "flavored": 28903, "\u2581swansea": 18883, "micro": 22019, "\u2581viaduct": 21521, "hundred": 20701, "\u2581competing": 5649, "\u2581rocked": 16970, "\u2581bonnie": 13236, "\u2581dedicated": 2360, "\u2581kitten": 17484, "\u2581fetus": 26918, "\u2581eventually": 878, "\u2581startled": 9828, "\u2581lick": 15948, "\u2581boiled": 20898, "\u2581endorsed": 12943, "\u2581fil": 10853, "\u2581run": 485, "\u2581hamas": 21594, "\u2581lycan": 26338, "\u2581anthropology": 14624, "meister": 17271, "\u2581underneath": 7170, "\u2581purge": 20722, "raman": 18016, "\u2581asylum": 12077, "27%": 25633, "\u2581nsw": 12035, "\u2581hilton": 18173, "\u2581tiru": 22227, "\u2581devyn": 29727, "\u2581collapsing": 24898, "\u2581consumption": 8330, "lom": 13517, "guru": 27222, "\u25811800": 9115, "\u2581burlington": 17973, "\u2581sole": 5005, "\u2581jules": 12058, "\u2581exempt": 11459, "\u2581reservation": 8733, "\u2581hobart": 17906, "\u2581fluffy": 27971, "\u2581gem": 8551, "\u2581charlton": 21201, "\u2581malta": 10328, "\u2581sickness": 17737, "\u2581garage": 6242, "\u2581calligraphy": 29826, "chita": 26158, "\u2581prostitution": 16765, "rou": 8821, "\u2581plan": 944, "\u2581freedom": 2326, "cp": 7439, "2%": 2603, "\u2581congestion": 22686, "\u2581tame": 21950, "\u2581curb": 13570, "\u2581clary": 14721, "\u2581trajectory": 26007, "lets": 11045, "\u2581pits": 17064, "\u2581paige": 19533, "\u2581seat": 988, "\u2581busch": 18420, "\u2581boise": 24958, "15%": 15264, "\u2581caves": 11621, "\u2581cambodian": 25852, "\u2581tangent": 25490, "\u2581lud": 14753, "rad": 8278, "\u2581bharat": 17154, "coli": 18138, "sham": 9582, "\u2581muzzle": 19438, "\u2581grammy": 8877, "\u2581ephraim": 29155, "dian": 8258, "\u2581amazed": 17378, "icide": 17636, "cion": 10934, "\u2581mused": 25446, "hungary": 21072, "chter": 22529, "\u2581arbitrary": 17237, "\u2581nymph": 18293, "blaze": 26218, "\u2581arc": 4686, "hon": 6905, "wyn": 7707, "plasm": 19444, "kim": 17574, "\u2581astronomer": 13299, "\u2581statement": 3331, "nel": 7440, "\u2581aliens": 14118, "\u2581stupid": 3553, "\u2581ramsay": 22902, "zine": 15650, "\u2581charting": 22544, "\u2581hinduism": 22413, "\u2581emissions": 13458, "\u2581sobbed": 27537, "\u2581jaffa": 29974, "\u2581containers": 18988, "\u2581job": 1205, "\u2581nobody": 5908, "\u2581sire": 17530, "\u2581globe": 6371, "\u2581but": 47, "\u2581london": 479, "\u2581soup": 11554, "\u2581sum": 3907, "14": 1419, "\u2581prescription": 20424, "\u2581muj": 20706, "\u2581dispersal": 27705, "\u2581incapacitate": 29554, "\u2581brewing": 18113, "dicating": 28480, "\u2581wilcox": 25550, "\u2581heathrow": 29603, "azzi": 22910, "\u2581mostly": 1555, "\u2581flashed": 7961, "\u2581ramsey": 17619, "\u2581titan": 14713, "\u2581vaguely": 17520, "\u2581derelict": 27910, "knife": 28840, "\u2581ramp": 9960, "\u2581substitute": 6558, "\u2581featherweight": 27593, "\u2581quark": 28449, "\u2581sexes": 22997, "\u2581hereford": 23316, "\u2581shuttle": 9466, "\u2581mr": 820, "5,000": 5157, "\u2581inland": 12437, "dot": 12527, "\u2581affectionate": 28803, "\u2581equivalent": 4602, "affirm": 13347, "\u2581thorne": 16701, "3:1": 26923, "\u2581edition": 1322, "goldwyn": 29914, "\u2581menu": 11379, "ush": 10418, "\u2581volunteer": 5599, "sur": 4082, "\u2581relies": 19272, "rhy": 17495, "\u2581wine": 2667, "\u2581explores": 17707, "\u2581kathryn": 23329, "\u2581satisfaction": 10669, "\u2581atmosphere": 6341, "\u2581$8": 14623, "\u2581drawings": 9646, "\u2581cedric": 27601, "\u2581invaded": 11469, "\u25812009:": 15366, "\u2581lined": 9011, "\u2581name": 204, "\u2581helped": 1456, "\u2581nolan": 14875, "\u2581archer": 9636, "business": 18717, "haus": 7972, "\u2581moro": 15612, "\u2581lenin": 19265, "gula": 21977, "ios": 7760, "\u2581jerzy": 28460, "\u2581second": 153, "czech": 28519, "780": 25531, "\u2581csx": 29323, "\u2581denver": 7173, "\u2581willingness": 22610, "\u2581winked": 15536, "\u2581malaga": 23066, "\u2581jody": 28231, "\u2581moran": 16378, "\u2581slat": 22490, "\u2581ulcer": 28409, "\u2581sister": 1035, "\u2581beirut": 17770, "\u2581porcelain": 20124, "\u2581kra": 5179, "\u2581prisoners": 4817, "met": 5909, "\u2581plane": 3627, "\u2581denominations": 19515, "\u2581privilege": 16575, "nia": 3983, "\u2581kingdoms": 16222, "\u2581partner": 2417, "\u2581scroll": 12159, "\u2581pacifist": 29647, "\u25811980": 1043, "\u2581nail": 11250, "\u2581gonzalo": 29075, "\u2581kei": 10138, "\u2581rotten": 11573, "civil": 21485, "\u2581koo": 15720, "\u2581happened": 1190, "\u2581encyclopedia": 13084, "\u2581drifted": 10472, "traditional": 14781, "branch": 23014, "\u2581proclaimed": 12037, "\u2581splinter": 17755, "\u2581rent": 7299, "\u2581code": 1797, "109": 16597, "gaku": 20063, "\u2581davies": 9249, "strand": 19219, "\u2581battle": 692, "\u2581hits": 3858, "\u2581reggae": 17258, "\u2581bats": 13313, "ls": 7532, "\u2581thinner": 25400, "\u2581uncanny": 28894, "heat": 18379, "\u2581calvert": 26405, "ify": 8612, "\u2581pedal": 13928, "\u2581splitting": 17282, "17": 1053, "latin": 10577, "387": 26463, "\u2581grenada": 28673, "\u2581lane": 3566, "\u2581economic": 1352, "\u2581registered": 3801, "\u2581vel": 7415, "\u2581conservatives": 14578, "kreuz": 25879, "dres": 19137, "\u2581199394": 28991, "\u2581snorted": 17932, "\u2581tighten": 19658, "nation": 7914, "\u2581shawnee": 28742, "157": 13187, "\u2581brows": 10175, "\u2581defiant": 22760, "\u2581hogg": 25976, "\u2581inaccessible": 28671, "\u2581reserves": 8480, "\u2581betrayed": 12886, "kula": 17596, "\u2581agitated": 23692, "\u2581airplane": 11665, "\u2581omission": 28701, "\u2581bertie": 23191, "\u2581scrambling": 26854, "mus": 3605, "\u2581expansive": 25896, "1927": 13279, "put": 4881, "\u2581labeled": 14348, "\u2581baseline": 27150, "\u2581pounding": 10267, "\u2581affiliate": 6772, "\u2581continuously": 11738, "haut": 20561, "\u2581garcia": 7029, "\u2581teased": 14389, "\u2581fetal": 27879, "\u2581overseas": 6108, "\u2581wie": 11842, "therapy": 24111, "\u2581parked": 8951, "\u2581acquainted": 21771, "\u2581solstice": 29230, "413": 25330, "\u2581janis": 26176, "phenyl": 23076, "\u2581kincaid": 26504, "\u2581hardwood": 23908, "\u2581raked": 24624, "\u2581narrated": 20568, "\u2581diesel": 7320, "\u2581hal": 3557, "\u2581regal": 16976, "ejo": 15456, "\u2581anticipation": 11960, "\u2581werent": 13136, "\u2581porch": 6338, "\u2581pillow": 7633, "\u2581benfica": 28106, "\u2581robust": 15313, "euter": 21458, "\u2581scooted": 26191, "246": 21339, "\u2581lump": 12667, "vari": 8220, "ws": 10268, "palm": 26355, "col": 7771, "san": 2729, "\u2581stern": 6053, "\u2581ira": 16216, "\u2581galle": 18408, "\u2581restoring": 19144, "\u2581skeletal": 23185, "\u2581questions": 2346, "\u2581bir": 8719, "\u2581option": 4255, "\u2581ill": 1838, "\u2581climbing": 8455, "\u2581reject": 12170, "uli": 6243, "\u2581reducing": 7974, "\u25812": 172, "\u2581claimant": 25505, "czy": 20485, "\u2581modern": 773, "dolph": 13612, "\u2581comp": 6479, "\u2581herald": 7943, "coloured": 22679, "\u2581functional": 7652, "\u2581ownership": 5074, "\u2581cord": 5429, "cm": 9095, "cini": 19982, "\u2581unexpectedly": 16044, "\u2581modernist": 22108, "\u2581lyons": 20176, "\u2581findings": 10172, "\u2581hastings": 13857, "\u2581willow": 10755, "\u2581gravitational": 23126, "\u2581madame": 11775, "\u2581muriel": 27944, "\u2581alaska": 6277, "\u2581sinking": 10679, "cub": 21684, "\u2581hyper": 5443, "\u2581abnormal": 17804, "defend": 29583, "comp": 11103, "390": 18972, "quis": 16756, "\u2581registry": 18269, "\u2581progress": 3455, "\u2581ocean": 2144, "\u2581merger": 6546, "f": 410, "\u2581spawned": 21305, "\u2581pancake": 23099, "crum": 25241, "\u2581pa": 1562, "fan": 7491, "\u2581listening": 4948, "dun": 10992, "established": 11087, "\u2581tactical": 8418, "\u2581demonic": 25869, "\u2581alt": 7051, "\u2581haas": 21815, "\u2581daughter": 783, "\u2581bydgoszcz": 29283, "\u2581ulrich": 22553, "cel": 11040, "\u2581geoffrey": 11965, "\u2581wards": 13773, "\u2581landfill": 26417, "\u2581slowly": 1447, "\u2581squirm": 18171, "\u2581milan": 5798, "\u2581heads": 4153, "ema": 5996, "\u2581tasha": 27016, "\u2581fren": 24670, "\u2581spa": 6954, "\u2581managerial": 26406, "builder": 20904, "\u2581gloria": 11499, "\u2581$40": 22924, "\u2581prowess": 27456, "\u2581allahabad": 29799, "\u2581error": 7019, "optic": 15361, "\u2581130": 9489, "0/": 15928, "\u2581cristina": 24427, "\u2581selby": 28946, "\u2581rica": 12273, "\u2581eucalypt": 25804, "rae": 12706, "\u2581niels": 28606, "\u2581kon": 5191, "\u2581ancestors": 11575, "mentioned": 27036, "\u2581difficulty": 6967, "\u2581modify": 17579, "\u2581such": 145, "\u2581premature": 17769, "\u2581altitude": 7128, "\u2581bottles": 12619, "\u2581markus": 24826, "\u2581tribune": 11709, "\u2581storyline": 8614, "\u2581curling": 12430, "\u2581wizards": 19577, "\u2581smackdown": 24758, "\u2581beef": 12500, "\u2581landslide": 19388, "ddy": 18283, "tab": 15783, "\u2581ash": 3133, "\u2581heaven": 4469, "\u2581sy": 10315, "\u2581ober": 8578, "\u2581argentinian": 28965, "\u2581sending": 4907, "muir": 16217, "\u2581cannonball": 29582, "\u2581charlie": 3588, "left": 9742, "\u2581potts": 26744, "ul": 1287, "\u2581boxes": 8120, "\u2581alkaline": 29986, "\u2581advertised": 19465, "\u2581studies": 1011, "\u2581tropical": 3819, "\u2581tire": 11517, "\u2581sheer": 14694, "\u2581recognized": 2124, "voj": 27790, "\u2581phoebe": 20336, "\u2581pretended": 16920, "\u2581percy": 12204, "\u2581bournemouth": 24582, "forth": 15964, "436": 27298, "file": 16877, "standard": 15566, "\u2581density": 2688, "\u2581pleaded": 13364, "\u2581patrons": 15830, "\u2581rec": 6042, "\u25811500": 11059, "\u2581chadwick": 29007, "tti": 5249, "38": 3665, "\u2581ordeal": 24566, "\u2581boone": 16421, "\u2581dishonest": 29534, "\u2581said": 87, "\u2581input": 6367, "matt": 21965, "\u2581whisky": 24329, "wel": 6986, "lla": 8608, "1910": 16037, "\u2581leonard": 6796, "sullivan": 21710, "\u2581environment": 2307, "\u2581concealed": 16454, "\u2581strikes": 9880, "\u2581stench": 24324, "\u2581repelled": 29176, "\u2581rabbit": 8335, "esa": 13923, "\u2581stations": 2138, "\u2581nan": 5884, "\u2581terrorists": 19090, "\u2581becomes": 2633, "\u2581immediate": 5231, "\u2581exhibitions": 8482, "odi": 7800, "\u2581le": 1009, "\u2581latin": 2068, "zuma": 20664, "\u2581misleading": 23938, "\u2581fortnight": 26668, "\u2581chronicles": 13282, "\u2581spacecraft": 13222, "\u2581naomi": 14508, "\u2581commissions": 17146, "\u2581flood": 5506, "\u2581kingdom": 1102, "\u2581louvre": 25510, "\u25813:00": 28279, "\u2581cham": 12778, "\u2581sophomore": 14206, "\u2581zachary": 22507, "\u2581memorable": 15493, "62": 3698, "\u2581measurable": 29613, "\u2581unmarked": 27187, "ou": 2655, "pop": 6057, "\u2581siegfried": 26891, "\u2581jenn": 22542, "\u2581unexpected": 9380, "\u2581shah": 4396, "\u2581misuse": 27519, "\u2581flapping": 29006, "\u2581bullet": 6812, "uzzi": 22217, "\u2581morley": 23194, "\u2581notion": 7834, "\u2581burk": 26081, "\u2581athletic": 3639, "\u2581signed": 908, "\u2581breeders": 23558, "\u2581energies": 21566, "\u2581unhappy": 14325, "\u2581be": 44, "\u2581ecclesiastical": 13514, "\u2581world": 126, "\u2581cessation": 29423, "\u2581abigail": 18610, "nius": 15659, "\u2581distributed": 4387, "\u2581adjacent": 4209, "\u2581carolyn": 17919, "\u2581actors": 4977, "\u2581tunnels": 12026, "\u2581pipeline": 12250, "\u258128,": 4021, "\u2581tenants": 16126, "\u2581tull": 20980, "\u2581andrei": 21257, "\u2581unpredictable": 24421, "\u2581restarted": 27440, "\u2581macgregor": 29881, "\u2581objected": 18092, "obi": 14398, "\u2581rupert": 16068, "\u2581hoffmann": 25904, "\u2581gujarat": 12895, "\u2581tv": 983, "\u2581belarus": 15014, "\u2581traders": 14975, "callaghan": 29231, "\u2581utilities": 19817, "\u2581competent": 19895, "breg": 28381, "\u2581nagoya": 25528, "\u25811791": 18985, "349": 26116, "\u2581trading": 5205, "\u2581linkage": 26215, "\u2581false": 4997, "\u2581kannada": 16972, "gast": 21445, "\u2581terra": 9195, "\u2581impedance": 28272, "\u2581patty": 21002, "onia": 6155, "\u2581constantine": 13618, "avian": 22320, "eki": 10803, "\u2581poz": 26598, "\u2581empathy": 27938, "ged": 6430, "poli": 8147, "\u2581presenting": 12310, "\u2581ballet": 6204, "\u2581position": 649, "\u2581letter": 1748, "\u2581homolog": 20902, "\u2581adams": 4773, "\u2581hanna": 10413, "\u2581incarnation": 15081, "who": 1924, "\u2581lenses": 17717, "ubi": 12439, "\u2581invading": 19939, "\u2581gospel": 6535, "\u2581shiny": 13091, "dil": 15463, "\u2581cowboys": 13080, "\u2581beyonce": 24809, "296": 26246, "\u2581faces": 4904, "\u25811921,": 15790, "\u2581adorable": 26354, "\u2581pir": 9242, "ugg": 21606, "\u2581veronica": 15227, "\u2581renovations": 18854, "\u2581collaboration": 4004, "\u2581chang": 7955, "\u2581captained": 18627, "\u2581archaeologist": 21352, "hydr": 19877, "12%": 20295, "\u2581stre": 12555, "\u2581insulin": 24536, "ambu": 25015, "\u2581picket": 18232, "\u2581gloves": 12767, "\u2581consequently": 8730, "\u2581iroquois": 26077, "\u2581drunken": 15654, "\u2581bilbao": 27592, "pre": 3515, "\u2581minions": 27810, "\u2581elder": 5227, "\u2581anthropologist": 20058, "\u2581sheriff": 5219, "\u2581charm": 7533, "bn": 11954, "\u2581mistakes": 13623, "interceptor": 24171, "ishi": 12576, "\u2581counting": 11195, "\u2581groove": 12489, "\u2581culinary": 24281, "mizu": 21191, "\u2581subsequent": 3147, "furst": 26378, "\u2581harmless": 21346, "\u2581150,000": 23570, "\u2581partners": 4724, "capital": 21316, "\u2581commit": 9686, "\u2581austro": 14534, "rus": 3403, "regulated": 27432, "protein": 22250, "\u2581vineyard": 20418, "\u2581miss": 1501, "ig": 2816, "\u2581discuss": 5990, "\u2581stella": 12335, "lecommunications": 16312, "\u2581dependence": 22506, "\u2581touch": 1723, "\u2581induce": 16809, "\u2581cuthbert": 25807, "1878": 22435, "\u2581observing": 16987, "words": 12827, "\u2581induction": 18611, "\u2581clari": 19424, "\u2581toys": 12029, "\u2581span": 6289, "\u2581joseph": 1540, "\u2581lewis": 2805, "\u2581prat": 19354, "\u2581grandpa": 17545, "\u2581puncture": 26197, "\u2581casablanca": 26905, "\u2581banks": 3615, "\u2581nana": 14878, "\u2581graphical": 21755, "\u2581imprisoned": 8314, "yer": 4366, "\u2581clarke": 8134, "\u2581recreate": 21119, "\u2581beep": 22899, "ual": 6948, "\u25812001,": 3946, "\u2581overflow": 20285, "\u2581protracted": 29796, "\u2581gianni": 23972, "germain": 18637, "district": 14789, "\u2581dresden": 14334, "\u2581habits": 16760, "1,2": 15793, "enz": 17454, "\u2581regression": 27369, "\u2581environmental": 2703, "\u2581predicate": 28712, "jazz": 23712, "\u2581exam": 11796, "qasim": 29606, "\u2581overture": 24890, "\u2581directed": 1012, "\u2581mc": 1324, "\u2581cricket": 2728, "\u2581rebecca": 9873, "omorph": 22887, "\u2581entered": 1297, "\u2581lust": 8769, "\u2581probing": 28222, "thal": 14867, "\u258117": 369, "\u2581chord": 14965, "\u2581seraph": 26485, "\u2581indicate": 4342, "igen": 20114, "\u2581sufi": 20332, "plac": 17994, "ulus": 12618, "46": 3516, "\u2581constantin": 25073, "\u2581varies": 9803, "\u2581proud": 5944, "\u2581physiological": 21496, "\u2581fargo": 24980, "phil": 9211, "\u2581homes": 4437, "\u2581atelier": 29821, "\u2581ritter": 24785, "\u2581booklet": 20196, "\u2581adequate": 12870, "\u2581size": 1072, "\u2581nitrate": 27735, "\u2581couldn": 711, "\u2581if": 100, "\u2581attend": 3702, "\u2581recipes": 22229, "\u2581josiah": 26432, "\u2581blissful": 29485, "\u2581confined": 13428, "\u2581domesday": 24097, "\u2581accumulate": 25481, "\u2581stepmother": 26967, "\u2581stemmed": 29431, "\u2581wants": 2846, "aea": 17854, "\u2581commendation": 24925, "1933": 12143, ":41": 23007, "\u2581herbert": 6462, "\u2581thrust": 5777, "\u2581hostel": 19357, "\u2581francisco": 2086, "ethnic": 26975, "\u2581turns": 2844, "\u2581merchant": 5080, "\u2581nascar": 12913, "\u2581$6": 10322, "\u2581bubba": 23393, "\u2581macintosh": 24024, "\u2581transit": 5234, "\u2581display": 3042, "\u2581regarding": 3467, "\u2581defaulted": 20173, "\u2581suspended": 5692, "340": 14544, "\u2581flare": 16732, "\u2581ridley": 24203, "\u2581deity": 14019, "\u2581scarlet": 12525, "\u2581clive": 17005, "\u2581v": 566, "road": 10422, "\u2581armstrong": 9158, "\u2581vial": 23679, "\u2581lyceum": 29194, "\u2581preview": 16121, "\u2581sparkle": 17679, "\u2581historia": 21678, "ovski": 20232, "\u2581maldives": 26503, "osaurus": 16772, "\u2581liberties": 20914, "eti": 13594, "\u2581helmut": 24679, "\u2581propose": 17873, "\u2581conscription": 27216, "\u2581causing": 3242, "\u2581clover": 21500, "\u2581scandinavia": 23335, "\u2581resurgence": 27058, "\u2581fortified": 15314, "\u2581swallow": 9185, "\u2581assured": 9042, "\u2581ibm": 10233, "\u2581godfather": 25793, "\u2581marr": 23115, "\u2581screens": 14236, "\u2581comforting": 18224, "1988": 5930, "\u2581collaborated": 8321, "\u2581tapes": 15778, "app": 7753, "\u2581armand": 18634, "\u2581persia": 19238, "\u2581noise": 3406, "\u2581treated": 4789, "important": 25716, "\u2581dorothea": 26473, "\u2581sensational": 26519, "etat": 18895, "75": 3283, "\u258110:00": 26533, "\u2581priorities": 20872, "\u2581hospitals": 8899, "\u2581focusing": 7796, "\u2581rab": 10249, "\u2581indictment": 23981, "\u2581curvature": 26057, "\u2581khorasan": 24337, "\u2581spiritual": 4839, "\u2581welcome": 5575, "\u2581kos": 7488, "\u2581ferro": 17944, "\u2581battalions": 11351, "tle": 5866, "\u2581appropriation": 19547, "\u2581unfolded": 26088, "icum": 18573, "\u2581update": 11100, "\u2581perfect": 2107, "\u2581landscapes": 14899, "written": 6390, "\u2581bishop": 1579, "\u2581harness": 16445, "rc": 5453, "kali": 17720, "\u2581motivation": 11933, "visual": 20893, "\u2581shaun": 17112, "\u2581venezuela": 8237, "\u2581wear": 3098, "price": 24137, "\u2581philadelphia": 2870, "\u2581echelon": 29708, "fid": 15817, "champaign": 29004, "\u2581khor": 27524, "\u2581stirling": 17133, "eshwar": 18793, "870": 24649, "\u2581amazement": 24115, "\u2581fierce": 8465, "\u2581tunis": 27019, "\u2581equity": 10831, "\u2581only": 104, "\u2581federal": 1058, "\u2581shivered": 16130, "\u2581fifteenth": 18967, "\u2581patiently": 22036, "\u2581complaint": 13170, "\u2581tyson": 21022, "vad": 13307, "\u2581stretch": 6363, "\u2581locally": 6680, "\u2581upstream": 15657, "\u2581recording": 1576, "\u2581hybrid": 6957, "\u2581diplomatic": 7425, "\u2581abundance": 16117, "\u2581optimistic": 24408, "\u2581summarized": 24438, "rick": 4869, "ilo": 10016, "\u2581flore": 21545, "127": 11595, "\u258114,": 3824, "\u2581shrieked": 24362, "\u2581neighbouring": 9690, "\u2581xml": 23504, "\u2581publicly": 6713, "three": 5642, "\u2581harlem": 17526, "\u2581trained": 3416, "\u2581ellie": 11609, "\u2581stellar": 19882, "kat": 11773, "\u2581aiming": 15442, "\u2581plunder": 20340, "\u2581noah": 6679, "\u2581packed": 9402, "\u2581interrogation": 18388, "include": 22640, "\u2581presented": 1831, "\u2581steam": 3960, "mier": 20443, "\u2581decide": 4073, "seat": 8324, "\u2581episode": 942, "\u2581bryce": 22140, "\u2581dominic": 9548, "nate": 8820, "elberg": 26756, "\u2581ferrari": 14076, "\u2581incredulous": 23127, "nor": 4747, "\u2581upanishad": 27987, "\u2581magical": 8090, "\u2581proxim": 26877, "awi": 18467, "\u2581applicant": 25354, "\u2581phenotype": 28934, "\u2581robots": 15521, "\u2581clutch": 14353, "\u2581autumn": 6471, "\u2581entourage": 26906, "\u2581attendance": 3648, "8/": 12530, "lings": 11991, "\u2581projection": 11607, "\u2581neighbors": 11184, "\u2581exit": 4350, "\u2581dali": 20783, "\u2581vista": 13520, "billy": 19267, "\u2581eerie": 21466, "\u2581scarcely": 23620, "polish": 18721, "\u2581chesapeake": 23488, "\u2581leisure": 11376, "\u2581masked": 20354, "quick": 25865, "\u2581hoax": 27464, "3,000": 10305, "\u2581robert": 822, "chim": 19647, "\u2581presiding": 21101, "okay": 4779, "\u2581ensuring": 14183, "\u2581anastasia": 21913, "\u2581serving": 1799, "nabi": 25627, "\u2581combination": 3733, "\u2581importantly": 16922, "mpton": 15349, "\u2581andorra": 28644, "\u2581medial": 24388, "\u2581tangle": 21116, "kit": 13703, "\u2581start": 799, "night": 4893, "coff": 18387, "\u2581santos": 11240, "agi": 14482, "\u2581baronet": 7801, "\u2581symphonic": 22462, "\u2581determination": 9821, "think": 10550, "wee": 10969, "\u2581margaret": 4072, "\u2581dramatically": 13241, "\u2581works": 693, "\u2581huddersfield": 23050, "\u2581gripped": 9890, "\u2581whaling": 25752, "apple": 24212, "384": 25765, "\u2581nm": 9384, "\u2581copa": 10236, "\u2581fascinated": 17452, "\u2581kata": 14495, "\u2581clark": 3618, "\u2581valeria": 26347, "\u2581fantasy": 4906, "\u2581brant": 21840, "\u2581derived": 3981, "\u2581highlanders": 26521, "conductor": 27233, "\u2581krista": 29266, "\u2581va": 3471, "\u2581oct": 9543, "\u2581novo": 16259, "\u2581alright": 11885, "\u2581yo": 3727, "\u2581lutz": 26616, "vision": 10732, "\u2581primera": 17139, "\u2581transformers": 21970, "\u2581spelled": 12366, "\u2581narrow": 2868, "loma": 16984, "\u2581birthplace": 17045, "\u2581credited": 4976, "\u2581terminology": 20513, "\u2581entail": 21113, "\u2581laos": 18230, "calc": 16304, "\u2581flash": 4433, "\u2581does": 630, "\u2581corb": 18649, "\u2581snug": 22988, "\u2581switches": 18114, "\u2581new": 78, "\u2581turbines": 21405, "\u2581janice": 23107, "\u2581mosquito": 18498, "\u2581thinking": 1440, "\u2581bohemia": 18701, "\u2581relocation": 20129, "\u2581vacant": 10040, "italian": 13346, "\u2581frenzy": 23430, "\u2581abbas": 17716, "\u2581bike": 5984, "sdale": 11816, "\u2581beautiful": 1632, "\u2581yang": 7516, "\u2581horn": 4318, "acoustic": 19969, "\u2581bangkok": 14433, "\u2581mothers": 11452, "half": 7647, "\u2581sali": 15318, "georgian": 28942, "\u2581criteria": 9157, "\u2581acoustic": 5402, "\u2581relate": 16464, "akin": 17594, "\u2581feeding": 8524, "\u2581bombs": 10468, "\u2581pursuit": 7212, "\u2581falk": 21584, "2011": 3097, "\u2581fearing": 17516, "\u2581mercury": 9012, "please": 6744, "\u2581stroud": 29771, "\u2581shak": 13916, "\u2581hide": 3077, "lith": 12278, "\u2581tracking": 10353, "\u2581berkshire": 17422, "\u2581cyn": 21800, "\u2581piss": 15688, "\u2581supplemented": 23390, "\u2581wellesley": 26772, "\u2581bundesliga": 16752, "\u2581courage": 8177, "\u2581constraint": 28804, "nov": 7658, "\u2581vows": 19152, "\u2581reparation": 29256, "\u2581sincerely": 27325, "nu": 4215, "\u2581hayes": 10571, "chai": 13281, "lotte": 19163, "\u2581burnham": 26019, "\u2581makes": 1364, "\u25811977,": 9791, "\u2581horsemen": 26649, "\u2581nostalgia": 28007, "\u2581bang": 6582, "\u2581inscriptions": 14501, "\u2581intercept": 18324, "\u2581alexander": 2009, "\u2581ahead": 2173, "\u2581formats": 13767, "\u2581tera": 20796, "\u2581bau": 11437, "mas": 5250, "\u2581caricature": 26395, "\u2581europa": 11936, "share": 16608, "\u2581marriott": 27869, "\u2581cathedral": 3453, "\u2581fur": 2971, "\u2581fernandez": 13212, "chel": 8856, "\u2581brim": 19740, "\u2581namesake": 19161, "itta": 18582, "\u2581sigh": 4858, "\u2581trill": 25704, "\u258146": 5084, "\u2581flooding": 9420, "\u2581mrs": 2045, "lova": 16438, "zol": 17670, "\u2581sprawling": 26114, "jah": 10671, "\u2581collaborating": 22768, "\u2581clint": 19490, "x": 396, "\u2581glittering": 23057, "\u2581qin": 19683, "spire": 11421, "\u2581camp": 1232, "229": 22313, "\u2581lucid": 27547, "\u2581vega": 16191, "\u2581hire": 10039, "ozo": 17897, "\u2581epsom": 28639, "\u2581volume": 2310, "inho": 15170, "\u2581angrily": 16066, "\u2581placid": 25008, "ur": 911, "\u2581remarkable": 9902, "\u2581duma": 20164, "\u2581wing": 1756, "mission": 12385, "\u2581unmanned": 27006, "\u2581respondents": 26544, "ian": 806, "cen": 8172, "frin": 25856, "\u2581abdomen": 15377, "\u2581riviera": 29736, "\u25811896": 6213, "\u2581bacon": 12376, "\u2581snatched": 15592, "\u2581redskins": 20185, "tract": 19915, "\u2581pearl": 5445, "\u2581gold": 766, "ster": 1911, "\u2581psyche": 24238, "sacrificing": 29808, "\u25811988,": 7590, "\u2581teatro": 19149, "\u2581barlow": 19544, "dammit": 20725, "\u2581reagan": 12769, "\u2581enhancement": 19415, "\u2581artificial": 6809, "\u2581endeavor": 17698, "\u2581northeastern": 8617, "\u2581facts": 10459, "\u2581countess": 12684, "\u2581creek": 1801, "\u2581promoted": 2033, "\u2581tail": 3424, "\u2581hurling": 11715, "\u2581rivals": 9418, "circ": 14022, "\u2581courtroom": 22195, "\u2581space": 726, "\u2581sima": 23332, "\u2581igor": 16430, "rano": 17555, "\u2581malaysian": 12971, "\u2581passionate": 12637, "\u2581kirk": 6017, "\u2581anxiously": 26309, "\u2581paired": 14029, "\u2581veins": 9948, "\u2581next": 328, "\u2581tyne": 17772, "\u2581hitler": 7899, "ead": 18530, "schrift": 26984, "\u2581admired": 14407, "\u2581resolute": 27886, "\u2581air": 282, "petti": 20525, "\u2581braced": 19296, "\u2581groundwater": 25153, "\u2581descriptions": 15740, "vier": 9397, "\u2581broadcasts": 9461, "\u2581anecdote": 26379, "\u2581item": 9101, "\u2581unbeaten": 22746, "grav": 13265, "syllabic": 29760, "lit": 6864, "\u2581silent": 2690, "\u2581personality": 5105, "\u2581sharma": 15489, "169": 14009, "hom": 9619, "\u25811891": 6627, "virus": 14792, "po": 1638, "\u2581equestrian": 20496, "maru": 12119, "\u2581reinforced": 11922, "\u2581roadside": 25439, "\u2581assigned": 2467, "\u2581catching": 9436, "\u2581illnesses": 26039, "\u2581smelt": 21469, "ulin": 22024, "\u2581talks": 7837, "uq": 20389, "\u2581mala": 7553, "\u2581spit": 9286, "\u2581change": 753, "women": 15159, "\u2581delivery": 6010, "\u2581flee": 8449, "fax": 18947, "\u2581kahl": 25246, "\u2581hosts": 5397, "\u2581divisions": 5519, "\u2581frost": 7682, "ook": 15393, "\u2581patrolled": 28943, "\u2581peanut": 17941, "\u2581meek": 19663, "\u2581think": 277, "muslim": 23444, "\u2581casper": 26137, "\u2581corona": 13538, "\u2581purdue": 22931, "\u2581beneath": 2550, "\u2581culture": 1365, "morph": 12498, "\u2581rides": 14267, "\u2581mit": 6414, "terminal": 20907, "\u25811794": 17070, "\u2581remedies": 29516, "\u2581carrie": 14949, "220": 18411, "ear": 10717, "vam": 23806, "\u2581period": 620, "\u2581site": 689, "nio": 15042, "cook": 20840, "\u2581ask": 1349, "sel": 3434, "\u2581beacon": 13339, "\u2581maharaj": 29414, "\u2581erica": 23333, "256": 16910, "\u2581lacy": 23065, "\u2581kiss": 1832, "abba": 13100, "vigne": 27250, "among": 21068, "\u2581expecting": 7752, "\u2581supplementary": 27461, "\u2581shutdown": 28450, "\u2581mild": 8780, "agno": 21887, "\u2581grow": 3213, "hofer": 25786, "sufficiency": 29982, "\u2581watford": 24430, "\u2581cardiff": 10674, "\u2581bore": 6225, "hana": 7285, "\u2581swung": 7086, "pierre": 12252, "\u2581kneeling": 19245, "six": 6742, "cha": 1651, "\u2581loosen": 24327, "\u2581tuvalu": 29942, "sorry": 8959, "christmas": 26884, "tus": 3021, "\u2581water": 308, "going": 13269, "ship": 2418, "oc": 2499, "\u2581inaugural": 7156, "\u2581reiterated": 28711, "aven": 16365, "\u2581sudbury": 28308, "\u2581artery": 19759, "acher": 19789, "tsch": 10069, "\u2581rector": 10911, "\u2581franco": 7823, "ra": 525, "515": 23554, "\u2581redistribution": 26768, "\u2581reportedly": 6629, "\u2581striking": 7975, "model": 13998, "mira": 15008, "\u2581sighing": 22278, "\u2581portions": 9125, "\u2581troop": 10191, "\u2581solidarity": 17351, "\u2581ernesto": 24445, "\u2581fifteen": 4188, "\u2581helicopters": 14257, "\u2581bust": 6943, "gho": 21342, "\u2581benign": 24552, "\u2581sanctuary": 8300, "\u2581testimony": 11658, "\u2581watts": 11632, "\u2581antwerp": 14909, "\u2581messina": 28331, "\u2581playback": 21306, "sund": 12082, "26": 2409, "\u2581dancer": 7799, "\u2581crusade": 15542, "\u2581collector": 10836, "\u2581checkpoint": 23306, "\u2581supercup": 29415, "\u2581jase": 20486, "thank": 5904, "\u2581leans": 14156, "living": 15662, "\u2581fangs": 12726, "\u2581revised": 7886, "\u2581pour": 9435, "\u2581minds": 11433, "\u2581poked": 20019, "best": 4936, "\u2581comptroller": 29488, "\u2581bibli": 24491, "\u2581defeat": 2143, "302": 22863, "\u2581casket": 25163, "\u2581pig": 7680, "\u2581injuries": 5368, "\u2581advertising": 5620, "\u25811956,": 11795, "\u2581regimental": 20432, "\u2581chieftain": 21801, "\u2581eyeball": 26759, "\u2581lay": 1815, "\u2581ab": 5941, "novo": 25216, "\u2581guilt": 7279, "\u2581bp": 17308, "\u2581clink": 27155, "\u2581shenandoah": 29493, "\u2581skipped": 19900, "ola": 2268, "\u2581appeal": 4262, "\u2581energy": 1122, "\u2581distinguish": 9705, "natal": 11950, "\u2581nguyen": 20449, "\u2581complaints": 11707, "\u2581windmill": 22789, "outstanding": 26375, "\u2581shul": 26600, "aditya": 26466, "\u2581aqua": 14299, "\u2581obstruct": 24544, "\u2581synod": 15526, "sulfate": 25265, "1/": 8197, "\u2581carthage": 23917, "\u2581prudent": 25578, "\u2581wb": 12285, "\u2581weve": 12690, "\u2581refuge": 8955, "\u2581earl": 2626, "tori": 9819, "\u2581kama": 15635, "frac": 15891, "\u2581islamabad": 28337, "\u2581ann": 4161, "\u2581manpower": 24731, "\u2581potion": 23687, "\u2581sigmund": 29478, "\u2581denise": 17871, "cation": 16893, "\u2581injection": 13646, "\u2581patrolling": 26638, "\u2581tonight": 2251, "\u2581merritt": 28065, "\u2581geology": 15280, "\u2581declared": 2482, "\u2581chose": 3305, "ava": 4961, "\u2581devoted": 6856, "\u2581previously": 1343, "\u2581frei": 14532, "\u2581bastille": 29631, "\u2581dispose": 17913, "\u2581cameras": 8688, "\u2581terrell": 29930, "\u2581bypass": 8900, "\u2581rice": 4561, "no": 251, "\u2581mahmoud": 26925, "haru": 18152, "\u2581agent": 2267, "1859": 24520, "\u2581infinity": 18425, "\u2581abolished": 8834, "werk": 16498, "\u2581weakened": 12590, "\u2581oliver": 5141, "\u2581williams": 2145, "\u2581mira": 10504, "\u2581intense": 5339, "ans": 5950, "\u2581homo": 9131, "\u2581subconscious": 25373, "\u2581incessant": 29934, "\u2581episcopal": 8604, "\u2581fact": 837, "\u2581punk": 6769, "\u2581jonathan": 4473, "\u2581safer": 15483, "arco": 18247, "\u25811897": 6208, "\u2581intensive": 13633, "\u258160": 2083, "\u2581fischer": 14445, "\u2581agreement": 2022, "\u2581kang": 12219, "\u2581sucker": 25061, "cian": 13056, "\u2581poison": 9599, "\u2581mistake": 5643, "\u2581labels": 13173, "metre": 10870, "\u2581publicity": 13141, "\u2581surrender": 6616, "\u2581fading": 16099, "\u2581convince": 6218, "crown": 27395, "\u2581disc": 3626, "\u2581kalli": 27352, "backed": 18614, "\u2581laguna": 19847, "\u2581manipulated": 22953, "fal": 13192, "\u25812005,": 2480, "\u2581shrank": 29353, "\u258154": 5896, "\u2581yeshiva": 20139, "\u2581joachim": 21094, "\u2581woo": 10761, "\u2581campus": 2071, "\u2581concluding": 18952, "\u2581unusually": 15200, "\u2581haarlem": 29511, "\u2581fox": 2385, "\u2581arranged": 4300, "1994": 4938, "\u2581variant": 8320, "\u2581hol": 5173, "\u2581email": 8517, "\u2581favour": 6342, "\u2581ucla": 14441, "gne": 18757, "\u2581entrepreneurs": 20696, "\u2581partnerships": 16169, "\u2581usurp": 24275, "ma": 540, "\u2581whereby": 15630, "zuki": 23391, "push": 26973, "feed": 20954, "\u2581items": 3755, "\u2581withstand": 22663, "\u2581tweak": 28769, "aker": 17411, "\u2581lucas": 5047, "\u2581internet": 2620, "\u2581mls": 19164, "\u2581pouch": 19872, "\u2581handwriting": 25960, "\u2581remodeled": 28090, "reliant": 29501, "\u2581sibyl": 27184, "bol": 6966, "eel": 12728, "\u2581columns": 7498, "mme": 18072, "\u2581reissue": 18267, "\u2581hand": 224, "\u2581parameter": 18906, "\u2581solemn": 15068, "saint": 12591, "\u2581confession": 9799, "\u2581staff": 1138, "\u2581superhero": 14773, "\u2581log": 6738, "533": 26445, "mu": 3677, "forward": 21216, "\u2581torque": 17428, "\u2581loomed": 26513, "\u2581lao": 15288, "\u2581fundraiser": 25589, "\u2581blankets": 17488, "\u2581offer": 1994, "\u2581molten": 24727, "coccus": 29458, "\u2581fogg": 23563, "\u2581deadline": 15968, "\u2581sung": 6332, "\u2581reis": 20937, "cdp": 24770, "\u2581mexican": 3115, "reading": 22883, "\u2581veer": 15959, "serious": 29119, "neu": 17521, "\u25811914,": 13296, "\u2581exams": 15954, "\u2581deva": 16078, "\u2581mysteries": 17845, "\u2581fender": 18923, "\u2581designed": 1006, "death": 13921, "\u2581chilly": 26242, "\u2581practically": 7839, "\u2581saf": 11589, "\u2581indefinite": 27021, "rp": 6952, "\u2581arrives": 8394, "ikon": 24346, "\u2581townshend": 29372, "\u2581glacier": 8658, "\u2581oyster": 19477, "stown": 9720, "\u2581unsigned": 28839, "\u2581accurately": 16353, "ela": 3442, "\u2581showing": 3187, "\u2581trembled": 16918, "\u2581proceeded": 8867, "\u2581carleton": 25461, "\u2581amendments": 19421, "encia": 16486, "\u25811866": 8207, "\u2581eldest": 6541, "617": 24458, "\u2581vamp": 11487, "\u2581abdicate": 29374, "strum": 18182, "\u2581aristo": 23924, "\u2581acquired": 2020, "chester": 18129, "\u2581contemporaries": 19507, "delia": 26192, "hagan": 26285, "berlin": 23171, "\u2581reviewer": 13059, "\u2581streetcar": 21025, "\u2581dove": 10333, "\u2581sanders": 11574, "\u2581distances": 15731, "\u2581mueller": 27032, "43": 4644, "\u2581surmounted": 29460, "\u2581darlington": 22657, "\u2581forerunner": 23963, "\u2581holloway": 22675, "deva": 22921, "about": 6901, "\u2581ruben": 15755, "\u2581imaginative": 28203, "ci": 1892, "\u2581callahan": 27062, "\u2581replica": 13426, "\u2581phelps": 23360, "kami": 21165, "\u2581tackle": 9723, "\u2581loch": 12620, "\u2581longer": 1045, "\u2581pardon": 13526, "4": 300, "\u2581moderate": 8063, "\u2581printer": 12925, "\u2581brightly": 16182, "\u2581panther": 17131, "\u2581hailey": 22968, "\u2581glaze": 27451, "\u2581nominated": 2725, "\u2581secret": 1699, "\u2581augusta": 15774, "\u2581received": 420, "\u2581resulted": 2923, "ridae": 22792, "\u2581systems": 1242, "raiser": 29206, "haka": 22233, "\u2581cottage": 7089, "\u2581paramilitary": 24567, "\u2581breathtaking": 28219, "stav": 22623, "mad": 6817, "\u2581foresee": 23112, "tf": 11720, "\u2581lep": 15108, "\u2581$100,000": 21788, "\u2581turkic": 25460, "\u2581motors": 10518, "\u2581optimal": 17586, "\u2581journal": 1680, "\u2581percent": 2091, "\u2581monaco": 16332, "christophe": 22694, "\u2581mcgrath": 25842, "grad": 7691, "\u2581barangay": 20860, "\u2581zhao": 14619, "\u2581beatles": 12389, "\u2581optics": 25493, "\u2581hansen": 15360, "\u2581advertisement": 17128, "\u2581differentiation": 23477, "\u2581terminal": 3855, "shima": 9685, "\u2581pla": 6568, "\u2581describing": 7153, "\u2581seals": 16414, "\u2581decline": 5215, "\u2581preparation": 6675, "\u2581sweep": 9761, "division": 17557, "233": 21799, "eni": 12367, "ruz": 22322, "\u2581blanket": 7996, "\u2581restoration": 5194, "650": 13798, "\u2581secretly": 10865, "\u2581threshold": 11361, "illi": 16566, "\u2581mandarin": 18556, "\u2581vaughn": 21234, "\u2581princes": 14979, "\u2581loaded": 8572, "\u2581gestured": 12288, "\u2581okinawa": 15942, "757": 26017, "\u2581arabia": 9385, "\u2581scheme": 4276, "\u25811884": 7322, "\u2581nicknamed": 10829, "\u2581pu": 3323, "\u2581kai": 5775, "\u2581jennie": 28528, "punct": 17359, "physical": 23274, "\u2581bobbed": 28799, "tid": 13647, "ue": 4185, "ych": 17566, "\u2581people": 148, "\u2581shrew": 21082, "\u2581fal": 8256, "\u2581different": 421, "ussi": 22020, "only": 4965, "nda": 8245, "\u2581legends": 10089, "\u2581shay": 13450, "pj": 21670, "\u2581vandalism": 29359, "touch": 15725, "\u2581zheng": 18852, "lic": 4663, "fi": 1707, "\u2581convinced": 5329, "\u2581rehearsal": 15006, "\u2581bully": 15102, "\u258113,000": 27099, "\u2581malaya": 19487, "\u2581ammonia": 25918, "\u2581alban": 17702, "\u2581srinivas": 28188, "\u25811979,": 8637, "\u2581laundering": 29159, "bach": 4522, "\u2581wade": 10190, "\u2581breakout": 26581, "\u2581corral": 27754, "\u2581trau": 28117, "\u2581arranger": 15841, "\u2581sanjay": 28330, "attached": 28484, "\u2581disbelief": 13792, "\u2581nuclear": 3043, "\u2581schlo": 23557, "bearing": 18877, "\u2581atheist": 21482, "\u2581nominate": 24818, "\u2581mayo": 16642, "\u2581trusting": 22701, "\u2581wil": 5266, "dale": 3282, "many": 14842, "\u2581disdain": 22381, "pore": 11742, "ifica": 24831, "jak": 10063, "\u2581biscuit": 20947, "\u2581grupo": 27481, "\u2581mini": 4236, "\u2581cliff": 6754, "\u2581manipur": 29010, "\u2581logan": 5116, "\u2581enriched": 27414, "\u2581immune": 12458, "\u2581celebrating": 14734, "\u25811842": 12080, "\u2581konstantin": 20334, "\u2581aquinas": 28652, "\u2581her": 36, "\u2581infected": 11166, "\u2581stripe": 20186, "\u2581subtitle": 19442, "\u2581poppy": 23454, "wraith": 25123, "made": 5781, "owa": 15289, "\u2581summit": 4984, "\u2581austin": 4665, "\u2581lipp": 28344, "\u2581embedded": 12138, "\u2581weeping": 22573, "grin": 23244, "\u2581lisa": 6267, "mut": 7903, "if": 821, "odon": 20584, "=": 3726, "\u2581boutique": 24196, "\u2581finishes": 13625, "\u2581aerodrome": 24674, "\u2581dealership": 26914, "\u2581voivodeship": 6315, "ip": 4307, "\u2581canton": 6716, "pian": 19749, "\u2581metacritic": 16397, "\u2581saba": 11735, "\u2581reference": 2801, "\u2581lend": 13866, "\u2581reported": 1117, "\u2581impress": 15992, "eighth": 26267, "\u25811876": 8048, "\u2581unharmed": 28785, "\u2581placement": 10774, "\u2581tortricidae": 28105, "34%": 26558, "eli": 8318, "\u2581cau": 10513, "\u2581creative": 4231, "pounder": 18954, "oise": 16238, "\u2581ideological": 19342, "ride": 11891, "lica": 16904, "\u2581baking": 24812, "watch": 9054, "smith": 7017, "breaking": 16038, "\u2581van": 1019, "inch": 5588, "appen": 22358, "colonize": 28645, "\u2581coastal": 4645, "\u2581sabrina": 24872, "\u2581abide": 28721, "\u2581bilateral": 19859, "tik": 11571, "\u2581saar": 19753, "\u2581simple": 1935, "\u2581luke": 3881, "\u2581spectacular": 13096, "yk": 15579, "\u2581ripped": 9263, "\u2581moul": 20273, "\u2581hampton": 12470, "\u2581carolina": 2016, "\u2581parishes": 12876, "\u2581reinforcements": 16343, "\u258157": 6544, "\u2581pharmacy": 15785, "rida": 17197, "\u2581bubbles": 20743, "\u2581mistakenly": 23745, "\u2581dhaka": 19695, "\u2581foundations": 11716, "\u2581qatar": 12384, "\u2581directly": 1703, "\u2581contemplated": 25010, "\u2581translations": 13610, "\u2581difference": 2841, "\u2581specifications": 17971, "\u2581bars": 6062, "\u2581clearance": 15434, "\u2581increased": 1644, "\u2581sponge": 19713, "\u2581dollars": 5415, "yuki": 9793, "\u2581aisle": 11027, "\u2581radiated": 25710, "armenian": 26243, "ency": 8883, "\u2581syringe": 27622, "\u2581polls": 16460, "\u2581township": 1606, "ali": 5517, "\u2581valencia": 12083, "\u2581pudding": 27740, "tov": 15546, "104": 16757, "peg": 20427, "ways": 11000, "\u2581oppose": 13659, "\u2581massive": 3787, "\u2581tab": 6523, "\u2581considerations": 20478, "\u2581speculate": 26733, "\u2581heels": 7904, "\u2581baha": 10217, "episode": 13397, "\u2581composing": 19193, "bone": 8640, "\u2581tornado": 12306, "athi": 16505, "475": 25006, "\u2581aluminium": 17071, "\u2581front": 431, "\u2581raj": 5711, "\u2581silas": 22499, "hee": 12533, "\u2581shandong": 27839, "euil": 23299, "\u2581transmission": 5213, "\u2581pagan": 12094, "\u2581hyundai": 27087, "\u2581114": 15122, "\u2581cordoba": 19956, "imper": 12579, "\u2581li": 2093, "\u2581stockholm": 8647, "\u2581grief": 10101, "\u2581stirred": 15272, "\u2581whimper": 22028, "\u2581hollow": 7456, "\u2581communications": 3380, "\u2581brahman": 25243, "clad": 16511, "vivi": 21081, "\u2581royalties": 27541, "600": 7664, "\u2581marge": 22724, "\u2581pretoria": 26841, "\u2581collaborative": 12937, "\u2581encompass": 26631, "flash": 26694, "cyr": 24435, "tv": 1709, "ping": 3181, "hell": 11239, "\u2581morrison": 10189, "\u2581fe": 3686, "\u2581rise": 2529, "\u2581saying": 1148, "\u2581multitude": 22980, "vocal": 24045, "\u2581sandals": 26885, "\u2581pedagogical": 29513, "loire": 20618, "\u2581tirana": 25995, ":29": 23238, "\u2581factual": 26947, "pdf": 11124, "dar": 2542, "\u2581clyde": 11871, "\u2581petitioned": 25046, "\u2581god": 701, "\u2581coach": 977, "\u2581creature": 5461, "\u2581define": 9267, "\u2581spokesperson": 17073, "ement": 9632, "\u2581athenian": 22800, "\u2581suspects": 14993, "posi": 14882, "\u2581hymns": 20780, "by": 779, "trix": 17224, "ocean": 23409, "\u2581harvesting": 25187, "\u2581forbid": 23041, "\u2581hearing": 3229, "\u2581weapons": 2654, "\u2581rudolph": 20662, "\u2581hurley": 28194, "\u2581children": 391, "\u2581surroundings": 12887, "\u2581warning": 3590, "positiv": 29658, "\u2581truce": 20508, "\u2581anguish": 21289, "\u2581weaving": 17909, "\u2581lap": 2630, "\u2581went": 296, "\u2581yankees": 12231, "\u2581cristo": 26760, "\u2581vulnerable": 8107, "\u2581premier": 2474, "\u2581eyes": 194, "\u2581isolate": 25068, "\u2581transient": 26008, "332": 26175, "367": 27038, "\u2581generally": 1469, "\u2581tack": 15586, "\u2581efficient": 8243, "\u2581fulton": 19868, "bug": 16254, "\u2581presidency": 8644, "\u2581scal": 18957, "\u2581relinquish": 26859, "\u2581station": 312, "\u2581postal": 11680, "fung": 23930, "fio": 19221, "regular": 25049, "\u2581malabar": 29574, "zig": 16594, "\u2581diagnostic": 16458, "\u2581derivatives": 19527, "\u2581ached": 18144, "\u2581christ": 2581, "\u2581staats": 27864, "\u2581k": 680, "emia": 11461, "\u2581periodic": 18350, "\u2581arm": 813, "khov": 17062, "90,000": 23324, "\u2581validity": 19058, "pri": 6944, "\u2581mw": 10757, "vale": 13631, "emi": 7411, "\u2581colorful": 16136, "\u2581loosely": 13166, "\u2581functions": 3719, "\u2581wildfire": 26150, "\u2581sahitya": 29505, "\u2581thou": 18024, "\u2581radioactive": 20461, "\u2581contemplation": 29734, "\u2581drive": 1493, "\u2581crimson": 12302, "\u2581phyto": 26742, "\u2581abyss": 19634, "\u2581refit": 21685, "\u2581dots": 17900, "factor": 17455, "\u2581suspicious": 10531, "\u2581fred": 4250, "\u2581alternative": 2676, "\u2581straightened": 11862, "\u2581casino": 8286, "\u2581dilute": 28295, "\u2581gil": 4730, "\u2581eyebrows": 8276, "\u2581snapped": 4853, "\u2581stripped": 10841, "\u2581mclean": 19728, "\u2581dissatisfaction": 28534, "patti": 16364, "\u2581package": 6030, "vra": 19203, "\u2581beverly": 13990, "\u2581ballpark": 28164, "hunting": 24852, "yan": 2817, "\u2581succession": 7676, "207": 20304, "\u2581remarked": 11597, "\u2581dominion": 13892, "occhi": 27247, "\u2581cartoon": 8982, "\u2581commons": 8322, "\u2581von": 2110, "shed": 7399, "ke": 1048, "\u2581recipients": 18560, "\u2581virginia": 1614, "\u2581monica": 9103, "\u2581shard": 18723, "\u2581jonas": 11080, "\u2581rage": 6283, "sara": 15284, "cu": 3987, "\u258145": 2487, "\u2581contradiction": 22201, "nin": 5703, "\u2581navarre": 21560, "lore": 16052, "\u2581gorgeous": 10048, "\u2581adults": 5014, "knit": 18371, "\u2581ninth": 6004, "\u2581affirmed": 22923, "oxide": 20272, "andro": 19554, "\u2581wall": 769, "\u2581clasped": 18737, "\u2581ii": 595, "\u2581welsh": 5065, "455": 25112, "\u2581centres": 10548, "\u2581records": 742, "\u2581smith": 1167, "gest": 14288, "kol": 11434, "\u2581sh": 5527, "\u2581frozen": 7203, "p": 306, "\u2581writing": 1174, "\u2581humidity": 20663, "\u2581inertia": 25847, "\u2581peggy": 17255, "orange": 24304, "\u2581espanol": 24339, "lung": 14174, "gle": 4875, "\u2581cultivation": 14678, "vish": 16466, "submarine": 21514, "ulla": 14518, "stall": 21300, "\u2581vasco": 26213, "\u2581mountaineer": 20900, "ossi": 20294, "\u2581diana": 8949, "du": 2323, "\u2581geh": 24419, "\u2581virtue": 10128, "purpose": 12060, "iwa": 14376, "\u2581minami": 28627, "\u2581fl": 8631, "\u2581boyfriend": 6198, "\u2581fatal": 8773, "\u2581stakeholders": 24757, "\u2581jun": 7446, "\u2581approve": 14741, "\u2581drip": 24663, "quarterfinals": 9490, "\u2581fiancee": 22947, "\u2581reduced": 2736, "\u2581beam": 5581, "\u2581merged": 3901, "\u2581bhp": 24976, "\u2581funeral": 5454, "\u2581hot": 1047, "\u2581suspect": 7551, "aza": 15660, "\u2581british": 388, "\u2581visa": 7068, "\u2581sturgeon": 29597, "distance": 13357, "\u2581travis": 10483, "\u2581corri": 20534, "\u2581societe": 21132, "\u2581secrets": 7818, "\u2581recovering": 15135, "\u2581multiplayer": 20262, "\u2581montane": 22685, "\u2581italianate": 26678, "\u2581slaughtered": 25592, "\u2581scoffed": 27484, "nf": 11408, "\u2581laurel": 11568, "\u2581wallpaper": 28129, "\u258166": 7395, "rocco": 23258, "complete": 15990, "\u2581bracken": 26839, "\u2581rental": 12225, "\u2581cultural": 1733, "\u2581sussex": 10036, "\u2581vickers": 20974, "kino": 23231, "\u2581facilitating": 26832, "\u2581dissatisfied": 27375, "\u2581rebound": 19455, "\u2581flax": 29770, "\u2581paperback": 15338, "\u2581particular": 1498, "\u2581allan": 9243, "\u2581trojan": 19805, "\u2581diarrhea": 29468, "\u2581speeches": 15685, "\u2581gypsy": 19341, "\u2581guidelines": 12629, "rong": 14271, "igua": 24623, "\u2581diplomat": 9176, "\u2581multimedia": 17090, "\u2581holmes": 8761, "\u2581willing": 4452, "\u2581mortimer": 19656, "vr": 6938, "\u2581aggregator": 24755, "history": 16853, "159": 13854, "\u2581cauldron": 29196, "\u2581explore": 8594, "\u2581pendleton": 26264, "\u2581coined": 15048, "\u2581principe": 28318, "educated": 24693, "\u2581stewart": 4788, "\u2581organ": 4180, "\u2581furniture": 6626, "probably": 14097, "\u2581maul": 23452, "\u2581makh": 28457, "segment": 28857, "\u2581draped": 17274, "\u2581compulsion": 27640, "arre": 22374, "\u2581rounded": 8472, "structure": 13971, "\u2581auf": 19301, "\u2581strangle": 26494, "\u2581moaning": 25858, "using": 12655, "scoring": 23629, "niki": 17987, "\u2581intervention": 6781, "ection": 20842, "\u2581flotilla": 18423, "\u2581exhibition": 2778, "\u2581shouts": 18344, "steroid": 20641, "\u2581cyclo": 12833, "\u2581dignity": 15282, "ting": 1203, "ever": 5221, "\u2581jets": 10360, "\u2581statues": 12359, "\u2581believing": 8985, "\u2581reopen": 21398, "\u2581extremely": 3898, "\u2581investigated": 11790, "\u2581seaside": 21994, "\u2581lydia": 15132, "\u2581monologue": 25067, "\u2581waistband": 27224, "\u2581bowling": 8817, "\u2581wrench": 20282, "\u2581seminal": 23607, "homogeneous": 24845, "\u2581brushing": 14671, "\u2581filmed": 5451, "\u2581linked": 4727, "\u2581abandon": 10416, "410": 17921, "\u2581tray": 10121, "\u2581avatar": 22234, "\u2581anonymous": 10364, "\u2581innovations": 18370, "\u25811824": 14146, "\u2581que": 9386, "\u2581signatures": 19506, "\u2581bosnia": 8987, "\u2581$19": 26322, "\u2581transcript": 18413, "\u2581kinds": 8623, "\u2581concentrations": 16643, "\u2581furiously": 22537, "\u2581southern": 775, "\u2581piotr": 26591, "\u2581affecting": 13808, "\u2581magnitude": 10323, "\u2581cinder": 25743, "ato": 6043, "\u2581rodent": 21241, "shoot": 12511, "illus": 13898, "\u2581sprawled": 23770, "\u2581endurance": 16518, "\u2581penny": 10689, "\u2581weekends": 16303, "\u2581bliss": 14999, "\u2581spaces": 7644, "\u2581reckless": 18915, "\u2581kunst": 13508, "lier": 10491, "\u2581guinea": 5283, "\u2581raz": 10657, "\u2581daytime": 13525, "\u2581kaye": 25116, "\u25811972,": 8512, "fit": 11765, "\u2581absence": 5315, "\u2581freestyle": 10304, "\u2581esq": 26376, "\u2581mccormick": 26180, "bling": 8599, "\u2581frog": 9520, "\u2581waterford": 21279, "\u2581visual": 3458, "\u2581piano": 1925, "\u2581revolution": 2458, "\u2581henning": 27307, "\u2581unions": 11048, "\u2581kicked": 5437, "ground": 8810, "\u2581felicia": 24591, "\u2581kemp": 12865, "\u2581stafford": 17311, "\u2581rehabilitate": 28202, "\u2581thereby": 8535, "\u2581klaus": 18899, "360": 19454, "777": 25081, "\u2581mother": 449, "national": 6919, "\u2581zum": 24732, "\u2581markets": 5406, "1879": 22638, "cake": 17568, "\u2581broadway": 5467, "\u2581bonds": 10160, "\u2581olivia": 7303, "less": 923, "\u2581mitch": 10648, "\u2581indigo": 22655, "\u2581matter": 1161, "\u2581tucking": 26860, "\u2581contrast": 3710, "\u2581negotiations": 7324, "tens": 8710, "\u2581summary": 14740, "uber": 8866, "\u2581broncos": 15453, "\u2581commissioners": 14232, "worthy": 11819, "\u25811973,": 9313, "\u258119992000": 27193, "\u2581hid": 10135, "\u2581revival": 4879, "\u2581la": 333, "\u2581variations": 8194, "fic": 15261, "phin": 19931, "ought": 22536, "\u2581farther": 8605, "eur": 5630, "\u2581charge": 1906, "\u2581unicef": 29077, "called": 4580, "\u2581therapy": 6506, "\u2581oclock": 28521, "\u2581thirteen": 6388, "em": 1503, "kil": 16000, "\u2581table": 859, "\u2581collect": 5543, "\u2581sacramento": 12794, "\u2581gastro": 25670, "\u2581selection": 3155, "\u2581rid": 6681, "\u2581exploring": 11748, "gli": 6441, "ln": 16600, "architect": 27452, "\u2581lyrical": 15911, "\u2581patri": 16826, "\u2581supremacy": 24580, "\u2581byzantine": 7880, "\u2581temporary": 4700, "\u2581jaya": 13589, "\u2581satisfying": 19617, "\u25811929,": 14380, "\u2581rested": 8878, "\u2581ideology": 15061, "\u2581liverpool": 5288, "\u2581laureate": 18706, "\u2581illusion": 10560, "tuck": 11175, "245": 21468, "\u2581josef": 12830, "\u2581hamad": 26468, "\u2581barr": 11522, "\u2581stubble": 25772, "\u2581niccolo": 27667, "\u2581lut": 17915, "clock": 10790, "\u2581algerian": 18853, "focused": 20986, "\u2581wield": 20230, "stop": 7318, "\u2581facade": 7224, "\u2581invertebrates": 26633, "\u25811999,": 4528, "schutz": 23111, "feature": 26956, "\u2581weave": 21004, "\u2581lord": 1068, "\u2581polytechnic": 15955, "\u2581convey": 11266, "\u2581rising": 3316, "duce": 16041, "\u2581freely": 11298, "bia": 5732, "\u2581wwii": 27608, "\u2581conversation": 2735, "\u2581folded": 6085, "super": 8542, "\u2581embroidery": 29192, "acci": 17177, "dee": 13957, "\u2581disciple": 20040, "\u2581confusion": 5677, "jack": 6994, "able": 579, "\u2581persist": 22084, "\u2581wink": 13513, "\u2581choice": 1837, "\u2581racing": 2179, "\u2581cherokee": 16022, "\u2581sadness": 13286, "lunk": 22033, "\u2581watch": 1455, "\u2581jurisdiction": 5254, "\u2581deux": 26590, "\u2581handheld": 27406, "\u2581optimum": 29546, "\u2581baker": 4928, "\u2581scowled": 19853, "move": 16598, "\u2581slash": 14098, "\u2581commemorate": 11696, "kli": 17833, "\u2581ruiz": 21333, "\u2581michael": 832, "\u2581pou": 21007, "minal": 21722, "\u2581regained": 12738, "\u2581tasted": 14155, "\u2581torneo": 29929, "\u2581nexus": 28674, "\u2581notwithstanding": 28177, "\u2581malacca": 28012, "\u2581white": 359, "\u2581protective": 8720, "\u2581instances": 13946, "degree": 17513, "\u2581flo": 9319, "wf": 15263, "\u2581consume": 16447, "\u2581davenport": 18704, "\u2581wigan": 17816, "\u2581rick": 4163, "\u2581millennium": 10672, "\u2581sentinel": 17117, "orn": 8771, "\u2581madhu": 23134, "\u2581roc": 11719, "sk": 3656, "\u2581filling": 7702, "\u2581richest": 21652, "\u2581wreak": 29971, "\u2581gravel": 9360, "kuh": 23321, "\u2581krypton": 28896, "referred": 28855, "\u2581bukit": 28162, "\u2581sample": 5717, "shackle": 22194, "\u2581chiba": 26879, "\u2581duluth": 28865, "\u2581egypt": 3752, "\u2581hou": 12599, "\u2581passed": 1100, "\u2581boxing": 8131, "\u2581compiling": 24378, "cock": 9549, "\u2581amazon": 8059, "\u2581harm": 5182, "\u2581250": 6774, "\u2581muller": 13824, "\u2581created": 679, "\u2581resonate": 28656, "\u2581detached": 14631, "\u2581psychologist": 13729, "\u2581conte": 23986, "\u2581elliot": 13134, "\u2581moved": 385, "\u2581serialized": 27877, "\u2581stereotype": 18296, "cra": 7519, "ec": 3319, "\u2581has": 63, "nach": 12468, "\u2581core": 2884, "bezirk": 28458, "\u2581samples": 7855, "\u2581michele": 18012, "\u2581radiation": 7862, "\u2581threats": 8791, "\u2581tri": 2286, "agni": 24697, "\u2581sui": 16645, "\u2581shook": 1347, "\u2581mcg": 10728, "\u2581tee": 10366, "chus": 13668, "\u2581verne": 24861, "\u2581suffused": 29348, "\u2581kid": 2717, "\u2581birds": 3751, "\u2581chatter": 16562, "\u2581alchemist": 25206, "\u2581hodge": 14704, "grenadier": 23777, "\u2581flanagan": 27956, "\u2581biting": 13723, "\u2581protect": 2196, "\u2581campaigns": 8433, "\u2581ferdinand": 9300, "atta": 14986, "\u2581chemicals": 14679, "\u2581saxony": 14654, "\u2581gross": 5311, "\u2581hart": 4316, "\u2581crank": 18242, "\u2581schla": 28343, "\u2581philo": 21639, "\u2581perpetual": 19375, "\u2581unter": 19269, "\u2581tony": 2513, "\u2581uefa": 5693, "\u2581metre": 12324, "\u2581norms": 20146, "\u2581differentiate": 22144, "\u2581discharge": 11389, "liya": 27010, "\u2581rebelled": 26440, "\u2581tak": 13302, "\u2581judge": 1878, "\u2581sioux": 18071, "\u2581stuttgart": 15278, "heads": 12256, "just": 2759, "\u2581raaf": 26052, "\u2581hedgehog": 29029, "\u2581elmer": 23859, "\u2581buddy": 9065, "\u2581cli": 19391, "\u2581shim": 17279, "ieri": 17611, "\u2581eroded": 25529, "\u2581ultimate": 6612, "git": 10404, "aka": 4176, "\u2581mahal": 23928, "\u2581negotiating": 21489, "command": 16239, "\u25812019": 10114, "ot": 2779, "\u2581condom": 17408, "\u2581bower": 19065, "\u2581elbows": 15618, "\u2581divide": 8918, "\u2581disappear": 10866, "\u2581smallest": 11056, "\u2581crossbow": 25663, "\u2581violence": 3300, "\u2581sterile": 27626, "alva": 19085, "\u2581ahmedabad": 28242, "eze": 20693, "1905": 17756, "\u2581miranda": 9506, "\u2581stared": 1836, "vo": 2625, "\u2581200708": 16884, "ski": 2413, "\u2581cyril": 18095, "\u2581etymology": 27469, "\u2581designate": 24124, "\u2581cinema": 3833, "\u2581endure": 19722, "\u2581hour": 1671, "\u2581immigrated": 19279, "\u2581baja": 18363, "\u2581theaters": 14627, "vascular": 19926, "\u2581universiade": 29327, "\u2581tremor": 22351, "\u2581pratap": 29009, "bjrn": 27876, "\u2581celebration": 6669, "\u2581coma": 13987, "ikh": 20388, "util": 14255, "\u2581sharp": 2641, "\u2581meng": 21425, "\u2581want": 259, "\u2581crotch": 27995, "\u2581memphis": 10122, "\u2581ranger": 12499, "leb": 16096, "\u2581beneficial": 17623, "\u2581dunbar": 23632, "\u2581headache": 14276, "\u2581scarred": 24626, "\u2581galloway": 25004, "\u2581creed": 16754, "\u2581assorted": 28542, "anta": 8639, "\u2581dans": 17592, "\u2581mile": 2037, "ji": 1616, "\u2581kidnap": 20399, "\u2581eighteen": 6787, "\u2581showcase": 11958, "\u258124,": 3025, "\u2581skye": 20067, "\u2581encompassed": 26486, "rk": 7005, "\u2581donate": 18377, "\u2581vessel": 5094, "\u2581pem": 24800, "council": 29525, "\u2581lok": 12929, "\u2581bar": 748, "\u2581brodie": 28249, "pp": 3421, "pit": 7328, "\u2581constantly": 7545, "\u2581violated": 16625, "pet": 6240, "chino": 18892, "\u2581bathtub": 29402, "\u2581streamed": 21822, "\u2581turn": 805, "\u2581piedmont": 20596, "lga": 18237, "\u2581compound": 6089, "\u2581eyebrow": 9621, "\u2581cayman": 26848, "\u2581$": 5579, "\u2581umm": 26462, "\u2581dirt": 5849, "lane": 7437, "igo": 10215, "\u2581humanities": 12282, "\u2581kangaroo": 21335, "lak": 10318, "\u2581giggling": 23892, "\u2581pitiful": 28694, "\u2581inappropriate": 17176, "ory": 7159, "\u2581sentencing": 25805, "\u2581freeway": 11078, "\u2581radcliffe": 26199, "\u2581root": 5900, "\u2581travel": 1773, "\u2581ballad": 9085, "figure": 15951, "\u25811912,": 16036, "\u2581conjecture": 20448, "\u2581scrap": 10241, "bes": 11296, "\u2581locals": 17423, "95": 3836, "\u2581portraying": 19379, "\u2581hideous": 23214, "1895": 19220, "\u2581postage": 25040, "\u2581multiplication": 25432, "\u2581wireless": 10149, "\u2581werner": 15925, "38%": 26330, "nite": 15424, "\u2581nara": 16153, "omba": 25487, "\u2581sensation": 7126, "\u2581youtube": 7330, "\u2581depends": 9597, "\u2581renew": 19975, "asia": 14245, "directional": 19393, "\u2581ronan": 21529, "\u2581ferenc": 27695, "\u2581handgun": 24877, "autobiographical": 20838, "\u2581snowboard": 25196, "\u2581rare": 2890, "\u2581protesters": 14558, "\u2581midland": 13418, "\u2581vau": 20620, "\u2581marquess": 19014, "\u2581baxter": 16753, "escens": 21171, "di": 1115, "phan": 9944, "\u2581dirty": 6121, "maid": 19251, "wat": 12801, "\u2581maximize": 23952, "458": 26704, "\u2581bedside": 21613, "\u2581fantasia": 28329, "\u2581anatolia": 22395, "\u2581choir": 4962, "ayan": 21013, "could": 13431, "madi": 23062, "\u2581settlement": 2336, "ants": 5958, "\u2581merchants": 11030, "aye": 9754, "\u2581waved": 6433, "\u2581completing": 6869, "\u2581fail": 7476, "\u2581filmfare": 28526, "\u2581there": 80, ":26": 22622, "\u2581employees": 3716, "\u2581cute": 10901, "\u2581masks": 18992, "\u2581practitioner": 21103, "\u2581fertility": 19891, "colour": 26723, "\u2581accusing": 17281, "\u2581frigid": 27779, "\u2581brand": 2209, "\u2581coward": 13818, "\u2581bosses": 24889, "\u2581mckay": 17922, "\u2581scientology": 26109, "\u2581armory": 25470, "\u2581hawaii": 6339, "\u2581rectangular": 11354, "occupancy": 29526, "\u2581nitro": 21696, "cin": 4484, "guchi": 19446, "\u2581olsen": 22355, "sov": 14933, "\u2581wrapped": 3684, "doctor": 19621, "\u2581bolted": 21601, "\u2581mai": 5300, "nose": 22626, "\u25811919": 4545, "\u2581repairs": 10695, "\u2581disagreement": 14730, "\u2581rediscovered": 27542, "\u2581hanging": 4505, "asso": 19842, "ore": 5377, "\u2581lawyers": 10073, "\u2581webber": 21470, "acanth": 23226, "\u2581begins": 2661, "guer": 8686, "ein": 12897, "\u2581qualified": 3135, "\u25811852": 10253, "\u2581compensate": 15747, "\u2581vermont": 8717, "\u2581security": 1221, "\u2581loose": 4675, "\u2581continuation": 15503, "\u2581libya": 14509, "\u2581appearing": 4870, "\u2581portfolio": 10588, "sche": 7526, "\u2581amiens": 29872, "\u2581para": 2258, "\u2581opponent": 6061, "\u2581directorial": 23905, "cau": 19433, "\u2581bird": 2838, "\u2581depended": 19961, "\u2581whisk": 20305, "ural": 10018, "\u2581bromley": 28430, "dg": 14280, "\u2581demolished": 6365, "\u2581craze": 25323, "\u2581aka": 20892, "fight": 13653, "\u2581attacks": 3080, "write": 23716, "recht": 18773, "that": 887, "\u2581pri": 4566, "strae": 13580, "\u2581airport": 1282, "\u2581gases": 18851, "\u2581consulate": 21055, "\u2581regiment": 1688, "\u2581deep": 855, "\u2581luggage": 19133, "\u2581sally": 9199, "\u2581jul": 16323, "\u2581edges": 7840, "\u2581disguised": 20446, "biology": 27656, "\u2581anthony": 3532, "\u2581confidence": 6548, "\u2581buckinghamshire": 23763, "lation": 10832, "licensed": 27273, "wich": 13583, "\u2581punched": 12953, "\u2581guys": 2776, "\u2581folder": 19294, "\u2581grove": 5695, "\u2581tossing": 17238, "\u2581colonies": 7981, "\u2581tracks": 1633, "\u2581turkish": 4170, "\u2581vertex": 22895, "\u2581kota": 19984, "rott": 19879, "\u2581sealing": 24937, "\u2581novi": 20279, "\u2581bri": 5584, "voca": 19234, "\u2581sutherland": 17712, "\u2581computer": 1428, "\u25811937": 4320, "\u2581cervical": 29243, "dem": 11546, "\u2581united": 181, "\u2581stroke": 7080, "\u258159": 7374, "\u2581scene": 1691, "\u2581lightning": 6735, "\u2581breathed": 8610, "\u2581trombone": 14199, "\u2581paid": 2192, "\u2581patches": 16359, "pilot": 17212, "\u2581import": 9010, "\u2581clam": 15786, "\u2581possibilities": 13086, "\u2581batista": 29874, "reg": 12463, "\u2581consecrated": 13205, "\u2581nicole": 9409, "\u2581excess": 9521, "\u2581tomas": 13048, "\u2581wagon": 9498, "\u2581logs": 18893, "\u2581bij": 24093, "\u2581coarse": 19809, "ama": 3812, "\u2581camilla": 27920, "\u2581disappoint": 28927, "\u2581musician": 4103, "\u2581lessons": 7870, "\u2581precipitation": 15128, "\u2581welch": 21195, "\u2581churning": 28144, "\u2581debated": 17881, "logic": 24268, "\u2581bobbie": 28157, "\u2581bills": 8958, "\u2581ditt": 28958, "\u2581reelected": 23080, "\u2581inadequate": 16296, "\u2581croatian": 8460, "\u258110": 332, "\u25815:": 7040, "amu": 18888, "\u2581wen": 10891, "\u2581ruined": 10508, "bahnhof": 28434, "\u2581agenda": 11277, "supported": 24909, "317": 22051, "\u2581croak": 25207, "\u2581cleanup": 26862, "\u2581democratic": 1778, "\u2581lucinda": 28513, "\u2581wig": 16176, "\u2581net": 4275, "\u2581palacio": 28298, "extended": 25138, "\u2581walnut": 20016, "yum": 18105, "akti": 25813, "\u2581tribe": 4518, "city": 5788, "\u2581inspector": 6517, "access": 20604, "\u2581lull": 23643, "\u2581dutt": 26703, "kram": 24223, "\u2581parted": 11645, "ulf": 13487, "\u2581extant": 14344, "\u2581stop": 747, "ix": 4028, "\u2581cheaper": 18580, "\u2581livingston": 14229, "\u2581redwood": 26015, "\u2581stealing": 12222, "\u2581parallel": 3821, "veni": 21460, "\u2581unwilling": 14905, "\u2581granite": 9604, "characterization": 23257, "\u2581solomon": 8857, "\u2581loudly": 10357, "\u2581graveyard": 19056, "served": 20697, "16%": 21782, "\u2581censorship": 19358, ":52": 21956, "end": 2451, "\u2581emigrated": 12206, "naw": 19453, "\u2581delphi": 23030, "\u25811783": 19614, "\u2581janus": 25664, "\u2581argentina": 4491, "\u2581potatoes": 16743, "\u2581caliph": 22317, "\u2581acids": 15208, "\u2581psychiatric": 15903, "0": 387, "\u2581helping": 3713, "\u2581edmond": 16952, "\u2581nmi": 25053, "\u2581ego": 12784, "1866": 24490, "\u2581packet": 12795, "\u2581genetic": 6211, "\u2581anatomy": 14994, "\u2581troll": 12782, "jeong": 23990, "\u2581scoring": 3139, "\u2581namely": 8525, "uddin": 13503, "\u2581theyre": 9167, "\u2581teens": 15823, "\u2581forcefully": 25830, "\u2581hove": 22353, "\u2581benefice": 29828, "kha": 5846, "\u2581katie": 10436, "oga": 12658, "\u2581guiding": 17273, "\u2581applying": 11989, "primary": 29584, "\u2581utility": 10082, "lack": 16573, "\u2581espana": 24469, "\u2581malicious": 24231, "85": 3058, "cola": 9372, "\u2581casey": 9044, "bright": 17069, "\u2581kyrgyzstan": 24706, "\u2581dividing": 18542, "\u2581tipping": 27631, "magazine": 27605, "\u2581$5,000": 27564, "34": 3965, "\u2581reflection": 9138, "\u2581telecom": 18712, "\u2581attic": 14853, "\u2581fraud": 9531, "\u2581ernie": 17387, "\u2581bolivian": 27000, "\u2581flemish": 18829, "\u2581cas": 7167, "\u2581buena": 23923, "\u2581livery": 20600, "144": 13365, "range": 8366, "\u2581stubborn": 13011, "\u2581silhouette": 19263, "itt": 10108, "\u2581middleton": 20359, "hof": 7693, "\u2581training": 838, "\u2581lev": 9183, "\u2581asthma": 26719, "\u2581podcast": 15124, "\u2581rearview": 28591, "gama": 15847, "\u2581sting": 8210, "\u2581sunken": 26004, "\u25811777": 19636, "\u2581il": 6317, "\u2581insect": 12510, "\u2581tessa": 14580, "\u2581warbler": 28574, "\u2581belt": 3373, "\u2581hoarse": 19509, "\u2581theory": 1639, "\u2581revenge": 6299, "\u2581integrating": 24529, "\u2581suffered": 2537, "\u2581partially": 5933, "\u2581murky": 29550, "\u2581variety": 1747, "vala": 19150, "iana": 8261, "\u2581subgenus": 27074, "escence": 22121, "\u2581ears": 4383, "\u2581willie": 10977, "\u2581fu": 2916, "\u2581faisal": 27199, "horn": 5554, "1923": 14310, "\u2581taipei": 16035, "giu": 20548, "\u2581tijuana": 29626, "stress": 16437, "59": 3902, "\u2581ski": 7185, "\u2581additional": 1351, "\u2581mysterious": 6896, "\u2581cramer": 29056, "\u2581gage": 10423, "\u2581due": 397, "\u2581manoeuvre": 27874, "hf": 18526, "\u2581valve": 11291, "er": 106, "\u2581egyptian": 5387, "rey": 6454, "\u2581125": 9917, "ranger": 21187, "trans": 7028, "\u2581landfall": 22846, "\u2581recovery": 6550, "\u2581reprised": 25459, "pour": 18383, "residence": 27454, "\u2581damien": 14100, "\u2581kelvin": 25399, "\u25811890": 4650, "\u2581dissolution": 13342, "\u2581passing": 2848, "eren": 16695, "\u2581acacia": 26386, "\u2581exploration": 8284, "\u2581brace": 15646, "\u2581borrowing": 24261, "historical": 24783, "\u2581linden": 20692, "\u2581applicants": 19470, "\u2581reached": 664, "\u2581periods": 7302, "\u2581joy": 4512, "\u2581sherlock": 22815, "\u2581digits": 19076, "\u2581signify": 24802, "182": 11105, "\u2581miner": 20086, "\u2581planted": 8272, "sse": 9557, "\u2581rosie": 17811, "\u2581outline": 11160, "\u2581north": 200, "\u2581hus": 7734, "\u2581centennial": 17697, "\u2581socialism": 17193, "\u2581stress": 5384, "mov": 15146, "\u2581dealing": 5746, "\u2581stove": 15426, "ucker": 16567, "\u2581merri": 16148, "\u2581euler": 28027, "turkish": 17981, "\u2581figures": 2957, "\u2581kamen": 20160, "\u2581cortes": 22711, "\u2581sketches": 14714, "\u2581race": 764, "rava": 16481, "\u2581feat": 9806, "\u2581darkened": 15652, "\u2581procession": 13123, "video": 14785, "\u2581representative": 2652, "finalist": 22754, "\u2581trav": 23773, "\u2581sexual": 2833, "\u2581illegitimate": 20933, "\u2581swirled": 21446, "\u2581evangelical": 11618, "hedron": 23944, "\u258112": 390, "\u2581cornelius": 21145, "\u2581cinnamon": 24180, "\u25811855": 9620, "\u2581bands": 4137, "\u2581transactions": 13147, "\u2581winston": 10678, "\u2581shouldn": 5714, "hen": 6077, "establish": 22842, "feat": 16492, "clockwise": 21767, "\u2581grin": 3693, "\u2581lavish": 20707, "\u2581erase": 23593, "\u2581preschool": 23772, "\u2581trapping": 22444, "\u2581outrage": 20677, "\u2581summed": 29089, "\u2581kev": 24917, "gio": 5449, "\u2581reign": 3897, "\u258158": 7216, "\u2581mclaren": 20895, "\u2581punishment": 6468, "ana": 1629, "\u2581armies": 8391, "\u2581replication": 23841, "fc": 7061, "\u2581seventh": 3774, "\u2581maze": 14576, "\u2581apical": 27628, "\u25811914": 4656, "\u2581examination": 7335, "\u2581loaned": 15010, "\u2581peyton": 20338, "mates": 8977, "\u2581spoiled": 22782, "\u2581gymnasium": 12246, "\u2581warm": 2059, "\u2581highlighting": 23102, "\u2581probable": 17788, "\u2581medina": 18351, "\u2581wright": 5032, "\u2581exceeding": 15491, "\u2581grandmaster": 26487, "\u2581syl": 10993, "ean": 5609, "\u2581synonym": 9344, "\u2581alcove": 29211, "\u2581leeds": 7555, "\u2581grandparents": 16630, "\u2581expo": 13443, "\u2581greenland": 17496, "\u2581matrices": 24849, "infested": 28777, "\u2581opinions": 11900, "\u2581apprehension": 26526, "\u2581knight": 3222, "\u2581opened": 520, "\u2581granada": 20204, "289": 25139, "drift": 25525, "\u2581rented": 13676, "\u2581aquifer": 29351, "\u2581humanoid": 26339, "\u2581expansion": 3233, "\u2581mediterranean": 6502, "\u2581puzzled": 17033, "\u2581pc": 5168, "\u2581twist": 7844, "\u25811954,": 12446, "\u2581quorum": 29744, "\u2581kathmandu": 28823, "\u2581surfaces": 11569, "\u2581vulgar": 23445, "alexander": 27231, "hari": 10075, "ched": 6261, "\u2581february": 409, "\u2581reasons": 2932, "inae": 10944, "\u25817": 453, "\u2581electricity": 5592, "\u2581just": 114, "\u2581reyes": 14225, "\u2581adventures": 6710, "\u2581faith": 3101, "\u2581blinding": 21338, "\u2581sal": 3263, "!": 187, "hub": 20926, "\u2581meteorologist": 29653, "1950": 8439, "48%": 25586, "\u2581downstream": 14658, "\u2581plank": 15953, "fab": 14364, "\u2581sparked": 15901, "\u2581cheshire": 15926, "\u2581summers": 13842, "\u2581proposals": 10869, "\u2581portrays": 19871, "\u2581gill": 5667, "\u2581rwanda": 17247, "hearted": 13936, "\u2581alfred": 5026, "\u2581lineup": 10814, "\u2581bugs": 13925, "\u2581evangel": 17645, "\u2581$30": 18149, "ratt": 18779, "\u2581occupants": 21281, "\u2581larson": 23054, "\u2581rutland": 28819, "\u2581sasha": 16050, "kashi": 22940, "bro": 5069, "352": 26225, "\u2581fundamental": 6377, "\u2581investments": 11451, "\u2581malice": 28888, "\u2581neo": 4368, "\u2581indicating": 7950, "lici": 16927, "\u2581torpedoes": 21413, "distributed": 29060, "\u2581densely": 21568, "nny": 13207, "\u2581giant": 3558, "\u2581mac": 1572, "1725": 26846, "\u2581satya": 21959, "\u2581shipped": 12991, "\u2581gottfried": 27575, "ler": 1252, "\u2581insulting": 26461, "\u2581depicts": 12076, "\u2581erin": 11988, "\u2581loeb": 27927, "\u2581son": 433, "\u2581ascent": 17142, "\u2581saw": 441, "\u2581establishes": 22753, "xy": 15161, "\u2581eureka": 24081, "\u2581irregularities": 28111, "\u2581parrot": 18329, "\u2581venues": 9771, "\u2581rose": 1092, "\u2581definite": 17524, "\u2581diamonds": 13010, "\u2581banjo": 18466, "\u2581beaux": 22805, "\u2581archery": 24334, "\u2581kum": 14460, "\u2581hor": 4523, "\u2581boot": 6801, "\u2581element": 4520, "\u2581kidnapped": 12342, "\u2581maintains": 9767, "\u2581disappears": 20341, "\u2581financial": 1553, "\u2581yawn": 17356, "\u2581consumers": 10932, "\u2581repository": 24869, "\u2581duke": 1946, "bred": 21123, "\u25811889": 6500, "hit": 10242, "248": 24135, "\u2581handy": 20277, "\u2581possesses": 16820, "\u2581petra": 19335, "\u2581merry": 14362, "\u2581scrutiny": 19966, "\u2581maestro": 26045, "ong": 3279, "\u2581terrace": 8859, "ink": 14543, "\u2581echoed": 10848, "\u2581magni": 20587, "\u2581die": 1327, "\u2581vicky": 24452, "true": 13398, "\u2581smirk": 13243, "\u2581supported": 1827, "\u2581ladder": 9864, "\u2581indicates": 6475, "\u2581tatum": 27493, "\u2581naive": 16288, "\u2581nj": 14481, "\u2581allotment": 27781, "don": 804, "\u2581message": 2802, "\u2581trusted": 9968, "\u2581canberra": 14015, "\u2581cargo": 5570, "\u2581details": 3289, "success": 29245, "\u2581cummins": 29898, "\u2581recollection": 23595, "car": 1367, "1937": 11426, "compliant": 25509, "\u2581buddhist": 7012, "\u2581customs": 7999, "ech": 7455, "\u2581individually": 16579, "determination": 27843, "center": 12641, "\u2581flanders": 15784, "\u2581augment": 23614, "\u2581battista": 29197, "\u2581independently": 9029, "lst": 24239, "\u2581multiple": 1886, "imagine": 29377, "bak": 13344, "\u2581koch": 12148, "bank": 5366, "\u2581subterranean": 28747, "\u2581event": 807, "walking": 25002, "\u2581backup": 10119, "\u2581rhino": 18642, "beek": 28703, "\u2581expenditure": 15941, ":31": 23659, "vfl": 15041, "\u2581speeds": 13261, "\u2581councils": 15914, "south": 5571, "\u2581simpler": 19120, "\u2581chopin": 27135, "\u2581thoroughfare": 27471, "\u2581archivist": 29990, "\u2581balcony": 12319, "adda": 24535, "rhin": 21882, "\u2581bridge": 955, "emon": 18062, "\u2581shiv": 23323, "\u2581hazy": 27538, "\u2581whispers": 11998, "\u2581nuevo": 23433, "lender": 21607, "\u2581unable": 2343, "\u2581drummond": 20547, "blood": 11262, "\u2581tie": 3795, "\u2581consultant": 7381, "\u2581henson": 27674, "\u2581navigation": 8368, "\u2581smirked": 21638, "1837": 27723, "\u2581philanthropist": 16746, "\u2581abnormalities": 28109, "116": 11343, "ww": 14178, "\u2581emission": 18609, "-": 8, "\u2581hamburger": 24526, "gupta": 17055, "\u2581simulation": 10926, "ging": 2762, "\u2581constituted": 12938, "wo": 6374, "\u2581simi": 22367, "\u2581valuation": 25143, "\u2581ostensibly": 26869, "\u2581upbringing": 25708, "tin": 2864, "\u2581erskine": 27516, "\u2581shroud": 29102, "\u2581baz": 19674, "\u2581angry": 3365, "\u2581sheldon": 22349, "rab": 13585, "\u2581mick": 9155, "50,000": 10274, "\u2581complicated": 8343, "\u2581walk": 1466, "mike": 23870, "\u2581halifax": 11263, "tachi": 18695, "jac": 17920, "\u2581refusal": 15401, "1857": 26714, "\u2581hector": 11316, "\u2581uni": 9911, "\u2581dispersion": 28806, "\u2581playoff": 7233, "\u2581heli": 20514, "\u2581eucharist": 27439, "bird": 8490, "\u2581deflection": 29322, "\u2581upright": 10395, "\u2581michal": 26450, "\u2581impeachment": 28728, "\u2581application": 3010, "\u2581bubble": 10937, "\u2581spielberg": 28543, "\u2581private": 932, "\u2581antonia": 25288, "\u2581hud": 20527, "\u2581secretariat": 17190, "\u2581frustrating": 25568, "\u2581sugarcane": 29137, "525": 24371, "\u2581trot": 18537, "\u2581manner": 3832, "engage": 23498, "\u2581schumacher": 24870, "\u2581relax": 9738, "\u2581tigre": 29082, "lux": 9452, "\u2581headlights": 21538, "\u2581garth": 24133, "\u2581spade": 19606, "\u2581mildly": 23044, "121": 12586, "\u2581brigham": 25007, "\u2581adultery": 28797, "385": 22952, "\u2581chassis": 13145, "\u2581establishing": 6814, "frame": 8361, "\u2581view": 1418, "acre": 5569, "\u2581meant": 1380, "\u2581blonde": 8603, "\u2581munster": 11402, "\u2581quill": 22441, "hazar": 22961, "\u2581gunn": 15871, "\u2581staggering": 27287, "screen": 7187, "\u2581encounters": 12550, "\u2581generic": 12733, "ng": 2723, "\u2581april": 327, "\u2581defended": 7584, "\u2581archdeacon": 21287, "\u2581wouldn": 1265, "\u2581braz": 23824, "\u2581smell": 3408, "\u2581folio": 25927, "70": 3318, "\u2581kentucky": 4425, "\u2581agnes": 11776, "orient": 9712, "\u2581forthcoming": 19978, "bara": 13259, "\u2581navigate": 20782, "kaj": 25013, "zov": 19889, "\u2581ensign": 20699, "cry": 14024, "wl": 10077, "\u2581armenian": 6638, "\u2581sexuality": 15083, "\u2581hebrew": 7438, "\u2581mitt": 22318, "\u2581rae": 14052, "emphasize": 19051, "sten": 11248, "\u2581coffee": 2364, "performed": 24915, "\u2581rave": 20704, "\u2581arrows": 13912, "\u2581mathew": 17677, "hay": 12622, "\u2581lebanese": 13879, "\u2581pereira": 25871, "\u2581frederik": 23463, "\u2581durga": 25797, "\u2581forged": 19377, "\u2581commonwealth": 4424, "rash": 15469, "\u2581reversing": 28829, "\u2581gluco": 18442, "\u2581machines": 6035, "\u2581tries": 3919, "vaux": 27132, "\u2581colli": 19830, "\u2581al": 493, "\u2581amphi": 22667, "\u2581states": 202, "\u2581emergence": 16545, "cortic": 27314, "itic": 14652, "\u2581opium": 24539, "\u2581teodor": 29875, "fruit": 24302, "\u2581jeep": 14270, "pol": 7332, "\u2581website": 2271, "\u2581newmarket": 24646, "\u2581violin": 5492, "\u2581renewable": 15805, "\u2581exclaim": 28316, "\u2581deflect": 22057, "\u25811945": 2403, "\u2581narration": 23135, "\u2581mid": 907, "\u2581paved": 13995, "\u2581dorn": 22081, "\u2581lourdes": 29557, "strasse": 28762, "\u2581adoption": 10004, "\u2581prix": 4133, "posthumous": 21031, "\u2581ordered": 1905, "\u2581cites": 20036, "\u2581thought": 289, "\u2581jalan": 25669, "\u25811846": 10523, "\u2581jacobs": 12174, "\u2581assimilation": 28416, "\u2581infancy": 24530, "/4": 13722, "bei": 11736, "eria": 9605, "\u2581renato": 29247, "\u2581autobiography": 11591, "\u2581glide": 15501, "\u2581something": 301, "\u2581evil": 3215, "\u2581motor": 2586, "\u2581zebra": 25011, "\u2581scro": 26953, "\u2581keys": 5534, "\u2581incidents": 11516, "\u2581psycho": 8652, "\u2581infuriated": 28808, "mac": 6893, "1887": 22184, "chapter": 27396, "\u2581kaladin": 25662, "\u2581sources": 2662, "\u2581crisis": 4043, "\u2581authority": 1959, "\u2581geological": 9517, "\u2581avid": 19613, "world": 4423, "\u2581luxembourg": 11155, "\u2581boredom": 29207, "\u2581ethanol": 25790, "\u2581malcolm": 8913, "marriage": 23768, "themed": 17794, "\u2581sub": 972, "\u2581profits": 13087, "modul": 19673, "shift": 14157, "\u2581raiders": 11341, "\u2581madhya": 20264, "qiao": 28355, "\u2581accommodate": 7162, "\u2581antioch": 17874, "\u2581thyroid": 27991, "\u2581crumble": 23613, "\u2581browning": 21556, "\u2581eat": 2749, "\u2581scattered": 7471, "\u2581shoes": 5028, "\u2581instance": 4851, "\u2581militant": 19542, "\u2581berlin": 2296, "broadcast": 24162, "\u2581clock": 4229, "2007": 2727, "pas": 11722, "\u2581correlate": 28100, "\u2581muhammad": 6191, "\u2581suc": 21792, "\u2581policemen": 22928, "\u2581satisfactory": 25549, "tum": 5633, "layer": 15187, "99": 3483, "\u2581destruction": 5203, "\u2581ordained": 9414, "\u2581henderson": 9415, "\u2581walks": 7423, "\u2581isles": 18248, "\u2581otherwise": 3190, "\u2581mixtape": 19344, "\u25811841": 11879, "\u2581koji": 27130, "\u2581project": 669, "\u2581minimize": 16713, "\u2581undesirable": 29030, "\u2581beginning": 997, "zz": 5092, "\u2581servers": 17595, "\u2581bump": 9797, "\u2581jensen": 17648, "\u2581cards": 4092, "\u2581nowadays": 15694, "\u2581larkin": 25984, "\u2581elaborate": 7541, "\u2581services": 687, "\u2581acting": 2180, "\u2581butter": 8270, "uge": 13054, "\u2581damp": 8159, "hp": 12491, "than": 7230, "\u2581chronological": 22075, "\u2581geraldine": 28167, "\u2581pools": 15230, "\u2581hostile": 10690, "\u2581whose": 1196, "\u258138": 4158, "\u258155": 5330, "\u2581pixel": 18146, "\u25811913": 5507, "\u2581hay": 4301, "\u2581abstract": 8502, "shock": 19353, "\u2581lending": 21750, "\u2581hutton": 23730, "\u2581distal": 28610, "isomer": 26550, "\u2581vital": 6411, "\u258156": 6171, "\u2581ultimately": 3308, "\u2581dangling": 21849, "\u2581panting": 17733, "\u2581morris": 5021, "\u2581uruguayan": 25291, "\u2581mom": 1641, "kreis": 18825, "\u2581pop": 1675, "\u2581famous": 1561, "\u2581daylight": 12344, "\u2581complications": 14030, "\u2581looked": 292, "bai": 10872, "swiss": 22808, "pheno": 26256, "\u2581knowing": 2506, "\u2581roles": 2954, "a": 58, "\u2581stall": 8837, "\u2581adds": 10621, "\u2581crusaders": 22222, "\u2581sze": 18409, "\u2581assessing": 22822, "\u2581shifter": 14496, "\u2581smyth": 22742, "\u2581upstairs": 8891, "\u2581rock": 629, "hang": 7065, "capacitor": 24563, "gong": 20643, "meaning": 14466, "\u2581elgin": 25198, "ziel": 26652, "\u2581arvi": 28452, "\u2581isnt": 8441, "\u2581stabilize": 16890, "\u2581aarhus": 28364, "\u2581lethal": 14454, "\u2581misery": 17195, "setting": 19831, "\u2581authorization": 22677, "everyone": 20776, "jimmy": 27746, "phra": 13314, "gruber": 29659, "burgh": 9480, "\u2581patents": 16676, "weather": 18924, "trade": 19878, "\u2581waiver": 23615, "\u2581spot": 1999, "\u2581favorably": 27629, "\u2581stating": 4177, "\u2581manor": 5493, "wai": 18438, "\u2581intensified": 17903, "\u2581unequal": 26961, "\u2581edited": 4802, "\u2581kun": 8507, "rana": 11197, "\u2581resort": 4765, "compatible": 20049, "1898": 19687, "function": 22359, "\u2581vail": 28375, "dama": 19349, "burg": 3015, "\u2581wednesday": 8885, "\u2581baggage": 22138, "\u2581argus": 26755, "\u2581seduce": 17179, "\u2581suite": 6160, "\u2581proprietary": 18856, "\u2581barren": 19972, "works": 7684, "\u2581papers": 3747, "\u2581jess": 9900, "\u2581ruby": 10811, "\u2581geometridae": 27256, "liffe": 25740, "\u2581welcoming": 21734, "lani": 15945, "\u2581counselor": 16011, "\u2581businessmen": 19881, "lobo": 16179, "\u2581narayan": 20616, "vour": 23739, "gran": 23192, "\u2581traveled": 5082, "ulation": 11123, "\u2581hotspur": 27394, "iva": 6094, "\u2581breed": 7783, "\u2581ethiopia": 12126, "\u2581fined": 20397, "\u2581savings": 12135, "\u2581warships": 17762, "\u2581inhabited": 10099, "\u2581grasshopper": 26024, "\u2581actor": 1574, "\u2581highness": 19885, "\u2581pant": 12326, "\u2581colonization": 22365, "\u2581palisade": 28914, "\u2581creole": 22303, "\u2581charlotte": 4420, "\u2581madrigal": 29558, "\u2581few": 310, "eau": 5954, "\u2581compartment": 13083, "\u2581implied": 14719, "\u2581receptor": 11997, "\u2581observance": 27217, "\u2581screen": 2324, "\u2581kitty": 16758, "\u2581belfast": 10951, "\u2581auction": 8057, "\u2581gan": 7890, "\u2581gasped": 8403, "nya": 13165, "\u2581jointly": 11860, "\u2581reprinted": 15815, "\u2581junction": 3423, "\u2581categories": 6422, "\u2581griffin": 8931, "\u2581meal": 7242, "\u2581blades": 11397, "\u2581launcher": 19755, "\u2581cling": 24264, "uk": 2185, "\u2581celebrities": 13937, "\u2581archipelago": 15311, "location": 19032, "\u2581modules": 17113, "\u2581stairway": 22687, "misunderstanding": 21558, "\u2581ford": 7905, "\u2581indigenous": 5306, "ste": 6100, "\u2581austria": 3848, "opol": 21982, "480": 16318, "\u2581creators": 20638, "\u2581progression": 16283, "\u2581bron": 9781, "\u2581matthias": 20351, "\u2581transcribed": 27761, "lma": 19073, "\u2581stepped": 1973, "\u2581trickle": 19640, "\u2581nam": 8274, "\u2581futsal": 25897, "\u2581terribly": 19629, "\u2581museum": 774, "\u2581may": 123, "\u2581dissect": 27894, "96": 4060, "\u2581stages": 4891, "\u2581afternoon": 3435, "\u2581snow": 2224, "\u2581palestine": 9030, "\u2581pandit": 26896, "\u2581augustine": 15431, "pr": 4899, "\u2581guarded": 15459, "\u2581collaborate": 19884, "pris": 15839, "ter": 815, "\u2581cleo": 25172, "\u2581brennan": 15944, "359": 27295, "\u2581suck": 8466, "federal": 28269, "\u2581trab": 28320, "such": 4289, "\u2581quotes": 18901, "\u2581concert": 2254, "\u2581backseat": 23440, "1850": 23842, "\u2581despair": 14455, "rocket": 22950, "sharp": 23646, "gura": 24232, "\u2581rhea": 26306, "\u2581soft": 1856, "\u2581jar": 5112, "\u2581banking": 8350, "\u2581picking": 7833, "digit": 23904, "\u2581argyle": 27620, "\u2581reception": 6961, "\u2581perkins": 15385, "lo": 1415, "\u2581reaction": 3006, "\u2581amateur": 3852, "\u2581grinned": 6083, "\u2581realizing": 9308, "\u2581oswald": 18322, "\u2581authoritarian": 26819, "21%": 25515, "ammonium": 29422, "\u2581exterior": 8358, "nella": 20278, "\u2581contracts": 8712, "agog": 29997, "\u2581curtains": 17097, "\u2581donated": 5872, "\u2581songwriting": 16049, "occi": 19767, "\u2581promotional": 10746, "\u2581caballero": 29915, "\u2581carey": 12751, "lower": 17591, "\u258130": 712, "\u2581album": 244, "\u2581collision": 11319, "\u2581scenario": 12705, "\u2581eton": 23617, "\u2581whisper": 6128, "\u2581conifer": 25798, "\u2581come": 340, "\u2581ideal": 5628, "\u2581churchyard": 21737, "ath": 8383, "\u2581scud": 26757, "\u2581ecstasy": 21833, "\u2581northwest": 3074, "\u2581nationwide": 9218, "\u2581obscured": 25543, "\u2581sharia": 26270, "\u2581anymore": 3375, "\u2581sparsely": 27281, "\u2581cultures": 9064, "\u2581introducing": 11442, "bodied": 24166, "\u2581leopold": 12010, "\u2581sword": 2960, "pana": 14886, "\u2581franciscan": 18496, "puram": 16886, "\u2581unravel": 24597, "\u2581tourism": 5969, "beautiful": 20529, "5:1": 28224, "\u25811930": 2215, "\u2581running": 946, "tani": 10606, "\u2581leinster": 18333, "gai": 13210, "\u2581adolescent": 17051, "\u2581mop": 22352, "yal": 14396, "celi": 23799, "\u2581qualifies": 29530, "polynesian": 29253, "\u2581nikola": 14569, "hatta": 29130, "\u2581breach": 9333, "\u2581hardly": 5943, "\u2581rican": 13983, "\u2581musk": 17332, "\u2581make": 233, "\u2581oasis": 21494, "\u2581northwestern": 7341, "\u2581defects": 21747, "\u2581stan": 5367, "ode": 8355, "\u2581bricks": 17285, "brahm": 19500, "241": 21658, "\u2581tomasz": 28919, "rien": 12262, "357": 23569, "year": 731, "\u2581copp": 18202, "\u2581conceive": 28831, "\u2581accordingly": 12932, "reason": 24793, "oma": 4955, "\u2581crusader": 27070, "\u2581internship": 21549, "\u2581hiring": 16867, "\u2581mentor": 7656, "\u2581pirates": 8038, "\u2581plausible": 26453, "\u2581mural": 10232, "\u2581boiler": 11755, "glen": 24308, "\u2581temper": 11617, "\u2581insanity": 21504, "\u2581consisting": 4160, "\u2581temperance": 25351, "\u2581stanisaw": 26566, "compa": 18415, "\u2581estrada": 27577, "\u2581lexical": 29180, "\u2581britten": 27946, "\u2581significance": 7294, "\u2581arctic": 10945, "\u2581neighborhood": 3548, "\u2581signaling": 17214, "\u2581rhode": 9653, "\u2581gha": 14916, "\u2581badge": 8715, "\u2581citroen": 29590, "nl": 10651, "\u2581oval": 8909, "\u2581worthy": 14358, "\u2581mutual": 7643, "\u2581archived": 10692, "\u2581flowed": 15651, "\u2581epidemic": 16583, "\u2581petals": 18253, "\u2581sud": 9680, "\u2581control": 569, "witz": 16651, "ingen": 10180, "gah": 20858, "\u2581ebook": 26751, "\u2581airing": 11178, "\u2581beside": 2113, "\u2581por": 5156, "electronic": 22641, "atic": 12479, "\u2581dortmund": 24772, "erie": 8337, "840": 25137, "\u2581galveston": 27618, "\u2581roscoe": 29224, "\u2581protocol": 8494, "\u2581intercepted": 18990, "350": 15978, "\u2581rolled": 2958, "\u2581ptolemy": 25987, "\u2581irritated": 18033, "\u2581#10": 27122, "\u2581monsoon": 20608, "\u2581iqbal": 28714, "\u2581viol": 23634, "\u2581hopeless": 18846, "\u2581busy": 4394, "\u2581commandant": 17318, "\u2581backpack": 12672, "\u2581eu": 2898, "\u2581deutsche": 11176, "kyung": 27296, "vak": 22467, "\u2581competes": 16864, "\u2581names": 1817, "\u2581price": 2162, "\u2581minister": 789, "\u2581tempest": 23677, "\u2581bounced": 15035, "opter": 20455, "\u2581sikkim": 29078, "hydrate": 23673, "els": 6798, "\u2581regards": 14179, "\u2581greene": 11778, "\u2581hospitality": 18110, "\u2581leg": 1860, "\u2581offensive": 4632, "\u2581matters": 4556, "\u2581siblings": 9485, "faith": 23746, "\u2581distributor": 14053, "\u2581shaved": 23424, "anca": 22326, "297": 25901, "\u2581ruh": 26113, "obli": 19744, "\u2581centimeters": 20481, "\u2581stalled": 23863, "\u2581fireplace": 13811, "\u2581legislative": 3447, "australia": 23872, "\u2581investors": 9241, "\u2581saunders": 17087, "\u2581kuk": 24158, "\u2581house": 191, "\u2581eva": 6805, "mea": 15052, "\u2581explains": 7346, "\u2581builder": 14960, "\u2581combine": 12287, "lakshmi": 16662, "\u2581slightest": 18559, "\u2581morgue": 29279, "monopol": 25959, "\u2581festivities": 23611, "\u2581surfaced": 18750, "\u2581cartridge": 12873, "kenne": 22445, "\u2581query": 25597, "moral": 17364, "\u2581chlorine": 29121, "\u2581rasmussen": 29387, "\u2581approval": 4988, "\u2581confinement": 23621, "lia": 4401, "\u2581cir": 14531, "\u2581johannesburg": 19000, "\u2581glorious": 15206, "\u2581kathleen": 17008, "\u2581parks": 6450, "vina": 14072, "\u25811979": 2188, "\u2581nano": 10371, "pole": 9100, "\u2581opined": 26545, "fort": 6469, "\u2581handball": 13164, "\u2581oral": 9144, "\u2581alejandro": 19448, "\u2581sought": 3477, "total": 20148, "\u2581socially": 16482, "\u2581spurred": 25230, "\u2581cleaner": 19585, "\u2581withdraw": 10664, "\u2581mhz": 12006, "pass": 6201, "\u2581increasing": 3425, "381": 25507, "\u2581mischief": 27034, "paint": 20578, "\u2581reissued": 17858, "\u2581corporation": 2103, "\u2581alternate": 4912, "headed": 7690, "ija": 9603, "ener": 17802, "\u2581nocturnal": 26053, "\u2581hulk": 15488, "49": 3624, "\u2581gi": 4100, "\u2581viking": 14312, "\u2581deviate": 29894, "\u2581rain": 1938, "\u2581marsh": 7768, "5/": 10551, "\u2581producers": 5836, "\u2581isabelle": 16080, "represented": 28628, "\u2581surprising": 12891, "gi": 2234, "\u2581races": 2312, "\u2581allow": 1655, "bot": 6813, "\u2581napkin": 20398, "\u2581smile": 957, "\u2581america": 740, "\u2581conceived": 10897, "isse": 11001, "\u2581chosen": 2519, "\u25811983": 2082, "\u2581pretext": 28850, "\u2581ecuador": 11259, "\u2581champagne": 14583, "\u2581tribunal": 11703, "\u2581overlook": 20930, "\u2581fuscous": 22552, "\u2581switching": 13027, "1,100": 21884, "171": 16215, "\u2581courses": 4392, "\u2581shrine": 7772, "omi": 8560, "\u2581nobility": 12436, "studio": 21026, "\u2581feedback": 13111, "\u2581doubled": 12919, "\u25812016,": 1812, "lton": 7141, "\u2581tiffany": 17106, "\u2581meteor": 17522, "\u2581hai": 8349, "ribo": 23421, "\u2581jolie": 29214, "\u2581europe": 1002, "\u2581breakdown": 13369, "\u2581tierney": 27361, "\u2581strongly": 5020, "\u2581subdistrict": 26269, "\u2581akademi": 25698, "pli": 15540, "\u2581doorstep": 26360, "\u2581requirements": 4786, "\u2581haynes": 22879, "ento": 17050, "\u2581gemma": 22361, "\u2581disbanded": 8569, "\u2581martinez": 10867, "id": 1340, "against": 24559, "\u2581mae": 7361, "hra": 7475, "\u2581assemblage": 28559, "\u2581taxation": 17331, "\u2581films": 1491, "\u2581contains": 1588, "igne": 14486, "af": 2565, "\u2581magnus": 9848, "\u2581installing": 25429, "\u2581graves": 8770, "\u2581corpus": 15482, "\u2581screw": 8513, "\u2581bavarian": 17463, "icular": 17996, "\u2581pra": 3865, "\u2581residents": 2175, "\u2581shapes": 12129, "autonom": 23175, "\u2581erection": 15511, "\u2581fortuna": 25776, "\u2581info": 15404, "\u2581disastrous": 18678, "\u2581slovenia": 11279, "\u2581copies": 3298, "\u2581democrat": 6456, "\u2581retreating": 20191, ".": 9, "\u2581coerce": 29769, "\u2581arrangement": 5497, ":57": 21770, "\u2581americas": 13501, "nes": 2696, "hopper": 16700, "alexandr": 22962, "\u2581pis": 15197, "\u2581rooted": 19148, "husband": 24160, "\u2581bai": 9563, "\u2581deserves": 19829, "previously": 17603, "\u2581green": 647, "\u2581bestowed": 19826, "\u2581cradle": 19935, "corn": 8559, "\u2581cambrian": 29100, "70%": 13040, "\u2581bhopal": 29255, "\u2581prosper": 18729, "\u2581reform": 3202, "\u2581setback": 23149, "\u2581compassion": 17652, "hau": 11729, "ono": 9835, "\u2581patent": 6316, "\u2581policies": 4845, "\u2581curved": 9279, "\u2581spatial": 14472, "\u2581skeleton": 11714, "orie": 22290, "\u2581wood": 1370, "something": 9099, "hila": 18439, "\u2581ivanov": 20018, "\u2581fairies": 23678, "\u2581expression": 1803, "\u2581thug": 17349, "\u2581stag": 13841, "amp": 10158, "\u2581gameplay": 11946, "\u2581tumbled": 21105, "\u2581spiders": 16235, "\u2581plugged": 29039, "\u2581car": 349, "\u2581alcoholic": 16360, "\u2581diagram": 14161, "\u2581mathias": 22959, "\u2581based": 432, "fasc": 27445, "\u2581objective": 7038, "3,300": 29980, "\u2581enact": 25413, "\u2581bowl": 2557, "\u2581millions": 11999, "\u2581autopsy": 26067, "\u2581trees": 1913, "\u2581halftime": 25248, "242": 22308, "\u2581skit": 19534, "\u2581fugue": 28805, "sh": 1635, "ut": 1982, "oon": 5709, "\u2581shivering": 22589, "\u2581portland": 5744, "\u2581scowl": 16129, "\u2581sail": 6913, "\u2581kodak": 28412, "in": 108, "\u2581later": 138, "jian": 13283, "\u2581ignition": 20583, "\u2581dilemma": 23314, "\u2581scr": 15879, "\u2581irving": 13861, "\u2581graphic": 8479, "\u2581munro": 19993, "\u2581served": 423, "0%": 3621, "\u2581kn": 6209, "\u2581loki": 25908, "\u2581pavement": 15249, "\u2581assault": 4360, "\u2581quoting": 28146, "\u2581lucia": 13573, "\u2581spat": 11880, "roll": 8694, "\u2581traces": 10738, "\u2581aviv": 13969, "\u2581waived": 18018, "nj": 15773, "\u2581breaking": 3892, "\u2581ganga": 23738, "\u2581seek": 5048, "\u2581blend": 11138, "\u2581ramos": 19974, "\u2581ingredients": 14129, "\u2581quicker": 21927, "\u2581clinch": 24471, "\u2581sink": 6046, "\u2581figurative": 27668, "\u2581meaning": 1813, "\u2581defective": 28654, "\u2581procedures": 8876, "\u2581shepard": 24585, "\u2581littered": 26851, "\u2581estimate": 10243, "\u2581smack": 17417, "cellular": 25886, "\u2581dissent": 16412, "\u2581maccabi": 24776, "\u2581rotate": 21448, "\u2581dev": 9664, "\u2581silently": 8555, "beck": 9141, "\u2581channels": 6328, "\u2581choices": 10978, "\u2581happily": 12356, "\u2581higgins": 15851, "\u2581chinese": 1116, "\u2581heavily": 2991, "\u2581ryo": 21393, "\u2581demetrius": 28569, "1935": 11423, "\u2581electromagnetic": 19833, "\u2581earnest": 16825, "\u2581mcdonnell": 25416, "\u2581hawkeye": 29976, "\u2581acceptance": 10156, "card": 6648, "\u2581rothschild": 23442, "\u2581tired": 4117, "\u2581alluvial": 29921, "cer": 5482, "\u2581tunnel": 3485, "\u2581andres": 17943, "\u2581checked": 6505, "\u2581spoil": 16340, "\u2581guide": 3378, "\u2581ludovic": 29862, "\u2581richardson": 9204, "\u2581belle": 7240, "\u2581extreme": 4750, "\u2581flashing": 14316, "nou": 18645, "\u2581concepcion": 28190, "\u2581exploding": 22978, "\u2581sloppy": 28582, "\u2581nick": 2341, "\u2581cheeks": 5041, "stal": 13558, "have": 5815, "psi": 16459, "\u2581bibliography": 26610, "\u2581prairie": 10918, "\u2581scholastic": 24130, "\u2581peninsula": 4738, "\u2581buses": 7151, "\u2581drives": 10396, "\u2581colton": 23348, "optera": 24895, "\u2581spook": 19229, "nori": 24795, "ferra": 19697, "\u2581overlap": 15406, "\u2581glimpse": 10117, "aco": 10997, "fel": 6660, "\u2581frightening": 18903, "\u2581sleepy": 19244, "\u2581sumner": 25800, "\u2581rosenthal": 28881, "\u2581allegheny": 23594, "\u2581chevrolet": 16939, "\u2581aired": 3357, "\u2581carroll": 10801, "holder": 12427, "\u2581torrent": 23078, "\u2581impoverished": 27073, "\u2581macedonia": 12589, "485": 26401, "\u2581treaties": 18514, "\u2581amusing": 21831, "title": 22235, "lippe": 19867, "\u2581background": 2395, "\u2581respective": 7390, "iro": 8412, "\u2581bundle": 10194, "\u2581enabling": 13168, "260": 13675, "990": 26281, "go": 839, "\u2581motioned": 14539, "\u2581munchen": 25601, "\u2581festive": 28923, "\u2581chronicle": 9071, "\u2581drove": 3664, "\u2581postgraduate": 17035, "doubt": 23455, "\u2581fau": 12850, "bf": 12425, "\u2581minerva": 27833, "\u2581lifelong": 14880, "\u2581wives": 11333, "1978": 7217, "\u2581survey": 3431, "\u2581connolly": 23662, "\u2581tanner": 12572, "\u2581nord": 7544, "\u2581swore": 14457, "\u2581perse": 19201, "\u2581lucky": 4266, "tsev": 24978, "\u2581rooney": 26702, "\u2581teresa": 13671, "\u2581recommend": 12360, "\u2581bradshaw": 27007, "\u2581hoof": 25264, "\u2581oscillator": 27768, "jor": 10070, "\u2581schultz": 22598, "\u2581stanley": 5070, "\u2581dot": 14123, "evan": 20084, "264": 20470, "\u2581tra": 7957, "amide": 20772, "\u2581bookstore": 21899, "fix": 18594, "\u2581swirling": 18760, "\u2581cereal": 18796, "\u2581ghana": 10409, "\u2581shells": 12529, "prav": 23991, "\u2581levee": 29417, "changing": 22211, "\u2581automation": 23217, "olu": 18687, "\u2581obelisk": 28563, "\u2581nora": 13565, "\u2581fiat": 21189, "\u2581kickstarter": 29490, "\u2581ix": 17053, "\u2581shaft": 7244, "\u2581helps": 7778, "\u2581giulia": 21960, "\u2581queen": 1178, "\u2581ivan": 5489, "dra": 3030, "\u2581colts": 16896, "zw": 22263, "\u2581detective": 4485, "\u2581survivor": 13238, "\u2581penang": 23473, "\u2581raped": 18068, "\u2581ancestral": 17099, "\u2581areas": 924, "member": 6990, "\u2581zinc": 18250, "\u2581heartbroken": 29445, "\u2581rotunda": 29120, "g": 263, "vector": 28033, "parent": 18908, "\u2581flew": 4184, "\u2581wiping": 16740, "cere": 14660, "\u2581gambler": 26356, "1683": 27824, "06": 3370, "anyway": 23304, "\u2581send": 2660, "\u2581activist": 6646, "\u2581knitting": 27731, "amine": 10501, "\u2581seam": 13927, "\u2581crucifixion": 29355, "\u2581201617": 15021, "\u2581skill": 6148, "\u2581cale": 17355, "\u2581proceedings": 8678, "iest": 10727, "\u2581affiliated": 6751, "\u2581proven": 8829, "\u2581amino": 15211, "\u2581pattern": 3732, "\u2581hidalgo": 26195, "poor": 15979, "\u25811942,": 9778, "\u2581julius": 10471, "yet": 16480, "\u2581grim": 5953, "42%": 25563, "\u2581game": 250, "\u2581tong": 13524, "\u2581sky": 1661, "\u2581dialect": 8069, "\u2581unacceptable": 24667, "\u2581avoiding": 10298, "\u2581symmetry": 17191, "\u2581knotted": 28775, "france": 10696, "356": 24510, "\u2581nhl": 6542, "\u2581situated": 2692, "wise": 10474, "\u2581bam": 11890, "\u2581sash": 23470, "\u2581bentley": 17960, "\u2581": 13, "140": 14331, "bane": 14061, "\u2581maternity": 26263, "ju": 2142, "pont": 18889, "\u2581chances": 11285, "\u2581malaria": 21399, "\u2581appendage": 29152, "catch": 18208, "57%": 26653, "\u2581fivb": 27889, "\u2581fetch": 18312, "\u2581videos": 6610, "\u2581subfamily": 11906, "essa": 15962, "money": 22520, "\u2581insurgent": 29183, "\u2581performances": 3200, "\u2581penthouse": 24451, "\u2581bright": 2673, "\u2581springs": 5264, "\u2581cruisers": 20260, "\u2581prize": 1507, "\u2581kas": 7349, "\u258115": 357, "elimination": 29309, "318": 23024, "\u2581winning": 1414, "\u2581britannica": 29621, "\u2581through": 120, "\u2581comfortably": 20953, "\u2581thread": 9322, "\u2581spank": 28361, "\u2581excessive": 11513, "\u2581draining": 23506, "\u2581marks": 4872, "\u2581sib": 15614, "elva": 26013, "\u2581impart": 24314, "\u2581melodi": 29038, "\u2581essay": 8474, "\u2581jett": 17341, "daughter": 18128, "\u2581carr": 7123, "phase": 20043, "\u2581ordinance": 15588, "\u2581truman": 17593, "\u2581colby": 21723, "\u2581germans": 7688, "\u2581pretending": 13406, "\u2581needles": 17023, "\u2581manchuria": 27521, "\u2581patton": 20161, "\u2581clarendon": 28347, "\u2581penguins": 20897, "ounce": 11792, "\u2581demos": 19494, "255": 20038, "\u2581favorite": 3839, "\u2581swindon": 24669, "\u2581medication": 12001, "kilometre": 14363, "\u2581tamp": 21023, "\u2581statue": 4819, "\u2581attain": 11095, "\u2581israeli": 4112, "ushi": 9996, "\u2581cart": 6420, "\u2581soviet": 1522, "\u2581liao": 21565, "\u2581friendly": 4753, "\u2581quarterfinal": 26257, "\u2581portrayed": 5918, "\u2581forced": 1292, "pure": 21059, "\u2581aunt": 4553, "blad": 23032, "\u2581recommendations": 12121, "\u2581liar": 16989, "\u2581steppe": 24686, "\u25812007,": 1843, "bao": 15353, "\u2581manufacture": 8332, "\u2581alexandra": 11141, "\u2581butcher": 13768, "\u2581carrington": 29185, "\u2581scooped": 23681, "\u2581rockies": 24655, "uda": 5729, "\u2581booth": 7417, "\u2581republican": 2235, "\u2581hero": 4702, "334": 24606, "\u2581derek": 6642, "\u2581personnel": 3641, "\u2581ringing": 14850, "\u2581grants": 8886, "\u2581mobile": 3241, "\u2581termed": 13776, "\u2581instructional": 25565, "\u2581grandstand": 29054, "\u2581anti": 1082, "\u2581dickson": 24787, "\u2581caliphate": 28034, "\u2581microsoft": 7099, "\u2581defected": 27211, "\u2581spectral": 20703, "\u2581201011": 15092, "randa": 24138, "actually": 15661, "\u2581hydroelectric": 20269, "\u2581educated": 3977, "\u2581accusation": 22495, "\u2581exquisite": 20013, "\u2581invoked": 26252, "\u2581cisco": 28184, "\u2581paranormal": 22798, "\u2581shamrock": 26227, "shire": 5042, "\u2581muttered": 5218, "activ": 19516, "328": 23810, "\u2581offset": 17493, "\u2581combinations": 17908, "blade": 15973, "\u2581thu": 14808, "haired": 11412, "\u2581blocking": 11828, "\u2581waited": 3208, "\u2581denied": 5265, "\u2581cyp": 18619, "baud": 24348, "\u2581boomer": 24971, "\u2581kilo": 25427, "\u2581monotypic": 28625, "\u2581leap": 10336, "\u2581cardio": 23203, "\u2581rhys": 15145, "\u2581jog": 21160, "hida": 25180, "\u2581colbert": 25864, "\u2581gaj": 27223, "\u2581ethic": 29397, "\u2581hms": 6451, "ta": 536, "\u2581symmetrical": 22434, "later": 4877, "\u2581dane": 12112, "\u2581titans": 15771, "\u2581bhatt": 23857, "ivo": 7852, "\u2581disrupt": 14668, "\u2581tho": 14963, "\u2581vasili": 26327, "\u2581giddy": 29412, "ying": 8173, "destruct": 20137, "\u2581loser": 9891, "cien": 18049, "\u2581railways": 7166, "ich": 3870, "\u2581intel": 14635, "people": 10171, "\u2581trish": 24857, "sourcing": 27028, "\u2581benson": 12808, "phyll": 21128, "\u2581again": 188, "tar": 3958, "231": 19903, "\u2581stumbling": 23034, "\u2581assassin": 12379, "\u2581organizations": 2856, "defamation": 28258, "\u2581mysore": 23650, "\u2581prussia": 11445, "\u2581orb": 19145, "\u2581corresponding": 7265, "\u2581everton": 20876, "lake": 11082, "tas": 6922, "\u2581appreciated": 13746, "\u2581casa": 9986, "\u2581hos": 11393, "\u2581laurent": 15093, "\u2581sustained": 8832, "\u2581russo": 18484, "sexual": 15691, "\u2581moroccan": 19210, "teur": 20130, "zion": 11196, "beg": 17143, "\u2581division": 460, "\u2581mcbride": 21851, "\u2581encouraged": 5623, "ens": 3474, "\u2581herb": 11893, "\u2581shout": 11905, "438": 26758, "\u2581hurl": 24523, "80,000": 15506, "\u2581ballroom": 16428, "\u2581unlock": 16497, "\u2581intention": 5140, "\u2581statistical": 6762, "\u2581completed": 1066, "phage": 21164, "\u2581andrzej": 28949, "james": 18309, "\u2581weakening": 24116, "\u2581justin": 5671, "\u2581managing": 5616, "\u2581undertaker": 27964, "lusive": 28332, "\u2581henchmen": 28603, "\u2581furnish": 28856, "\u2581fulham": 23552, "\u2581bourbon": 17776, "\u2581aramaic": 29580, "\u2581sibling": 24792, "iya": 4269, "\u2581island": 553, "quo": 8970, "lig": 12828, "\u2581interpersonal": 29873, "\u2581behalf": 5883, "fl": 4372, "cheon": 17334, "\u2581pricing": 24318, "\u2581velvet": 10786, "\u2581maj": 7083, "error": 29992, "\u2581admiral": 5096, "\u2581stride": 12291, "\u2581beth": 6056, "\u2581intent": 6936, "mix": 15743, "\u2581devastating": 16737, "\u2581sleek": 22630, "thio": 20343, "\u2581ukraine": 4981, "\u2581immortal": 10163, "\u2581gambling": 13323, "\u2581diagonal": 16807, "\u25811994": 1530, "fw": 18651, "castle": 16736, "fr": 6177, "\u2581sessions": 5763, "iste": 17012, "\u2581owl": 11170, "\u2581millimetres": 14596, "\u25811953,": 13001, "ata": 4375, "\u2581bancroft": 28589, "\u2581meat": 4428, "\u2581accelerator": 24484, "\u2581witness": 6165, "\u2581electrode": 21159, "wata": 25488, "\u25812011,": 1567, "\u2581fre": 8969, "\u2581$200": 28448, "\u2581torturing": 29786, "\u2581goddamn": 16810, "\u25811935": 4633, "\u2581#5": 17740, "\u2581vineyards": 22271, "\u2581flank": 8225, "\u2581worst": 4126, "\u2581magnificent": 13284, "\u2581stormed": 18912, "\u2581eliminate": 10628, "vas": 8471, "\u2581braun": 19648, "frag": 22133, "\u2581concentration": 5686, "\u2581dubious": 22930, "\u2581intrusion": 23585, "\u2581base": 1000, "\u2581kh": 9190, "uchi": 12177, "\u2581adrenaline": 17433, "biblio": 26303, "mond": 4660, "\u2581joey": 10208, "\u2581150": 4354, "\u2581santa": 2490, "\u25812003,": 3417, "\u2581hum": 6279, "\u2581correspondent": 10694, "50%": 21703, "\u2581macbeth": 27580, "\u2581otago": 24602, "\u2581bend": 6196, "volume": 15949, "\u2581instructed": 10456, "\u2581assuming": 11704, "\u2581fumble": 18539, "\u2581replicate": 22156, "\u2581h": 746, "\u2581clarinet": 11939, "ov": 2026, "hild": 23402, "\u2581expelled": 10311, "lined": 15875, "place": 5119, "\u2581lives": 1551, "patria": 21648, "\u2581nassau": 17573, "education": 24739, "\u2581fails": 13614, "\u2581venomous": 28907, "\u2581fifa": 5325, "\u2581raccoon": 27321, "\u2581excavated": 17476, "495": 25357, "\u2581analysis": 2495, "baum": 10716, "\u2581illustrator": 13805, "\u2581leipzig": 12516, "\u2581redesign": 23903, "\u2581o": 635, "\u2581mobilization": 25844, "\u2581materials": 2895, "\u2581gallipoli": 28095, "\u2581gua": 10658, "\u2581hypothetical": 26161, "\u2581nucleo": 24122, "\u2581genealogical": 28690, "\u2581clarkson": 21041, "\u2581evelyn": 14087, "neutral": 29931, "\u2581bianca": 21929, "\u2581flinch": 21633, "\u2581occasionally": 4533, "\u2581introduce": 8500, "\u2581caterpillar": 23836, "\u2581starring": 3154, "\u2581choked": 14059, "\u2581macmillan": 17929, "\u2581houston": 4187, "\u2581undone": 27482, "cr": 6711, "\u2581newark": 15317, "\u2581dumped": 15754, "\u2581munch": 22698, "\u2581gerry": 16614, "nazi": 22508, "founded": 7282, "\u2581tournament": 1085, "\u2581horns": 11414, "216": 17608, "\u2581wilfrid": 29561, "\u2581frame": 3523, "\u2581accentuat": 28957, "\u2581wayne": 4916, "\u2581focal": 18436, "\u2581width": 9456, "conference": 23670, "\u2581efficiency": 7836, "\u2581stumble": 19436, "\u2581bce": 11411, "\u2581naval": 2299, "\u2581sarcastically": 26185, "\u2581qian": 21154, "\u2581wilk": 24891, "\u2581cowboy": 12992, "\u2581condominium": 26261, "\u2581cater": 13674, "\u2581bungalow": 25065, "\u2581youth": 1546, "rig": 12313, "\u2581mining": 4243, "\u2581beetle": 6808, "\u2581restore": 8454, "\u2581amplitude": 22889, "\u2581bolivia": 12559, "\u2581mv": 17967, "\u2581xiv": 18613, "\u2581printing": 7312, "\u2581bounce": 17625, "\u2581wilmington": 19559, "\u2581faced": 3110, "ud": 3192, "\u2581crooked": 17374, "\u2581vicious": 13408, "\u2581hudson": 6195, "\u2581megalo": 29345, "\u2581strongest": 11110, "\u2581hint": 6382, "\u2581climbed": 5505, "\u2581tense": 7998, "\u2581pierced": 19025, "\u2581scattering": 20400, "\u2581denim": 27901, "consecrat": 25964, "\u2581dragoon": 21906, "\u2581trolley": 21918, "\u2581grown": 3651, "\u2581statistic": 25199, "\u2581block": 1921, "\u2581consolation": 26680, "\u2581deepened": 22433, "\u2581ellington": 24961, "\u2581opener": 19597, "\u2581citadel": 16872, "atlantic": 18744, "\u2581president": 406, "\u2581visit": 2139, "\u2581realistic": 12786, "37": 3555, "\u2581grandchildren": 16739, "63": 3891, "\u2581prometheus": 29919, "2001": 3465, "\u2581locate": 12717, "\u2581presidential": 3389, "titled": 10492, "\u2581dumb": 9317, "\u2581stipulated": 26779, "\u2581dispersed": 17587, "\u2581riding": 4247, "registered": 24911, "blom": 25588, "\u2581prop": 9476, "israeli": 21728, "\u2581davidson": 13950, "\u2581result": 829, "\u2581media": 941, "\u2581guillermo": 23995, "\u2581global": 2062, "era": 2615, "\u2581soaring": 26436, "\u2581invitational": 23503, "\u2581victim": 5508, "\u2581ta": 5144, "\u2581hamm": 16641, "gal": 4941, "\u2581bid": 4458, "\u2581shapiro": 26009, "resident": 25484, "\u2581was": 23, "\u2581susceptible": 21371, "liv": 22417, "\u2581dissuade": 29896, "\u2581engines": 4016, "\u2581become": 533, "\u2581lima": 12780, "\u2581legend": 4393, "\u2581motown": 25778, "\u2581intervene": 18834, "brazil": 22764, "\u2581khmer": 24216, "\u2581plotted": 28759, "reti": 19237, "cal": 3430, "\u2581violent": 5561, "\u2581rally": 6950, "tip": 10169, "nett": 11874, "\u2581cobb": 16257, "cloud": 19174, "\u2581hermitage": 26201, "\u2581sovereign": 11221, "\u2581marathi": 22818, "1721": 27240, "dine": 8527, "\u2581edgar": 9170, "ccc": 24892, "animal": 25480, "\u2581noticeable": 20206, "\u2581jingle": 25688, "\u2581generators": 20495, "\u2581jas": 13689, "\u2581bela": 17789, "\u2581madagascar": 12981, "\u2581batch": 13064, "simplified": 11268, "\u2581cities": 1920, "\u2581semantic": 17220, "\u2581barrie": 25192, "\u2581congenital": 27919, "\u2581duane": 27613, "\u2581dipping": 26392, "\u2581olimpi": 23566, "\u2581archduke": 28193, "\u2581blur": 10330, "323": 24306, "\u2581delicate": 8917, "\u2581etruscan": 29698, "\u2581ferrer": 21981, "\u2581slump": 23697, "\u2581thriving": 22646, "intelligence": 27782, "\u2581swept": 6701, "\u2581botanical": 14873, "\u2581forbidden": 11369, "\u2581limburg": 29522, "\u2581weaponry": 25417, "\u2581breaks": 7947, "\u2581prentice": 26428, "\u2581tammy": 22866, "\u2581lt": 7137, "\u2581gland": 16039, "\u2581r": 761, "\u2581saturn": 14649, "\u2581opera": 1877, "\u2581scheduled": 3758, "rack": 13135, "exactly": 24110, "\u2581vijay": 16926, "354": 23446, "cover": 14069, "\u2581installations": 16885, "\u2581reverse": 7006, "\u2581oriental": 11339, "\u2581rift": 16783, "tant": 13186, "\u2581gallery": 2246, "\u2581bipolar": 29101, "authored": 14687, "\u2581identifiable": 28688, "kov": 4287, "soft": 12980, "\u2581hapoel": 26147, "\u2581vibrant": 19340, "\u2581overcome": 9059, "\u2581trick": 5514, "\u2581universal": 4172, "\u2581guillaume": 23492, "\u2581bal": 3350, "holders": 11119, "\u2581captivity": 17930, "zio": 10397, "\u2581crossed": 3081, "\u2581hunting": 5038, "\u2581edmund": 8453, "\u2581artifact": 22929, "any": 6001, "\u2581burning": 4044, "\u2581leaving": 1107, "him": 9639, "\u2581raid": 6847, "saw": 10561, "igny": 18629, "\u2581believe": 985, "lant": 10005, "\u2581sanctions": 19601, "\u2581zem": 22600, "rene": 17796, "\u2581straight": 1599, "\u2581extensions": 17529, "\u2581tae": 18865, "\u2581viewers": 6311, "\u2581gracefully": 28138, "\u2581east": 342, "hum": 9269, "\u2581mythical": 22733, "lent": 13465, "550": 12763, "haven": 9671, "\u2581fear": 1719, "would": 8264, "\u2581confront": 13148, "mack": 15571, "rom": 8541, "\u2581processed": 16697, "\u2581passive": 13774, "192": 19532, "\u2581grigor": 20199, "\u2581intends": 21526, "chetti": 27020, "\u2581kry": 20774, "\u2581cunning": 24003, "\u2581within": 363, "\u2581auditory": 27848, "\u2581interred": 15995, "\u2581marcos": 17211, "\u2581criminals": 14430, "plane": 10207, "ppe": 15259, "\u2581dynamo": 18120, "\u2581millwall": 29108, "ep": 3492, "une": 6763, "\u2581200304": 23760, "\u2581chip": 7525, "\u2581advisor": 6721, "\u2581locations": 4095, "\u2581prasad": 20060, "\u2581assassinate": 26642, "\u2581grieve": 27566, "\u2581tsar": 14871, "wright": 20065, "\u2581waiting": 1672, "mino": 15373, "naire": 20193, "\u2581instrumental": 5522, "\u2581ratings": 8786, "club": 16854, "ase": 6105, "vl": 15143, "\u2581unfold": 20174, "august": 7817, "\u2581situations": 8329, "\u2581carrier": 5812, "\u2581disposal": 13497, "710": 20770, "66%": 26922, "\u2581roo": 12764, "chu": 8380, "\u2581sovereignty": 13777, "\u2581correct": 4456, "\u2581paint": 5107, "\u2581curve": 7101, "\u2581mm": 1620, "\u2581kate": 4193, "rane": 19692, "\u2581scientists": 5432, "\u2581drummer": 5961, "\u2581singh": 4613, "\u2581mcclellan": 25913, "phr": 15133, "\u2581sleeves": 17401, "low": 4121, "\u2581incredible": 10287, "\u2581employing": 18192, "52%": 24628, "\u2581neutralize": 29820, "\u2581citizens": 2888, "\u2581fidel": 24056, "roman": 9677, "\u2581scored": 1344, "odo": 8850, "croft": 11081, "\u2581anxiety": 10248, "\u2581ongoing": 6748, "\u2581sniffed": 20153, "\u2581direct": 1744, "\u2581trapped": 7249, "\u2581remedy": 21915, "\u2581siam": 25367, "\u2581hate": 3223, "\u2581scales": 10105, "\u2581slovakia": 11979, "\u2581smiling": 4305, "kah": 15301, "\u2581fishing": 4534, "\u2581pen": 2402, "\u2581ushered": 26553, "700,000": 28031, "\u2581going": 228, "\u2581fiji": 10773, "\u2581mittel": 29447, "\u2581tucker": 9769, "victoria": 29215, "brew": 13712, "\u2581rotterdam": 18223, "\u2581fast": 1512, "self": 8411, "\u2581yerevan": 25709, "drum": 17500, "2002": 3341, "\u2581morocco": 10027, "\u2581regis": 20263, "\u2581hiroshima": 22911, "\u2581pride": 5364, "qa": 8681, "\u2581penitentiary": 28825, "\u2581dental": 12165, "\u2581allison": 11431, "\u2581lashed": 27425, "\u2581enlightenment": 19671, "\u2581countered": 21439, "\u2581disgrace": 23150, "\u2581plot": 3798, "\u2581irvine": 19013, "820": 23795, "\u2581keyboards": 5362, "\u2581sheila": 17643, "\u2581logistics": 14268, "\u2581perched": 20452, "\u2581200102": 26121, "\u2581dread": 10743, "\u2581crises": 26614, "\u2581emir": 19284, "\u2581td": 15596, "\u2581trauma": 13094, "\u2581salesman": 20957, "\u2581fixtures": 19914, "\u2581first": 64, "\u2581classification": 4039, "\u2581pel": 10747, "\u2581kicking": 11228, "\u2581marin": 13252, "\u2581afro": 15471, "\u2581satire": 20062, "conspirator": 21834, "\u2581comment": 6484, "\u2581orgasm": 13913, "\u2581jacques": 7747, "\u2581emanating": 28879, "\u2581compression": 14864, "\u2581cabaret": 21992, "independence": 28992, "\u2581damaging": 17583, "\u2581steadfast": 29899, "\u2581rooftop": 20787, "africa": 25729, "\u2581pass": 1477, "ee": 2851, "np": 8157, "\u2581network": 982, "\u2581periodical": 15512, "\u2581discord": 29337, "\u2581rigging": 28377, "\u2581configuration": 8091, "\u2581incorporates": 13760, "\u2581serious": 2055, "\u2581moderator": 28142, "raz": 13932, "\u2581vishnu": 19723, "\u2581hike": 16095, "zeitung": 28837, "mart": 9534, "1873": 24729, "\u2581oblique": 20078, "\u2581parma": 20531, "\u2581xh": 23077, "\u2581himalayan": 28424, "\u2581aguilera": 28708, "\u2581territories": 5435, "\u2581settle": 6080, "2018": 8277, "\u2581thump": 12686, "\u2581seminary": 8526, "1678": 28595, "\u2581excerpts": 26370, "\u2581moist": 10557, "\u2581circumstance": 26579, "\u2581provide": 1181, "\u2581cecil": 10610, "\u2581remixed": 20348, "worm": 16158, "\u2581easy": 2010, "\u2581bast": 16198, "\u2581pent": 11734, "strict": 27245, "alge": 22006, "latt": 25135, "\u2581accolade": 23069, "hanna": 27092, "\u2581likely": 1720, "\u25811": 137, "\u2581used": 147, "\u2581dad": 1787, "\u2581jock": 22136, "\u2581maximal": 27899, "\u2581kappa": 18261, "\u2581gao": 13382, "\u2581parcel": 16554, "\u2581fueled": 22579, "\u2581effect": 1590, "1874": 23091, "\u2581hung": 3540, "\u2581amnesia": 27497, "\u2581gr": 7711, "\u2581daimon": 28275, "\u2581buddies": 26530, "\u2581charming": 13275, "\u2581relieve": 14527, "lago": 20758, "\u2581provocative": 26454, "\u2581serene": 25236, "\u2581analytics": 26320, "\u2581cebu": 23325, "\u2581voice": 430, "\u2581textbook": 19059, "1886": 22437, "alia": 10060, "\u2581bassett": 27549, "copy": 19625, "name": 7259, "\u2581oldest": 2976, "**": 1409, "\u2581paralysis": 27688, "cube": 23592, "\u2581cruising": 25338, "1947": 11543, "\u2581endowed": 22200, "\u2581packing": 16683, "\u2581lothian": 29763, "\u2581rainforest": 19122, "\u2581kiln": 25539, "\u2581shaker": 26228, "\u2581questioning": 11403, "bong": 18367, "441": 25783, "\u2581sponsorship": 12540, "radi": 9560, "\u2581tablet": 16394, "short": 10849, "\u2581crowley": 23618, "jazeera": 29270, "\u2581abbot": 10480, "\u2581dalton": 13709, "\u2581still": 174, "\u2581saddle": 10260, "\u2581zoe": 10347, "386": 24696, "\u2581hive": 25535, "\u2581needing": 12210, "\u2581spelt": 29675, "ehr": 15430, "\u2581intro": 17386, "nada": 18887, "\u2581monstrous": 23939, "\u2581apo": 15309, "\u2581departed": 7247, "\u2581healed": 17321, "\u2581dare": 7024, "\u2581scaled": 22960, "\u2581knights": 6600, "\u2581mona": 9154, "\u2581reversed": 12951, "north": 7946, "\u2581bradford": 10400, "\u2581elise": 16009, "\u2581mentally": 11367, "ite": 2119, "\u2581luxury": 9640, "\u2581listing": 9554, "natha": 25546, "uz": 6226, "\u2581corporate": 4871, "\u2581seldom": 18001, "\u2581moody": 16988, "\u2581reid": 8788, "\u2581voyage": 7039, "\u2581interact": 10001, "skinned": 22531, "\u2581argentine": 7884, "\u2581jewelry": 12874, "\u2581rau": 11675, "chie": 15874, "\u2581than": 119, "\u2581why": 483, "zadeh": 29213, "\u2581glint": 17078, "\u2581torment": 14667, "wadi": 18928, "\u2581vertices": 21235, "khon": 23925, "\u2581absorbing": 24904, "\u2581vittorio": 27643, "\u2581pooja": 29878, "\u2581charismatic": 26079, "rosa": 20580, "\u2581facial": 14951, "\u2581digestive": 29691, "\u2581malay": 12673, "\u2581tap": 5526, "\u2581hendrick": 21237, "soluble": 22597, "\u2581retailer": 22943, "\u2581scorer": 11219, "\u2581equator": 26809, "\u2581rushes": 21099, "\u2581further": 653, "\u2581bewildered": 26410, "\u2581taxon": 26044, "ons": 4710, "\u2581chemistry": 5427, "\u2581carter": 4323, "\u2581uttered": 24072, "citizen": 28530, "tru": 8989, "\u2581vizier": 28309, "\u2581tidal": 17189, "\u2581susannah": 22804, "tered": 10919, "\u2581advertisements": 16556, "\u2581esquire": 29812, "\u2581pictorial": 28255, "\u2581erich": 18940, "jun": 8753, "\u2581prevented": 8346, "\u2581symbols": 9794, "\u2581thrive": 19403, "\u2581no": 90, "\u2581qu": 8171, "shev": 21185, "worth": 3649, "\u2581depend": 12547, "\u2581clear": 1207, "\u2581melanie": 15129, "\u2581altogether": 11206, "\u2581florida": 1750, "\u2581rhetoric": 19114, "\u2581accessories": 19159, "\u2581smartphone": 21421, "pata": 22954, "effe": 25202, "\u2581mentioned": 2211, "\u2581gateway": 12171, "medical": 26538, "\u2581hyderabad": 14479, "\u2581realized": 1896, "\u2581mazda": 25993, "\u2581prophecy": 16652, "\u2581medici": 22592, "\u2581yorkshire": 6087, "\u2581blurted": 21873, "\u2581wandering": 14209, "\u2581affair": 5675, "\u2581worries": 17904, "ovsky": 12387, "\u2581orchestra": 2156, "\u2581concentrate": 9487, "\u2581slamming": 17781, "\u2581shootout": 20931, "1931": 12563, "\u2581quarters": 8422, "\u2581usher": 19566, "\u2581sweetness": 25178, "\u2581ever": 462, "\u2581apologise": 26645, "pia": 11518, "\u25812006:": 17037, "\u2581sharing": 6126, "\u2581tara": 7018, "\u2581tawny": 29908, "\u2581fitness": 11331, "antino": 24455, "\u2581creativity": 16764, "cri": 10982, "\u2581grasping": 23765, "ikka": 25377, "\u2581parliament": 1413, "\u2581data": 1054, "\u25811878": 7808, "\u2581council": 516, "\u2581player": 517, "\u2581mare": 9048, "\u2581sainte": 19696, "\u2581nicholls": 27342, "\u2581khalifa": 28212, "\u2581kaitlyn": 28322, "uring": 10450, "\u2581shi": 3393, "\u2581counsellor": 29083, "dorf": 7930, "292": 25204, "\u2581defence": 2705, "\u2581neutral": 8387, "\u2581rahul": 28621, "tine": 7538, "\u2581sah": 16781, "\u2581bassoon": 27479, "\u2581stiffened": 18412, "\u2581miniseries": 15188, "\u2581residential": 4332, "\u2581escorting": 24983, "\u2581lists": 7227, "lem": 10388, "\u2581dudley": 14040, "\u2581pristine": 27989, "tique": 15115, "ending": 7601, "dang": 12487, "\u2581overlord": 26572, "\u2581enumerat": 26940, "df": 8736, "\u2581flu": 6777, "storm": 11032, "\u2581bono": 23583, "\u2581unseen": 18783, "\u2581impetus": 27710, "\u2581psychoanalysis": 29668, "\u2581chew": 18013, "\u2581fairly": 6647, "\u2581conflict": 2930, "\u2581fragmentation": 28698, "\u2581cull": 19075, "\u2581artisan": 21038, "\u2581weiss": 15768, "uggle": 27400, "\u2581buzzed": 23989, "\u2581nokia": 24294, "\u2581destroy": 4407, "\u2581shiva": 10308, "\u2581special": 621, "\u2581morg": 25824, "\u2581measurement": 11688, "chal": 10989, "\u2581cooper": 4486, "\u2581author": 1314, "\u2581flaming": 18525, "\u2581overview": 21598, "\u2581connectivity": 24026, "hain": 19619, "\u2581fae": 17250, "\u2581plaintiff": 16328, "\u2581principally": 19582, "anski": 23109, "\u2581shear": 13445, "\u2581boycott": 16617, "\u2581sa": 1929, "18": 1087, "\u2581throw": 3814, "\u2581destination": 6970, "\u2581horizontal": 10095, "\u2581compliment": 11606, "\u258189": 9787, "\u2581bulge": 18207, "\u2581randomly": 21324, "\u2581han": 3604, "claude": 21385, "\u2581islander": 13660, "\u2581pil": 8483, "\u2581marketing": 4743, "\u2581raf": 4652, "\u2581shia": 21949, "\u2581required": 1390, "\u2581launch": 3394, "\u2581advisory": 6690, "\u2581groin": 22778, "\u2581storefront": 29619, "\u2581connecting": 6440, "\u2581flag": 3157, "\u2581writ": 20127, "\u2581alteration": 27365, "\u2581larger": 1662, "28": 2714, "age": 1303, "\u2581brightened": 29234, "lx": 24560, "lish": 18491, "\u2581characteristics": 5626, "\u2581certified": 6935, "phon": 9045, "\u2581pathetic": 18512, "\u2581pregnancy": 10296, "\u2581napier": 23642, "\u2581householder": 6685, "\u2581chatting": 25169, "pal": 6720, "\u2581continental": 5859, "\u2581localities": 21842, "\u2581druid": 25981, "\u2581segunda": 21732, "\u2581lithium": 24707, "\u2581improving": 9273, "\u2581shooting": 3511, "\u2581witnessed": 9743, "1979": 6969, "current": 17657, "rigged": 26774, "1844": 26943, "\u2581inquiries": 28238, "\u2581bae": 16376, "universita": 25106, "\u2581overall": 1677, "\u2581unite": 17327, "\u2581kink": 21835, "cour": 9598, "\u2581dean": 2875, "\u2581marlowe": 29139, "tir": 14134, "\u25811833": 13662, "not": 1270, "\u2581harbin": 26394, "\u2581rack": 10257, "focus": 23371, "\u2581prest": 26481, "neau": 24495, "\u2581brighter": 19231, "\u2581massage": 19464, "schen": 11995, "\u2581trafficking": 13748, "\u2581receives": 8359, "\u2581famed": 17540, "\u2581cosmology": 29316, "\u2581fatigue": 16336, "\u2581lesbian": 10564, "\u2581aerobic": 28367, "tech": 6524, "ost": 14367, "\u2581#9": 24970, "fish": 4934, "\u2581frequent": 5408, "\u2581influence": 1915, "\u2581africa": 1271, "kanda": 23517, "\u2581clayton": 12885, "\u2581points": 819, "1863": 25279, "\u2581harriet": 14906, "\u2581maltese": 21774, "\u2581assimilate": 25491, "vino": 19875, "\u2581valor": 22491, "\u2581zwi": 29091, "\u2581everest": 26348, "\u2581blackmail": 19154, "czynski": 28568, "\u2581crouched": 16149, "\u2581refugees": 8790, "\u2581rapid": 4470, "\u2581morton": 12073, "ree": 9495, "\u2581broadcasting": 3647, "\u2581aidan": 14248, "\u2581economy": 3038, "\u2581hey": 8409, "\u2581voltaire": 29925, "22%": 24643, "\u2581retire": 10097, "period": 27441, "\u2581theater": 2547, "\u2581boulevard": 7717, "starred": 20132, "\u2581tower": 1710, "\u2581ricky": 12172, "\u2581intervals": 15899, "\u2581charities": 18093, "illa": 3247, "\u2581sawmill": 22741, "entered": 23753, "bacteria": 24417, "\u25811868": 8204, "\u2581dripped": 25203, "\u2581weldon": 28801, "\u2581electronic": 3253, "39%": 26688, "tation": 8593, "gaz": 12192, "climat": 24487, "\u2581triassic": 29369, "\u2581cause": 1679, "\u2581huxley": 29643, "\u2581infantry": 2174, "\u2581howe": 15142, "royce": 16717, "\u2581failure": 2990, "\u2581liquid": 4189, "\u2581movements": 4889, "looking": 7940, "\u2581indies": 9673, "\u2581omaha": 14735, "\u2581occurred": 2437, "\u2581unofficial": 11647, "\u2581misty": 18139, "\u2581vis": 9060, "\u258172": 7571, "\u2581eastern": 1003, "\u2581deterioration": 27530, "\u2581call": 645, "\u2581azores": 28618, "\u2581vernacular": 21193, "\u2581spherical": 21599, "\u2581shetland": 26583, "\u2581tir": 12156, "\u2581impatient": 19764, "\u25811978": 2259, "tral": 14435, "58": 4284, "\u2581journalism": 7857, "\u2581burglar": 23764, "\u2581pumps": 18835, "\u2581figuring": 25379, "\u2581occur": 3744, "\u2581oster": 19919, "\u2581tanker": 17846, "\u2581asahi": 27689, "\u2581wavy": 25229, "\u2581advanced": 2255, "cil": 12837, "\u2581dared": 17485, "ril": 10415, "\u2581reprint": 21727, "\u2581march": 285, "\u2581deserted": 14446, "\u2581host": 2015, "\u2581brink": 16969, "\u2581emi": 8468, "\u2581shreveport": 27286, "\u2581passion": 5336, "\u2581shanghai": 8269, "\u2581tertiary": 15527, "\u2581mustang": 18252, "swami": 16374, "\u2581plo": 13593, "1881": 23038, "\u2581spears": 15722, "\u2581barrett": 13639, "\u2581spur": 6844, "\u2581chain": 2858, "jp": 12851, "shah": 19082, "\u2581brewery": 12963, "\u2581brave": 7908, "\u2581kiran": 24201, "\u2581butterfly": 9312, "electro": 25538, "\u2581done": 677, "\u2581appropriate": 4593, "\u2581turbo": 12036, "\u2581quivering": 27293, "\u2581salaries": 23075, "vag": 16484, "\u2581investing": 22999, "\u2581kimberly": 26136, "\u2581stroking": 16917, "\u2581daly": 19995, "\u2581gaga": 21078, "astro": 21544, "050": 22974, "pyr": 12142, "\u2581ducked": 15394, "\u2581candace": 25297, "you": 245, "\u2581wy": 5809, "ullah": 16523, "\u2581westchester": 27109, "\u2581linda": 8325, "\u2581tattoos": 21126, "\u2581crack": 6058, "\u2581excavations": 16094, "\u2581prevailed": 22415, "fontaine": 20971, "\u2581ja": 3009, "\u2581sparks": 14296, "watt": 17322, "liev": 17837, "\u2581caught": 1383, "\u2581investigative": 16457, "\u2581troupe": 16561, "zu": 4261, "\u2581lyle": 24204, "quiet": 24944, "\u2581taka": 9862, "\u2581outpost": 19307, "\u2581delusion": 22829, "\u2581wobble": 27160, "hla": 19175, "\u2581gauntlet": 27327, "\u2581tarzan": 26500, "\u2581religions": 13657, "ally": 1326, "\u2581fuck": 6007, "\u2581contamination": 21976, "leck": 24167, "ara": 2704, "\u2581crocodile": 19655, "\u2581fellowship": 6539, "\u2581frankfurt": 9938, "\u2581dorsum": 29970, "\u2581gazette": 10627, "\u2581south": 180, "\u2581suppression": 19594, "\u2581humid": 15876, "ion": 872, "\u2581dolores": 24284, "\u2581eighteenth": 14835, "\u2581reactive": 25541, "\u2581kohl": 19310, "\u2581wagner": 10661, "\u2581neb": 22532, "\u2581cornell": 11600, "\u2581saab": 28247, "\u2581senses": 11060, "\u2581hawaiian": 13318, "\u2581coyote": 17024, "swedish": 21777, "\u2581predicament": 28204, "\u2581slowed": 10024, "\u2581chemical": 3549, "masa": 25221, "\u2581operated": 1783, "mandala": 27965, "\u2581paw": 11200, "\u2581submit": 12298, "methyl": 10706, "\u2581laughs": 13779, "\u2581punches": 19698, "\u2581potsdam": 27800, "\u2581arises": 21461, "\u2581legacy": 7780, "\u2581devout": 25774, "\u2581stowe": 26814, "\u2581gait": 22723, "\u2581pounded": 15716, "\u2581de": 121, "\u2581mistress": 10427, "\u2581caledonia": 21530, "ville": 1125, "\u2581plains": 8648,
[...]
