{"electors": 19165, "circle": 4418, "##sant": 22341, "awarding": 21467, "mutual": 8203, "seafood": 23621, "##liness": 20942, "wah": 22894, "poison": 9947, "commercially": 11088, "flip": 11238, "##ually": 28488, "cyprus": 9719, "overseas": 6931, "##eye": 17683, "wired": 17502, "[unused767]": 772, "##ehan": 24660, "glaring": 16124, "[unused67]": 68, "195": 17317, "joy": 6569, "warmly": 22775, "vanilla": 21161, "##\u52dd": 30306, "48": 4466, "princeton": 9173, "holster": 29447, "fever": 9016, "marvin": 13748, "cassie": 8869, "espana": 20678, "tricked": 24929, "justify": 16114, "migration": 9230, "recognizes": 14600, "##more": 5974, "ion": 10163, "poznan": 18320, "advantages": 12637, "\u6797": 1881, "##\u8cb4": 30479, "##wo": 12155, "##ech": 15937, "trumpets": 26506, "texts": 6981, "giants": 7230, "sediments": 20476, "kissing": 7618, "algiers": 22947, "afghan": 12632, "cadet": 12738, "observers": 14009, "marion": 10115, "falcon": 11684, "##court": 13421, "sheltered": 18304, "generations": 8213, "refugees": 8711, "croix": 18733, "##uis": 27020, "##tched": 28265, "##\u6c11": 30418, "emphasized": 13155, "dispose": 27764, "narrower": 22546, "rooms": 4734, "##d": 2094, "graz": 26918, "dogg": 28844, "[unused612]": 617, "newscasts": 24482, "arguably": 15835, "alive": 4142, "scaled": 18953, "ripe": 22503, "raging": 17559, "lodge": 7410, "galaxies": 21706, "historian": 5272, "ceiling": 5894, "inspired": 4427, "benches": 19571, "\u0570": 1228, "respond": 6869, "[unused597]": 602, "chestnut": 15655, "clair": 17936, "##itzer": 19253, "comb": 22863, "[unused725]": 730, "providing": 4346, "bluegrass": 21286, "##\u116d": 30013, "halls": 9873, "cease": 13236, "##field": 3790, "pont": 21179, "muscles": 6650, "##esian": 25253, "kin": 12631, "organ": 5812, "jam": 9389, "straightforward": 19647, "advertisements": 14389, "beckett": 20599, "marcos": 14810, "[unused114]": 119, "wall": 2813, "rainforest": 18951, "fur": 6519, "kia": 27005, "loading": 10578, "piloted": 27220, "fx": 23292, "1661": 24046, "\u00b2": 1082, "tara": 10225, "mavericks": 28330, "conceived": 10141, "bosch": 25936, "population": 2313, "##umble": 26607, "##tablished": 28146, "education": 2495, "statute": 11671, "frenzy": 21517, "##fed": 25031, "robinson": 6157, "withstand": 19319, "cloak": 11965, "screaming": 7491, "wcw": 24215, "\u30fc": 1739, "clarke": 8359, "martin": 3235, "shifts": 12363, "airplanes": 24042, "constructions": 21913, "gracefully": 28266, "joyce": 11830, "wolf": 4702, "##ingham": 16445, "quaker": 18844, "darling": 9548, "whitehall": 28361, "reason": 3114, "##lin": 4115, "##iously": 19426, "premise": 18458, "arching": 27335, "##icated": 17872, "mixtape": 18713, "presenter": 10044, "##olin": 18861, "truths": 23019, "##rol": 13153, "##oud": 19224, "looming": 23430, "brandy": 17951, "##ving": 6455, "supply": 4425, "toledo": 13163, "generosity": 26161, "##\u092a": 29864, "usage": 8192, "##use": 8557, "##\u90e1": 30485, "##\u222a": 30132, "##\u09a5": 29899, "kirk": 11332, "slit": 18036, "zulu": 27359, "reorganization": 17118, "##lined": 18194, "interruption": 24191, "##chase": 26300, "\u25cf": 1619, "[unused447]": 452, "fein": 27132, "progressed": 12506, "creaked": 28068, "\u1105": 1458, "cherry": 9115, "##otti": 21325, "skating": 10080, "shark": 11420, "cult": 8754, "1773": 19916, "electrode": 28688, "poems": 5878, "##\u30e0": 30251, "painting": 4169, "soap": 7815, "[unused847]": 852, "condemned": 10033, "##ischen": 24488, "[unused751]": 756, "##w": 2860, "cole": 5624, "nur": 27617, "appalled": 29279, "licking": 17033, "computers": 7588, "mclean": 17602, "maneuvers": 23802, "imprint": 15738, "\u30a6": 1696, "1998": 2687, "threw": 4711, "##enne": 24336, "lok": 13660, "1645": 26081, "##nosis": 27109, "insisted": 7278, "brewer": 18710, "relying": 18345, "study": 2817, "##orno": 26295, "duane": 27319, "950": 20317, "##fra": 27843, "\u06ba": 1306, "nineteenth": 9137, "clipped": 20144, "rocco": 28167, "plumage": 28764, "vampire": 4393, "hopper": 20517, "hero": 5394, "favourites": 28271, "rapid": 5915, "judging": 13325, "tor": 17153, "endeavor": 23855, "strands": 14119, "portage": 25140, "mated": 28795, "genie": 22519, "mobilization": 25580, "plucked": 20780, "reinforcements": 14214, "mountainous": 14897, "crude": 13587, "ruin": 10083, "iucn": 20333, "scotch": 18937, "##acing": 26217, "climate": 4785, "children": 2336, "production": 2537, "willy": 16172, "grins": 20237, "enthusiasts": 20305, "davy": 23255, "grimaced": 19014, "uv": 23068, "[unused382]": 387, "##ounded": 26240, "29": 2756, "isles": 14195, "horticultural": 26235, "submissions": 27842, "gypsy": 16006, "rains": 15811, "##sche": 22842, "##runner": 23195, "airspace": 29357, "rite": 14034, "##\u4e2d": 30272, "elijah": 14063, "lean": 8155, "harry": 4302, "brothers": 3428, "oversee": 17467, "delays": 14350, "pride": 6620, "##\u03b9": 18199, "12th": 5940, "perceive": 23084, "##hma": 22444, "expense": 10961, "crystals": 14438, "professorship": 22661, "republicans": 10643, "smelled": 9557, "##cz": 27966, "thesis": 9459, "cbc": 13581, "brenda": 15507, "compromised": 20419, "\uff08": 1987, "[unused4]": 5, "\u2264": 1608, "adam": 4205, "marty": 12578, "##stan": 12693, "eponymous": 15248, "##owski": 15249, "\u05e5": 1262, "##\u05e2": 29805, "feasible": 22945, "analogue": 21800, "stammered": 28532, "[unused374]": 379, "##pis": 18136, "sooner": 10076, "integrating": 22380, "peeking": 28222, "?": 1029, "seekers": 24071, "1701": 26059, "girl": 2611, "##arney": 25831, "##\u6625": 30393, "picket": 28972, "##bol": 14956, "mermaid": 22322, "dodd": 21258, "##ains": 28247, "##ieu": 17301, "boardwalk": 29496, "giorgio": 17697, "proximity": 10039, "##ggles": 24989, "##)": 29620, "kai": 11928, "hers": 5106, "##sible": 19307, "consumption": 8381, "heroes": 7348, "bombay": 11831, "genetics": 14471, "stade": 15649, "##resh": 21898, "##\u30aa": 30225, "comet": 15699, "scrapped": 14553, "middleweight": 18741, "danielle": 18490, "winchester": 12841, "inactive": 16389, "aurora": 13158, "consistently": 10862, "penetrating": 22391, "herald": 9536, "project": 2622, "mitchell": 6395, "diploma": 9827, "poppy": 19745, "vertically": 20018, "identifies": 14847, "enjoyment": 20195, "##kling": 20260, "posts": 8466, "##\u30c8": 30240, "##eley": 22352, "descends": 23328, "##iv": 12848, "iec": 24940, "snyder": 17840, "geelong": 18664, "stored": 8250, "##sily": 26863, "nl": 17953, "councillor": 10674, "exceptions": 11790, "##lder": 16502, "nicolas": 9473, "1918": 4271, "##\u0281": 29694, "official": 2880, "assassination": 10102, "largest": 2922, "##dan": 7847, "balkan": 17581, "jolly": 22193, "\u27e9": 1630, "##taka": 28412, "trafficking": 11626, "damon": 11317, "winged": 14462, "interviews": 7636, "foraging": 26912, "laboratories": 12030, "lowland": 15234, "nhs": 17237, "##^": 29637, "formulas": 25814, "seton": 28796, "ground": 2598, "bolsheviks": 28755, "roland": 8262, "liberal": 4314, "ralph": 6798, "persians": 27229, "catalog": 12105, "commissioned": 4837, "##ear": 14644, "namesake": 17283, "bahamas": 17094, "mer": 21442, "extensions": 14305, "steadily": 11328, "sympathetic": 13026, "auburn": 12704, "allegro": 25319, "arguing": 9177, "awards": 2982, "1702": 26776, "chair": 3242, "##cht": 10143, "##ries": 5134, "pizza": 10733, "long": 2146, "##rya": 20444, "weights": 15871, "eduard": 20424, "marie": 5032, "##elli": 13348, "bugs": 12883, "[unused368]": 373, "pepsi": 27237, "denying": 16039, "foyer": 16683, "[unused467]": 472, "gaulle": 28724, "##tter": 12079, "jessie": 10934, "recognize": 6807, "##avian": 21654, "friend": 2767, "##rator": 16259, "crossbow": 28692, "##tet": 22513, "belly": 7579, "divert": 27345, "[unused128]": 133, "catchment": 22865, "impact": 4254, "lookout": 19052, "treasury": 9837, "polymers": 27216, "smooth": 5744, "217": 20335, "knocked": 6573, "longtime": 11155, "kazakh": 25907, "uncanny": 28953, "practice": 3218, "comprised": 11539, "advertised": 17099, "##ging": 4726, "ami": 26445, "uno": 27776, "##\u5bb6": 30351, "dreadful": 21794, "forest": 3224, "unfair": 15571, "kenya": 7938, "statutes": 18574, "olaf": 20514, "##raction": 25533, "unacceptable": 21873, "##m": 2213, "greaves": 27808, "yen": 18371, "phosphorus": 25473, "hazardous": 17760, "##sque": 17729, "401": 22649, "yards": 4210, "titles": 4486, "viktor": 13489, "coordination": 12016, "toni": 16525, "josiah": 24461, "illuminating": 27816, "##\u093e": 29876, "##run": 15532, "sunny": 11559, "[unused970]": 975, "billed": 14843, "gazing": 16448, "superseded": 19886, "##neer": 19755, "related": 3141, "tatiana": 22725, "##peration": 29487, "vaccines": 28896, "ideals": 15084, "##aday": 28039, "machine": 3698, "##um": 2819, "coronation": 12773, "vip": 21722, "she": 2016, "americana": 25988, "[unused476]": 481, "selecting": 17739, "tiberius": 28411, "tradition": 4535, "omega": 14827, "pierre": 5578, "staffed": 21121, "##\u0bb0": 29927, "\u570b": 1800, "smuggling": 19535, "highway": 3307, "inaugurated": 11070, "jacket": 6598, "seller": 14939, "violations": 13302, "tossing": 15021, "##uso": 26658, "perhaps": 3383, "cardiff": 10149, "taboo": 27505, "qui": 21864, "lifespan": 26462, "reiterated": 28960, "englishman": 25244, "husky": 18758, "negro": 12593, "ik": 20912, "shock": 5213, "bombing": 8647, "billionaire": 22301, "effects": 3896, "mississippi": 5900, "kazakhstan": 11769, "speaking": 4092, "##care": 16302, "angelina": 23847, "kimball": 26659, "##awan": 25903, "##hari": 18428, "decatur": 27783, "351": 28474, "[unused734]": 739, "prairie": 10996, "suffering": 6114, "engraved": 16328, "[unused265]": 270, "allows": 4473, "cornerstone": 23354, "jubilee": 13078, "rock": 2600, "income": 3318, "royal": 2548, "gus": 12670, "##tist": 16774, "##nting": 24360, "materialized": 27075, "\u05d6": 1247, "hum": 14910, "switches": 15924, "1992": 2826, "##bar": 8237, "rookie": 8305, "##ration": 8156, "elves": 16980, "1969": 3440, "hannibal": 24181, "nebula": 25677, "\u00b0c": 6362, "absurd": 18691, "este": 28517, "ascot": 29036, "##\u05d0": 29788, "bedfordshire": 28430, "##rit": 14778, "him": 2032, "neil": 6606, "##vius": 26055, "diesel": 7937, "diversion": 20150, "singing": 4823, "wurttemberg": 16346, "promo": 19430, "ambitions": 19509, "barriers": 13500, "gnu": 27004, "snow": 4586, "murmurs": 22888, "academie": 19669, "dazzling": 28190, "aw": 22091, "##anza": 16076, "sans": 20344, "womb": 26578, "itunes": 11943, "##keeping": 18321, "48th": 27787, "747": 25374, "##ade": 9648, "1943": 3826, "after": 2044, "berber": 27514, "##lage": 20679, "p": 1052, "collapse": 7859, "[unused546]": 551, "59": 5354, "championships": 3219, "insults": 23862, "\"": 1000, "develop": 4503, "fabrics": 25123, "cairns": 21731, "76": 6146, "testimony": 10896, "peking": 27057, "drake": 7867, "klaus": 16536, "brooding": 28902, "strategic": 6143, "wiping": 14612, "##ishly": 19983, "##\u05d3": 29791, "[unused289]": 294, "malcolm": 8861, "packers": 15285, "##ril": 15928, "##lism": 28235, "torpedo": 9862, "backbone": 21505, "ranging": 7478, "##anian": 26032, "52": 4720, "chevalier": 22019, "[unused960]": 965, "behavior": 5248, "##codes": 23237, "crest": 11146, "shelters": 17177, "[unused780]": 785, "starr": 14330, "occupy": 11494, "##rase": 23797, "[unused859]": 864, "resemble": 13014, "karen": 8129, "chant": 16883, "trafford": 26894, "##ndo": 15482, "veil": 15562, "cbn": 21824, "1688": 24082, "juveniles": 25406, "soldier": 5268, "sight": 4356, "quintet": 18109, "ventral": 23420, "bury": 11010, "atletico": 16132, "consume": 16678, "##0": 2692, "archaeology": 12009, "essentially": 7687, "hanover": 14393, "##\u02e4": 29719, "hurt": 3480, "calls": 4455, "radiating": 23229, "ar": 12098, "maya": 9815, "dances": 11278, "progressively": 20519, "status": 3570, "ru": 21766, "potatoes": 14629, "beamed": 22587, "##meral": 28990, "theologian": 17200, "##tner": 18885, "they": 2027, "##ius": 4173, "thoughtful": 16465, "##hoot": 23416, "[unused332]": 337, "harrington": 19760, "nike": 18368, "pretty": 3492, "##inus": 13429, "[unused54]": 55, "highways": 10292, "##rgan": 16998, "kn": 14161, "flirting": 20661, "orbit": 8753, "jena": 27510, "60s": 20341, "1000": 6694, "fused": 19660, "demographic": 15982, "##ags": 26454, "[unused247]": 252, "##hurst": 10510, "jc": 29175, "gabled": 26182, "mechanic": 15893, "keynes": 22152, "##bilis": 27965, "[unused966]": 971, "##pone": 29513, "linden": 22066, "catastrophic": 23546, "mouth": 2677, "##ganj": 22738, "##hem": 29122, "arkansas": 6751, "##drive": 23663, "sahara": 19604, "zinc": 15813, "opinion": 5448, "\u2206": 1594, "closes": 14572, "leach": 24520, "ruining": 27853, "##morphic": 18078, "\u826f": 1938, "gasping": 17054, "##rr": 12171, "compound": 7328, "savior": 24859, "biennial": 20313, "subcommittee": 18052, "car": 2482, "stimulating": 27295, "parliament": 3323, "crawling": 15927, "discourse": 15152, "herman": 11458, "premiere": 6765, "##kar": 6673, "visibly": 19397, "lovely": 8403, "suggested": 4081, "margin": 7785, "resentment": 20234, "surplus": 15726, "##box": 8758, "##mania": 27010, "hoisted": 27269, "rupert": 14641, "speeding": 21485, "historians": 7862, "##rsa": 22381, "ninja": 14104, "peek": 19043, "steele": 12872, "rousseau": 26868, "##cock": 13959, "synod": 15374, "owing": 11427, "remnants": 11270, "kidding": 12489, "##\u0435\u0432\u0438\u0447": 22646, "##pf": 14376, "##zaki": 18637, "##\uff08": 30513, "fresco": 26991, "[unused326]": 331, "turk": 22883, "transfers": 15210, "walk": 3328, "lend": 18496, "extract": 14817, "barack": 13857, "nba": 6452, "rainy": 16373, "abd": 19935, "exposure": 7524, "newfound": 27608, "critique": 16218, "whitney": 9809, "testify": 19919, "imprisonment": 10219, "stature": 21120, "ingrid": 22093, "glint": 25263, "centimetres": 13935, "[unused281]": 286, "##bio": 26282, "landlord": 18196, "##vac": 24887, "islanders": 16422, "##\u6a39": 30410, "unharmed": 28150, "##25": 17788, "flavor": 14894, "\u0279": 1125, "##rai": 14995, "vector": 9207, "2018": 2760, "##oning": 13369, "apparently": 4593, "documented": 8832, "pulp": 16016, "legendary": 8987, "subordinate": 15144, "backdrop": 18876, "listings": 26213, "danube": 16212, "inca": 27523, "mag": 23848, "shea": 16994, "countless": 14518, "looting": 29367, "gaze": 3657, "thirty": 4228, "crook": 19302, "terrorists": 15554, "inwardly": 28710, "randomly": 18154, "faced": 4320, "surfaced": 15791, "49": 4749, "clumsy": 22902, "combo": 25025, "reef": 12664, "renamed": 4096, "cause": 3426, "##iq": 18515, "growth": 3930, "experts": 8519, "##\u0632": 29823, "haste": 24748, "lost": 2439, "}": 1065, "vienna": 6004, "strongly": 6118, "downward": 14047, "##esis": 19009, "venom": 15779, "##hol": 14854, "perceptions": 23271, "##\u706b": 30432, "failed": 3478, "circulated": 17640, "alarmed": 19260, "tools": 5906, "icons": 18407, "shang": 29382, "form": 2433, "protects": 18227, "modelled": 23364, "##rri": 18752, "kobayashi": 28930, "barely": 4510, "##dded": 19520, "##sure": 28632, "##ways": 14035, "##lves": 20899, "reputation": 5891, "##rre": 14343, "slicing": 26514, "sequences": 10071, "frs": 25188, "esteem": 19593, "##\u00f8y": 27688, "##\u4e00": 30266, "##tained": 28055, "\u2208": 1596, "arenas": 26434, "sad": 6517, "##inging": 23180, "ever": 2412, "dipped": 13537, "specials": 19247, "wheel": 5217, "highly": 3811, "[unused151]": 156, "vertex": 19449, "referees": 25118, "##sy": 6508, "##36": 21619, "participating": 8019, "collect": 8145, "butterflies": 15023, "flair": 22012, "addresses": 11596, "lottery": 15213, "abbreviated": 12066, "werewolves": 18306, "##nce": 5897, "##sil": 27572, "##23": 21926, "succumbed": 25642, "advised": 9449, "[unused946]": 951, "\u9234": 1965, "helens": 24074, "scarcely": 20071, "jays": 18930, "1902": 5774, "[unused100]": 105, "passions": 25289, "gaunt": 27534, "##eased": 25063, "inheritance": 12839, "integer": 16109, "\u5f35": 1844, "respective": 7972, "nationalism": 14594, "##vity": 24872, "charts": 6093, "monsters": 9219, "anatomical": 28141, "transvaal": 28336, "opposed": 4941, "fast": 3435, "##\u66f2": 30396, "brazil": 4380, "rooster": 27681, "creations": 20677, "occurring": 10066, "condor": 29260, "bethel": 19375, "muhammad": 7187, "approximately": 3155, "balanced": 12042, "violinist": 16609, "wand": 23967, "##fahan": 28975, "##hani": 23573, "stairway": 21952, "interred": 13917, "subtropical": 11935, "nostalgia": 26968, "release": 2713, "denton": 23906, "\u0e23": 1417, "rampant": 25883, "wi": 15536, "warehouse": 9746, "edited": 5493, "116": 12904, "notwithstanding": 26206, "\u53e3": 1788, "spanning": 13912, "coyote": 20457, "conductor": 7589, "turkic": 22926, "news": 2739, "arrives": 8480, "container": 11661, "##zes": 11254, "scholars": 5784, "bouquet": 26700, "##inates": 28184, "##\u10db": 29984, "lands": 4915, "gymnastics": 14002, "nate": 8253, "helix": 25743, "finley": 29194, "retro": 22307, "landscape": 5957, "\u8ecd": 1955, "lloyd": 6746, "front": 2392, "pistols": 18248, "testament": 9025, "sermon": 18408, "citizens": 4480, "textile": 12437, "retrospective": 15354, "tomatoes": 12851, "1944": 3646, "##astic": 20875, "pious": 25020, "resisting": 22363, "wynn": 25328, "executive": 3237, "mythical": 19336, "classmate": 23175, "##itaire": 29422, "cues": 23391, "chemicals": 12141, "molten": 23548, "##stick": 21354, "##ray": 9447, "hawke": 24882, "tian": 23401, "##zziness": 29212, "chasing": 11777, "subconscious": 27952, "##?": 29632, "highlighting": 20655, "administering": 28965, "owned": 3079, "reopened": 11882, "calabria": 29430, "##mian": 20924, "industrialist": 21691, "supervisors": 22565, "albert": 4789, "elephants": 16825, "aggregation": 28041, "[unused613]": 618, "star": 2732, "ankles": 15392, "coming": 2746, "itv": 11858, "##ography": 9888, "kaladin": 22588, "##enham": 23580, "volvo": 21074, "printers": 23557, "saddam": 24111, "backs": 10457, "distinguishing": 20852, "##sc": 11020, "\u2012": 1515, "yellowstone": 29231, "granting": 15080, "cornerback": 26857, "##\u9f8d": 30508, "valentine": 10113, "chorale": 26561, "[unused806]": 811, "realism": 15650, "\u2075": 1539, "560": 21267, "##cor": 27108, "[unused566]": 571, "matters": 5609, "\u76f8": 1919, "##tro": 13181, "transylvania": 20816, "simultaneously": 7453, "tin": 9543, "stare": 6237, "molina": 25601, "entrepreneurship": 20213, "found": 2179, "twelve": 4376, "thrash": 27042, "learns": 10229, "melt": 14899, "rpm": 11575, "theatre": 3004, "[unused829]": 834, "##ested": 17944, "okinawa": 15052, "##emon": 26941, "didn": 2134, "fk": 14352, "rap": 9680, "##edd": 22367, "##rted": 17724, "bombs": 9767, "1886": 6929, "420": 17442, "fiat": 18550, "geek": 29294, "freyja": 7075, "##orio": 27416, "ontario": 4561, "president": 2343, "herr": 23506, "grandmaster": 27101, "lit": 5507, "great": 2307, "collapsed": 7798, "serena": 14419, "curated": 17940, "scope": 9531, "balkans": 19733, "outta": 24955, "healthcare": 9871, "174": 19492, "launcher": 22742, "wolfgang": 13865, "staggering": 26233, "freedom": 4071, "##ory": 10253, "sipping": 24747, "sutton": 11175, "\u3055": 1656, "##ters": 7747, "raced": 8255, "boroughs": 21413, "fireworks": 16080, "drill": 12913, "[unused769]": 774, "disclosure": 19380, "spiritual": 6259, "disliked": 18966, "\u2212": 1597, "[unused428]": 433, "dallas": 5759, "depths": 11143, "renovated": 10601, "secured": 7119, "##dara": 25329, "venus": 11691, "lister": 27177, "##\u1111": 30004, "charlton": 17821, "##tres": 19168, "##cted": 10985, "##ental": 21050, "workforce": 14877, "thrilled": 16082, "guthrie": 19952, "rush": 5481, "log": 8833, "##eira": 21302, "manitoba": 10512, "stretched": 7121, "robust": 15873, "dennis": 6877, "antiquity": 16433, "competition": 2971, "193": 19984, "reused": 26513, "returning": 4192, "##ided": 14097, "toll": 9565, "##be": 4783, "tel": 10093, "##werk": 29548, "via": 3081, "missouri": 5284, "\u116e": 1478, "preserves": 18536, "[unused773]": 778, "meal": 7954, "zombie": 11798, "##\u5bbf": 30352, "civilian": 6831, "partly": 6576, "##tling": 15073, "1840s": 19308, "issues": 3314, "prized": 25695, "lightning": 7407, "fuse": 19976, "caucasus": 16512, "[unused420]": 425, "weep": 27874, "##no": 3630, "hangar": 18284, "apostle": 20121, "alarm": 8598, "banco": 28678, "[unused93]": 94, "vigorously": 22400, "goodness": 15003, "##bot": 18384, "##berries": 20968, "##gee": 18372, "visiting": 5873, "lived": 2973, "\u00ae": 1079, "singers": 8453, "operational": 6515, "\u7ae0": 1932, "congressional": 7740, "##arded": 28037, "neighborhoods": 11681, "sanchez": 10568, "\u116f": 1479, "analog": 11698, "juventus": 22760, "palmer": 8809, "##eld": 14273, "50": 2753, "enforcement": 7285, "alcoholic": 14813, "aristocracy": 22706, "clicks": 29225, "##words": 22104, "burst": 6532, "levy": 12767, "ghostly": 24407, "imagine": 5674, "shah": 7890, "candidacy": 17057, "\u2248": 1606, "nearly": 3053, "invitations": 29492, "cork": 8513, "##son": 3385, "wexford": 23121, "analyzed": 16578, "leonardo": 14720, "##per": 4842, "exiting": 22371, "timely": 23259, "ponder": 29211, "##kovic": 14733, "linebacker": 15674, "nee": 7663, "buses": 7793, "administrative": 3831, "manuel": 7762, "##birds": 12887, "##odes": 19847, "til": 18681, "fission": 27521, "gotham": 22814, "barges": 27712, "abstracts": 29474, "keepers": 24018, "find": 2424, "synagogue": 13067, "furrowed": 20555, "knot": 12226, "silent": 4333, "##dis": 10521, "newly": 4397, "555": 29541, "promises": 10659, "harald": 20966, "receptors": 13833, "1993": 2857, "eats": 20323, "mort": 22294, "\u221e": 1601, "cottages": 18918, "##gic": 12863, "lori": 18669, "fish": 3869, "configured": 26928, "feldman": 26908, "par": 11968, "sophisticated": 12138, "ambitious": 12479, "encryption": 21999, "##48": 18139, "##my": 8029, "trial": 3979, "hidden": 5023, "scratch": 11969, "integrity": 11109, "snails": 13482, "adventure": 6172, "amar": 23204, "reapers": 27733, "dal": 17488, "scalp": 21065, "itself": 2993, "discovers": 9418, "##ensis": 9911, "pollard": 25513, "schultz": 22378, "join": 3693, "match": 2674, "coordinator": 10669, "##mounted": 27632, "jacobite": 28725, "##reate": 29313, "scraping": 23704, "unbroken": 29505, "symbolic": 12613, "1730": 23272, "windmill": 25367, "serialized": 27289, "georgian": 9166, "endowment": 15108, "bordered": 11356, "luckily": 15798, "strode": 11885, "appointing": 28050, "rebel": 8443, "##pet": 22327, "answer": 3437, "\u5ca1": 1832, "management": 2968, "ensuring": 12725, "##chel": 15721, "hearts": 8072, "##\u5e7f": 30368, "fbi": 8495, "##cup": 15569, "wrapped": 5058, "##nnis": 27803, "\u3001": 1635, "unfortunately": 6854, "subsistence": 27667, "ankara": 20312, "##\u02b8": 29710, "disposition": 22137, "limited": 3132, "welsh": 6124, "insignia": 16751, "peppers": 23582, "disturbed": 12491, "##kell": 18690, "bonn": 19349, "invested": 11241, "\u0294": 1139, "travelled": 7837, "eastenders": 28936, "ethanol": 22886, "artemis": 19063, "emigrated": 11367, "##rated": 9250, "beck": 10272, "1875": 7466, "##cle": 14321, "fairies": 20182, "##qa": 19062, "326": 28188, "purchasing": 13131, "verandah": 26153, "charity": 5952, "assume": 7868, "seminal": 20603, "clamped": 18597, "lifetime": 6480, "journals": 9263, "trait": 18275, "##working": 21398, "illustrious": 26150, "avery": 12140, "##orf": 16347, "510": 23475, "anglia": 24217, "apartment": 4545, "##uman": 19042, "dai": 18765, "employee": 7904, "corresponded": 27601, "##dell": 12662, "##man": 2386, "##late": 13806, "go": 2175, "departments": 7640, "sadler": 29012, "tightened": 8371, "south": 2148, "counseling": 17041, "goth": 25976, "robots": 13507, "lab": 6845, "##ple": 10814, "prayer": 7083, "##ssi": 18719, "mistress": 10414, "back": 2067, "pump": 10216, "parramatta": 22820, "tuna": 24799, "producer": 3135, "must": 2442, "\u06af": 1305, "subdued": 20442, "barrio": 25676, "[unused609]": 614, "psalms": 26130, "millennium": 10144, "titular": 12960, "##ame": 14074, "parentheses": 27393, "time": 2051, "ang": 17076, "desktop": 15363, "rates": 6165, "sloan": 19024, "concert": 4164, "dahl": 27934, "causes": 5320, "liga": 8018, "trends": 12878, "canary": 17154, "bridgeport": 27986, "pointe": 26119, "karim": 25461, "##ilation": 29545, "slated": 18517, "prosperous": 18241, "[unused432]": 437, "kiara": 28870, "butter": 12136, "actively": 8851, "sheets": 8697, "bays": 13933, "historical": 3439, "##pressed": 19811, "organs": 11595, "restrain": 28467, "traveling": 7118, "violence": 4808, "bihar": 16178, "dl": 21469, "soared": 29127, "332": 29327, "##\u09a1": 29896, "##xie": 16898, "information": 2592, "chesapeake": 20867, "using": 2478, "##\u30af": 30228, "##jean": 27687, "blake": 6511, "karel": 28021, "cardinals": 9310, "##ination": 12758, "sucking": 13475, "lectures": 8921, "southernmost": 21787, "scripture": 18919, "mariana": 22097, "accuracy": 10640, "wax": 13844, "associates": 9228, "phillies": 15711, "apartments": 9620, "una": 14477, "caspian": 25893, "international": 2248, "##nden": 25915, "##mack": 26945, "freeman": 11462, "gifted": 12785, "272": 24231, "##\u1165": 30008, "africans": 18076, "embryo": 28086, "differentiate": 21032, "grains": 17588, "188": 19121, "qing": 13282, "daily": 3679, "woman": 2450, "##nel": 11877, "##neck": 18278, "calder": 19347, "woodlands": 19268, "abbot": 11428, "heart": 2540, "##ley": 3051, "scream": 6978, "##aman": 23093, "brilliant": 8235, "franklin": 5951, "bible": 6331, "##mouth": 14359, "september": 2244, "traditions": 7443, "##inda": 23938, "style": 2806, "##di": 4305, "##ross": 25725, "plateau": 9814, "shape": 4338, "dig": 10667, "factions": 13815, "##vian": 18073, "bunny": 16291, "\u4e94": 1753, "##in": 2378, "vineyards": 20597, "##rick": 11285, "enforce": 16306, "appropriations": 22713, "heraldic": 28867, "glue": 25238, "dresden": 12983, "##\u06d2": 29846, "marjorie": 21562, "irish": 3493, "fog": 9666, "##ash": 11823, "tapes": 13324, "##\u043d\u0430": 19865, "##rook": 25399, "disappointing": 15640, "crambidae": 21585, "liberated": 19553, "hardin": 27522, "##eding": 17819, "argentina": 5619, "sulfur": 17864, "steak": 21475, "el": 3449, "deeds": 15616, "reared": 23295, "8": 1022, "casually": 13217, "gerry": 14926, "##eum": 14820, "tbs": 29584, "better": 2488, "exploration": 8993, "incorrect": 16542, "getting": 2893, "affects": 13531, "##back": 5963, "chest": 3108, "##cho": 9905, "[unused670]": 675, "warmer": 16676, "bellowed": 27386, "intruder": 22841, "wen": 19181, "reformed": 9114, "deaf": 12419, "epithet": 19626, "reclamation": 27389, "interest": 3037, "retailers": 16629, "augustus": 11668, "infection": 8985, "##tama": 28282, "buren": 29470, "flushed": 12953, "lullaby": 29149, "\u1d3a": 1494, "viewer": 13972, "coefficient": 19064, "submitted": 7864, "bride": 8959, "##kia": 21128, "##\u1d48": 30034, "##iko": 12676, "##\u0445": 29750, "1634": 28502, "resembles": 12950, "syntax": 20231, "fcc": 14420, "famine": 15625, "located": 2284, "[unused323]": 328, "seamen": 28671, "refurbished": 18662, "##loading": 18570, "##ptic": 20746, "421": 29403, "##\u03b9\u03b1": 27432, "authentic": 14469, "epidemic": 16311, "##\u062b": 29818, "##atz": 20501, "midtown": 27219, "apocalyptic": 27660, "romani": 23982, "##swick": 27720, "garth": 21523, "sergey": 22703, "adolescents": 25947, "heroine": 18869, "coincidentally": 27542, "denomination": 18683, "terminology": 18444, "\u3044": 1647, "\u060c": 1268, "label": 3830, "\u0645": 1295, "confrontation": 13111, "##cous": 27199, "challenges": 7860, "##dine": 10672, "raj": 11948, "ole": 15589, "sponsored": 6485, "##bing": 10472, "utilized": 12550, "##\u0434": 29742, "##mas": 9335, "voices": 5755, "consolidate": 24939, "##arte": 24847, "devastated": 13879, "organist": 16397, "##ora": 6525, "albans": 26311, "cent": 9358, "##zog": 28505, "demanded": 6303, "neighbour": 20065, "mastered": 15682, "nightfall": 28018, "combustion": 16513, "alt": 12456, "warns": 19428, "akin": 17793, "acquaintances": 29409, "decisions": 6567, "##rm": 10867, "wesley": 11482, "fatima": 27596, "##cel": 29109, "swedish": 4467, "erasmus": 26809, "hurrying": 27951, "stevens": 8799, "winters": 12214, "ethical": 12962, "tickets": 9735, "##nob": 25083, "townspeople": 27938, "horizontal": 9876, "1816": 12357, "lehigh": 23241, "lowlands": 26411, "##gara": 24864, "[unused81]": 82, "18th": 4985, "[unused109]": 114, "fathers": 11397, "beverly": 12218, "##pins": 27915, "##ston": 7106, "brave": 9191, "##pal": 12952, "routing": 16972, "245": 21005, "bolts": 19947, "##emi": 23238, "##\u0e32": 29958, "virgil": 17270, "accident": 4926, "[unused600]": 605, "professor": 2934, "faa": 17032, "cumulative": 23260, "presence": 3739, "##iology": 20569, "enthusiasm": 12024, "cables": 15196, "inline": 23881, "authorities": 4614, "algebra": 11208, "##ying": 14147, "mature": 9677, "##sh": 4095, "##cu": 10841, "matching": 9844, "knockout": 11369, "onset": 14447, "witness": 7409, "decorations": 14529, "defeated": 3249, "sheila": 15062, "instinctively": 16607, "browning": 18778, "launches": 18989, "boeing": 10321, "heirs": 15891, "##market": 20285, "qur": 23183, "dissatisfied": 25956, "##\u00a5": 29648, "##grounds": 28951, "divorce": 8179, "pope": 4831, "slender": 10944, "##lal": 13837, "senegal": 16028, "stevie": 17458, "##rained": 27361, "##\u110c": 30000, "kyushu": 25885, "beating": 6012, "kernel": 16293, "clearing": 8430, "##erson": 18617, "nocturnal": 23789, "explodes": 27583, "fisher": 8731, "plato": 18858, "[unused136]": 141, "##odon": 28716, "viewers": 7193, "feet": 2519, "members": 2372, "##mers": 16862, "scholar": 6288, "\u0648": 1298, "##uated": 16453, "\u208e": 1559, "strauss": 16423, "advisors": 18934, "ape": 23957, "eastward": 17318, "anguish": 21782, "antagonist": 17379, "recess": 28290, "fiji": 11464, "murdered": 7129, "dungeons": 20264, "creditors": 23112, "shortstop": 25359, "[unused748]": 753, "##icative": 25184, "conservatory": 11879, "brows": 11347, "##ulate": 9869, "tufts": 25252, "##yte": 17250, "##ssion": 28231, "##eiro": 17166, "smackdown": 22120, "soaring": 23990, "##rani": 21578, "##amen": 27245, "exceptionally": 17077, "##lia": 6632, "sucked": 8631, "[unused562]": 567, "salvador": 10582, "climbs": 18881, "capsule": 18269, "midway": 12213, "mass": 3742, "responsibility": 5368, "carnage": 27450, "##\u044a": 29755, "incorporating": 13543, "incense": 28647, "manufacture": 9922, "largely": 4321, "soup": 11350, "scanner": 26221, "aim": 6614, "telescopes": 28026, "honolulu": 16598, "insights": 20062, "plotted": 27347, "\u7248": 1907, "##gat": 20697, "##buro": 23670, "essence": 11305, "realizes": 10919, "##\u516b": 30297, "permission": 6656, "##sar": 10286, "##ffie": 29055, "abroad": 6917, "retail": 7027, "anime": 8750, "roofed": 26080, "ray": 4097, "remain": 3961, "influential": 6383, "borneo": 15688, "greedy": 20505, "segregated": 24382, "plastics": 26166, "\u2153": 1581, "designated": 4351, "bamboo": 15216, "attacks": 4491, "sebastien": 28328, "35th": 20198, "parishes": 11600, "##\u2083": 11622, "means": 2965, "semi": 4100, "eater": 28496, "1815": 10679, "torino": 24737, "##nical": 20913, "juliana": 24157, "##phi": 21850, "egan": 27889, "apprentice": 13357, "##bians": 26376, "administration": 3447, "siege": 6859, "asbestos": 29191, "buenos": 9204, "symmetry": 14991, "jock": 23407, "wild": 3748, "##its": 12762, "dipping": 23427, "girls": 3057, "hr": 17850, "periodically": 18043, "mayfair": 28387, "[unused357]": 362, "operating": 4082, "vegetarian": 23566, "friedrich": 8896, "parks": 6328, "ahl": 18347, "##yx": 17275, "segments": 9214, "adherents": 25712, "beer": 5404, "unix": 19998, "temeraire": 23611, "beit": 28236, "stimulus": 19220, "bain": 28477, "instability": 18549, "mechanism": 7337, "proclaimed": 10116, "presided": 15506, "ching": 19992, "factor": 5387, "chains": 8859, "ruse": 26307, "4a": 26424, "united": 2142, "parole": 17393, "gertrude": 18734, "##\u0f58": 29968, "sato": 20251, "uhf": 20131, "chickens": 21868, "##burg": 4645, "##board": 6277, "[unused905]": 910, "exchange": 3863, "##raph": 24342, "##he": 5369, "dub": 12931, "pounded": 13750, "bargaining": 21990, "milford": 22622, "##\u1d47": 30033, "gabby": 27183, "stark": 9762, "introduce": 8970, "wire": 7318, "cobb": 17176, "\u0e01": 1409, "fury": 8111, "otto": 8064, "334": 29562, "furnace": 17533, "mcgill": 17919, "darcy": 17685, "tatum": 25913, "roanoke": 25899, "danes": 27476, "squadron": 3704, "rohan": 28605, "mon": 12256, "nationalists": 17934, "abortion": 11324, "[unused450]": 455, "##duction": 16256, "collects": 17427, "\u9580": 1968, "##dt": 11927, "transporting": 18276, "leverage": 21155, "bites": 15424, "recipients": 15991, "303": 19988, "sheppard": 24976, "tragedy": 10576, "##sor": 21748, "##nick": 13542, "developers": 9797, "constructing": 15696, "[unused131]": 136, "flanked": 15874, "ze": 27838, "[unused92]": 93, "ngo": 17895, "[unused316]": 321, "bsc": 23533, "endemic": 7320, "nun": 16634, "canoe": 14347, "warrington": 23051, "257": 24368, "##}": 29642, "[unused341]": 346, "pawn": 19175, "suzy": 28722, "alexandria": 10297, "remained": 2815, "##bard": 21458, "ice": 3256, "treatments": 13441, "\u1d40": 1495, "\u5289": 1777, "gazette": 11391, "olds": 19457, "##hering": 22658, "vest": 17447, "barnard": 22266, "old": 2214, "hold": 2907, "santa": 4203, "artist": 3063, "designing": 12697, "descending": 15127, "##vet": 19510, "ex": 4654, "substituted": 17316, "rank": 4635, "boil": 26077, "succession": 8338, "147": 16471, "reward": 10377, "card": 4003, "deer": 8448, "[unused558]": 563, "barton": 12975, "\u00bd": 1092, "##ality": 23732, "acc": 16222, "confederates": 24627, "revision": 13921, "pedestrians": 24946, "caught": 3236, "shin": 12277, "piers": 16067, "literal": 18204, "publishing": 4640, "turned": 2357, "translators": 28396, "repetition": 23318, "sauce": 12901, "upper": 3356, "##vio": 25500, "guernsey": 24640, "tick": 16356, "##cts": 16649, "garment": 19002, "##\u2206": 30122, "\u0131": 1104, "buddies": 24115, "differentiation": 20582, "prompt": 25732, "pattern": 5418, "ulster": 11059, "burt": 18611, "opium": 21075, "[unused146]": 151, "##x": 2595, "searing": 25764, "kitchen": 3829, "bit": 2978, "##thi": 15222, "patterson": 12424, "signs": 5751, "suspicions": 17817, "histoire": 20088, "##ea": 5243, "eyebrows": 8407, "##lated": 13776, "nodded": 3368, "peninsular": 22682, "psi": 17816, "horseshoe": 23449, "##vus": 27500, "##ega": 29107, "casts": 23942, "bala": 21451, "##lity": 18605, "bunker": 15742, "country": 2406, "1976": 3299, "\u30f3": 1737, "##bach": 7693, "hospital": 2902, "pitt": 15091, "balancing": 20120, "carroll": 10767, "learned": 4342, "amalgamated": 17143, "entertaining": 14036, "##icides": 22698, "##lce": 23314, "rats": 11432, "aggressively": 24663, "##art": 8445, "yukon": 19898, "politics": 4331, "completely": 3294, "offence": 15226, "bloomberg": 22950, "##\u3053": 30181, "suspension": 8636, "welcome": 6160, "##ptive": 24971, "hornet": 26795, "v8": 15754, "##quisite": 24871, "pri": 26927, "exited": 15284, "[unused683]": 688, "##ich": 7033, "hmm": 17012, "claire": 6249, "accusing": 16723, "##nction": 27989, "instead": 2612, "##iciencies": 28227, "##ago": 23692, "rooney": 24246, "tempest": 22553, "assassins": 18364, "greeted": 11188, "##yam": 14852, "glued": 22805, "[unused241]": 246, "assist": 6509, "russian": 2845, "beam": 7504, "spy": 8645, "##icing": 23553, "##lates": 26786, "passes": 5235, "\u1161": 1470, "pal": 14412, "flight": 3462, "covered": 3139, "68": 6273, "golf": 5439, "##chemical": 15869, "therese": 25598, "cellular": 12562, "1906": 5518, "##jas": 17386, "norwegian": 5046, "sylvia": 13378, "bose": 21299, "##nable": 22966, "prevention": 9740, "mecklenburg": 22007, "captain": 2952, "herring": 22103, "twitch": 19435, "greenberg": 24190, "sorbonne": 28452, "emilio": 18644, "scanning": 13722, "##ivism": 22486, "sven": 21313, "ireland": 3163, "induced": 10572, "curiosity": 10628, "jin": 9743, "movies": 5691, "branding": 16140, "libre": 21091, "##pers": 7347, "##ises": 13087, "##\u0648": 29836, "hundreds": 5606, "##sts": 12837, "diverted": 18356, "1707": 25029, "hurley": 25124, "conflicting": 19326, "buys": 23311, "##tsky": 26824, "##r": 2099, "rolling": 5291, "terry": 6609, "towns": 4865, "##fle": 21031, "slip": 7540, "adolf": 12500, "[unused695]": 700, "##aint": 22325, "##wig": 16279, "melee": 27868, "goldsmith": 22389, "##ui": 10179, "maternal": 11062, "[unused508]": 513, "forecast": 19939, "slaughter": 14574, "sentence": 6251, "ledger": 27106, "borg": 28709, "rabbi": 7907, "capable": 5214, "trainer": 10365, "peabody": 20004, "madly": 29179, "tap": 11112, "compartments": 27998, "infections": 15245, "24": 2484, "clearance": 14860, "\u00bc": 1091, "agustin": 26889, "begged": 12999, "\u2022": 1528, "tuberculosis": 15877, "semiconductor": 20681, "##cula": 19879, "##wk": 26291, "##st": 3367, "noises": 14950, "[unused386]": 391, "bands": 4996, "entry": 4443, "##ated": 4383, "blindness": 26290, "mandela": 26887, "variation": 8386, "formed": 2719, "open": 2330, "##ess": 7971, "220": 10545, "awaited": 19605, "protagonists": 21989, "perform": 4685, "incarnation": 15715, "complex": 3375, "##anor": 27869, "##\u30c1": 30236, "hound": 19598, "##rz": 15378, "##wise": 14244, "surpassing": 27097, "saturday": 5095, "mannheim": 25116, "[unused479]": 484, "warmed": 17336, "reconcile": 21063, "merrill": 16239, "continuity": 13717, "booming": 24716, "designs": 5617, "rising": 4803, "utility": 9710, "##heads": 13038, "larger": 3469, "marian": 14042, "macdonald": 10406, "475": 28245, "flash": 5956, "##gens": 21230, "dolphin": 17801, "complied": 26946, "volunteer": 6951, "sleeps": 25126, "knox": 11994, "custody": 9968, "organizers": 18829, "[unused787]": 792, "healthy": 7965, "[unused770]": 775, "war": 2162, "waltz": 17569, "creation": 4325, "routines": 23964, "##\u02bc": 29712, "sore": 14699, "\u09ad": 1369, "pristine": 27375, "torch": 12723, "her": 2014, "##\u2044\u2084": 27392, "##ni": 3490, "serie": 8668, "mala": 28935, "statehood": 28000, "substances": 13978, "##\u3002": 30162, "lopez": 8685, "classes": 4280, "frontal": 19124, "##hima": 16369, "poke": 26202, "##head": 4974, "percent": 3867, "each": 2169, "[unused760]": 765, "behaviour": 9164, "##iferous": 23930, "convicted": 7979, "##ishing": 21837, "kerry": 11260, "upstate": 29530, "[unused387]": 392, "favorably": 27597, "spiral": 12313, "kilometres": 3717, "passports": 19494, "##ble": 3468, "crank": 27987, "[unused509]": 514, "virtues": 21560, "##via": 9035, "dictated": 23826, "##nsor": 29577, "digits": 16648, "##loh": 24729, "##basket": 25351, "duke": 3804, "commemorating": 20646, "##mist": 23738, "##\u062f": 15394, "##ikh": 28209, "mcconnell": 28514, "##rvis": 29074, "paces": 24785, "sterling": 10933, "epoch": 25492, "lore": 19544, "roam": 25728, "23rd": 13928, "[unused715]": 720, "tropical": 5133, "tribes": 6946, "meteorological": 20557, "##rling": 22036, "glass": 3221, "northernmost": 22037, "1642": 24061, "outing": 26256, "1839": 10011, "bjp": 24954, "\u1110": 1467, "electrification": 23679, "\u300e": 1643, "lowest": 7290, "sultanate": 21308, "##scia": 27210, "courtroom": 20747, "vocal": 5554, "edmonton": 10522, "##ela": 10581, "\u9593": 1969, "##sef": 20106, "blow": 6271, "loyalty": 9721, "##how": 14406, "depending": 5834, "coordinated": 14206, "##phs": 18757, "nrl": 20686, "proponent": 22488, "dealings": 24069, "awakened": 20256, "##zhou": 9791, "swirling": 16499, "digit": 15340, "loosen": 29476, "operation": 3169, "rhine": 10950, "location": 3295, "shiva": 12535, "##ignant": 25593, "negotiated": 13630, "antarctica": 12615, "payload": 18093, "compton": 18592, "##bbe": 19473, "serra": 22737, "hysteria": 29004, "crop": 10416, "blanche": 18158, "engraving": 23501, "takes": 3138, "nitrogen": 14114, "crushing": 14527, "catalonia": 16711, "additionally": 5678, "tongue": 4416, "##laze": 24472, "##escence": 28964, "[unused495]": 500, "##nay": 16741, "les": 4649, "superhuman": 27061, "funds": 5029, "##\u00e6": 29667, "vodka": 21092, "watt": 15231, "##ati": 10450, "##cing": 6129, "weston": 12755, "scheduled": 5115, "valerie": 14264, "1761": 21364, "guadalajara": 22887, "publishes": 12466, "severe": 5729, "roared": 14242, "tonga": 20188, "repay": 24565, "strokes": 13692, "archives": 8264, "##zman": 24340, "\u30cf": 1718, "chart": 3673, "comics": 5888, "##nia": 6200, "##stand": 21515, "\u30eb": 1733, "privatization": 23966, "##\u2191": 30112, "proceeding": 18207, "danger": 5473, "cast": 3459, "laying": 10201, "ne": 11265, "compression": 13379, "anytime": 15933, "##eber": 22669, "sync": 26351, "peaceful": 9379, "##rey": 15202, "policemen": 19809, "##zia": 12871, "researching": 20059, "meanwhile": 5564, "blaze": 15347, "##ldon": 19932, "concession": 16427, "outfits": 22054, "angus": 13682, "disorders": 10840, "coconut": 16027, "playful": 18378, "apologetic": 29352, "wife": 2564, "##mable": 24088, "rumours": 19200, "neoclassical": 22657, "##nent": 21576, "##hiko": 22204, "mania": 29310, "fairly": 7199, "winery": 23910, "narrated": 17356, "bilateral": 17758, "sector": 4753, "exercises": 11110, "##ji": 4478, "alcohol": 6544, "parallels": 18588, "newton": 8446, "##rata": 14660, "cadence": 23620, "emery": 24294, "nawab": 26543, "inhibition": 23586, "1665": 27676, "##\u3051": 30180, "[unused543]": 548, "deserved": 10849, "delhi": 6768, "roaming": 24430, "##nse": 12325, "mineral": 9754, "fabric": 8313, "##wy": 18418, "##clusive": 23633, "suite": 7621, "rankings": 10385, "voter": 14303, "curry": 15478, "depended": 17292, "aziz": 21196, "successor": 6332, "immortality": 20107, "territory": 3700, "patriot": 16419, "197": 19975, "##isman": 20257, "cushion": 22936, "##dier": 24612, "\u09b6": 1374, "detect": 11487, "bouts": 23666, "blackish": 22032, "1785": 17262, "spartans": 24293, "##nche": 26091, "##cision": 28472, "mines": 7134, "sabah": 22515, "accessory": 25339, "heather": 9533, "##sr": 21338, "violet": 8766, "bonus": 6781, "dated": 6052, "teen": 9458, "\uff0f": 1992, "kramer": 16322, "neglected": 15486, "collingwood": 20044, "avoid": 4468, "immediate": 6234, "artifacts": 10471, "siren": 19558, "flyers": 16217, "\u0d9a": 1403, "fights": 9590, "##sund": 25168, "reaper": 19559, "##\u4e45": 30274, "##pour": 27757, "connecticut": 6117, "hostess": 22566, "\u30c6": 1713, "papua": 13049, "##\u3008": 30163, "variety": 3528, "projects": 3934, "hicks": 17221, "purposes": 5682, "cabin": 6644, "biology": 7366, "eagles": 8125, "valued": 11126, "bea": 26892, "locality": 10246, "1823": 12522, "roofs": 15753, "113": 12104, "##\u30b7": 30232, "dressing": 11225, "dans": 18033, "attributed": 7108, "rene": 10731, "sinai": 20837, "unsuitable": 25622, "570": 24902, "francesco": 11400, "neurons": 15698, "consisted": 5031, "##bc": 9818, "divinity": 16968, "##name": 18442, "##\u82f1": 30467, "vane": 23334, "paw": 22195, "adorned": 19189, "##eak": 25508, "preston": 8475, "caine": 19881, "melanie": 13286, "blackened": 25788, "into": 2046, "nicholas": 6141, "breathless": 16701, "intellect": 24823, "agony": 12812, "##nik": 8238, "notions": 21951, "saharan": 24505, "powell": 8997, "##oked": 23461, "subsequently": 3525, "neal": 11030, "aden": 16298, "403": 28203, "##isan": 29196, "paxton": 27765, "hunters": 9624, "##ific": 18513, "closure": 8503, "##ked": 8126, "skaters": 24789, "antigen": 28873, "football": 2374, "equity": 10067, "smith": 3044, "slapping": 22021, "leone": 13363, "continuation": 13633, "dev": 16475, "lilith": 25576, "[unused441]": 446, "##kata": 29123, "##eg": 13910, "monroe": 9747, "setup": 16437, "estimates": 10035, "##erative": 25284, "##tub": 28251, "script": 5896, "azerbaijan": 8365, "760": 24643, "ala": 21862, "banning": 21029, "sponge": 25742, "painters": 12499, "willoughby": 24919, "adapting": 25357, "its": 2049, "1989": 2960, "andhra": 14065, "posterior": 15219, "sinks": 23462, "accolades": 27447, "novelist": 9974, "symbol": 6454, "eng": 25540, "assignments": 14799, "sap": 20066, "christoph": 21428, "prentice": 23429, "forwards": 19390, "graduated": 3852, "[unused153]": 158, "indiana": 5242, "##trom": 13887, "##rp": 14536, "quest": 8795, "##oed": 29099, "##vc": 25465, "survive": 5788, "warlock": 28861, "tomato": 20856, "meter": 8316, "liquor": 13207, "whom": 3183, "fairfield": 18986, "[unused229]": 234, "cordoba": 17986, "babylon": 17690, "apologized": 17806, "trey": 14826, "mummy": 22788, "\u0e07": 1410, "emotion": 7603, "##atic": 12070, "[unused851]": 856, "##riz": 21885, "care": 2729, "permits": 14245, "hiroshi": 26882, "\u30c4": 1712, "brands": 9639, "speaks": 8847, "##glass": 15621, "camera": 4950, "sorted": 19616, "evaluate": 16157, "xiang": 27735, "chennai": 12249, "station": 2276, "honduras": 14373, "partisans": 20762, "##athing": 22314, "sub": 4942, "[unused333]": 338, "morocco": 9835, "##nated": 23854, "##nga": 13807, "cedar": 11354, "\u0452": 1211, "st": 2358, "seasons": 3692, "energy": 2943, "lilly": 14765, "moreover": 9308, "##rd": 4103, "heightened": 21106, "shall": 4618, "2009": 2268, "spread": 3659, "owns": 8617, "grabbing": 9775, "##lynn": 27610, "restraints": 28054, "##liga": 14715, "printing": 8021, "china": 2859, "tweed": 26922, "marxism": 27255, "homosexual": 15667, "butt": 10007, "patrol": 6477, "vii": 8890, "189": 20500, "sincere": 18006, "hee": 18235, "##eras": 24140, "\u0930": 1333, "falkland": 25257, "\u0192": 1108, "predecessors": 16372, "counsel": 9517, "eureka": 21142, "byron": 12234, "lays": 19764, "##tius": 22638, "carnegie": 11298, "polite": 13205, "shelf": 11142, "extend": 7949, "##elman": 23830, "big": 2502, "regional": 3164, "landmark": 8637, "constraint": 27142, "coil": 17085, "[unused197]": 202, "161": 17365, "developmental": 13908, "skipped": 16791, "risking": 26875, "helicopter": 7739, "tasmanian": 21394, "controllers": 21257, "##plex": 19386, "andes": 18096, "easter": 10957, "moffat": 28528, "nobleman": 18487, "##rand": 13033, "dire": 18704, "dress": 4377, "arsenal": 9433, "blind": 6397, "strife": 27865, "##inating": 19185, "champs": 29008, "\u1d58": 1506, "##\u533a": 30308, "momentarily": 16032, "possessive": 22105, "iphone": 18059, "russ": 18072, "[unused592]": 597, "remastered": 19484, "coleman": 11608, "lair": 21039, "uae": 17641, "##lc": 15472, "novels": 6002, "mary": 2984, "pounding": 9836, "as": 2004, "##ous": 3560, "##walk": 17122, "settler": 18556, "removal": 8208, "gleaming": 18242, "##iter": 21646, "anderson": 5143, "medici": 22605, "oliver": 6291, "line": 2240, "##mony": 22847, "##vera": 26061, "beaches": 12212, "##\u535a": 30312, "bam": 25307, "havilland": 23994, "\u062e": 1277, "business": 2449, "[unused783]": 788, "populations": 7080, "returns": 5651, "123": 13138, "##metric": 12589, "tarzan": 24566, "##drop": 25711, "running": 2770, "maintains": 9319, "products": 3688, "\u0635": 1284, "faded": 8105, "montane": 21704, "violins": 25877, "##\u05e3": 29806, "cancers": 25409, "\u1162": 1471, "050": 28714, "##otted": 26174, "terrorist": 9452, "tissue": 8153, "im": 10047, "mab": 26661, "hospice": 29277, "girlfriend": 6513, "middlesbrough": 21655, "fourier": 26899, "##hip": 5605, "##ero": 10624, "jointly": 10776, "[unused222]": 227, "humane": 23369, "\u05e7": 1264, "daemon": 12828, "##sack": 25607, "engines": 5209, "\u10d9": 1446, "cho": 16480, "##proof": 18907, "joey": 9558, "hartford": 13381, "bartender": 15812, "##du": 8566, "allowed": 3039, "morley": 20653, "##lean": 20898, "hooves": 28399, "apologize": 12134, "imagery": 13425, "load": 7170, "diagonal": 19754, "##vis": 11365, "bafta": 22284, "protege": 28567, "[unused659]": 664, "dining": 7759, "haryana": 23261, "rods": 19485, "elf": 17163, "##dl": 19422, "##hler": 13620, "amnesia": 29222, "puerto": 5984, "##ms": 5244, "manor": 6952, "##ilia": 27861, "##bha": 22655, "512": 24406, "sphere": 10336, "inmates": 13187, "covert": 19813, "neo": 9253, "see": 2156, "quartet": 8530, "airfield": 9087, "##\u092d": 29866, "[unused583]": 588, "showtime": 23811, "drugged": 25483, "forgive": 9641, "eager": 9461, "larson": 21213, "nutritional": 28268, "modular": 19160, "certification": 10618, "jay": 6108, "kildare": 24275, "outrageous": 25506, "1560": 29185, "regina": 12512, "mclaren": 18590, "pencil": 14745, "yer": 20416, "arjun": 26024, "duets": 29410, "flourishing": 29571, "##grants": 27444, "mirza": 18366, "##mates": 15416, "wilkinson": 16237, "crossover": 16335, "hazy": 26710, "missy": 25019, "151": 16528, "##15": 16068, "[unused383]": 388, "wilbur": 26151, "##castle": 23662, "##eous": 14769, "communists": 13009, "giggle": 17565, "fabricated": 24212, "colchester": 20115, "##ors": 5668, "nagar": 16395, "showered": 23973, "rescuing": 23659, "antioch": 19078, "##ese": 6810, "dryly": 20825, "influenza": 24442, "##apple": 23804, "##rco": 29566, "carbon": 6351, "##croft": 14716, "reporting": 7316, "protocols": 16744, "courageous": 26103, "##law": 14919, "published": 2405, "allah": 16455, "fascism": 23779, "##dman": 21804, "serves": 4240, "actress": 3883, "##olic": 23518, "minions": 28071, "swings": 18755, "floated": 13715, "plaque": 11952, "tutor": 14924, "unions": 9209, "gubernatorial": 19100, "1781": 16788, "remedy": 19519, "bulbs": 25548, "revolver": 17863, "collegiate": 9234, "architects": 8160, "northbound": 20055, "contact": 3967, "sarcasm": 20954, "hell": 3109, "guineas": 22385, "cunning": 23626, "trap": 8132, "tunis": 25317, "anatomy": 13336, "opaque": 28670, "\u30aa": 1699, "##16": 16048, "renal": 25125, "beige": 28799, "##\u06ba": 29843, "interface": 8278, "recruited": 8733, "##cure": 23887, "photographs": 7008, "um": 8529, "economist": 11708, "erin": 11781, "attitude": 7729, "##ato": 10610, "##aid": 14326, "honourable": 17164, "attain": 18759, "muriel": 27616, "baldwin": 10970, "oral": 8700, "pianist": 9066, "easy": 3733, "##c": 2278, "hobart": 14005, "san": 2624, "viewpoint": 21386, "panda": 25462, "##tlement": 24007, "circumstance": 25652, "altitude": 7998, "loser": 10916, "until": 2127, "##dd": 14141, "signed": 2772, "mauritius": 18004, "##\u2091": 30090, "##e": 2063, "classic": 4438, "accomplish": 14570, "disciples": 17102, "[unused218]": 223, "twisting": 12814, "fairbanks": 24502, "irresistible": 27149, "interfered": 28976, "##gpur": 25758, "brooks": 8379, "clinics": 17865, "props": 24387, "larsen": 20094, "93": 6109, "brisk": 28022, "footprints": 24629, "[unused784]": 789, "prequel": 28280, "suitcase": 15940, "survival": 7691, "statue": 6231, "stole": 10312, "##dner": 28001, "earle": 23888, "##asia": 15396, "propellers": 23405, "##cine": 16567, "dyke": 22212, "semitic": 20604, "##tum": 11667, "spots": 7516, "##ta": 2696, "goddard": 22547, "1775": 14276, "ahmad": 10781, "enterprise": 6960, "indices": 29299, "terrible": 6659, "nudged": 18666, "##ini": 5498, "clarissa": 25260, "scoffed": 26326, "functioning": 12285, "mushrooms": 23827, "controversial": 6801, "murphy": 7104, "ren": 14916, "##\u30cb": 30242, "grey": 4462, "balls": 7395, "deeply": 6171, "callahan": 25668, "faults": 19399, "##ovo": 16059, "2008": 2263, "radical": 7490, "37": 4261, "google": 8224, "worry": 4737, "[unused253]": 258, "##cola": 26289, "amateurs": 24361, "##fied": 10451, "##arion": 27548, "stone": 2962, "leopard": 16240, "honored": 8686, "##lma": 19145, "intent": 7848, "earthly": 29520, "proper": 5372, "spawn": 25645, "cds": 14340, "wigan": 15598, "glowed": 16497, "entity": 9178, "originals": 23728, "##ference": 25523, "[unused236]": 241, "realistic": 12689, "lc": 29215, "horne": 24084, "formulated": 19788, "concept": 4145, "victories": 9248, "offshore": 12195, "cupping": 25076, "##ei": 7416, "##\u6a4b": 30411, "bromwich": 27888, "originate": 21754, "shoulders": 4065, "implies": 12748, "##dhi": 19114, "endurance": 14280, "walls": 3681, "edwin": 10049, "##ena": 8189, "abundance": 14531, "bedroom": 5010, "##ter": 3334, "louis": 3434, "pressing": 7827, "lille": 22479, "nazareth": 27192, "branded": 11180, "civil": 2942, "##mation": 28649, "282": 26267, "uranium": 14247, "\u0578": 1232, "residing": 7154, "realizing": 9301, "##sur": 26210, "bomb": 5968, "endeavour": 26911, "syn": 19962, "wearing": 4147, "##\u5357": 30311, "suns": 19352, "swamps": 22722, "inclusion": 10502, "sidewalk": 11996, "reconstructed": 14858, "390": 20024, "harden": 28751, "french": 2413, "{": 1063, "##\u30cf": 30244, "sheldon": 19369, "catalyst": 16771, "alloy": 17564, "fleming": 13779, "rosemary": 18040, "\u0261": 1116, "questioning": 11242, "billy": 5006, "assessment": 7667, "##\u1d40": 30031, "##\u30e3": 30254, "autopsy": 24534, "derive": 18547, "graded": 21976, "raiders": 10642, "tex": 16060, "gilmore": 22999, "greyish": 26916, "##\u09c0": 29916, "judicial": 8268, "bold": 7782, "siding": 17326, "rectory": 24606, "localities": 19664, "cotton": 6557, "roast": 25043, "units": 3197, "##lic": 10415, "pee": 21392, "##kovsky": 23829, "colleague": 11729, "##\u03b1": 14608, "sighing": 19381, "cadiz": 26342, "##mism": 26725, "appetite": 18923, "marilyn": 14749, "depend": 12530, "teammates": 13220, "biologist": 21477, "##uez": 29488, "##\u0640": 29832, "##gence": 17905, "\u0923": 1322, "fated": 27442, "lawyer": 5160, "requirements": 5918, "morse": 17107, "conquest": 9187, "119": 13285, "municipalities": 7602, "surprise": 4474, "620": 23612, "tablets": 17596, "yard": 4220, "hysterical": 25614, "abandoned": 4704, "businesses": 5661, "forced": 3140, "attributes": 12332, "accounting": 9529, "weeks": 3134, "turn": 2735, "pga": 14198, "\u2092": 1562, "money": 2769, "palms": 9486, "rapper": 10687, "puddle": 25081, "strata": 22913, "pigeons": 27567, "specimen": 11375, "adolescent": 20274, "##\u00aa": 29653, "elections": 3864, "exits": 16639, "shaking": 5513, "[unused545]": 550, "##chu": 20760, "##rop": 18981, "afraid": 4452, "##ary": 5649, "##tively": 25499, "subdivision": 12572, "correction": 18140, "leicestershire": 20034, "##\u2032": 30066, "offspring": 13195, "footage": 8333, "statewide": 13486, "determines": 16463, "##issa": 21205, "##hor": 16368, "78": 6275, "yells": 22114, "wildly": 13544, "opponent": 7116, "revival": 6308, "national": 2120, "tito": 20712, "scaling": 25169, "##sworth": 12255, "belgarath": 21256, "literary": 4706, "\u044f": 1210, "classed": 27811, "austrian": 6161, "chewed": 18362, "##ulio": 24825, "almond": 26011, "ohio": 4058, "vowels": 15260, "##\u5834": 30332, "applications": 5097, "ska": 24053, "derelict": 28839, "##mins": 21266, "ending": 4566, "finished": 2736, "[unused917]": 922, "tubes": 10868, "pines": 17527, "ba": 8670, "\u2078": 1542, "##\u592a": 30338, "prices": 7597, "refused": 4188, "##tre": 7913, "severely": 8949, "piano": 3682, "arboretum": 25197, "iconic": 14430, "church": 2277, "[unused985]": 990, "redesignated": 11836, "##nde": 13629, "##lina": 13786, "lowe": 14086, "1500": 10347, "investigating": 11538, "##isms": 22556, "towed": 18948, "advancement": 12607, "np": 27937, "revealing": 8669, "texas": 3146, "##\u6708": 30398, "physics": 5584, "horn": 7109, "imagined": 8078, "sunset": 10434, "##nova": 13455, "rwanda": 17591, "boo": 22017, "##essed": 23656, "##tan": 5794, "1841": 9840, "saxon": 10038, "connectivity": 20831, "!": 999, "sacrifice": 8688, "outstanding": 5151, "yearly": 12142, "down": 2091, "fluttered": 18360, "unicorn": 21830, "ymca": 26866, "morris": 6384, "[unused113]": 118, "byrd": 17845, "tyre": 21904, "photographer": 8088, "fan": 5470, "untitled": 24819, "difficulties": 8190, "timmy": 27217, "collaborated": 8678, "strolled": 20354, "petrol": 17141, "hindi": 9269, "##text": 18209, "pantheon": 24152, "constitutes": 17367, "biennale": 21140, "framework": 7705, "newcastle": 8142, "~": 1066, "endless": 10866, "##chua": 26200, "\u91d1": 1964, "build": 3857, "cleared": 5985, "[unused112]": 117, "rocky": 6857, "nostrils": 15325, "controlling": 9756, "vis": 25292, "launched": 3390, "mn": 24098, "comply": 14037, "fascinated": 15677, "##\u7fa9": 30462, "\u0f62": 1434, "abc": 5925, "##lastic": 28723, "[unused904]": 909, "pile": 8632, "lessons": 8220, "xiii": 15031, "obsolete": 15832, "models": 4275, "admire": 19837, "jerseys": 28772, "[unused389]": 394, "delivering": 12771, "giving": 3228, "[unused882]": 887, "\u30b9": 1707, "##lation": 13490, "##oux": 28700, "[unused808]": 813, "jeremiah": 17526, "##vale": 17479, "fc": 4429, "plot": 5436, "balloons": 22163, "seniors": 15995, "narrator": 11185, "intervened": 21116, "huskies": 29471, "##\u0561": 29766, "malaysian": 11843, "##ci": 6895, "progressive": 6555, "cheating": 16789, "bmg": 24499, "jingle": 29262, "i": 1045, "##icide": 21752, "registration": 8819, "pro": 4013, "malacca": 28481, "##hart": 10686, "profits": 11372, "##ows": 15568, "lash": 25210, "##qual": 26426, "webster": 11635, "##lized": 28931, "thomas": 2726, "##hai": 10932, "bridget": 19218, "specializing": 14055, "owl": 13547, "movement": 2929, "scarred": 21985, "hook": 8103, "swat": 25414, "peg": 25039, "pedersen": 27409, "pad": 11687, "##ex": 10288, "##scope": 26127, "1922": 4798, "convenient": 14057, "adelaide": 7364, "fowler": 14990, "dismounted": 29580, "halted": 12705, "[unused576]": 581, "bottles": 11015, "impatient": 17380, "io": 22834, "\u30a1": 1692, "##logie": 27095, "saunders": 15247, "breakaway": 26321, "##ously": 13453, "thunder": 8505, "ramps": 24943, "lass": 27333, "ordained": 9492, "restore": 9239, "##khar": 22510, "##sb": 19022, "touching": 7244, "u2": 23343, "ingredients": 12760, "[unused697]": 702, "xavier": 10062, "integrate": 17409, "implementing": 14972, "gesturing": 22317, "floppy": 28491, "##\u5927": 30336, "barns": 25684, "carlson": 22226, "peas": 26072, "##ap": 9331, "atm": 27218, "\u05d3": 1244, "refined": 15514, "warped": 25618, "countryside": 10833, "indifference": 25920, "1765": 20797, "##crats": 23423, "\u751f": 1910, "##marks": 27373, "rebellion": 7417, "rumbled": 22257, "##tua": 26302, "jarrett": 24503, "arise": 13368, "acts": 4490, "##gren": 13565, "inhibit": 26402, "##\u30db": 30248, "##rug": 26549, "geometridae": 24687, "condemn": 28887, "analytical": 17826, "##dus": 17619, "presently": 12825, "##ciful": 26336, "confederation": 11078, "\u05db": 1252, "yates": 20356, "david": 2585, "peacekeeping": 28364, "probing": 28664, "[unused52]": 53, "allotted": 23932, "##list": 9863, "chu": 14684, "undisclosed": 18206, "##il": 4014, "sakura": 23066, "mane": 23055, "wedding": 5030, "blossoms": 28766, "hop": 6154, "smirk": 15081, "14th": 6400, "##para": 28689, "##titled": 21309, "retirement": 5075, "##\u0574": 29776, "mason": 6701, "[unused37]": 38, "##oj": 29147, "burton": 9658, "##ou": 7140, "reluctantly": 11206, "mentoring": 29192, "bay": 3016, "##es": 2229, "croatia": 8097, "develops": 11791, "cathy": 18305, "[unused910]": 915, "##\u4ecb": 30285, "##\u09ad": 29905, "island": 2479, "fifty": 5595, "veracruz": 23741, "##eki": 26576, "tugging": 17100, "divide": 11443, "molecular": 8382, "[unused588]": 593, "##fully": 7699, "racist": 16939, "bored": 11471, "pioneers": 13200, "valor": 27314, "bull": 7087, "denotes": 14796, "definite": 15298, "[unused354]": 359, "chuckled": 10252, "##rc": 11890, "deal": 3066, "kiel": 20963, "##\u0575": 29777, "allowance": 21447, "##khan": 26370, "distinctions": 25995, "cruises": 23986, "drew": 3881, "useless": 11809, "rutland": 27780, "wooded": 17172, "detached": 12230, "##umb": 25438, "##mie": 9856, "##loe": 26846, "curves": 10543, "ellen": 9155, "##taro": 28160, "examine": 11628, "electronics": 8139, "nicola": 17388, "playhouse": 17408, "hymns": 17777, "dormant": 22170, "grassland": 20331, "##ym": 24335, "##iy": 28008, "tourist": 7538, "##49": 26224, "glided": 26936, "living": 2542, "1867": 7517, "1860s": 15914, "indications": 24936, "drills": 28308, "andrei": 18125, "dt": 26718, "guessed": 11445, "temples": 8436, "tempted": 16312, "imam": 17189, "picked": 3856, "export": 9167, "##rso": 25301, "intimately": 29024, "headmaster": 16296, "##lyn": 9644, "cringed": 23952, "carter": 5708, "exhibited": 8176, "##rad": 12173, "##\u306c": 30195, "missing": 4394, "##stituting": 21532, "valentin": 24632, "woodland": 11051, "##beam": 28302, "adventurous": 29118, "huh": 9616, "sixties": 22651, "yue": 27163, "camouflage": 21356, "##gra": 17643, "##acio": 21361, "left": 2187, "\u5343": 1784, "queen": 3035, "##ally": 3973, "marina": 9985, "dem": 17183, "mateo": 19327, "premiership": 11264, "##edging": 28002, "naturally": 8100, "leads": 5260, "aura": 15240, "leaking": 24325, "julio": 15090, "[unused483]": 488, "kennedy": 5817, "extravagant": 27856, "represents": 5836, "evacuate": 22811, "producing": 5155, "bristol": 7067, "outfit": 11018, "hooks": 18008, "##wd": 21724, "torre": 22047, "##ropolis": 23248, "liter": 23675, "theta": 23963, "[unused351]": 356, "\u0252": 1111, "rubble": 17538, "cooks": 26929, "persuasion": 27577, "causal": 28102, "##oka": 12352, "hence": 6516, "rajasthan": 16815, "##free": 23301, "spear": 12341, "\u1d9c": 1511, "antibiotics": 24479, "evolve": 19852, "exploits": 20397, "chamberlain": 13904, "shipyard": 13858, "throw": 5466, "sprint": 9043, "winds": 7266, "productions": 5453, "cemetery": 4528, "##asurable": 28329, "\u05dc": 1253, "##lifting": 26644, "##ol": 4747, "62": 5786, "shrimp": 20130, "appendix": 22524, "coward": 16592, "enacted": 11955, "such": 2107, "regretted": 18991, "##cuit": 28168, "##night": 15864, "gifford": 29360, "working": 2551, "griffin": 9258, "04": 5840, "competitor": 12692, "ec": 14925, "moment": 2617, "astronauts": 25881, "[unused585]": 590, "##rous": 13288, "126": 14010, "##lowe": 27663, "original": 2434, "publish": 10172, "rescued": 10148, "##bet": 20915, "voss": 24878, "##aan": 14634, "##hein": 26496, "striker": 11854, "obedience": 22645, "damaged": 5591, "##hwa": 18663, "##3d": 29097, "forsyth": 29434, "shetland": 25552, "infrared": 14611, "pavilion": 10531, "detection": 10788, "cyclones": 26069, "onion": 20949, "tract": 12859, "limestone": 9771, "5000": 13509, "lawsuit": 9870, "lorraine": 13895, "dissemination": 28170, "iss": 26354, "debates": 14379, "[unused322]": 327, "club": 2252, "nation": 3842, "##tious": 20771, "buildings": 3121, "memphis": 9774, "milne": 24377, "gleamed": 25224, "ctv": 28720, "tackles": 10455, "jeopardy": 26604, "man": 2158, "cary": 20533, "reduced": 4359, "guns": 4409, "##boro": 12691, "optics": 21026, "coupe": 15130, "labelled": 18251, "##vating": 26477, "##ht": 11039, "dina": 26146, "tomorrow": 4826, "tell": 2425, "lent": 15307, "triangle": 9546, "neville": 14871, "yokohama": 20507, "##cats": 19588, "glossy": 19504, "rayon": 26810, "paused": 5864, "[unused126]": 131, "notorious": 12536, "khyber": 28416, "middleton": 17756, "tallinn": 21169, "coulter": 28293, "paced": 13823, "edison": 17046, "wears": 11651, "realised": 11323, "wan": 14071, "distinction": 7835, "\u044c": 1207, "firms": 9786, "visits": 7879, "402": 28048, "weakness": 11251, "nfl": 5088, "gliding": 20292, "##bey": 19182, "jobs": 5841, "\u00b0f": 8157, "aging": 12520, "drivers": 6853, "swan": 10677, "unrest": 16591, "spontaneously": 27491, "waterfall": 14297, "correctly": 11178, "bianca": 18051, "upward": 10745, "##ports": 25378, "hearth": 22885, "barked": 17554, "clung": 14752, "follower": 22399, "breaking": 4911, "##orth": 28610, "\u1d4d": 1500, "xiao": 19523, "barry": 6287, "##ssen": 14416, "creepy": 17109, "quarry": 12907, "36": 4029, "uncredited": 8104, "track": 2650, "1910": 4976, "fishing": 5645, "ecole": 12431, "typing": 22868, "orchestra": 4032, "disgusted": 17733, "lucan": 20764, "storing": 23977, "watered": 27129, "##thor": 27844, "vintage": 13528, "##isch": 19946, "chelsea": 9295, "defendant": 13474, "leader": 3003, "betrayal": 14583, "indicating": 8131, "halt": 9190, "anton": 9865, "slalom": 19617, "1836": 10081, "daylight": 11695, "coach": 2873, "tune": 8694, "throbbed": 27714, "teatro": 16038, "angeles": 3349, "##uck": 12722, "##fulness": 20938, "lulu": 21744, "walkers": 22559, "shrines": 22562, "casimir": 24701, "docked": 25727, "ashes": 11289, "nicholls": 27043, "160": 8148, "psychic": 12663, "burying": 20491, "##uda": 14066, "panting": 15601, "coincidence": 16507, "##mara": 28225, "syndicated": 13889, "vomiting": 24780, "earth": 3011, "##les": 4244, "dancer": 8033, "mimic": 23150, "##yo": 7677, "sake": 8739, "##ai": 4886, "bun": 21122, "proponents": 20401, "utterly": 12580, "farewell": 13407, "journal": 3485, "humiliation": 21171, "##esses": 26636, "127": 13029, "ourselves": 9731, "insistence": 20616, "39th": 22702, "##\u03c3": 29733, "##\u203f": 30069, "confession": 12633, "nadia": 14942, "##uing": 25165, "##\u4e4b": 30275, "\u2084": 1551, "nave": 12847, "jessica": 8201, "love": 2293, "##yle": 12844, "eagerly": 17858, "documentaries": 15693, "##\u1d63": 30043, "welding": 23604, "\u099f": 1359, "effort": 3947, "enjoy": 5959, "cosmopolitan": 24686, "##raphy": 26228, "reckon": 29072, "faber": 21720, "provides": 3640, "hayes": 10192, "account": 4070, "tires": 13310, "free": 2489, "##zio": 12426, "slice": 14704, "learners": 26262, "musically": 21385, "shooter": 13108, "##emy": 26662, "##ric": 7277, "female": 2931, "##ford": 3877, "##ette": 7585, "\u0434": 1184, "ambiguous": 20080, "##finger": 20349, "sam": 3520, "ahmedabad": 27249, "directorial": 21635, "asturias": 26798, "stabilization": 28715, "antenna": 13438, "stanza": 29509, "gown": 11739, "harvard": 5765, "##ayan": 25868, "\u57ce": 1804, "\u1175": 1483, "bingham": 24579, "##atory": 14049, "##\u2663": 30151, "124": 13412, "swap": 19948, "##mora": 22122, "townsville": 27492, "walt": 10598, "eps": 20383, "\u2297": 1613, "menacing": 24060, "youtube": 7858, "##ife": 29323, "br": 7987, "##ons": 5644, "##tock": 17406, "gel": 21500, "109": 11518, "indicative": 24668, "##\u0643": 29835, "drank": 10749, "ezio": 23043, "bobbie": 27731, "##tti": 6916, "camping": 13215, "arms": 2608, "##achal": 24409, "comparison": 7831, "denis": 11064, "ringing": 13060, "screams": 11652, "sophomore": 13758, "kirby": 15129, "inspire": 18708, "##weiler": 22384, "coasts": 20266, "##oh": 11631, "turnover": 20991, "kitchens": 26051, "academies": 20994, "mercantile": 25420, "holidays": 11938, "golfer": 20601, "productivity": 15836, "ammunition": 9290, "##46": 21472, "prevailing": 19283, "ritual": 8887, "##\u2014": 30052, "aero": 18440, "highlands": 11784, "rpg": 22531, "spraying": 29035, "mortgage": 14344, "1774": 17593, "caliph": 22733, "preventing": 10723, "wes": 14008, "stew": 20717, "##\u043e\u0432": 19259, "collaborating": 20295, "bt": 18411, "pennsylvania": 3552, "falsely": 23123, "1935": 4437, "jury": 6467, "patting": 26085, "dubai": 11558, "##written": 15773, "248": 24568, "sided": 11536, "##jured": 26949, "##\u0f63": 29971, "##\u793a": 30449, "ritchie": 20404, "##eration": 16754, "contend": 27481, "hostage": 13446, "##bilities": 14680, "xi": 8418, "##ye": 6672, "special": 2569, "##saka": 29289, "##sten": 16173, "projectile": 25921, "lucia": 12337, "failure": 4945, "##opers": 27342, "maintaining": 8498, "feared": 8615, "[unused638]": 643, "elbow": 8999, "##cea": 21456, "saturated": 23489, "grape": 14722, "shade": 8703, "reasonably": 16286, "ernesto": 22428, "\u0440": 1195, "asiatic": 23983, "\u674e": 1877, "darryl": 22821, "premio": 23031, "pulitzer": 17618, "coping": 27520, "[unused776]": 781, "abandonment": 22290, "reads": 9631, "tt": 23746, "columbian": 25882, "roberto": 10704, "upgrades": 18739, "admission": 9634, "##\u76f8": 30445, "\u0e2a": 1420, "##zon": 11597, "finch": 16133, "constellation": 15300, "becoming": 3352, "nano": 28991, "cleveland": 6044, "took": 2165, "stock": 4518, "##dun": 27584, "wanting": 5782, "in": 1999, "joking": 16644, "admitting": 17927, "##ctum": 27272, "resembled": 15881, "##\u7af9": 30459, "broker": 20138, "faces": 5344, "##gate": 5867, "sexually": 12581, "landau": 28570, "simple": 3722, "[unused578]": 583, "coffin": 13123, "salman": 28542, "buck": 10131, "kelvin": 24810, "tub": 14366, "hesse": 16399, "belize": 18867, "expensive": 6450, "[unused176]": 181, "192": 17613, "uh": 7910, "maneuver": 17519, "int": 20014, "ward": 4829, "##hide": 26100, "demolition": 12451, "neurological": 23130, "[unused523]": 528, "darting": 24567, "##rock": 16901, "##zzled": 17269, "becomes": 4150, "website": 4037, "[unused802]": 807, "pam": 14089, "ceylon": 16447, "disks": 23999, "##asco": 28187, "##\u5730": 30328, "forster": 21316, "nes": 24524, "une": 16655, "[unused413]": 418, "##bos": 15853, "carvings": 22838, "purchases": 17402, "[unused834]": 839, "adviser": 11747, "##stov": 29473, "[unused975]": 980, "conspicuous": 19194, "ortega": 25859, "cows": 17188, "contributed": 5201, "seduce": 23199, "ruby": 10090, "travelling": 8932, "differential": 11658, "introduced": 3107, "mitsubishi": 19695, "paradise": 9097, "##ae": 6679, "moderately": 17844, "sperm": 18047, "313": 22997, "##\u53f2": 30316, "compelling": 17075, "ants": 16111, "commuter": 14334, "maxim": 20446, "##ort": 11589, "##\u10e3": 29990, "repeal": 21825, "taipei": 14004, "causing": 4786, "climatic": 27301, "currents": 14731, "consecutive": 5486, "nations": 3741, "embark": 28866, "##hner": 28989, "117": 12567, "weapons": 4255, "consequently": 8821, "portuguese": 5077, "complications": 12763, "women": 2308, "sermons": 20855, "raising": 6274, "perez": 10730, "banded": 25264, "destination": 7688, "sophie": 8234, "potassium": 18044, "44th": 26409, "pumps": 15856, "onions": 24444, "##osition": 19234, "godfather": 23834, "ap": 9706, "superman": 10646, "##oll": 14511, "accumulated": 14830, "pathology": 19314, "blond": 8855, "greater": 3618, "packed": 8966, "columbus": 8912, "##film": 23665, "vanishing": 24866, "##nson": 15551, "semantics": 28081, "colours": 8604, "resonance": 17011, "1819": 12552, "majority": 3484, "##eim": 12112, "jameson": 22324, "&": 1004, "teams": 2780, "judaism": 13725, "##world": 11108, "cfa": 28125, "swept": 7260, "##gall": 22263, "extensive": 4866, "demise": 13614, "pike": 12694, "redemption": 18434, "##erated": 16848, "flexed": 24244, "bred": 13680, "grown": 4961, "##ately": 28239, "collaborator": 18843, "##ndon": 19333, "##schaft": 26527, "humphrey": 15462, "##\u3057": 30183, "legend": 5722, "semifinal": 16797, "subsided": 26588, "salle": 18005, "ears": 5551, "##rocity": 21735, "##hed": 9072, "overdose": 26641, "arranger": 13981, "##\u0446": 29751, "sweetheart": 12074, "1838": 9931, "handing": 13041, "jeanne": 14537, "motorsport": 21044, "moravian": 28131, "sex": 3348, "##las": 8523, "##bies": 20536, "[unused989]": 994, "##minating": 27932, "few": 2261, "champions": 3966, "cleopatra": 22003, "dudley": 12648, "kata": 29354, "elongated": 17876, "##ect": 22471, "##endez": 28787, "massif": 24875, "grandfather": 5615, "wise": 7968, "stating": 5517, "slot": 10453, "burden": 10859, "djs": 23837, "canning": 24549, "reese": 15883, "stairs": 5108, "halle": 19769, "aesthetics": 20749, "engineered": 13685, "[unused424]": 429, "duchess": 11017, "romney": 19615, "##wang": 16600, "guided": 8546, "mcdowell": 25005, "wwii": 25755, "constituents": 24355, "bog": 22132, "media": 2865, "##ili": 18622, "who": 2040, "##bble": 11362, "pleasant": 8242, "##\u221a": 30127, "##gration": 29397, "pumped": 16486, "romeo": 12390, "##\u03b2": 29720, "##51": 22203, "##ahu": 21463, "para": 11498, "suriname": 25050, "shuffled": 18764, "tucson": 17478, "winced": 15574, "pulpit": 23134, "africa": 3088, "##tries": 21011, "best": 2190, "##tson": 25656, "##hir": 11961, "hermit": 24308, "sprung": 22057, "##ification": 9031, "##room": 9954, "##nor": 12131, "whisky": 21265, "##\u00ab": 29654, "anna": 4698, "contract": 3206, "quincy": 16141, "jacksonville": 13057, "peterson": 12001, "informant": 28694, "ng": 12835, "##link": 13767, "##kki": 24103, "vlad": 19163, "practices": 6078, "##tituted": 29139, "contentious": 29308, "pandit": 29331, "##ther": 12399, "##\u0280": 29693, "##\u5206": 30301, "deciduous": 22411, "[unused336]": 341, "##rrier": 27051, "[unused701]": 706, "\u793a": 1923, "affiliates": 18460, "crotch": 28629, "maguire": 26196, "##line": 4179, "dominion": 13738, "alistair": 23752, "creating": 4526, "protests": 8090, "##vine": 20534, "primitive": 10968, "rim": 11418, "##worthy": 13966, "\u05d0": 1241, "theory": 3399, "##lidae": 21595, "cocoa": 22940, "tod": 28681, "[unused621]": 626, "[unused390]": 395, "shaft": 9093, "district": 2212, "florida": 3516, "\uff0c": 1989, "needy": 23927, "+": 1009, "##mac": 22911, "zipper": 22082, "creator": 8543, "replacement": 6110, "insufficient": 13990, "##tes": 4570, "markers": 16387, "plotting": 20699, "peeled": 20956, "flopped": 24723, "myles": 27056, "patriots": 11579, "##grass": 19673, "augusta": 13635, "darkening": 27862, "1733": 27230, "addressed": 8280, "extended": 3668, "establish": 5323, "mitochondrial": 23079, "##\u8c37": 30477, "michaels": 17784, "coe": 24873, "##urgent": 27176, "##cius": 25393, "applicant": 23761, "fried": 13017, "pilasters": 26752, "die": 3280, "##terol": 27833, "harris": 5671, "lansing": 22304, "##ales": 23266, "##ens": 6132, "tesla": 26060, "prefect": 19402, "hedge": 17834, "##waite": 29601, "encourages": 16171, "[unused205]": 210, "ridiculous": 9951, "\u30cb": 1716, "sensed": 10596, "lucy": 7004, "faulty": 28927, "jennifer": 7673, "179": 20311, "inexpensive": 23766, "##load": 11066, "shivers": 28464, "dentist": 24385, "rhino": 24091, "anwar": 28372, "##uel": 16284, "18": 2324, "suspend": 28324, "davidson": 12017, "husbands": 19089, "villas": 27317, "entries": 10445, "##body": 23684, "furnished": 19851, "signaled": 22319, "broom": 23528, "inquired": 24849, "\u30ef": 1736, "tracts": 22069, "easiest": 25551, "boston": 3731, "##evich": 16277, "employing": 15440, "ancestors": 10748, "youth": 3360, "allison": 10786, "duchy": 11068, "paisley": 23321, "horsepower": 15149, "##trust": 24669, "##nikov": 22576, "orient": 16865, "calf": 19134, "yusuf": 23495, "feelings": 5346, "spider": 6804, "marquette": 24223, "curled": 8188, "transverse": 18323, "regardless": 7539, "rejects": 19164, "wounded": 5303, "[unused344]": 349, "ranch": 8086, "main": 2364, "1723": 26621, "donegal": 25415, "jeans": 6312, "dispersal": 27602, "##pala": 19636, "brutally": 23197, "manny": 16320, "preserved": 6560, "140": 8574, "turbine": 14027, "##rada": 28510, "clay": 5726, "loan": 5414, "russia": 3607, "wines": 14746, "pow": 23776, "looked": 2246, "##ata": 6790, "inquiries": 27050, "ems": 29031, "sims": 18135, "##gles": 17125, "ochreous": 23474, "bug": 11829, "electrically": 29103, "\u306d": 1670, "fluffy": 27036, "46": 4805, "guerrillas": 26955, "##uch": 10875, "spans": 14798, "bestseller": 24304, "evergreen": 16899, "##\u0e07": 29946, "accord": 15802, "koch": 15259, "xbox": 12202, "##meyer": 24344, "[unused557]": 562, "geologist": 21334, "unanimous": 13604, "rudy": 18254, "##usions": 22016, "nightclub": 15479, "classification": 5579, "thrown": 6908, "911": 19989, "hiatus": 14221, "cara": 14418, "##lster": 29576, "enhance": 11598, "rovers": 9819, "##ckman": 24080, "##aceae": 18339, "olympian": 25977, "##cased": 28969, "##raphic": 20721, "clayton": 11811, "chinese": 2822, "[unused471]": 476, "uci": 14504, "##wc": 16526, "##\u0142a": 22972, "enactment": 26465, "mouthed": 20521, "gottfried": 26142, "metacritic": 14476, "hopefully": 11504, "##nard": 16564, "##lone": 27165, "jailed": 21278, "##arty": 23871, "pots": 18911, "morgan": 5253, "commitment": 8426, "##ent": 4765, "590": 25186, "scrubbed": 27820, "family": 2155, "salvatore": 17485, "theodor": 21448, "doll": 10658, "##dran": 24914, "##pass": 15194, "##\u5341": 30309, "breakthrough": 12687, "casablanca": 24592, "218": 20741, "210": 12875, "##copic": 26461, "racetrack": 28435, "precise": 10480, "fig": 20965, "lo": 8840, "##ision": 19969, "moss": 10636, "##\u05e8": 29811, "preservation": 8347, "redskins": 17461, "##uting": 20807, "doi": 9193, "##pher": 27921, "rang": 8369, "\u5b89": 1820, "appropriated": 29223, "translated": 5421, "##cend": 23865, "bailey": 8925, "undertook": 12543, "stung": 19280, "##ik": 5480, "teens": 13496, "sky": 3712, "avant": 14815, "adult": 4639, "feeling": 3110, "peasant": 14539, "embassy": 8408, "unfolded": 23959, "ile": 17869, "steamboat": 24897, "activity": 4023, "laughed": 4191, "relates": 14623, "[unused892]": 897, "shutter": 28180, "##ion": 3258, "daniela": 28541, "bermuda": 13525, "specific": 3563, "stellar": 17227, "wrought": 18481, "duet": 11979, "##ache": 15395, "##ator": 8844, "allmusic": 10477, "[unused145]": 150, "##\u0629": 19433, "life": 2166, "placed": 2872, "needs": 3791, "ordinance": 16692, "older": 3080, "wheeler": 12819, "gray": 3897, "focal": 15918, "##mori": 24610, "areas": 2752, "furthermore": 7297, "abyss": 22159, "yours": 6737, "\u0686": 1303, "duff": 21019, "286": 24921, "indigenous": 6284, "##ulum": 25100, "\u66f8": 1871, "blunt": 14969, "entertainment": 4024, "letters": 4144, "##uising": 28580, "slipped": 5707, "##yed": 20821, "brilliance": 28850, "alexandre": 16971, "ultimate": 7209, "##\uff0c": 30515, "canton": 8770, "##nched": 19282, "humour": 17211, "rattling": 26347, "asshole": 22052, "friendly": 5379, "69": 6353, "##nier": 14862, "##por": 17822, "material": 3430, "flesh": 5771, "calhoun": 22982, "##san": 8791, "gala": 16122, "##dlow": 27002, "[unused240]": 245, "##\u7687": 30443, "bonding": 19882, "billing": 25640, "uses": 3594, "slides": 14816, "vomit": 23251, "##hog": 25852, "miguel": 8374, "stayed": 4370, "aired": 4836, "##mart": 22345, "rhythmic": 14797, "organizations": 4411, "flux": 19251, "[unused602]": 607, "inclined": 13050, "applause": 20737, "52nd": 26898, "traded": 7007, "moist": 11052, "##\u05db": 29798, "regarded": 5240, "frozen": 7708, "##iling": 16281, "##vin": 6371, "martyrs": 18945, "ken": 6358, "hush": 20261, "##gating": 16961, "jeffrey": 10799, "tracking": 9651, "sous": 27411, "1754": 22593, "composer": 4543, "astronomers": 26357, "175": 12862, "apex": 13450, "effective": 4621, "currie": 20667, "##hm": 14227, "[unused944]": 949, "\u1d62": 1507, "##sei": 20240, "capacity": 3977, "plots": 14811, "outsiders": 22361, "child": 2775, "wig": 24405, "##icum": 22167, "\u00fe": 1101, "[unused982]": 987, "gloom": 24067, "##\u207f": 30080, "##\u301c": 30171, "##nington": 23155, "\u53f8": 1791, "[unused295]": 300, "shared": 4207, "martini": 24480, "zoo": 9201, "performance": 2836, "satisfied": 8510, "tuition": 15413, "accommodations": 26167, "reductions": 25006, "##unes": 26639, "observer": 9718, "authenticity": 21452, "##mble": 19661, "successes": 14152, "motivation": 14354, "guzman": 22789, "##nca": 20909, "[unused559]": 564, "##ckey": 29183, "handling": 8304, "gloria": 10778, "\u0e2d": 1421, "johor": 25268, "desert": 5532, "amounts": 8310, "peered": 10757, "bayer": 26367, "##rel": 16570, "thereof": 21739, "frames": 11048, "[unused921]": 926, "those": 2216, "ribbons": 22688, "passages": 13768, "unidentified": 20293, "y": 1061, "medical": 2966, "unnoticed": 22719, "##rian": 6862, "havre": 28890, "dickens": 19675, "climates": 24734, "coaching": 7748, "540": 20263, "chester": 8812, "marker": 12115, "\u7701": 1920, "undergo": 13595, "##\u79cb": 30455, "spot": 3962, "bob": 3960, "wilde": 18575, "limousine": 28012, "multiplied": 28608, "imperfect": 29238, "##tones": 11115, "orange": 4589, "fiber": 11917, "fall": 2991, "##ars": 11650, "##suit": 28880, "biography": 8308, "editor": 3559, "serum": 20194, "vaults": 28658, "dancing": 5613, "conducted": 4146, "daytona": 18226, "tribe": 5917, "nt": 23961, "greatly": 6551, "touches": 12817, "##lto": 23223, "##cki": 18009, "credited": 5827, "connection": 4434, "obligations": 14422, "##ces": 9623, "leicester": 11258, "[unused30]": 31, "grinding": 16153, "activate": 20544, "1915": 4936, "gregor": 16973, "##kato": 26020, "botanist": 17098, "##tted": 16190, "##des": 6155, "metal": 3384, "themes": 6991, "##rza": 24175, "petroleum": 11540, "##th": 2705, "improvement": 7620, "##abe": 16336, "##inger": 9912, "beta": 8247, "messina": 27270, "educated": 5161, "electro": 16175, "individually": 14258, "##kic": 29493, "z": 1062, "[unused342]": 347, "cruisers": 16722, "seems": 3849, "keith": 6766, "intellectual": 7789, "##imus": 19315, "dupont": 22848, "emptiness": 23397, "achieving": 10910, "detecting": 25952, "kingsley": 22819, "weasel": 29268, "installing": 23658, "community": 2451, "celebrity": 8958, "recited": 24843, "certificates": 17987, "plum": 22088, "saskatoon": 25447, "riff": 24808, "rocket": 7596, "booth": 9065, "victory": 3377, "tennessee": 5298, "margaret": 5545, "[unused256]": 261, "##boys": 24916, "ellie": 10707, "##ulf": 21007, "gettysburg": 22577, "communicate": 10639, "##koto": 24886, "shorter": 7820, "ioc": 25941, "finishing": 5131, "applied": 4162, "##00": 8889, "##nam": 13129, "edna": 21051, "goodbye": 9119, "implicit": 24655, "writhing": 26185, "prank": 26418, "##uously": 28078, "##kker": 23793, "beetle": 7813, "rule": 3627, "honesty": 16718, "bosses": 23029, "falls": 4212, "stepfather": 21481, "that": 2008, "1990s": 4134, "##ys": 7274, "##standing": 24911, "\u305d": 1660, "\u057d": 1234, "accomplished": 8885, "signature": 8085, "vh1": 26365, "##hane": 28006, "usually": 2788, "peggy": 14911, "juliet": 13707, "checkpoint": 26520, "##roving": 22046, "coincided": 18616, "will": 2097, "returned": 2513, "newt": 25597, "voyage": 8774, "facades": 28708, "di": 4487, "##tin": 7629, "##\u2282": 30137, "rosalie": 29564, "[unused490]": 495, "parochial": 28773, "edith": 13257, "capitalist": 19640, "bladed": 27402, "converted": 4991, "private": 2797, "##\u0580": 29784, "[unused764]": 769, "1656": 28434, "prefer": 9544, "athletic": 5188, "anthony": 4938, "##folia": 21710, "castile": 15656, "column": 5930, "brennan": 13962, "dow": 23268, "##sham": 21010, "napoleonic": 18813, "shone": 14707, "millions": 8817, "hungary": 5872, "joel": 8963, "pondered": 28347, "rhyme": 20622, "mule": 20568, "1400": 20652, "\u0925": 1324, "[unused927]": 932, "##bis": 18477, "break": 3338, "garner": 18661, "denver": 7573, "organize": 10939, "silly": 10021, "\u2265": 1609, "##gina": 20876, "##rang": 24388, "hindu": 7560, "##ong": 5063, "paolo": 14174, "minas": 21750, "measurement": 10903, "timor": 19746, "votes": 4494, "1787": 16057, "stinging": 22748, "storms": 12642, "federico": 20493, "arts": 2840, "##typical": 27086, "commanded": 6311, "jackie": 9901, "ties": 7208, "[unused581]": 586, "intro": 17174, "parenting": 28586, "wb": 25610, "volcanic": 10942, "leaders": 4177, "##\u30a8": 30224, "##the": 10760, "##ere": 7869, "oceanic": 18955, "prefix": 17576, "indo": 11424, "darren": 12270, "flush": 13862, "gurney": 25061, "fort": 3481, "ousted": 28368, "##hawk": 17998, "ejected": 22607, "torque": 15894, "distracting": 25012, "tomb": 8136, "latvian": 14698, "axel": 18586, "straining": 21366, "assumed": 5071, "chill": 10720, "gut": 9535, "teammate": 10809, "brush": 8248, "##amine": 19915, "\u00b9": 1088, "manually": 21118, "conical": 24750, "ya": 8038, "clarity": 15563, "##mobile": 17751, "boring": 11771, "tingling": 23690, "silesia": 21872, "ci": 25022, "sexual": 4424, "##\u30fb": 30264, "##pressive": 27484, "##notes": 20564, "##amy": 24079, "quantitative": 20155, "lashes": 16008, "##stad": 16917, "##user": 20330, "fourteen": 7426, "veronica": 13133, "gets": 4152, "argentine": 8511, "stemming": 29217, "##\u02e3": 29718, "clergy": 11646, "kits": 18628, "shepherd": 11133, "##\u02e1": 29716, "calcutta": 13419, "befriended": 23386, "proficient": 27029, "bleed": 19501, "holiness": 27692, "pagoda": 27387, "marseille": 16766, "rosario": 17496, "scandinavian": 17660, "ee": 25212, "mcnamara": 28340, "endorsement": 20380, "motown": 22654, "dutch": 3803, "challenger": 12932, "##rte": 19731, "nunez": 28454, "\u0281": 1128, "denmark": 5842, "##rain": 21166, "shop": 4497, "penal": 18476, "griffith": 14135, "grooves": 25880, "wallis": 24029, "lieutenant": 3812, "##tated": 16238, "blazed": 25590, "##dp": 18927, "##ify": 8757, "microscope": 24635, "##bund": 27265, "jihad": 24815, "adjacent": 5516, "powered": 6113, "flying": 3909, "##ies": 3111, "lovers": 10205, "miss": 3335, "contention": 18974, "mounting": 15986, "lifts": 13695, "guessing": 16986, "dislike": 18959, "mechanical": 6228, "naturalist": 19176, "assyrian": 19950, "drones": 24633, "concentrate": 10152, "toxic": 11704, "mara": 13955, "zu": 16950, "power": 2373, "advocates": 13010, "diving": 9404, "counterattack": 27835, "tackle": 11147, "ib": 21307, "cyclic": 23750, "spade": 23288, "squid": 26852, "doomed": 20076, "nobles": 13969, "awaiting": 15497, "myself": 2870, "##\ufb01": 30510, "proliferation": 20250, "##rned": 21119, "michigan": 4174, "##\u0baa": 29924, "freshwater": 12573, "mascara": 27700, "barbie": 22635, "caf": 24689, "guarantees": 21586, "tangle": 24453, "1840": 8905, "\u044a": 1205, "recent": 3522, "den": 7939, "crusaders": 18831, "bill": 3021, "##vez": 26132, "##\u2207": 30123, "##awa": 10830, "rehab": 24497, "##nese": 14183, "hale": 13084, "indira": 28232, "festival": 2782, "retailer": 20196, "sichuan": 20980, "##sie": 11741, "perpetual": 18870, "prompted": 9469, "pipes": 12432, "[unused314]": 319, "fair": 4189, "##oses": 27465, "ussr": 10331, "presenters": 25588, "roxy": 23682, "moshe": 27123, "primaries": 27419, "drain": 12475, "ambiguity": 27637, "thirst": 21810, "##arding": 29154, "lowers": 24950, "ceded": 19705, "christie": 13144, "impulse": 14982, "ions": 15956, "commence": 22825, "dropping": 7510, "mercedes": 10793, "bryson": 26845, "jerk": 12181, "expanding": 9186, "##can": 9336, "##\u043e\u0432\u0438\u0447": 16198, "eton": 21687, "anne": 4776, "heat": 3684, "individual": 3265, "enabling": 12067, "##pheus": 22809, "##eve": 18697, "puzzles": 19672, "\u02bf": 1148, "candy": 9485, "stranded": 15577, "stamped": 20834, "effectively": 6464, "princely": 22771, "sunderland": 15518, "##\u03bc": 29728, "##manship": 21530, "solitary": 14348, "coarse": 20392, "pollen": 22482, "congresses": 24460, "chaplain": 14011, "leisure": 12257, "##unk": 16814, "personal": 3167, "##dget": 24291, "sent": 2741, "##\u1d49": 30035, "capt": 14408, "dedicated": 4056, "tours": 7562, "yemen": 13968, "antiquities": 21387, "##yu": 10513, "##oes": 22504, "pickering": 27078, "posture": 16819, "compliance": 12646, "forgetting": 17693, "unsigned": 27121, "snap": 10245, "mcintyre": 24564, "sat": 2938, "specially": 11974, "##cellular": 16882, "1713": 27016, "##parts": 26950, "dismissed": 7219, "##cies": 9243, "planting": 14685, "##vd": 16872, "##now": 19779, "forewings": 13211, "row": 5216, "impacts": 14670, "##omic": 22026, "sophia": 9665, "achieve": 6162, "[unused987]": 992, "\u05d9": 1250, "143": 16065, "disciplinary": 17972, "bruised": 18618, "slump": 28702, "perfect": 3819, "wandered": 13289, "[unused573]": 578, "\u091c": 1319, "smart": 6047, "dominican": 10104, "lagoon": 15825, "disciple": 17849, "##\u00b5": 29659, "\u6c37": 1895, "quick": 4248, "\u68ee": 1882, "\u00a5": 1071, "##gonal": 20028, "##eries": 28077, "##xon": 22500, "##rks": 19987, "uncover": 26944, "##mpton": 26793, "##olf": 28027, "[unused913]": 918, "adjunct": 20621, "autumn": 7114, "tong": 15740, "##thus": 19877, "sherlock": 20052, "##\u1175": 30019, "##\u6c37": 30421, "debra": 28762, "bracing": 25919, "thought": 2245, "linguistic": 12158, "reports": 4311, "tinged": 22683, "moisture": 14098, "cracking": 15729, "\u98df": 1978, "fundraising": 15524, "stakeholders": 22859, "bf": 28939, "greenwood": 16827, "colors": 6087, "\u5ddd": 1835, "pilgrimage": 14741, "asthma": 26180, "[unused654]": 659, "vale": 10380, "petit": 17268, "airlift": 20019, "cabins": 20321, "paige": 17031, "##belle": 25766, "onstage": 23542, "##\u00b0": 7737, "persia": 16667, "abnormalities": 28828, "monitoring": 8822, "lizzie": 15860, "ing": 13749, "honour": 6225, "honey": 6861, "##fish": 7529, "treatise": 15326, "33rd": 20883, "[unused339]": 344, "surveyed": 12876, "homo": 24004, "vast": 6565, "openings": 16556, "highlights": 11637, "stationed": 8895, "perspectives": 15251, "scully": 25686, "destroying": 9846, "expired": 13735, "\u6211": 1855, "##erman": 18689, "emptied": 21764, "trimmed": 21920, "behold": 27541, "##eche": 27635, "##oat": 16503, "[unused87]": 88, "##eit": 20175, "less": 2625, "##bs": 5910, "narrowing": 21978, "dumped": 14019, "##pace": 15327, "98": 5818, "trois": 25527, "##kk": 19658, "kowalski": 28874, "ark": 15745, "##heimer": 18826, "acoustic": 6490, "empowered": 26480, "ambrose": 15675, "##time": 7292, "winfield": 24739, "cycles": 12709, "[unused489]": 494, "##\u0bb2": 29928, "[unused43]": 44, "sheikh": 12840, "dracula": 18500, "\u1111": 1468, "upset": 6314, "##ead": 13775, "##ausen": 25701, "persist": 29486, "scrambling": 25240, "##stered": 24167, "colin": 6972, "labor": 4450, "suv": 15620, "\u304b": 1651, "978": 4891, "buffet": 28305, "163": 17867, "trinity": 7124, "lately": 9906, "tape": 6823, "virginity": 26970, "headache": 14978, "engine": 3194, "airport": 3199, "somme": 25158, "##mm": 7382, "wipe": 13387, "tortricidae": 27683, "##ceptive": 28687, "inquiry": 9934, "rooftop": 23308, "stroking": 14943, "\u06cc": 1309, "purdue": 19749, "##\u0432": 25529, "##nham": 20465, "sensation": 8742, "fore": 18921, "foundation": 3192, "bending": 14457, "##=": 29630, "terminating": 23552, "[unused607]": 612, "wayne": 6159, "##\u0932": 29870, "nz": 20008, "edmond": 21773, "avatar": 22128, "oracle": 14721, "salary": 10300, "beverages": 21705, "eurovision": 12714, "crowd": 4306, "mills": 6341, "quentin": 15969, "##pore": 26691, "##er": 2121, ";": 1025, "instructors": 19922, "##ament": 24996, "##\u0250": 29676, "malmo": 23643, "recapture": 27639, "investigations": 9751, "helene": 20149, "##\u7a7a": 30456, "##hg": 25619, "weight": 3635, "ignorance": 18173, "hermann": 12224, "duran": 22959, "\u1100": 1455, "##storm": 19718, "lemon": 14380, "retiring": 9150, "mann": 10856, "adjustment": 19037, "kyle": 7648, "1959": 3851, "##has": 14949, "1831": 10937, "posthumously": 12770, "sober": 17358, "fallout": 23902, "proudly": 18067, "##aar": 26526, "\u0574": 1229, "##rac": 22648, "generals": 11593, "[unused900]": 905, "##ctor": 16761, "shocking": 16880, "##\u5f35": 30370, "participants": 6818, "[unused192]": 197, "governed": 9950, "architecture": 4294, "nintendo": 10022, "suspicion": 10928, "##ian": 2937, "approximation": 20167, "##sa": 3736, "bankruptcy": 10528, "revenues": 12594, "mud": 8494, "##\u00d7": 26306, "dynasties": 23014, "##\u0562": 29767, "##\u30bb": 30234, "childbirth": 27162, "##\u03be": 29729, "often": 2411, "officially": 3985, "libyan": 19232, "earl": 4656, "implied": 13339, "fang": 15197, "independently": 9174, "mata": 22640, "lara": 13679, "fable": 28458, "alvaro": 24892, "sphinx": 27311, "architectural": 6549, "[unused521]": 526, "##channel": 26058, "obsessed": 15896, "bowen": 16208, "resource": 7692, "swayed": 20122, "bless": 19994, "arm": 2849, "##hawks": 16043, "1813": 12169, "csi": 22174, "##\u2665": 30152, "unlawful": 22300, "prasad": 17476, "coughing": 21454, "interpreted": 10009, "##a1": 27717, "[unused737]": 742, "##pia": 19312, "seeing": 3773, "daphne": 16847, "930": 29359, "##earing": 27242, "##mund": 25574, "##marine": 21966, "[unused891]": 896, "dragging": 11920, "villains": 16219, "booker": 16674, "hoover": 17443, "[unused91]": 92, "outnumbered": 21943, "guarding": 17019, "eyre": 26975, "blazers": 28513, "##nda": 8943, "lord": 2935, "politically": 10317, "lime": 14123, "##havan": 24652, "unanimously": 15645, "nutrients": 20435, "openly": 10132, "occupants": 18837, "lark": 23404, "184": 19681, "troopers": 26246, "residential": 5647, "##just": 29427, "establishment": 5069, "flinch": 23224, "enrico": 21982, "##eaux": 25639, "##llation": 20382, "trojan": 23445, "canterbury": 9976, "judged": 13224, "[unused569]": 574, "enable": 9585, "1997": 2722, "aristotle": 17484, "necks": 26082, "presley": 17229, "##ibar": 26656, "##\u057f": 29783, "wealthiest": 27809, "hamid": 24811, "accomplishment": 24718, "ron": 6902, "devils": 13664, "fruit": 5909, "commemoration": 22377, "alvin": 17348, "mccormick": 23213, "maternity": 23676, "thayer": 25563, "riot": 11421, "\u0997": 1355, "learnt": 20215, "starboard": 25211, "##as": 3022, "squeezing": 15328, "##end": 10497, "headquarters": 4075, "traverse": 20811, "##hiff": 25798, "##lers": 12910, "makeshift": 19368, "catalytic": 26244, "##rl": 12190, "baghdad": 13952, "airline": 8582, "proposition": 14848, "reins": 19222, "lacy": 19959, "##elis": 29282, "dusk": 18406, "cleaning": 9344, "345": 23785, "1919": 4529, "##ulation": 9513, "http": 8299, "pie": 11345, "phones": 11640, "leger": 26523, "##ord": 8551, "batsman": 13953, "radiation": 8249, "richards": 9712, "##\u6c0f": 30417, "calgary": 10112, "dwelling": 13160, "disperse": 28736, "proto": 15053, "vinegar": 29387, "piercing": 14628, "offenses": 25173, "refinery": 21034, "poked": 16826, "arbitrary": 15275, "debbie": 16391, "stud": 16054, "crazy": 4689, "tipperary": 17333, "figures": 4481, "[unused791]": 796, "\u1d63": 1508, "arrangements": 7565, "ashok": 28916, "bribe": 26470, "simulation": 12504, "vox": 29450, "##bro": 12618, "##iro": 9711, "daughters": 5727, "nix": 23330, "lesbian": 11690, "judiciary": 14814, "##bang": 25153, "##ists": 5130, "bony": 22678, "\u30af": 1702, "##lights": 15733, "tremendous": 14388, "anastasia": 19447, "invasion": 5274, "psyche": 25774, "prom": 20877, "regatta": 26848, "1932": 4673, "##firmed": 23141, "bourbon": 15477, "##oton": 25862, "##\u79be": 30453, "recoil": 27429, "derry": 17455, "willingness": 19732, "celia": 18020, "tree": 3392, "tended": 11121, "true": 2995, "turkish": 5037, "31": 2861, "h\u2082o": 24833, "sectors": 11105, "enrichment": 27226, "\u208a": 1557, "[unused34]": 35, "##iba": 18410, "idle": 18373, "oversized": 21698, "##\u056c": 29773, "##\u2098": 30096, "wars": 5233, "[unused422]": 427, "analyst": 12941, "infirmary": 23453, "gough": 29124, "gideon": 12137, "shoe": 10818, "gibson": 9406, "de": 2139, "virgin": 6261, "watching": 3666, "animated": 6579, "betsy": 22396, "##ical": 7476, "hillside": 18573, "[unused455]": 460, "napier": 21320, "outburst": 27719, "##rut": 22134, "[unused97]": 98, "rapids": 12775, "##had": 16102, "saetan": 23515, "es": 9686, "assigned": 4137, "maldives": 25059, "naples": 10553, "##par": 19362, "strangled": 21384, "cohen": 9946, "bicycle": 10165, "##lander": 22691, "##rro": 18933, "##uled": 18696, "##yler": 20853, "plasma": 12123, "elk": 18995, "ou": 15068, "drains": 18916, "andrews": 9261, "albums": 4042, "##ala": 7911, "pierce": 9267, "flown": 10583, "##mmer": 15810, "\u2660": 1623, "objected": 15959, "paramount": 11734, "##foot": 13064, "passing": 4458, "melted": 12501, "tentatively": 19325, "displays": 8834, "##aca": 19629, "buds": 26734, "thereafter": 6920, "catching": 9105, "brightly": 14224, "indoors": 24274, "grinned": 6973, "##star": 14117, "[unused961]": 966, "deacon": 14845, "##hedral": 27310, "##u": 2226, "anchors": 24674, "##nu": 11231, "##tier": 17579, "435": 24125, "1703": 28366, "##lake": 14530, "aces": 20232, "telecommunication": 25958, "##chenko": 25872, "##amo": 22591, "bae": 25818, "collecting": 9334, "molecules": 10737, "knotted": 27039, "jian": 29214, "##lton": 13947, "yesterday": 7483, "precious": 9062, "backseat": 19978, "##nton": 15104, "reputed": 22353, "##urst": 29402, "\u03b1": 1155, "##tya": 21426, "plantation": 10065, "compare": 12826, "##mined": 25089, "rahman": 14364, "1711": 28455, "removed": 3718, "##mir": 14503, "tails": 17448, "\u52a0": 1779, "##hear": 26560, "bruise": 24851, "##zek": 24506, "ted": 6945, "##phone": 9864, "silva": 11183, "bucks": 14189, "medication": 14667, "conqueror": 25466, "centred": 16441, "streetcar": 21420, "##ver": 6299, "founded": 2631, "indians": 6505, "##moor": 17622, "videos": 6876, "hiring": 14763, "\u6cb3": 1899, "cooler": 14976, "##ick": 6799, "[unused396]": 401, "continuous": 7142, "weekdays": 19759, "bends": 23394, "##\u2011": 30049, "##nell": 9091, "lai": 21110, "dwarves": 29281, "jaipur": 28355, "lough": 29504, "##gaon": 27073, "\u00a2": 1068, "remarks": 12629, "\u026b": 1120, "critic": 6232, "##ire": 7442, "stars": 3340, "copenhagen": 9664, "battered": 17548, "##tham": 22536, "assert": 20865, "##jima": 19417, "##hom": 23393, "reliable": 10539, "dissertation": 14481, "[unused36]": 37, "snarled": 15022, "rowing": 12037, "cheated": 22673, "delivered": 5359, "##\u5fe0": 30378, "tanya": 19956, "\u3080": 1679, "hiv": 9820, "escorted": 13127, "habsburg": 17486, "hermes": 24127, "supportive": 16408, "taxation": 14952, "names": 3415, "disputes": 11936, "##\u1173": 30017, "##ntly": 20630, "mapped": 17715, "rowan": 14596, "musa": 23154, "wells": 7051, "attacking": 7866, "automatically": 8073, "pick": 4060, "genes": 9165, "ton": 10228, "you": 2017, "proves": 16481, "servicing": 26804, "prohibited": 10890, "##co": 3597, "eki": 23174, "requires": 5942, "controller": 11486, "fucked": 21746, "##growth": 26982, "rann": 26312, "\u0f42": 1426, "cloud": 6112, "alternate": 6585, "##plate": 15725, "##factory": 21450, "inversion": 28527, "alien": 7344, "sniper": 17515, "caledonia": 19305, "mice": 12328, "289": 27054, "capitalism": 16498, "mill": 4971, "heel": 12073, "460": 17267, "##tel": 9834, "geometric": 14965, "stacey": 19997, "beverley": 29057, "kali": 19924, "coordinates": 12093, "cao": 12966, "##\u6797": 30407, "orphaned": 27093, "##roi": 26692, "pill": 17357, "helpful": 14044, "marguerite": 15334, "##\u5b97": 30347, "linguist": 22978, "##vers": 14028, "presented": 3591, "metallic": 12392, "abbas": 17532, "hay": 10974, "profit": 5618, "##imate": 21499, "\u05e3": 1260, "thousand": 4595, "cutler": 24975, "testosterone": 25937, "secret": 3595, "##music": 27275, "wherein": 16726, "vimes": 28482, "suppress": 16081, "regiment": 3483, "tao": 20216, "disappear": 10436, "##pac": 19498, "robber": 27307, "sons": 4124, "waste": 5949, "standardization": 28648, "##lita": 27606, "frank": 3581, "drury": 25663, "awful": 9643, "unicode": 27260, "pinnacle": 26007, "documentation": 12653, "hideous": 22293, "potion": 26722, "piece": 3538, "[unused537]": 542, "##rdan": 26992, "stepped": 3706, "warn": 11582, "365": 19342, "headwaters": 25345, "1807": 13206, "travels": 7930, "jason": 4463, "andrey": 29219, "mandated": 16714, "##\u00a8": 29651, "commemorative": 17524, "reception": 7684, "arrays": 27448, "sandstone": 11694, "1846": 9244, "welles": 23447, "poking": 21603, "bio": 16012, "swollen": 13408, "##hana": 15788, "researched": 18800, "yoga": 13272, "dismiss": 19776, "##jiang": 21786, "crowded": 10789, "[unused325]": 330, "voluntarily": 17912, "##att": 19321, "any": 2151, "amir": 18904, "dail": 26181, "distillery": 24870, "fees": 9883, "54th": 29570, "knight": 5000, "legislature": 6372, "soundtracks": 24245, "vanuatu": 27625, "reach": 3362, "pageant": 12438, "##mur": 20136, "sponsoring": 29396, "##nai": 26416, "##\u00dfe": 17499, "##eles": 26741, "356": 27509, "established": 2511, "##ish": 4509, "marx": 13518, "##minate": 19269, "kanye": 29270, "instrument": 6602, "##32": 16703, "##uka": 15750, "animals": 4176, "year": 2095, "cents": 16653, "insect": 14211, "buick": 28865, "##lou": 23743, "1975": 3339, "wartime": 12498, "research": 2470, "1848": 7993, "##gs": 5620, "clue": 9789, "##zhi": 19436, "##actic": 28804, "ease": 7496, "chaired": 12282, "##eed": 13089, "mechanized": 23387, "indicator": 17245, "##athlon": 17563, "mcbride": 18958, "pillows": 17860, "grading": 26886, "commune": 5715, "1847": 9176, "offering": 5378, "issue": 3277, "motioned": 13054, "activists": 10134, "hayden": 13872, "[unused186]": 191, "pursued": 9505, "deposed": 18298, "\u0640": 1290, "undo": 25672, "campus": 3721, "##dent": 16454, "mcintosh": 29052, "continent": 9983, "pbs": 13683, "sl": 22889, "\u9577": 1967, "waterloo": 13784, "dormitory": 21538, "confesses": 22826, "##ctable": 23576, "263": 25246, "fleeting": 25085, "extant": 12905, "##\u06cc": 24830, "translating": 22969, "##ators": 18926, "##dication": 25027, "garde": 14535, "324": 27234, "electron": 10496, "sculpture": 6743, "sao": 7509, "compilations": 22754, "auckland": 8666, "roughly": 5560, "acre": 7456, "disagreement": 18185, "km\u00b2": 3186, "\u0647": 1297, "hobby": 17792, "comparatively": 20172, "[unused51]": 52, "##do": 3527, "marble": 7720, "##lev": 20414, "rabbit": 10442, "maxi": 21510, "results": 3463, "##01": 24096, "racers": 25791, "zurich": 10204, "1986": 3069, "entropy": 23077, "sling": 27076, "mechanics": 9760, "sparked": 13977, "\u0441": 1196, "##zyn": 23749, "larkin": 25570, "internacional": 27607, "start": 2707, "picnic": 12695, "treaty": 5036, "scooted": 24289, "##vance": 21789, "theatres": 13166, "vantage": 27274, "cheerfully": 27403, "[unused727]": 732, "bolivian": 26075, "##nsed": 27730, "per": 2566, "liege": 17766, "nokia": 22098, "switched": 7237, "etat": 17997, "bowls": 15220, "wembley": 16538, "straits": 18849, "##iful": 18424, "bauer": 17838, "assertion": 23617, "debuted": 6006, "articulated": 20742, "sail": 9498, "couch": 6411, "fatal": 10611, "##kka": 15714, "beautifully": 17950, "cretaceous": 18122, "human": 2529, "indifferent": 24436, "crosby": 14282, "midst": 12930, "##pressing": 24128, "\u03c9": 1179, "widow": 7794, "tax": 4171, "frederick": 5406, "abel": 16768, "objectives": 11100, "binding": 8031, "diplomatic": 8041, "##hunter": 25629, "##9": 2683, "projective": 27473, "##nna": 9516, "##liest": 21292, "brain": 4167, "wondering": 6603, "diary": 9708, "\u8fb6": 1956, "written": 2517, "[unused84]": 85, "sandwich": 11642, "hazel": 14015, "kilda": 22633, "used": 2109, "item": 8875, "investment": 5211, "milwaukee": 9184, "alma": 11346, "##som": 25426, "tidy": 29369, "##while": 19927, "command": 3094, "khorasan": 23225, "alumni": 9441, "1621": 27037, "desires": 14714, "secretariat": 15128, "1716": 28204, "##yal": 21095, "##hid": 27511, "criticizing": 21289, "recall": 9131, "strained": 12250, "fours": 23817, "generate": 9699, "ollie": 25208, "##dote": 23681, "gardening": 21529, "erected": 7019, "slits": 29199, "mu": 14163, "akira": 21616, "monty": 18446, "energies": 19320, "limitation": 22718, "##iating": 15370, "##ut": 4904, "illnesses": 24757, "arrived": 3369, "##\u5149": 30296, "squadrons": 11435, "freed": 10650, "presenting": 10886, "##ets": 8454, "diana": 8805, "##tech": 15007, "cass": 16220, "statistical": 7778, "succeeding": 13034, "sick": 5305, "strait": 11195, "lawrence": 5623, "ign": 16270, "weeping": 19750, "##ieri": 21939, "delaware": 8452, "singled": 25369, "boar": 24187, "enthusiastic": 14727, "vietnam": 5148, "##dome": 26173, "##nesian": 20281, "windy": 27370, "##\u300e": 30169, "##\u300f": 30170, "favored": 12287, "fry": 14744, "cypress": 22183, "longer": 2936, "guaranteed": 12361, "throbbing": 17061, "formats": 11630, "##oz": 18153, "1925": 4849, "steppe": 29096, "astor": 25159, "##ensburg": 28812, "ike": 25209, "romance": 7472, "bee": 10506, "motorway": 13119, "montenegrin": 24099, "henson": 27227, "degradation": 16627, "archibald": 15917, "hana": 26048, "surprised": 4527, "shattered": 10909, "stationary": 17337, "appoint": 16823, "\u0433": 1183, "prisons": 15996, "morales": 17103, "shout": 11245, "bangladeshi": 24267, "wiltshire": 17045, "austin": 5899, "kayla": 26491, "equator": 26640, "targets": 7889, "##kali": 28613, "cruel": 10311, "ratio": 6463, "jerry": 6128, "trade": 3119, "sending": 6016, "emphasizes": 20618, "discuss": 6848, "lambda": 23375, "##coat": 16531, "sorrow": 14038, "tangent": 27250, "##cd": 19797, "quit": 8046, "50th": 12951, "spilling": 18054, "salford": 23001, "##lr": 20974, "calculated": 10174, "##tion": 3508, "casino": 9270, "gorman": 25693, "\u4fdd": 1766, "##yce": 29297, "part": 2112, "##horn": 9769, "##hman": 13890, "ha": 5292, "troubled": 11587, "squirrels": 29384, "relating": 8800, "##iques": 19516, "rack": 14513, "##open": 26915, "imported": 10964, "\u5730": 1802, "xii": 14371, "##\u0646": 15915, "restart": 23818, "goods": 5350, "southeast": 4643, "\u963f": 1971, "mother": 2388, "transforming": 17903, "plush": 27729, "enterprises": 9926, "inspirational": 28676, "trading": 6202, "##ids": 9821, "vivian": 13801, "groceries": 26298, "##uke": 15851, "fibre": 20962, "##glio": 29480, "playback": 18245, "leash": 26834, "##rdial": 25070, "penultimate": 25512, "jimi": 27624, "nelly": 29498, "furious": 9943, "##rcle": 21769, "cm": 4642, "matteo": 24713, "sb": 24829, "##\u03b8": 29725, "plank": 24000, "##rath": 27362, "wta": 21925, "nakamura": 23981, "out": 2041, "complaint": 12087, "[unused86]": 87, "hurst": 26405, "##uga": 16377, "operatives": 25631, "1950": 3925, "hesitantly": 24626, "sal": 16183, "hawk": 9881, "unearthed": 27422, "##ted": 3064, "libertadores": 27968, "employer": 11194, "eagle": 6755, "announced": 2623, "7": 1021, "ballot": 10428, "landowners": 20152, "##\u2297": 30140, "##60": 16086, "bubba": 19606, "magnetic": 8060, "1610": 25800, "\u0642": 1292, "\ufb02": 1985, "lucivar": 21401, "nebraska": 8506, "teresa": 12409, "shrink": 22802, "johnny": 5206, "owens": 14824, "##elo": 18349, "egyptians": 23437, "##our": 8162, "[unused179]": 184, "commission": 3222, "vatican": 12111, "\u02d0": 1150, "torture": 8639, "restless": 15035, "lola": 15137, "\u1102": 1456, "crisis": 5325, "diagnosis": 11616, "teller": 21322, "outlined": 14801, "misunderstanding": 24216, "##ington": 7853, "punt": 18975, "addict": 26855, "monitors": 15410, "fuscous": 18121, "[unused954]": 959, "common": 2691, "law": 2375, "rich": 4138, "\u0627": 1270, "##kko": 22426, "[unused854]": 859, "coins": 7824, "myspace": 24927, "thug": 26599, "\u0576": 1231, "[unused212]": 217, "dye": 18554, "sun": 3103, "[unused7]": 8, "shipments": 24636, "[unused754]": 759, "wrap": 10236, "operates": 5748, "someplace": 24956, "##ith": 8939, "hawaiian": 12188, "monde": 23117, "notebook": 14960, "grocery": 13025, "biographer": 17121, "january": 2254, "describing": 7851, "grimm": 24287, "separated": 5459, "reply": 7514, "##\u91ce": 30489, "regent": 11315, "wai": 23701, "efficacy": 21150, "rebecca": 9423, "##mb": 14905, "##\u093f": 29877, "conservatives": 11992, "transaction": 12598, "herbal": 27849, "biomass": 28148, "peach": 18237, "abstract": 10061, "attained": 12754, "amusing": 19142, "##\u20b1": 30103, "scientific": 4045, "fray": 25975, "[unused425]": 430, "[unused446]": 451, "studied": 3273, "distinct": 5664, "##aldi": 24657, "spun": 7455, "floral": 18686, "##dgets": 28682, "##\u0192": 29675, "##ffled": 28579, "plays": 3248, "farrell": 16248, "##deck": 26547, "\u3057": 1657, "mike": 3505, "##\u208a": 30086, "sting": 12072, "##\u5c1a": 30356, "\uff01": 1986, "transfer": 4651, "psychologist": 15034, "zip": 14101, "courtney": 14139, "amenities": 19870, "prepares": 20776, "dowager": 20508, "##bino": 21891, "##uw": 25974, "sounded": 5015, "marissa": 22767, "tequila": 26791, "magazines": 7298, "skye": 16590, "dresser": 16641, "satan": 16795, "fades": 26784, "emerson": 12628, "financing": 12135, "##\u30b1": 30229, "soloist": 16504, "dvds": 22477, "rocked": 14215, "##pton": 15857, "masks": 15806, "accompany": 12673, "wince": 29585, "72": 5824, "sparkled": 28092, "haunting": 20161, "bunk": 25277, "diva": 25992, "1800": 9807, "71": 6390, "##gn": 16206, "coughed": 19055, "\u79cb": 1929, "yo": 10930, "planet": 4774, "strengthened": 13949, "tianjin": 26216, "colored": 6910, "downing": 22501, "fiery": 15443, "swords": 10689, "accomplishments": 17571, "waller": 23550, "[unused224]": 229, "##bury": 4917, "philip": 5170, "dreamer": 24726, "##ductive": 26638, "mode": 5549, "diffuse": 28105, "##swell": 19228, "hemingway": 27299, "[unused614]": 619, "dea": 26709, "muslim": 5152, "##\u8449": 30469, "kurdistan": 23627, "channel": 3149, "horsemen": 25431, "bar": 3347, "memorandum": 20336, "##quel": 22197, "##\u0940": 29878, "grip": 6218, "##cave": 27454, "##\u10dd": 29986, "##tish": 24788, "knock": 7324, "peripheral": 15965, "\u2191": 1584, "prolific": 12807, "##lika": 25421, "[unused284]": 289, "[unused437]": 442, "##heater": 27847, "\u0928": 1327, "searched": 9022, "##\u09a6": 29900, "interviewed": 10263, "[unused312]": 317, "##cis": 22987, "expand": 7818, "academics": 15032, "humiliating": 28284, "libel": 26201, "1580": 28278, "##miya": 29312, "tinted": 25577, "uruguay": 11724, "1682": 29478, "amateur": 5515, "prof": 11268, "above": 2682, "shay": 18789, "##edly": 26207, "[unused183]": 188, "reindeer": 29495, "sept": 17419, "gaining": 8550, "[unused249]": 254, "kant": 26044, "##das": 8883, "presses": 14616, "##rine": 11467, "##sca": 15782, "opener": 16181, "dixon": 11357, "simulations": 24710, "advancing": 10787, "spp": 26924, "acquired": 3734, "started": 2318, "nickel": 15519, "##nge": 15465, "zombies": 14106, "##lden": 28476, "baha": 13253, "##rly": 21194, "dialed": 21300, "hungarian": 5588, "guerrilla": 15722, "rituals": 13549, "[unused871]": 876, "imprisoned": 8580, "hopeless": 20625, "about": 2055, "vanished": 9955, "illustrator": 13825, "##ppet": 29519, "hall": 2534, "chronology": 17873, "gripped": 9672, "criticised": 10648, "##ota": 17287, "saigon": 24001, "widows": 24835, "deteriorated": 20111, "accelerate": 23306, "arcs": 29137, "dictator": 21237, "professionally": 12145, "1880s": 12751, "nak": 17823, "daytime": 12217, "##lings": 11227, "annex": 17827, "hua": 23064, "##ain": 8113, "spared": 16891, "villiers": 25333, "46th": 27990, "##\u0261": 29682, "##ie": 2666, "bragg": 23678, "xinjiang": 25904, "##\u30d5": 30246, "##hill": 7100, "prem": 26563, "offer": 3749, "interference": 11099, "##ret": 13465, "metric": 12046, "sizes": 10826, "kc": 21117, "##lub": 27959, "\u045b": 1217, "##rys": 24769, "alphabet": 12440, "paints": 23262, "table": 2795, "bones": 5944, "penalties": 12408, "iain": 24486, "yoon": 24863, "autonomy": 12645, "decreases": 17913, "##cuting": 29163, "##\u0baf": 29926, "seaside": 20276, "##\u0289": 29697, "titus": 18828, "##\u9ad8": 30507, "bears": 6468, "thieves": 15862, "brasil": 21133, "accordion": 19060, "##cana": 28621, "measuring": 9854, "##ulator": 20350, "swiftly": 12128, "willie": 9893, "raleigh": 15842, "501": 16202, "baritone": 14458, "gil": 13097, "##rwin": 27349, "\u0290": 1136, "petersburg": 8062, "##fa": 7011, "marital": 23143, "clones": 24418, "dismissal": 15322, "##rva": 19146, "adapted": 5967, "kannada": 13873, "rio": 5673, "agra": 29542, "interfaces": 19706, "spoiled": 19582, "langdon": 15232, "coached": 8868, "letting": 5599, "breaths": 12938, "os": 9808, "landowner": 20270, "##pod": 27633, "lexie": 24123, "cheshire": 13789, "quantum": 8559, "joshi": 26645, "##\u057d": 29781, "##\u52a0": 30305, "crowley": 20748, "comedy": 4038, "reeves": 17891, "withdraw": 10632, "##bic": 13592, "dunn": 14145, "trailing": 12542, "temperature": 4860, "courtyard": 10119, "joked": 19700, "1865": 6725, "suzanne": 15146, "##ants": 11390, "debating": 20767, "bandit": 25334, "barrington": 26469, "[unused45]": 46, "##ica": 5555, "profoundly": 28089, "##pus": 12207, "225": 14993, "deficit": 15074, "bonnet": 24367, "##kov": 7724, "stat": 28093, "athena": 21880, "sanctioned": 14755, "\u0924": 1323, "tumble": 28388, "caleb": 10185, "##\u4f8d": 30291, "put": 2404, "legislation": 6094, "[unused526]": 531, "[unused33]": 34, "quarterly": 12174, "threatened": 5561, "corporation": 3840, "approaching": 8455, "worthless": 22692, "jump": 5376, "referred": 3615, "triggering": 29170, "momentum": 11071, "totaling": 21798, "##\u30ca": 30241, "stalk": 23899, "gasoline": 13753, "kazan": 22001, "containers": 16143, "signal": 4742, "##net": 7159, "kissed": 4782, "mein": 24182, "excessive": 11664, "manned": 15371, "walton": 14290, "##oder": 27381, "establishes": 21009, "forming": 5716, "shrine": 9571, "reliability": 15258, "proved": 4928, "nerves": 10627, "ncaa": 5803, "ninth": 6619, "siam": 25583, "panties": 12095, "register": 4236, "contrasting": 22133, "##oso": 19137, "268": 25143, "nearer": 20388, "hose": 21290, "gonzaga": 26840, "shift": 5670, "875": 27658, "baptiste": 17329, "magdalene": 26890, "grumbled": 17030, "hosted": 4354, "feedback": 12247, "whatsoever": 18971, "\u8c37": 1951, "glared": 9400, "ripple": 24644, "##lar": 8017, "czechoslovak": 21282, "hip": 5099, "##sberg": 11711, "diver": 17856, "xl": 28712, "diplomat": 11125, "##recht": 28109, "##bil": 14454, "petersen": 22615, "\u307e": 1677, "buttons": 11287, "hutton": 20408, "[unused498]": 503, "1809": 12861, "learning": 4083, "112": 11176, "worn": 6247, "##na": 2532, "nicaragua": 15448, "parisian": 24262, "gerais": 29220, "ranged": 15844, "[unused793]": 798, "kentucky": 5612, "subunit": 24312, "##mi": 4328, "speakers": 7492, "procedure": 7709, "kwan": 27741, "ford": 4811, "[unused757]": 762, "chorus": 7165, "[unused10]": 11, "\u3059": 1658, "deck": 5877, "61": 6079, "fails": 11896, "sampled": 18925, "doubts": 13579, "##aring": 22397, "[unused646]": 651, "degrees": 5445, "clapton": 24705, "directive": 16449, "baptist": 7550, "usaf": 18531, "corrections": 20983, "tuba": 29242, "##gio": 11411, "endeavors": 28809, "ie": 29464, "decidedly": 27873, "runners": 7190, "oak": 6116, "illustration": 14614, "us": 2149, "winslow": 26600, "\u1165": 1472, "comic": 5021, "of": 1997, "erection": 13760, "med": 19960, "[unused651]": 656, "madden": 24890, "engaged": 5117, "input": 7953, "[unused259]": 264, "##oper": 25918, "soldiers": 3548, "196": 20035, "\u0639": 1288, "generating": 11717, "plaza": 8232, "settling": 9853, "tar": 16985, "interact": 11835, "\u0940": 1342, "##combe": 14149, "14": 2403, "stalls": 19753, "bought": 4149, "elector": 20374, "##tas": 10230, "##eering": 20550, "##zen": 10431, "##hum": 28600, "holm": 28925, "##\u2205": 30121, "importance": 5197, "pts": 19637, "##ably": 8231, "156": 16734, "rapidly": 5901, "lecturer": 9162, "colorful": 14231, "stand": 3233, "##section": 29015, "gulp": 26546, "deposition": 19806, "coup": 8648, "nosed": 29338, "pose": 13382, "ordinary": 6623, "##stra": 20528, "thigh": 10120, "[unused199]": 204, "ski": 8301, "combines": 13585, "##tila": 26065, "vegas": 7136, "schwarz": 29058, "chamber": 4574, "royce": 14789, "[unused887]": 892, "invalid": 19528, "acids": 12737, "##ome": 8462, "##iate": 13143, "##\u72ac": 30434, "\u535a": 1786, "cavaliers": 25096, "##breaker": 21204, "southport": 27494, "cozy": 26931, "electricity": 6451, "illegally": 17800, "maynard": 22130, "phoebe": 18188, "heterosexual": 28229, "harmon": 25546, "dna": 6064, "gunners": 29000, "spain": 3577, "raked": 22438, "vinnie": 24214, "##yde": 18124, "aka": 9875, "##uf": 16093, "trench": 14185, "wavy": 23098, "diplomacy": 17610, "cornell": 10921, "wrestled": 20615, "retribution": 25928, "##suka": 26544, "##page": 13704, "##iac": 20469, "cosmos": 21182, "hen": 21863, "##pg": 26952, "[unused504]": 509, "garry": 21507, "ace": 9078, "[unused338]": 343, "prose": 12388, "diane": 12082, "fay": 23201, "##uity": 18518, "##lass": 27102, "carpenter": 10533, "corps": 3650, "hampson": 21780, "##ware": 8059, "##\u30f3": 30263, "fiona": 13073, "ransom": 16540, "temper": 12178, "mm": 3461, "##wart": 18367, "deployment": 10813, "curator": 13023, "woo": 15854, "gathers": 29438, "species": 2427, "shaken": 16697, "brahms": 28419, "##ials": 26340, "received": 2363, "goldberg": 18522, "gym": 9726, "ying": 20879, "disasters": 18665, "mystery": 6547, "title": 2516, "functionality": 15380, "uncommon": 13191, "mixture": 8150, "yugoslavia": 8936, "signatures": 16442, "finally": 2633, "##culus": 28703, "\u30ad": 1701, "macedonian": 13037, "vittorio": 25914, "1795": 13397, "grady": 19011, "seeded": 13916, "[unused75]": 76, "224": 19711, "accession": 16993, "##\u00ae": 29656, "lives": 3268, "357": 26231, "neat": 15708, "tae": 22297, "etymology": 26803, ":": 1024, "##vant": 18941, "\u5408": 1792, "died": 2351, "exploded": 9913, "##cy": 5666, "dc": 5887, "##nte": 10111, "loire": 20399, "##\u05d6": 29793, "transparent": 13338, "welfare": 7574, "ammonia": 25874, "couples": 6062, "curly": 17546, "plants": 4264, "macon": 20025, "spill": 14437, "endowed": 19038, "bearer": 20905, "##pio": 22071, "##ault": 23505, "bullock": 25200, "robyn": 28047, "horace": 12757, "##national": 25434, "steamship": 23869, "statistics": 6747, "cylinder": 7956, "latham": 28737, "centralized": 22493, "puppets": 26101, "marketed": 11625, "neatly": 15981, "telegraph": 10013, "extremes": 28800, "disputed": 11621, "astronomer": 15211, "milky": 21582, "##27": 22907, "stumble": 21811, "wehrmacht": 23443, "prostitute": 19215, "legally": 10142, "broad": 5041, "illustrated": 7203, "paws": 24392, "willem": 18811, "personality": 6180, "[unused310]": 315, "def": 13366, "during": 2076, "lankan": 16159, "##hone": 27406, "fortified": 13313, "[unused601]": 606, "palm": 5340, "therapy": 7242, "##rner": 18703, "edges": 7926, "1808": 13040, "residue": 21755, "politely": 16954, "fares": 27092, "punk": 7196, "points": 2685, "##el": 2884, "##eck": 11012, "pod": 17491, "cumberland": 12310, "outside": 2648, "equivalence": 27841, "rounded": 8352, "##fell": 23510, "blank": 8744, "##chon": 24561, "dimensional": 8789, "vanish": 25887, "jumps": 14523, "clear": 3154, "1086": 28196, "1689": 22685, "livingston": 14109, "intermittent": 23852, "elena": 9060, "[unused976]": 981, "sixth": 4369, "euclidean": 25826, "##nis": 8977, "##face": 12172, "##sling": 28886, "implant": 27159, "##\u10dc": 29985, "paradox": 20506, "downstairs": 10025, "beads": 17530, "surge": 12058, "##tour": 21163, "messenger": 11981, "arrive": 7180, "\u0baf": 1390, "irregular": 12052, "observe": 11949, "shutting": 17521, "##usa": 10383, "misery": 14624, "exam": 11360, "\u6cbb": 1900, "##haw": 14238, "##\u03b6": 29724, "disabled": 9776, "1801": 12410, "departed": 7745, "godfrey": 18238, "##tenberg": 21806, "accreditation": 14893, "preparing": 8225, "someday": 13834, "al": 2632, "ballard": 21896, "tnt": 24048, "annum": 28907, "progress": 5082, "southwest": 4943, "\u30fb": 1738, "##idae": 6096, "informing": 21672, "resorts": 16511, "limiting": 14879, "##\u3068": 30192, "earthquakes": 17932, "saber": 25653, "imagining": 16603, "sherry": 22268, "deed": 15046, "##osa": 8820, "excluding": 13343, "excused": 28512, "##oue": 27872, "ashby": 28729, "len": 18798, "1745": 21809, "baden": 12189, "magna": 20201, "worshipped": 22876, "cardiovascular": 22935, "australian": 2827, "chose": 4900, "burma": 11050, "mostly": 3262, "ignited": 22395, "nonetheless": 9690, "expansion": 4935, "25th": 10965, "elevator": 7764, "##het": 27065, "newest": 14751, "##plicity": 27293, "[unused942]": 947, "\u30ed": 1735, "viruses": 18191, "clinched": 18311, "quivering": 26012, "gunter": 27834, "\u2096": 1565, "theories": 8106, "wildlife": 6870, "breeders": 20823, "##lino": 25226, "sack": 12803, "earlier": 3041, "sired": 26940, "mustafa": 19683, "gardiner": 21143, "cleansing": 26799, "protective": 9474, "weapon": 5195, "##ossa": 21842, "rv": 27634, "clap": 28618, "funny": 6057, "massive": 5294, "magnus": 10045, "1842": 10008, "##gc": 18195, "destroys": 20735, "yeshiva": 22142, "ta": 11937, "cameron": 7232, "1770": 17711, "brigham": 22727, "exclusive": 7262, "##aer": 27867, "trainee": 26758, "##graphy": 12565, "##\u03bb": 29727, "fortunate": 19590, "institut": 17126, "##\u5f8c": 30372, "template": 23561, "##\u03b4": 29722, "##lane": 20644, "craft": 7477, "olympia": 17096, "lets": 11082, "connections": 7264, "orion": 18747, "wc": 15868, "theodore": 10117, "cheered": 25471, "lying": 4688, "jocelyn": 23786, "##\u20a4": 30100, "##ico": 11261, "##fur": 27942, "glancing": 10167, "manning": 11956, "vamp": 20279, "moors": 24812, "blue": 2630, "##dorff": 26559, "respected": 9768, "illustrates": 24899, "kneeling": 16916, "##\u0291": 29703, "exploit": 18077, "comparative": 12596, "ios": 16380, "tractors": 28292, "sacrifices": 18502, "verified": 20119, "hanoi": 24809, "awe": 15180, "blaming": 24114, "hackett": 28630, "absolute": 7619, "maximilian": 18838, "minerals": 13246, "##rith": 24292, "[unused833]": 838, "mitch": 11857, "\u6f22": 1904, "render": 17552, "midfield": 23071, "illusion": 12492, "lancashire": 9638, "daring": 15236, "##hiro": 18334, "demeanor": 21745, "encompass": 25281, "bully": 20716, "hodgson": 26107, "pressure": 3778, "##\u3080": 30205, "deeper": 6748, "[unused15]": 16, "dan": 4907, "##fu": 11263, "agency": 4034, "shore": 5370, "tones": 12623, "archaic": 19261, "geographical": 10056, "customized": 28749, "decrees": 28966, "##craft": 10419, "candidate": 4018, "ticked": 26019, "##wana": 21761, "strengthening": 16003, "collapsing": 22724, "##eria": 11610, "##stor": 23809, "##tov": 26525, "unexpected": 9223, "##itor": 15660, "[unused309]": 314, "urge": 9075, "tides": 22487, "##ango": 23422, "programs": 3454, "wrath": 14532, "##za": 4143, "poisoning": 16149, "even": 2130, "guards": 4932, "##made": 21565, "crane": 11308, "announcing": 13856, "##yama": 11613, "seam": 25180, "spaghetti": 26666, "cameroon": 13841, "haggard": 27912, "##\u062c": 29819, "hurriedly": 23878, "##\u21a6": 30116, "hissing": 26386, "parasite": 21198, "anybody": 10334, "##hp": 22269, "tits": 25671, "to": 2000, "1641": 25702, "doubling": 19383, "##eville": 21187, "lest": 26693, "##\u0263": 29683, "carp": 29267, "##gawa": 21188, "robbery": 13742, "[unused98]": 99, "ruler": 7786, "128": 11899, "xml": 20950, "barren": 20225, "texans": 23246, "along": 2247, "engineering": 3330, "shelly": 28360, "1965": 3551, "colby": 18650, "warwick": 13283, "carver": 20163, "nasser": 26099, "buckled": 26368, "##posed": 19155, "edo": 18314, "##ula": 7068, "##ibly": 17296, "seriously": 5667, "walked": 2939, "woods": 5249, "dense": 9742, "[unused807]": 812, "renovations": 15576, "[unused841]": 846, "fantastic": 10392, "##14": 16932, "junk": 18015, "wil": 19863, "lim": 18525, "maud": 21696, "\u2192": 1585, "burnley": 23028, "enriched": 25202, "urbana": 27929, "##\u0928": 29863, "relax": 9483, "##ola": 6030, "exports": 14338, "grossing": 18244, "lattice": 17779, "obtained": 4663, "commissioner": 5849, "##guide": 28582, "merton": 28169, "jogging": 28233, "phyllis": 20328, "##yin": 25811, "##\u751f": 30436, "\u05e8": 1265, "##cter": 21162, "integers": 24028, "iranian": 7726, "dutton": 28784, "brittle": 24650, "cavalier": 28778, "preparations": 12929, "##gua": 19696, "##cans": 26642, "##ki": 3211, "##\u2077": 30076, "[unused195]": 200, "occupied": 4548, "grandpa": 15310, "arranged": 5412, "##jian": 27685, "##\u05e1": 29804, "palo": 24326, "[unused947]": 952, "colleagues": 8628, "##ellant": 24178, "sharif": 20351, "automotive": 12945, "awareness": 7073, "206": 18744, "[unused547]": 552, "drink": 4392, "constantine": 12790, "downloads": 22956, "16th": 5767, "cinematographer": 19245, "1726": 28342, "speed": 3177, "devotion": 13347, "lublin": 18967, "turbo": 15386, "away": 2185, "zaragoza": 25744, "indigo": 22472, "anomaly": 28685, "kamal": 21911, "birthday": 5798, "105": 8746, "##asi": 21369, "memoir": 12558, "smacked": 19203, "lahore": 15036, "patti": 22732, "##ungen": 23239, "mechanisms": 10595, "##cks": 10603, "bothering": 17067, "[unused713]": 718, "narrative": 7984, "##\u304d": 30178, "riverside": 12497, "undeveloped": 29341, "lazy": 13971, "fda": 17473, "farm": 3888, "exhaled": 16242, "##58": 27814, "07": 5718, "saudi": 8174, "protestant": 8330, "meters": 5563, "unclear": 10599, "built": 2328, "##shing": 12227, "woodstock": 21028, "finding": 4531, "tal": 21368, "vedic": 25824, "regain": 12452, "##\u00b1": 29657, "compatibility": 21778, "conceded": 15848, "recounted": 22906, "gestures": 18327, "commentary": 8570, "gustav": 13430, "snuck": 24492, "1646": 28783, "[unused26]": 27, "104": 9645, "genuinely": 15958, "1843": 10075, "incidents": 10444, "nr": 17212, "hits": 4978, "##\u1d35": 30029, "barrister": 19805, "canadian": 3010, "restoring": 16487, "##ron": 4948, "lina": 27022, "vain": 15784, "influence": 3747, "heir": 8215, "capital": 3007, "##dles": 27822, "marry": 5914, "bartlett": 20081, "sands": 13457, "adele": 17623, "[unused516]": 521, "dealer": 11033, "echo": 9052, "stupid": 5236, "[unused462]": 467, "processor": 13151, "m": 1049, "##iable": 19210, "whip": 11473, "mid": 3054, "grasses": 21620, "twinned": 25901, "\u0f0b": 1424, "##jia": 26541, "alonso": 17649, "rational": 11581, "tanned": 25973, "internal": 4722, "obe": 15578, "thistle": 24328, "conserve": 27749, "cartel": 21680, "276": 25113, "king": 2332, "##yon": 14001, "suck": 11891, "sparks": 12300, "hilltop": 25566, "silently": 8601, "shadow": 5192, "##cao": 20808, "centers": 6401, "cache": 17053, "lester": 14131, "trust": 3404, "memorable": 13432, "##ilised": 21758, "podcast": 16110, "##\u9580": 30494, "##yala": 28617, "wii": 16568, "anaheim": 20835, "savannah": 10891, "marquis": 13410, "##giri": 23243, "jax": 13118, "[unused117]": 122, "operators": 9224, "##ud": 6784, "ill": 5665, "terribly": 16668, "oblivious": 18333, "emilia": 20417, "anatolia": 23747, "737": 22061, "foxes": 24623, "tongues": 19677, "orbits": 20347, "headed": 3753, "##uge": 22890, "driven": 5533, "legislator": 22964, "##comb": 18274, "pamphlet": 19899, "\u0646": 1296, "##ova": 7103, "keel": 19602, "educate": 16957, "demographics": 28321, "wizards": 16657, "fingertips": 12206, "adjustable": 26404, "filling": 8110, "matrices": 21520, "##jit": 18902, "tucked": 9332, "layer": 6741, "incidence": 18949, "corresponding": 7978, "excerpt": 28142, "guillermo": 21070, "output": 6434, "assaulted": 17536, "begun": 5625, "penang": 21812, "loving": 8295, "##ct": 6593, "palatinate": 18990, "machinery": 10394, "[unused214]": 219, "france": 2605, "twin": 5519, "adjustments": 24081, "syllable": 16353, "disastrous": 16775, "##tore": 19277, "volley": 28073, "nicky": 20158, "scents": 29254, "plata": 19534, "quran": 21288, "##nc": 12273, "clifford": 13894, "##\u9053": 30483, "dried": 9550, "##owing": 14138, "83": 6640, "telenovela": 25754, "breathe": 7200, "epic": 8680, "catch": 4608, "##\u98df": 30504, "american": 2137, "tariff": 23234, "heinrich": 10952, "stephane": 26624, "ensure": 5676, "corporal": 14265, "verve": 29230, "##enay": 27727, "resulting": 4525, "\u099a": 1356, "1790": 13393, "existence": 4598, "microwave": 18302, "vega": 15942, "glaciers": 21193, "maestro": 25270, "rollins": 23502, "shortly": 3859, "hallmark": 25812, "exchanging": 25620, "sorts": 11901, "##\u0582": 29785, "diffusion": 19241, "incumbent": 7703, "monetary": 12194, "dessert": 18064, "om": 18168, "##liner": 20660, "sunrise": 13932, "scottish": 4104, "##mann": 5804, "##ach": 6776, "##\u0633": 29824, "backward": 8848, "kathleen": 14559, "cayman": 26164, "comical": 29257, "watch": 3422, "shed": 8328, "reserved": 9235, "dd": 20315, "served": 2366, "\u0569": 1224, "eva": 9345, "double": 3313, "involve": 9125, "huntington": 16364, "tents": 17732, "scripts": 14546, "izzy": 16699, "pensions": 22024, "nicole": 9851, "nueva": 24536, "michael": 2745, "[unused846]": 851, "uefa": 6663, "\u1169": 1475, "##aver": 22208, "##cking": 23177, "caitlin": 27555, "##\u5289": 30303, "320": 13710, "comrades": 19033, "folder": 19622, "completion": 6503, "beech": 21760, "##*": 29621, "tun": 27112, "##gong": 17036, "virus": 7865, "echoed": 10187, "350": 8698, "##ndi": 16089, "##planes": 26634, "\u0282": 1129, "\u9053": 1957, "restroom": 28249, "##tarian": 28897, "evans": 6473, "smoking": 9422, "vito": 25550, "##sity": 17759, "##\u9999": 30505, "continually": 14678, "stabbing": 21690, "garrison": 8427, "##anto": 21634, "recognizable": 20123, "[unused894]": 899, "##mple": 23344, "hammered": 25756, "somebody": 8307, "##carriage": 21539, "surf": 14175, "blossom": 20593, "predators": 12630, "philippine": 7802, "minneapolis": 11334, "photograph": 9982, "\u5c0f": 1829, "[unused443]": 448, "##shire": 7430, "[unused497]": 502, "vertices": 18984, "dyed": 28432, "enclosed": 10837, "sealed": 10203, "sonya": 27926, "scissors": 25806, "##dos": 12269, "progression": 14967, "nagoya": 24425, "kitchener": 27154, "juan": 5348, "geography": 10505, "panorama": 23652, "1623": 29056, "##uru": 14129, "comfortably": 18579, "##mide": 24284, "gesellschaft": 27482, "combining": 11566, "substitution": 20885, "vibe": 21209, "similar": 2714, "banned": 7917, "##tea": 27058, "geo": 20248, "247": 23380, "ascended": 19644, "there": 2045, "teaches": 12011, "vegetable": 15415, "variously": 17611, "\u0562": 1220, "copeland": 27303, "kelly": 5163, "breaker": 24733, "##\u06c1": 29845, "lending": 18435, "marco": 8879, "treasures": 17605, "nasal": 19077, "ramsey": 15092, "##orted": 15613, "cheerful": 18350, "min": 8117, "pepper": 11565, "alternately": 23554, "holdings": 9583, "##tort": 25485, "##\u2088": 30084, "integrated": 6377, "maritime": 7803, "[unused818]": 823, "expectation": 17626, "fear": 3571, "actions": 4506, "lick": 15385, "sob": 17540, "frederic": 15296, "inspiring": 18988, "shaun": 16845, "haul": 14655, "spelled": 11479, "waited": 4741, "abraham": 8181, "2a": 23409, "pressured": 25227, "viscount": 12182, "blowing": 11221, "constitute": 12346, "\u00ac": 1078, "##cey": 25810, "encore": 19493, "brackets": 19719, "siemens": 22108, "viral": 13434, "guadalupe": 23529, "magdalena": 23984, "disadvantage": 20502, "teamed": 12597, "[unused226]": 231, "hague": 14575, "385": 24429, "lal": 21348, "##rella": 21835, "springfield": 10493, "##\u6587": 30387, "ample": 20851, "diamonds": 11719, "\u2228": 1603, "shirt": 3797, "##och": 11663, "##haling": 23896, "turks": 12896, "brood": 25565, "[unused132]": 137, "[unused914]": 919, "##erving": 25164, "##vor": 14550, "scotland": 3885, "html": 16129, "gilles": 21717, "summers": 10945, "305": 20405, "fit": 4906, "valet": 27238, "##lock": 7878, "coloration": 28757, "##hood": 9021, "blacks": 10823, "fates": 26417, "[unused890]": 895, "cullen": 19925, "##\u0f42": 29962, "moniker": 21937, "bump": 16906, "jess": 12245, "expressive": 22570, "\u702c": 1905, "##rmin": 27512, "##ivity": 7730, "branched": 21648, "zac": 29250, "balance": 5703, "##tl": 19646, "zeke": 18270, "students": 2493, "##\u0ba9": 29923, "naked": 6248, "amazon": 9733, "irregularities": 28868, "cycle": 5402, "defaulted": 17265, "twenty20": 22240, "devlin": 24389, "\u0268": 1118, "breaks": 7807, "aims": 8704, "##dant": 28210, "\u02b3": 1142, "##ressed": 16119, "sen": 12411, "da": 4830, "dat": 23755, "##itia": 29050, "\u1019": 1437, "dorian": 16092, "loaf": 27048, "second": 2117, "[unused593]": 598, "upcoming": 9046, "sights": 15925, "##reen": 28029, "times": 2335, "##icle": 25128, "utah": 6646, "buddhism": 11388, "[unused948]": 953, "seated": 8901, "395": 24673, "chunks": 24839, "weightlifting": 29305, "352": 28906, "\u05be": 1240, "[unused730]": 735, "amadeus": 27185, "alzheimer": 21901, "[unused678]": 683, "notified": 19488, "stimuli": 22239, "##\u045a": 29763, "holly": 9079, "delle": 24121, "ramp": 13276, "vowed": 18152, "disbanded": 8532, "##\u00ba": 29662, "contributors": 16884, "loyalists": 26590, "defective": 28829, "typhoon": 15393, "hierarchy": 12571, "##hey": 14844, "inherently": 26096, "sweetie": 22872, "moth": 5820, "iberian": 21988, "basis": 3978, "pasture": 20787, "citations": 22921, "glen": 8904, "rotated": 20931, "\u98a8": 1977, "efficiency": 8122, "##da": 2850, "peerage": 18760, "stint": 12116, "consolidated": 10495, "defected": 26330, "279": 25745, "layton": 23103, "##hly": 27732, "ashore": 16145, "messengers": 28938, "policy": 3343, "churchyard": 19812, "crimes": 6997, "agreement": 3820, "overseen": 22485, "dmitri": 28316, "yahoo": 20643, "hotspur": 25985, "tattooed": 26464, "skin": 3096, "pinched": 18521, "crunch": 24514, "fetch": 18584, "kisses": 8537, "skylar": 27970, "forgiveness": 17213, "campaigned": 16196, "riga": 17557, "bankrupt": 17482, "##ock": 7432, "depicting": 10775, "insurance": 5427, "investing": 19920, "patents": 13979, "inspected": 20456, "sums": 20571, "joshua": 9122, "##\u300b": 30166, "##ming": 6562, "##etti": 18319, "wider": 7289, "[unused688]": 693, "reduces": 13416, "##ssel": 21218, "superiors": 22983, "divine": 7746, "hidalgo": 24715, "1783": 15331, "incoming": 14932, "assistants": 16838, "karlsruhe": 26660, "##\u6c35": 30420, "audrey": 14166, "dumping": 23642, "interior": 4592, "shi": 11895, "nyc": 16392, "sinatra": 19643, "[unused486]": 491, "punched": 11696, "consensus": 10465, "police": 2610, "split": 3975, "overlap": 17702, "tightening": 18711, "ruins": 8435, "batting": 9640, "harmless": 19741, "##\u671d": 30400, "particularly": 3391, "sideways": 12579, "gustave": 27973, "[unused59]": 60, "forensic": 15359, "##\u4e09": 30267, "qualifications": 15644, "##\u116f": 30015, "wadi": 28380, "correspondence": 11061, "advise": 18012, "attendees": 19973, "unopposed": 17123, "facility": 4322, "forces": 2749, "##tions": 9285, "##lett": 20897, "risked": 22374, "mrs": 3680, "azure": 24296, "insulation": 25710, "chrome": 18546, "ri": 15544, "multimedia": 14959, "intervene": 18793, "salt": 5474, "sunni": 18883, "brightened": 28996, "\u2030": 1530, "tunes": 13281, "subjective": 20714, "##\u0628": 29816, "presiding": 18131, "galicia": 19017, "\u662d": 1868, "##lva": 22144, "31st": 17089, "\u7537": 1912, "##erie": 17378, "salute": 17664, "bentley": 15988, "masters": 5972, "consist": 8676, "##ral": 7941, "internationale": 21339, "[unused234]": 239, "##ra\u00dfe": 27807, "1837": 9713, "domestic": 4968, "scientist": 7155, "caused": 3303, "murders": 9916, "##tell": 23567, "hooded": 21592, "communicated": 24162, "##mos": 15530, "rival": 6538, "resin": 24604, "cavity": 17790, "[unused355]": 360, "oxide": 15772, "##\u77f3": 30448, "pork": 15960, "generous": 12382, "haji": 28174, "traveler": 20174, "dayton": 14700, "overwhelmed": 13394, "cheat": 21910, "allegheny": 21192, "assassinated": 16370, "stigma": 26453, "lined": 7732, "thou": 15223, "##mg": 24798, "\u0630": 1279, "charter": 6111, "monkey": 10608, "expressing": 14026, "runway": 9271, "##tina": 13770, "rid": 9436, "childish": 24282, "1999": 2639, "buddy": 8937, "tempo": 13657, "##itive": 13043, "mix": 4666, "hating": 22650, "stories": 3441, "financial": 3361, "coloring": 22276, "##\u00f7": 29669, "drinks": 8974, "##heard": 26362, "kilometer": 20595, "rita": 11620, "adjutant": 20690, "stable": 6540, "agricultural": 4910, "punished": 14248, "fis": 27424, "views": 5328, "sighting": 29426, "##uy": 26230, "##form": 14192, "twice": 3807, "espionage": 21003, "[unused288]": 293, "river": 2314, "##nage": 27031, "aristocratic": 19774, "imperial": 4461, "##ocytes": 28788, "\uff0d": 1990, "seek": 6148, "esq": 25325, "##glia": 20011, "##len": 7770, "safety": 3808, "silenced": 25030, "agent": 4005, "foe": 22277, "[unused515]": 520, "fuller": 12548, "##ml": 19968, "\u624c": 1859, "ethernet": 26110, "\u0989": 1350, "##ostal": 29381, "5": 1019, "reunion": 10301, "medieval": 5781, "##md": 26876, "worrying": 15366, "##rigue": 27611, "triad": 25355, "##hyllum": 27750, "prestigious": 8919, "zeus": 15208, "routinely": 19974, "buchanan": 14349, "wednesday": 9317, "apples": 18108, "paranoid": 19810, "alexia": 21683, "gestured": 11574, "dishes": 10447, "aluminium": 14794, "sprinted": 25156, "empirical": 17537, "##rum": 6824, "nils": 27282, "son": 2365, "sumner": 23922, "##sonic": 18585, "colorado": 5169, "syria": 7795, "adriatic": 23400, "waved": 7147, "aj": 19128, "ravaged": 25537, "religious": 3412, "##iom": 18994, "##unas": 23904, "july": 2251, "salem": 10389, "flour": 13724, "screwed": 14180, "##tura": 27431, "cemeteries": 20973, "yanked": 10963, "profitable": 15282, "tokugawa": 22065, "psychedelic": 18147, "##logies": 21615, "zur": 17924, "ict": 25891, "manifold": 19726, "1952": 3999, "##haven": 14650, "##partisan": 26053, "philadelphia": 4407, "horrible": 9202, "langley": 19094, "236": 23593, "archaeologists": 19254, "modification": 14080, "came": 2234, "\u79c0": 1928, "attraction": 8432, "##ffa": 20961, "##dc": 16409, "##tung": 21847, "pontiac": 24538, "printer": 15041, "lure": 17256, "##\u03b3": 29721, "rudolf": 12794, "[unused66]": 67, "##iec": 23783, "chunk": 20000, "##\u5185": 30299, "oversaw": 14105, "jonathan": 5655, "chassis": 11832, "##lous": 15534, "oasis": 18128, "familiarity": 24666, "\u2ebc": 1633, "coveted": 28821, "sousa": 28535, "cochin": 28982, "##fying": 14116, "ltd": 5183, "victims": 5694, "yourselves": 25035, "wainwright": 25305, "slavic": 13838, "##ax": 8528, "southampton": 11833, "backwards": 11043, "\u11a8": 1484, "\u540c": 1794, "##raf": 27528, "mae": 11530, "[unused246]": 251, "skull": 7412, "relatives": 9064, "ethnicity": 18240, "[unused237]": 242, "roll": 4897, "hand": 2192, "rao": 10546, "bedford": 12003, "317": 26628, "##uma": 12248, "[unused790]": 795, "sensing": 13851, "##mming": 25057, "characteristics": 6459, "liang": 16982, "synthesizers": 22211, "resolution": 5813, "##logist": 10727, "bind": 14187, "thor": 15321, "smell": 5437, "damian": 19507, "grants": 8624, "watched": 3427, "celtic": 8730, "however": 2174, "\u03c6": 1176, "##ake": 13808, "cannabis": 17985, "fifties": 25942, "##\u3078": 30201, "##pp": 9397, "ara": 19027, "[unused599]": 604, "##shed": 14740, "##\u611b": 30379, "\u03b7": 1161, "1695": 29140, "herb": 12810, "##\u0630": 29822, "dare": 8108, "recalled": 7383, "serbs": 16757, "hitchcock": 19625, "reactivated": 28577, "speeches": 13867, "meadows": 13524, "reminds": 15537, "robotic": 20478, "##nbc": 28957, "winnipeg": 11093, "northumberland": 16205, "evident": 10358, "canberra": 13107, "\u0986": 1348, "ventilation": 19536, "farmhouse": 16870, "##iki": 17471, "##ural": 11137, "graceful": 19415, "marylebone": 28537, "##ks": 5705, "##using": 18161, "##bery": 22509, "lineup": 10515, "accountants": 29114, "staircase": 10714, "kw": 6448, "descriptions": 13271, "hostel": 21071, "expressions": 11423, "1960": 3624, "overturned": 17068, "moat": 25266, "reflection": 9185, "garland": 17017, "penthouse": 22855, "[unused189]": 194, "##ively": 14547, "hurled": 24025, "klan": 26613, "diner": 15736, "##lining": 16992, "[unused642]": 647, "rei": 24964, "[unused219]": 224, "mohamed": 14467, "navigation": 9163, "fools": 18656, "reproduced": 22296, "unreasonable": 29205, "whitman": 21311, "blizzard": 21689, "arthur": 4300, "maroon": 22222, "##sius": 24721, "\u2071": 1537, "\u308b": 1687, "##lard": 20822, "##\u9593": 30495, "weak": 5410, "chilly": 24222, "might": 2453, "sc": 8040, "1988": 2997, "replica": 15059, "[unused909]": 914, "cumbria": 25559, "landings": 16805, "\u05e9": 1266, "triassic": 29529, "favor": 5684, "viper": 17947, "##\u062a": 29817, "looks": 3504, "brute": 26128, "##\u0e21": 29951, "##wash": 28556, "##ducted": 29510, "graphics": 8389, "super": 3565, "literally": 6719, "troll": 18792, "[unused119]": 124, "[unused5]": 6, "epilogue": 24297, "wheelchair": 13204, "needed": 2734, "wrist": 7223, "corners": 8413, "mccall": 25790, "copper": 6967, "began": 2211, "vince": 12159, "taxonomic": 27691, "available": 2800, "[unused264]": 269, "##offs": 27475, "##\u30bf": 30235, "[unused886]": 891, "overnight": 11585, "##chfield": 22693, "people": 2111, "bryan": 8527, "shapes": 10466, "\u04cf": 1218, "irrigation": 12442, "disbelief": 12537, "banda": 24112, "tenderness": 24605, "##oga": 18170, "##\u03c6": 29736, "crates": 27619, "[unused857]": 862, "smoothly": 15299, "wasting": 18313, "busiest": 20530, "christi": 21359, "##\u207b": 30079, "##lston": 21540, "helmets": 22674, "smarter": 25670, "307": 24559, "document": 6254, "except": 3272, "bran": 24905, "imaginary": 15344, "##s\u0142aw": 23305, "##\u1d58": 30042, "random": 6721, "pilot": 4405, "##\u0679": 29838, "edwards": 7380, "##with": 24415, "doubtful": 21888, "rico": 7043, "revolutionaries": 24517, "##illo": 10486, "1st": 3083, "protected": 5123, "fountains": 23497, "artillery": 4893, "[unused69]": 70, "treaties": 16013, "mutiny": 19306, "nashville": 8423, "cappella": 23013, "craving": 26369, "sing": 6170, "lung": 11192, "##rued": 28551, "model": 2944, "430": 19540, "discoveries": 15636, "##\u2190": 30111, "mingled": 25959, "backing": 5150, "mont": 18318, "bleak": 21657, "debuting": 24469, "cessna": 27664, "##dents": 28986, "mammalian": 26524, "##sters": 15608, "rice": 5785, "jul": 21650, "contiguous": 25177, "servers": 14903, "catholic": 3234, "improvised": 19641, "rees": 22131, "##ivation": 25761, "postponed": 14475, "liberalism": 26505, "scholastic": 24105, "paper": 3259, "emission": 15760, "potomac": 18854, "##drick": 24092, "funding": 4804, "vibrant": 17026, "##cable": 21170, "gruff": 27038, "stacy": 18566, "clare": 11152, "gambia": 26728, "##bek": 24597, "operas": 14281, "##aton": 22436, "##wood": 3702, "betty": 9306, "alta": 23647, "[unused657]": 662, "centrally": 25497, "##gue": 9077, "mixer": 23228, "tons": 6197, "utmost": 27917, "wrenched": 26971, "record": 2501, "1752": 24736, "remix": 6136, "extracted": 15901, "dir": 16101, "intercontinental": 18725, "specifications": 15480, "upgrading": 25925, "antoinette": 28429, "passport": 12293, "remorse": 23124, "[unused58]": 59, "##pt": 13876, "auf": 21200, "exclude": 23329, "vendors": 17088, "maximum": 4555, "kaye": 23686, "chiba": 27368, "recognizing": 14622, "##talk": 28014, "obliged": 14723, "light": 2422, "##me": 4168, "promotes": 14067, "separates": 18600, "##uss": 17854, "spotted": 7282, "describe": 6235, "\u53e4": 1789, "figuring": 23218, "resist": 9507, "##shin": 17426, "##iny": 24300, "refining": 28596, "##wicz": 21355, "days": 2420, "computer": 3274, "russo": 17023, "contracts": 8311, "america": 2637, "apostolic": 11815, "\u6a4b": 1885, "dollars": 6363, "lunar": 11926, "15th": 6286, "meek": 28997, "self": 2969, "7th": 5504, "shareholder": 18668, "automobiles": 19207, "sensual": 18753, "experienced": 5281, "iran": 4238, "[unused789]": 794, "##stock": 14758, "reminding": 15906, "seine": 16470, "analyze": 17908, "glide": 21096, "pancakes": 28470, "##tooth": 19392, "sounding": 9391, "gaddafi": 28924, "missiles": 10815, "1861": 6863, "##mond": 11442, "rode": 8469, "liturgical": 19246, "prone": 13047, "commemorate": 13415, "appellate": 23240, "\u02e4": 1154, "\u0454": 1212, "korean": 4759, "circus": 9661, "informed": 6727, "determined": 4340, "[unused347]": 352, "engineer": 3992, "socrates": 26772, "450": 10332, "chances": 9592, "marlborough": 22830, "piston": 16733, "ganga": 28646, "mollusk": 13269, "[unused952]": 957, "metre": 7924, "slaughtered": 23044, "wore": 5078, "talent": 5848, "bloom": 13426, "greens": 15505, "##oki": 23212, "selection": 4989, "despised": 26626, "appear": 3711, "spacecraft": 12076, "opus": 16895, "fascination": 18987, "##mx": 22984, "\u2606": 1621, "hygiene": 19548, "staff": 3095, "##ads": 19303, "##bank": 9299, "astonishing": 26137, "##nko": 16107, "bald": 13852, "continents": 17846, "referee": 5330, "ships": 3719, "##cence": 29320, "##nished": 28357, "instrumentalist": 29253, "shrill": 28349, "##sities": 24279, "joo": 28576, "beef": 12486, "companions": 11946, "biscuits": 27529, "attracting": 15411, "##etic": 16530, "curl": 15390, "salesman": 18968, "\u300d": 1642, "somerset": 9198, "[unused950]": 955, "[unused863]": 868, "##ania": 13241, "penitentiary": 29569, "cougars": 26317, "taunton": 28181, "gui": 26458, "hewitt": 19482, "\u5fc4": 1850, "##de": 3207, "breathed": 8726, "alvarez": 16309, "1626": 28818, "projected": 11310, "##ines": 10586, "nobility": 11760, "hubbard": 16580, "unmarried": 17204, "controversies": 25962, "inspect": 22459, "officer": 2961, "soviet": 3354, "reorganized": 14137, "##door": 23835, "representation": 6630, "1792": 13414, "pew": 29071, "capitals": 15433, "nationality": 10662, "1931": 4739, "77": 6255, "pulled": 2766, "edmund": 9493, "cardboard": 19747, "##ddle": 20338, "##lab": 20470, "enzyme": 9007, "internship": 22676, "cross": 2892, "adjust": 14171, "observation": 8089, "violate": 23640, "##ential": 24271, "##xing": 19612, "opposition": 4559, "##ace": 10732, "[unused402]": 407, "##ores": 16610, "##nds": 18376, "silver": 3165, "numerous": 3365, "profound": 13769, "taxpayer": 26980, "[unused792]": 797, "affirmative": 27352, "philology": 29286, "\u30df": 1724, "##graphic": 14773, "noisy": 20810, "supplement": 12448, "lyricist": 19489, "##ruff": 26919, "ingredient": 21774, "facts": 8866, "erie": 13374, "indianapolis": 9506, "tyrant": 26508, "\u3068": 1666, "eastern": 2789, "grabbed": 4046, "tripped": 21129, "hospitality": 15961, "salim": 27490, "remarkably": 17431, "derives": 12153, "gandhi": 12338, "umar": 27981, "##\u3072": 30199, "##you": 29337, "42": 4413, "writings": 7896, "##hit": 16584, "churning": 26765, "beauty": 5053, "unrelated": 15142, "practitioner": 18742, "galveston": 26630, "distrust": 29245, "glitter": 27566, "nyu": 27935, "jewellery": 21545, "##200": 28332, "fighters": 7299, "somalia": 14717, "spinal": 16492, "unarmed": 23206, "##pipe": 24548, "maturity": 16736, "stirred": 13551, "jonny": 26937, "rebels": 8431, "braun": 21909, "##kovich": 28195, "mundo": 25989, "[unused711]": 716, "1858": 8517, "##tite": 23096, "straighten": 28568, "[unused712]": 717, "maggie": 8538, "##ego": 20265, "##hiti": 27798, "determining": 12515, "##orus": 21694, "pavement": 14271, "emphasizing": 22671, "blair": 10503, "res": 24501, "##gr": 16523, "supplemental": 27024, "hereditary": 14800, "hundred": 3634, "##iana": 11410, "sustained": 8760, "modifications": 12719, "drafting": 21168, "paradigm": 20680, "g": 1043, "litre": 16812, "we": 2057, "assigns": 24022, "teach": 6570, "blanchard": 26870, "##inking": 29377, "[unused468]": 473, "motivated": 12774, "##jack": 17364, "secretly": 10082, "memories": 5758, "path": 4130, "vichy": 29177, "graduating": 6800, "silesian": 20453, "##\u03b5": 29723, "##\u6f22": 30430, "##dav": 29045, "##mberg": 29084, "never": 2196, "##burn": 8022, "##veda": 28614, "##scan": 29378, "invite": 13260, "biomedical": 20906, "photon": 26383, "seeking": 6224, "grandchildren": 13628, "coat": 5435, "snowfall": 26043, "inclusive": 18678, "[unused958]": 963, "classrooms": 12463, "filtered": 21839, "hagen": 24047, "suspects": 13172, "##ject": 20614, "##jic": 25008, "presumed": 14609, "##west": 19650, "se": 7367, "demi": 27668, "##ran": 5521, "language": 2653, "hugged": 10308, "##\u05dc": 29799, "cinema": 5988, "vendor": 21431, "greed": 22040, "proteins": 8171, "tightly": 7371, "shaman": 23610, "ultra": 11087, "dedication": 12276, "fraudulent": 27105, "games": 2399, "boy": 2879, "sk": 15315, "outdoors": 19350, "##11": 14526, "##ima": 9581, "\u00ba": 1089, "pedestrian": 14662, "modelling": 19518, "thence": 23166, "gilded": 23880, "##56": 26976, "zoning": 27462, "##erus": 21608, "flooded": 10361, "guitar": 2858, "amulet": 25087, "lies": 3658, "##\u0dcf": 29944, "upscale": 28276, "investigators": 14766, "[unused250]": 255, "matthews": 12351, "##h": 2232, "gateway": 11909, "ambassadors": 20986, "\u0442": 1197, "gs": 28177, "curate": 27530, "pajamas": 27621, "debts": 13930, "impatience": 28011, "oriental": 11481, "##tate": 12259, "rockefeller": 16696, "enlightenment": 16724, "peru": 7304, "obstacles": 15314, "##eller": 24038, "hawks": 12505, "gravity": 8992, "1821": 11723, "##lled": 11001, "major": 2350, "text": 3793, "conventional": 7511, "likewise": 10655, "immaculate": 19532, "[unused13]": 14, "forestry": 13116, "pit": 6770, "mw": 12464, "pebbles": 28962, "necessitated": 29611, "##\u2f65": 30160, "hogan": 14851, "##\u9fb8": 30509, "laurie": 16450, "craters": 27561, "treatment": 3949, "##frey": 22586, "matter": 3043, "##rians": 23543, "forward": 2830, "blanket": 8768, "escapes": 12976, "##iard": 14619, "polynomials": 28175, "kaplan": 22990, "mounts": 19363, "cabinet": 5239, "##oslav": 23085, "hypothetical": 25613, "hailed": 16586, "##\u0cbe": 29938, "commandos": 25144, "myers": 13854, "erase": 22505, "[unused378]": 383, "##ias": 7951, "sloane": 17558, "visually": 17453, "passive": 13135, "jimmie": 24671, "trials": 7012, "shadowed": 25843, "\u201e": 1525, "harley": 13653, "\u4e0a": 1742, "process": 2832, "##encies": 15266, "jug": 26536, "shopping": 6023, "##ipes": 28108, "curls": 14484, "recreated": 29414, "##horpe": 22044, "mao": 15158, "billboard": 4908, "\u4e45": 1748, "shen": 21882, "operatic": 22534, "surname": 11988, "gregg": 18281, "roles": 4395, "obituary": 20815, "clenched": 8555, "backlash": 25748, "carol": 8594, "bird": 4743, "norman": 5879, "establishing": 7411, "xx": 22038, "laugh": 4756, "installment": 18932, "strung": 23509, "insurrection": 27860, "##orn": 9691, "fangs": 11738, "apps": 18726, "\u0432": 1182, "appeals": 9023, "mckinley": 22121, "tore": 9538, "anthem": 11971, "subspecies": 11056, "##bow": 18912, "arsenic": 29596, "sparkling": 16619, "[unused527]": 532, "modeling": 11643, "ache": 12336, "unfamiliar": 16261, "sudan": 10411, "##sol": 19454, "##ec": 8586, "accessibility": 23661, "##dington": 21504, "shit": 4485, "accompanied": 5642, "unnatural": 21242, "##oted": 27428, "##\u0bb5": 29930, "fulton": 17049, "fungal": 28079, "kgb": 25467, "\u2019": 1521, "benefits": 6666, "belarusian": 15626, "ecosystems": 20440, "royale": 24483, "16": 2385, "virtual": 7484, "##lund": 18028, "turtles": 16489, "make": 2191, "tag": 6415, "cafeteria": 16673, "db": 16962, "\u1174": 1482, "against": 2114, "grave": 6542, "mistaken": 13534, "##ots": 12868, "instrumental": 6150, "zen": 16729, "sim": 21934, "##utation": 26117, "litres": 25783, "##tadt": 18808, "triumphant": 25251, "xvi": 16855, "alleviate": 24251, "home": 2188, "revelations": 22191, "lids": 26122, "reference": 4431, "banished": 21319, "board": 2604, "motions": 15323, "##powered": 27267, "burrows": 22009, "surprising": 11341, "scandinavia": 20612, "almeida": 29555, "loose": 6065, "recognise": 17614, "sino": 19432, "insulted": 23637, "tracy": 10555, "professional": 2658, "158": 17696, "uncomfortable": 8796, "romantic": 6298, "##bone": 14417, "worries": 15508, "libya": 12917, "##\u116a": 30012, "##cite": 17847, "marge": 25532, "mussolini": 22554, "##gingly": 28392, "##sphere": 23874, "leaves": 3727, "##urs": 9236, "270": 13756, "crete": 19111, "1963": 3699, "faltered": 26015, "professors": 12655, "ambassador": 6059, "##\u5143": 30295, "[unused644]": 649, "tries": 5363, "intersect": 29261, "algeria": 11337, "buy": 4965, "endings": 21306, "spat": 14690, "02": 6185, "nests": 17415, "gloss": 27068, "piazza": 22463, "convinced": 6427, "sidney": 11430, "delaney": 22101, "situations": 8146, "regulatory": 10738, "lotus": 13030, "doin": 24341, "crying": 6933, "breakers": 24742, "##\u0127": 29672, "battalions": 10157, "[unused411]": 416, "cannes": 14775, "jp": 16545, "3a": 23842, "##ama": 8067, "mentor": 10779, "##oides": 25064, "electromagnetic": 17225, "puppet": 13997, "everybody": 7955, "intentions": 11174, "montana": 8124, "beers": 18007, "bucharest": 14261, "incorporated": 5100, "\u03bb": 1165, "##\u063a": 29831, "worcester": 12539, "##\u0936": 29872, "saints": 6586, "rebellious": 22614, "##\u5065": 30294, "##ctuated": 25638, "insurgents": 20541, "jewels": 15565, "error": 7561, "noelle": 22336, "universite": 22176, "statesman": 17689, "chosen": 4217, "oneself": 25763, "interactive": 9123, "quarters": 7728, "turquoise": 28653, "juarez": 25398, "summarized": 22539, "##gai": 23805, "commodities": 21955, "##torm": 20654, "rue": 13413, "##xia": 14787, "fragmentation": 28424, "##\u0915": 29851, "risk": 3891, "liked": 4669, "liszt": 26273, "##ingdon": 29138, "recaptured": 23838, "fantasy": 5913, "mandate": 11405, "transmission": 6726, "seville": 18983, "penis": 19085, "loved": 3866, "drastic": 23956, "name": 2171, "remarked": 10783, "seasoned": 28223, "lust": 11516, "ruled": 5451, "cmll": 25395, "##cliff": 27580, "frequent": 6976, "##+": 29622, "[unused40]": 41, "multinational": 20584, "##brush": 18623, "cosmetics": 25381, "kapoor": 17129, "orbiting": 26472, "##oda": 13390, "singer": 3220, "bursts": 19239, "##ols": 27896, "70": 3963, "peck": 18082, "##gard": 13444, "goo": 27571, "310": 17196, "narrowed": 8061, "creep": 19815, "##isse": 23491, "soy": 25176, "##ogy": 15707, "versa": 18601, "sounds": 4165, "cooperate": 17654, "birthplace": 14508, "bois": 19651, "1751": 24440, "identities": 15702, "publishers": 8544, "happen": 4148, "##\u209a": 30097, "dominates": 29532, "##gen": 6914, "bombings": 20109, "scrub": 18157, "cheek": 5048, "oh": 2821, "##ttal": 28200, "323": 25392, "prizes": 11580, "titans": 13785, "rama": 14115, "##osi": 20049, "[unused916]": 921, "confess": 18766, "reggie": 17963, "buyers": 17394, "saxony": 13019, "noted": 3264, "sox": 9175, "janet": 9965, "##dim": 22172, "##ia": 2401, "mortal": 9801, "varsity": 11710, "##pment": 24073, "direct": 3622, "institutes": 12769, "sound": 2614, "##ad": 4215, "##\u207a": 12744, "professions": 22797, "wound": 6357, "wounds": 8710, "moldova": 16772, "brooklyn": 6613, "##shida": 25541, "trusts": 20278, "sentenced": 7331, "fluids": 20989, "\u0580": 1237, "bohemia": 16799, "stump": 22475, "dorsal": 12759, "friedman": 18486, "##et": 3388, "ingram": 23231, "poverty": 5635, "\u590f": 1808, "spaces": 7258, "serials": 28172, "stricken": 16654, "##\u308b": 30213, "sly": 18230, "bu": 20934, "corsica": 27047, "anyone": 3087, "thick": 4317, "cart": 11122, "rigid": 11841, "##wire": 20357, "##rup": 21531, "carmel": 19443, "crewe": 22188, "topics": 7832, "emil": 16243, "flu": 19857, "win": 2663, "dramatic": 6918, "their": 2037, "influences": 8092, "sane": 22856, "winger": 16072, "##ts": 3215, "flourish": 24299, "\u4e3b": 1747, "homes": 5014, "jiang": 20613, "##cta": 25572, "suicidal": 26094, "##nic": 8713, "##mium": 27759, "sip": 10668, "spotlight": 17763, "promise": 4872, "##akh": 27573, "mango": 24792, "\u30e9": 1731, "##g": 2290, "losing": 3974, "fractured": 21726, "cristina": 22246, "monday": 6928, "##ingly": 15787, "inferior": 14092, "sundays": 14803, "grid": 8370, "bender": 25386, "##buch": 25987, "costume": 9427, "##cloth": 23095, "##gical": 26715, "spell": 6297, "ornamental": 18200, "madness": 12013, "##lace": 19217, "##piration": 16781, "tendency": 11765, "adjective": 24931, "diego": 5277, "##rgos": 22280, "##zz": 13213, "timeline": 17060, "194": 19955, "285": 21777, "bottom": 3953, "\u2016": 1519, "rodgers": 15652, "respectful": 26438, "charred": 29030, "songwriter": 6009, "identify": 6709, "##sas": 20939, "preschool": 23655, "clouds": 8044, "spells": 11750, "##rank": 26763, "termed": 12061, "graf": 22160, "##ount": 21723, "evelyn": 12903, "reg": 19723, "attaining": 26615, "ley": 25866, "benefited": 19727, "frescoes": 23360, "stamford": 22469, "genome": 13458, "antennas": 26315, "certain": 3056, "35": 3486, "##ices": 23522, "##imeter": 19198, "absorption": 16326, "115": 10630, "electronic": 4816, "hurts": 13403, "revered": 23886, "boards": 7923, "1755": 21417, "pitchfork": 22355, "##poo": 24667, "##si": 5332, "angels": 7048, "snail": 10879, "##adia": 25205, "##her": 5886, "necklace": 13016, "##berger": 14859, "revolves": 19223, "##gu": 12193, "catering": 18640, "animator": 25132, "indian": 2796, "thousands": 5190, "sued": 12923, "##\u0259": 29681, "remember": 3342, "handkerchief": 23975, "atv": 29108, "dozens": 9877, "##itarian": 25691, "term": 2744, "spirituality": 21244, "estonia": 10692, "[unused758]": 763, "monograph": 24039, "##tility": 18724, "\u2087": 1554, "basalt": 26343, "thinking": 3241, "moor": 16808, "fairness": 26935, "topographic": 24254, "distributors": 22495, "throughout": 2802, "580": 23712, "##\u3061": 30188, "certainly": 5121, "homogeneous": 24854, "defiance": 19674, "anglican": 9437, "publicized": 24928, "\u2194": 1587, "sparrow": 19479, "[unused200]": 205, "aspiring": 22344, "consolidation": 17439, "buena": 27493, "slid": 4934, "reviewers": 15814, "soothing": 16684, "vows": 16495, "\u6709": 1873, "prohibition": 13574, "corn": 9781, "puppy": 17022, "##mus": 7606, "##iad": 28665, "##\u09a3": 29897, "##kr": 21638, "hills": 4564, "knots": 9439, "twelfth": 11313, "##\u203a": 30068, "ir": 20868, "spaced": 19835, "symmetrical": 23476, "1958": 3845, "[unused248]": 253, "locating": 26339, "155": 14168, "[unused710]": 715, "concrete": 5509, "afterward": 9707, "##duced": 28901, "shimmering": 22349, "visitors": 5731, "soaked": 13077, "embarrassment": 14325, "##ista": 11921, "bread": 7852, "manipulating": 26242, "weathered": 28445, "gemini": 21424, "jew": 16522, "wimbledon": 13411, "381": 29335, "shares": 6661, "acknowledge": 13399, "mantle": 16019, "cannot": 3685, "externally": 27223, "solid": 5024, "today": 2651, "\u110c": 1464, "[unused17]": 18, "bomber": 9472, "katy": 17870, "labyrinth": 24239, "[unused840]": 845, "shelby": 15294, "[unused238]": 243, "linked": 5799, "willingly": 18110, "exquisite": 19401, "sizable": 25908, "airfields": 25278, "gunnar": 26138, "subsidies": 21762, "reno": 17738, "fed": 7349, "##\u0584": 29786, "limerick": 15679, "braced": 15515, "##nary": 24041, "nottingham": 11331, "flaws": 21407, "berwick": 24957, "magical": 8687, "bluff": 14441, "\u76ee": 1918, "hitler": 8042, "slavery": 8864, "loops": 15932, "##\u2090": 30089, "michele": 15954, "powerful": 3928, "[unused605]": 610, "plagued": 17808, "cheltenham": 18763, "[unused572]": 577, "holds": 4324, "inaccurate": 24949, "margins": 17034, "chef": 10026, "wilfred": 26026, "dressed": 5102, "painful": 9145, "lodged": 20451, "centro": 18120, "unitarian": 25477, "##bib": 28065, "level": 2504, "##ities": 6447, "##ux": 5602, "pt": 13866, "##osh": 17369, "glands": 23340, "randall": 12813, "leighton": 26873, "decreed": 28447, "\u5149": 1770, "purchased": 4156, "##sso": 24137, "dfb": 28894, "powerplant": 19526, "##sville": 9337, "jon": 6285, "bernstein": 18862, "unlimited": 14668, "mei": 19734, "##lly": 9215, "moments": 5312, "slung": 20078, "##tein": 9589, "mutter": 23457, "nickname": 8367, "flanagan": 26558, "hello": 7592, "##igan": 10762, "bryn": 19904, "emmy": 10096, "jeff": 5076, "wee": 16776, "villain": 12700, "spare": 8622, "conversations": 11450, "##oy": 6977, "proprietary": 16350, "knife": 5442, "##ru": 6820, "\u201c": 1523, "840": 28122, "battling": 17773, "whatever": 3649, "seventeenth": 15425, "repair": 7192, "metadata": 27425, "firearm": 23646, "denominations": 17384, "completed": 2949, "gigs": 20929, "\u03c8": 1178, "ridges": 16386, "redundant": 21707, "fargo": 23054, "##istan": 23137, "tops": 13284, "windows": 3645, "##dr": 13626, "intensive": 11806, "\u6a39": 1884, "antilles": 27695, "streamlined": 29445, "\u661f": 1866, "if": 2065, "visionary": 28036, "west": 2225, "daze": 28918, "sentinel": 16074, "##nd": 4859, "##\u0e19": 29949, "intel": 13420, "yarn": 27158, "229": 22777, "reside": 13960, "lyle": 21971, "cuckoo": 29010, "\u3078": 1675, "frigate": 15437, "##\u0937": 29873, "4000": 20143, "manufactured": 7609, "visas": 24487, "crush": 10188, "constantinople": 11776, "hardship": 26479, "reconstruction": 8735, "##ina": 3981, "concerned": 4986, "publicly": 7271, "czech": 5569, "saga": 12312, "##ante": 12956, "together": 2362, "waters": 5380, "##aco": 22684, "excuse": 8016, "##dium": 12811, "adventist": 25696, "want": 2215, "aviv": 12724, "greenwich": 13861, "gothenburg": 22836, "##itan": 25451, "mgm": 15418, "inauguration": 17331, "gael": 28151, "embankment": 22756, "filming": 7467, "##flow": 12314, "##buck": 24204, "internment": 29041, "venue": 6891, "minh": 19538, "##fires": 26332, "superstar": 18795, "##\u1162": 30007, "[unused491]": 496, "cans": 18484, "moan": 13673, "julian": 6426, "##cera": 19357, "cathedral": 5040, "haifa": 21303, "moe": 22078, "licence": 11172, "##trip": 24901, "##sau": 23823, "tenderly": 26596, "[unused293]": 298, "male": 3287, "set": 2275, "##ology": 6779, "441": 28015, "bel": 19337, "commonly": 4141, "##low": 8261, "##ado": 9365, "instructions": 8128, "lad": 14804, "moves": 5829, "kyoto": 15008, "aberdeen": 12080, "schwartz": 16756, "years": 2086, "boyle": 16694, "##\u0987": 29885, "donor": 15009, "aqua": 28319, "##ardo": 24649, "ultimatum": 29227, "england": 2563, "parkinson": 20310, "jalan": 28410, "choreographed": 23317, "gr": 24665, "stratford": 17723, "casualty": 19844, "campaigns": 8008, "congestion": 20176, "races": 3837, "bushes": 14568, "daniel": 3817, "targeted": 9416, "##stown": 13731, "wylie": 29152, "\u6238": 1857, "wrestling": 4843, "zoology": 22405, "##rrell": 14069, "governmental": 10605, "hears": 14994, "exiles": 27127, "##ami": 10631, "##vish": 24968, "##king": 6834, "cote": 17155, "2011": 2249, "newman": 10625, "offensive": 5805, "butch": 17520, "##ulating": 10924, "\u767a": 1914, "option": 5724, "gia": 27699, "bengali": 11267, "medicines": 20233, "apparel": 26278, "##oto": 11439, "[unused795]": 800, "splits": 19584, "li": 5622, "\u0629": 1272, "##mont": 9629, "field": 2492, "confidently": 28415, "1970s": 3955, "\u110e": 1465, "inverted": 20037, "##like": 10359, "merit": 7857, "historically": 7145, "##omics": 25524, "##rion": 14772, "due": 2349, "classroom": 9823, "birmingham": 6484, "freeway": 10846, "martinez": 10337, "ata": 29533, "feud": 13552, "##und": 8630, "\u026c": 1121, "eighty": 12021, "triangular": 14023, "pitches": 19299, "cocktail": 18901, "coal": 5317, "zev": 27909, "batted": 12822, "english": 2394, "[unused796]": 801, "fielder": 25000, "black": 2304, "##urance": 25863, "##\\": 29635, "1921": 4885, "anger": 4963, "glittering": 20332, "miserable": 13736, "townland": 23635, "verbs": 16025, "enhancing": 20226, "##dley": 14232, "##nem": 25832, "mount": 4057, "rib": 19395, "forbidden": 10386, "demos": 18267, "##se": 3366, "relation": 7189, "sediment": 19671, "[unused736]": 741, "peshawar": 28777, "\u0f60": 1433, "##ccus": 27631, "##hosis": 25229, "cremated": 28376, "##qua": 16211, "ix": 11814, "fee": 7408, "toulon": 27160, "fascist": 14870, "fortune": 7280, "spray": 12509, "[unused162]": 167, "tensions": 13136, "razor": 15082, "##hyl": 29598, "boost": 12992, "1797": 14112, "[unused227]": 232, "virtually": 8990, "delegation": 10656, "softball": 12585, "rye": 20926, "squared": 19942, "packets": 23730, "fivb": 28423, "##\u56d7": 30323, "socialism": 14649, "##ep": 13699, "1871": 7428, "lift": 6336, "awakening": 16936, "rivera": 14043, "doubted": 12979, "##lb": 20850, "255": 20637, "bringing": 5026, "##ghi": 28891, "broadcasts": 8960, "td": 14595, "knew": 2354, "aerospace": 13395, "cones": 23825, "graphic": 8425, "rochelle": 25649, "\u00bf": 1094, "texture": 14902, "##lho": 28061, "reveal": 7487, "800": 5385, "##abi": 28518, "lena": 14229, "fungi": 15289, "wildcats": 19495, "sas": 21871, "wiring": 27930, "1825": 11384, "edition": 3179, "removing": 9268, "therapeutic": 17261, "tempered": 22148, "retains": 14567, "\u5b66": 1817, "leaf": 7053, "allocated": 11095, "militia": 8396, "##ive": 3512, "spokesman": 14056, "mapping": 12375, "stir": 16130, "tyrone": 18770, "##less": 3238, "dignitaries": 27960, "lucinda": 28261, "identifiable": 27800, "almost": 2471, "vaguely": 15221, "1800s": 19878, "##aja": 22734, "bishops": 8414, "1778": 16331, "raft": 21298, "jain": 17136, "foliage": 19624, "perished": 23181, "cdc": 26629, "services": 2578, "##yre": 16363, "rights": 2916, "answered": 4660, "doubled": 11515, "editors": 10195, "residence": 5039, "transformed": 8590, "inclination": 21970, "ballad": 11571, "batteries": 10274, "refreshing": 27150, "siegfried": 25948, "helmut": 24515, "squire": 21263, "##iente": 25099, "christians": 8135, "flute": 8928, "##joy": 24793, "##llan": 19036, "wilmington": 17025, "hottest": 20930, "jasmine": 14032, "[unused641]": 646, "exemplary": 27792, "mergers": 28585, "bosnian": 16163, "nonstop": 25493, "evaluated": 16330, "replied": 3880, "voiced": 6126, "##iance": 28335, "##\u00bd": 13714, "gradually": 6360, "cassandra": 15609, "##scent": 27654, "albrecht": 25542, "preach": 25250, "economy": 4610, "lose": 4558, "##ncia": 22750, "##lz": 23858, "darkness": 4768, "fortress": 7841, "smiley": 27420, "mortals": 23844, "attachment": 14449, "##otte": 28495, "thrill": 16959, "\u7a7a": 1930, "patton": 18090, "##ncies": 14767, "##llah": 18599, "cc": 10507, "prehistoric": 14491, "##nov": 16693, "##ant": 4630, "unity": 8499, "##uit": 14663, "tung": 27079, "\u7687": 1917, "[unused810]": 815, "##\u4eee": 30287, "apparent": 6835, "##\u11af": 30022, "terminus": 7342, "cone": 13171, "##\u5fb7": 30374, "##kumar": 18494, "fairfax": 17833, "murderers": 28882, "\u03bc": 1166, "foreigners": 15040, "vocals": 2955, "\u0575": 1230, "prevents": 16263, "autism": 19465, "\u207b": 1545, "immune": 11311, "##etz": 26327, "floats": 24885, "\u0ba4": 1385, "##pping": 14853, "lobes": 24423, "traversed": 27797, "##piece": 11198, "perched": 17335, "outright": 13848, "condensed": 25011, "##uddin": 17375, "arya": 26140, "lacrosse": 13488, "\u1d2c": 1490, "definitions": 15182, "experiences": 6322, "##ciency": 29125, "competed": 3879, "kan": 22827, "dog": 3899, "awake": 8300, "reject": 15454, "ratios": 21879, "transform": 10938, "clarify": 25037, "hoarse": 21221, "handheld": 27291, "##iest": 10458, "1914": 4554, "branch": 3589, "##tag": 15900, "excavations": 14018, "irritating": 29348, "armor": 8177, "##qu": 28940, "horst": 28565, "\u1106": 1459, "installed": 5361, "bacteria": 10327, "veto": 22102, "0": 1014, "wade": 10653, "stairwell": 22109, "mausoleum": 19049, "\u30c1": 1710, "berg": 15214, "edict": 24754, "suffers": 17567, "\u00a8": 1074, "##xy": 18037, "consulate": 19972, "[unused571]": 576, "ethics": 9615, "talented": 10904, "batter": 23801, "mutant": 15527, "\u10d4": 1442, "green": 2665, "[unused619]": 624, "##erry": 19826, "tbilisi": 22406, "##ur": 3126, "brandenburg": 16426, "outrage": 19006, "volunteers": 7314, "##ation": 3370, "definitive": 15764, "1772": 17483, "derrick": 18928, "sends": 10255, "[unused258]": 263, "affected": 5360, "1895": 6301, "heights": 7535, "forever": 5091, "expected": 3517, "tenure": 7470, "##wing": 9328, "overshadowed": 28604, "\u0b9a": 1383, "tense": 9049, "betting": 19244, "austrians": 28439, "has": 2038, "rubbing": 10137, "merchandise": 16359, "rot": 18672, "##inga": 28234, "outgoing": 22011, "morton": 11164, "##water": 5880, "##shi": 6182, "brunette": 27261, "unpaid": 23850, "racial": 5762, "data": 2951, "1624": 28531, "sabrina": 21876, "emi": 12495, "resurgence": 26303, "geraldine": 26987, "snooker": 26448, "gotten": 5407, "dignity": 13372, "fell": 3062, "nicely": 19957, "purge": 24694, "action": 2895, "##alo": 23067, "whirled": 17097, "cores": 25562, "recorder": 14520, "30": 2382, "faithful": 11633, "botswana": 19414, "splendid": 21459, "rom": 17083, "##rsten": 19020, "aztec": 25245, "roasted": 28115, "##wright": 26460, "communism": 15523, "boundaries": 7372, "##\u22c5": 30141, "pamphlets": 24752, "fjord": 26158, "seconds": 3823, "marathi": 18388, "banquet": 19032, "[unused278]": 283, "tierney": 26198, "tone": 4309, "deliberate": 15063, "bag": 4524, "bid": 7226, "op": 6728, "1937": 4347, "repeat": 9377, "disorder": 8761, "book": 2338, "leaning": 6729, "lincoln": 5367, "stems": 12402, "monsieur": 21380, "prism": 26113, "roads": 4925, "loves": 7459, "landon": 20642, "ii": 2462, "affection": 12242, "##ika": 7556, "slips": 17433, "tanks": 7286, "threads": 16457, "appreciation": 12284, "overlook": 27590, "convex": 18309, "harrison": 6676, "[unused668]": 673, "enables": 12939, "apologies": 25380, "190": 11827, "##bria": 21556, "reviews": 4391, "trailed": 11145, "medicine": 4200, "waterfalls": 24236, "azerbaijani": 18325, "backside": 25065, "smells": 14747, "##\u2076": 30075, "lever": 15929, "ds": 16233, "franchises": 22506, "##smo": 25855, "##ditional": 27064, "203": 18540, "tommy": 6838, "[unused270]": 275, "marketing": 5821, "rq": 28134, "enroll": 25612, "luxurious": 20783, "##une": 9816, "too": 2205, "raw": 6315, "infectious": 16514, "administratively": 23710, "darkened": 13755, "##ke": 3489, "hooked": 13322, "committee": 2837, "##ield": 12891, "aroused": 18391, "outbreak": 8293, "explorer": 10566, "##\u05d9": 29796, "connecting": 7176, "joining": 5241, "[unused667]": 672, "standards": 4781, "##\u044f": 17432, "had": 2018, "microphone": 15545, "quarrel": 26260, "\u1173": 1481, "servants": 8858, "##ocation": 23909, "stalled": 20659, "##cus": 7874, "tide": 10401, "kilkenny": 17131, "##orra": 24285, "joanna": 15730, "susie": 23917, "robbie": 12289, "208": 18512, "abrams": 23063, "\u301c": 1645, "operated": 3498, "shower": 6457, "looted": 27775, "britney": 29168, "fraternity": 13577, "aluminum": 13061, "##\u0565": 29770, "nell": 20970, "bullying": 18917, "dispatched": 14501, "bruises": 18438, "draped": 15098, "##ogist": 22522, "##taking": 17904, "lbs": 20702, "archbishop": 6507, "allocation": 16169, "##pas": 19707, "component": 6922, "thee": 14992, "[unused307]": 312, "ivy": 7768, "##dana": 25917, "coptic": 27672, "devi": 14386, "261": 24441, "hollis": 27477, "aquitaine": 24973, "[unused163]": 168, "[unused603]": 608, "tonight": 3892, "##ides": 8621, "interpret": 17841, "longitudinal": 20134, "[PAD]": 0, "enrolled": 8302, "donnell": 18016, "clues": 15774, "yoko": 28758, "able": 2583, "##dina": 18979, "288": 24841, "bandits": 19088, "then": 2059, "##\u9752": 30501, "measure": 5468, "1879": 7449, "tenants": 14665, "##ogen": 23924, "arab": 5424, "viewing": 10523, "swiss": 5364, "surreal": 16524, "##rricular": 21231, "##\u0282": 29695, "ominous": 23504, "deepened": 20183, "brown": 2829, "rune": 23276, "disadvantaged": 27322, "\u6c34": 1893, "squealed": 26175, "\u6751": 1878, "##omy": 16940, "propped": 16863, "retaliation": 18695, "philosopher": 9667, "charlemagne": 27257, "fishes": 21995, "chao": 22455, "threat": 5081, "timber": 7227, "overcome": 9462, "denoted": 19537, "##nen": 10224, "##dust": 24220, "##turn": 22299, "cruz": 8096, "##v": 2615, "bethany": 16559, "##lde": 17920, "beth": 7014, "are": 2024, "deciding": 10561, "tandem": 18231, "259": 25191, "sculpted": 19921, "burundi": 28836, "phil": 6316, "occur": 5258, "##gie": 11239, "racer": 14878, "reissue": 17173, "##ath": 8988, "##ovic": 9142, "1920": 4444, "##aged": 18655, "\u4e09": 1741, "utilize": 16462, "##atin": 20363, "cartoon": 9476, "bwf": 21215, "##wa": 4213, "loaned": 13190, "[unused935]": 940, "cum": 13988, "polls": 14592, "[unused983]": 988, "pirates": 8350, "licenses": 15943, "renew": 20687, "aimee": 23551, "##pack": 23947, "##pods": 22925, "##ffs": 21807, "boxing": 8362, "##\u0430": 10260, "pearson": 12874, "##yla": 23943, "hoax": 28520, "##rade": 13662, "dissatisfaction": 28237, "meridian": 17984, "25": 2423, "clerks": 26706, "motive": 15793, "mating": 15100, "junctions": 27169, "committed": 5462, "##iz": 10993, "wonders": 16278, "su": 10514, "\u10e1": 1452, "scoring": 4577, "terminate": 20320, "vs": 5443, "drifted": 10070, "step": 3357, "postal": 10690, "ran": 2743, "jonas": 10680, "hancock": 13849, "slapped": 11159, "romanian": 7056, "numbered": 8597, "regret": 9038, "vic": 10967, "durham": 9296, "customary": 16120, "widespread": 6923, "##\u90e8": 30486, "hudson": 6842, "##_": 29638, "faith": 4752, "weaken": 23021, "cane": 11942, "winston": 10180, "nouveau": 25272, "lobster": 27940, "321": 24030, "riley": 7546, "conversions": 25834, "crusader": 25237, "contemplated": 23133, "oliveira": 24263, "##anga": 18222, "training": 2731, "##\u05e0": 29803, "\u05e0": 1257, "envisioned": 18035, "ordnance": 14445, "weeds": 20777, "ajax": 18176, "prostate": 25086, "##\u0905": 29847, "invitational": 20129, "lucha": 25390, "mathematicians": 29374, "implemented": 7528, "##igen": 29206, "intact": 10109, "depleted": 22595, "craftsman": 26286, "smile": 2868, "hovered": 18190, "hardest": 18263, "experiment": 7551, "[unused22]": 23, "chests": 28717, "similarity": 14402, "infused": 29592, "snorted": 15235, "computing": 9798, "##ement": 13665, "angie": 14835, "census": 2883, "slovak": 12747, "[unused836]": 841, "##\u03bf\u03c5": 26789, "1748": 24445, "socket": 22278, "\u00be": 1093, "existing": 4493, "##bers": 17198, "##ieg": 28872, "harm": 7386, "condemning": 28525, "mandal": 24373, "floyd": 12305, "fine": 2986, "last": 2197, "mallory": 20468, "acclaimed": 10251, "rana": 22175, "chronicle": 9519, "barnsley": 25139, "[unused685]": 690, "considerable": 6196, "hezbollah": 25713, "##ha": 3270, "aesthetic": 12465, "criticisms": 19628, "piper": 11939, "heavens": 17223, "grossed": 17500, "hangul": 19051, "competent": 17824, "maximal": 29160, "[unused849]": 854, "##ono": 17175, "##lio": 12798, "perspective": 7339, "usual": 5156, "tentacles": 24719, "clemens": 27277, "##uram": 27618, "##onte": 28040, "##print": 16550, "stores": 5324, "thessaloniki": 23162, "##rise": 29346, "endure": 18094, "sighed": 5489, "euros": 19329, "mma": 21021, "##dak": 23597, "dish": 9841, "##red": 5596, "explosive": 11355, "sasha": 14673, "##bular": 28808, "parker": 6262, "western": 2530, "equivalent": 5662, "soft": 3730, "easier": 6082, "##aries": 12086, "regards": 12362, "avalon": 18973, "seeks": 11014, "##lord": 19980, "sink": 7752, "##acker": 25418, "\u3009": 1638, "olson": 21583, "detective": 6317, "smyth": 28103, "reflective": 21346, "146": 16333, "german": 2446, "raised": 2992, "portraits": 9668, "functional": 8360, "cricketer": 9490, "355": 26271, "##os": 2891, "terrain": 9291, "[unused280]": 285, "##vill": 26548, "overseeing": 19642, "bison": 22285, "layne": 22452, "##bas": 22083, "carrying": 4755, "235": 17825, "sessions": 6521, "grab": 6723, "dino": 22412, "consultancy": 24853, "[unused243]": 248, "maybe": 2672, "tn": 28286, "tolerated": 25775, "vested": 26003, "wraps": 19735, "frightening": 17115, "mesh": 20437, "##rt": 5339, "pulsed": 24107, "##\u662d": 30394, "1796": 13885, "[unused876]": 881, "bangkok": 12627, "laws": 4277, "scenes": 5019, "1826": 11931, "thumping": 25996, "##\u0b9a": 29919, "substantive": 27737, "##\u884c": 30471, "whitaker": 27049, "fridge": 16716, "##\u2033": 30067, "williams": 3766, "swing": 7370, "guyana": 18786, "expands": 24545, "sculptor": 10160, "reservation": 11079, "##corp": 24586, "dilapidated": 29283, "margarita": 24570, "concepts": 8474, "episode": 2792, "victorian": 6652, "quotes": 16614, "sisters": 5208, "customer": 8013, "blog": 9927, "portable": 12109, "overcoming": 27363, "corridor": 7120, "yorkshire": 7018, "reciprocal": 28309, "##yard": 14132, "cat": 4937, "quarterfinals": 9237, "fisherman": 19949, "tribune": 10969, "##ily": 6588, "##bags": 26813, "\u5185": 1773, "##thest": 20515, "##anda": 13832, "diaries": 18707, "volcanoes": 23694, "425": 23285, "##\u0925": 29860, "challenged": 8315, "assure": 14306, "securely": 28999, "forty": 5659, "##ville": 3077, "bordering": 18299, "bilingual": 17636, "##tique": 28437, "##mon": 8202, "impressions": 19221, "generates": 19421, "button": 6462, "##bian": 15599, "whales": 17967, "breathing": 5505, "contractors": 16728, "customs": 8205, "scary": 12459, "benz": 17770, "exemption": 19621, "packaged": 21972, "##dra": 7265, "thud": 20605, "rifles": 9494, "ethiopia": 11154, "cindy": 15837, "##agawa": 20812, "sera": 26358, "atmospheric": 12483, "##\u0635": 29826, "honors": 7836, "depicted": 8212, "domes": 26193, "felipe": 17095, "##\u09aa": 29903, "workout": 27090, "beloved": 11419, "blink": 12373, "voodoo": 21768, "electronically": 28926, "arturo": 20520, "briefing": 27918, "thoughtfully": 19897, "bounce": 17523, "outraged": 23558, "213": 19883, "felix": 8383, "weddings": 20429, "\u00b6": 1086, "##\u03c2": 19579, "registers": 18687, "152": 15017, "##pta": 22799, "waits": 18074, "comedies": 22092, "illegitimate": 18102, "ghetto": 17276, "tugged": 10621, "peruvian": 15432, "radial": 15255, "furiously": 20322, "gps": 14658, "archipelago": 13888, "competing": 6637, "intersections": 26540, "moreno": 17921, "##litz": 24725, "[unused778]": 783, "##iman": 18505, "dammit": 20878, "##ient": 11638, "commentators": 15957, "coating": 18898, "short": 2460, "officials": 4584, "case": 2553, "stevenson": 13636, "nico": 19332, "albania": 10407, "enter": 4607, "undergone": 17215, "##ped": 5669, "reds": 12281, "governors": 11141, "intrusion": 24554, "lang": 11374, "nominee": 9773, "[unused821]": 826, "##city": 12972, "confiscated": 17182, "elements": 3787, "\u0982": 1346, "[unused835]": 840, "##iting": 15402, "innocent": 7036, "##zation": 9276, "pigs": 14695, "techno": 21416, "bathed": 24614, "prelate": 26595, "maurice": 7994, "reminiscent": 14563, "rise": 4125, "swiped": 24452, "mcgrath": 23220, "receptionist": 23775, "stucco": 27443, "##cio": 9793, "##\u0441": 29747, "##gar": 6843, "francoise": 28979, "\u00b1": 1081, "##aga": 16098, "[unused366]": 371, "ma": 5003, "introductory": 23889, "randy": 9744, "campeonato": 17675, "[unused349]": 354, "gunpowder": 22220, "till": 6229, "gathering": 7215, "fourth": 2959, "blessing": 13301, "beirut": 15335, "conservatoire": 29233, "ignorant": 21591, "seymour": 13254, "##ezer": 25733, "mozart": 13177, "lieu": 22470, "leipzig": 11222, "patrons": 13497, "##&": 29617, "##uba": 19761, "*": 1008, "##ue": 5657, "rosa": 9508, "207": 19843, "saying": 3038, "airmen": 29437, "gap": 6578, "\u2227": 1602, "shortened": 12641, "\u099c": 1358, "##ery": 7301, "diversified": 24908, "dubbed": 9188, "##chs": 18069, "siblings": 9504, "sit": 4133, "##-": 29624, "bloomington": 26372, "56th": 29087, "wendell": 24526, "hog": 27589, "dynasty": 5321, "railroad": 4296, "##lai": 19771, "contributor": 12130, "##fo": 14876, "geese": 28519, "##cb": 27421, "critics": 4401, "towers": 7626, "carey": 11782, "engravings": 28611, "superior": 6020, "mainstream": 7731, "sliding": 8058, "immigrant": 11560, "162": 17832, "reluctant": 11542, "resembling": 15525, "##86": 20842, "seismic": 22630, "hatfield": 26853, "fears": 10069, "skeletal": 20415, "idol": 10282, "retain": 9279, "pedro": 7707, "##phine": 20738, "spend": 5247, "thwarted": 28409, "\u5ba3": 1823, "[unused745]": 750, "modifying": 29226, "pool": 4770, "supernatural": 11189, "forthcoming": 16875, "##nian": 11148, "newcomer": 16866, "taxa": 23726, "[unused676]": 681, "termination": 18287, "##ginal": 24965, "liking": 16663, "miscellaneous": 25408, "##ssar": 25556, "1679": 27924, "##\u10d8": 29981, "\u02bc": 1146, "browne": 15005, "employ": 12666, "wolff": 23498, "##rich": 13149, "blood": 2668, "facebook": 9130, "musicals": 20103, "rider": 7945, "blinking": 15997, "groves": 21695, "invited": 4778, "##iere": 21253, "##bread": 27035, "ukraine": 5924, "medicare": 27615, "acceptable": 11701, "##nne": 10087, "##dog": 16168, "durable": 25634, "teaching": 4252, "stephens": 15037, "##nch": 12680, "chooses": 15867, "ed": 3968, "burr": 22715, "louisville": 11577, "##\u0431": 29740, "##ashi": 12914, "telescope": 12772, "chartered": 12443, "blew": 8682, "portal": 9445, "scroll": 17186, "elsie": 24603, "1933": 4537, "joao": 16304, "paved": 12308, "raids": 11217, "celebrations": 12035, "##tsk": 29064, "sq": 5490, "verbal": 12064, "parameter": 16381, "##rts": 21217, "boxers": 18508, "youngest": 6587, "growling": 22413, "##hre": 28362, "batch": 14108, "latino": 7402, "[unused805]": 810, "sins": 15516, "else": 2842, "\u300c": 1641, "rex": 10151, "noble": 7015, "\u20ac": 1574, "107": 10550, "\u6b4c": 1886, "##ctus": 22675, "##rate": 11657, "leases": 29597, "##\u0993": 29888, "josh": 6498, "author": 3166, "boise": 23193, "diocesan": 18680, "critically": 11321, "wilton": 26407, "hal": 11085, "drawing": 5059, "clarified": 20485, "substrate": 16305, "cups": 10268, "cell": 3526, "lauren": 10294, "coincide": 19680, "##taken": 25310, "punjab": 9213, "constituent": 13794, "##ho": 6806, "holstein": 18864, "restraint": 19355, "devote": 23313, "##rnik": 26437, "goals": 3289, "birds": 5055, "##stein": 8602, "bolt": 10053, "abbreviation": 22498, "exotic": 12564, "classifications": 26739, "ceremonial": 12961, "\u05d8": 1249, "speak": 3713, "instruction": 7899, "sv": 17917, "jamaica": 9156, "brandt": 19407, "##\u961d": 30496, "##5": 2629, "cyrillic": 15522, "##\u099a": 29892, "##cic": 19053, "toe": 11756, "ref": 25416, "laboratory": 5911, "adventures": 7357, "read": 3191, "northwestern": 7855, "eleventh": 11911, "##pid": 23267, "demand": 5157, "readily": 12192, "ought": 11276, "1883": 7257, "joke": 8257, "benfica": 26542, "flutes": 28453, "feast": 9831, "painfully": 16267, "wakes": 17507, "##izes": 10057, "glances": 13021, "[unused959]": 964, "chariot": 23507, "ja": 14855, "bitch": 7743, "[unused27]": 28, "stranger": 7985, "israelis": 28363, "chesterfield": 22699, "auschwitz": 24363, "peering": 16740, "327": 28469, "##\u099f": 29895, "1784": 16496, "freshly": 20229, "sarah": 4532, "disclose": 26056, "[unused991]": 996, "novel": 3117, "coated": 15026, "waving": 12015, "retreat": 7822, "governance": 10615, "au": 8740, "mormon": 15111, "\u10d8": 1445, "eight": 2809, "figured": 6618, "monkeys": 17059, "flawed": 25077, "expanse": 22944, "##\u05d5": 29792, "##grapher": 18657, "harshly": 21052, "##thing": 20744, "greenland": 16128, "mathews": 23287, "pays": 12778, "karachi": 15381, "hour": 3178, "cyber": 16941, "alliances": 21277, "hellenic": 23122, "armory": 24139, "catherine": 6615, "typical": 5171, "##dia": 9032, "##hold": 12640, "rather": 2738, "icc": 16461, "##nn": 10695, "abilities": 7590, "frequently": 4703, "##lver": 26229, "shaved": 20665, "amos": 13744, "wage": 11897, "waitress": 13877, "hitch": 27738, "space": 2686, "nailed": 26304, "library": 3075, "songs": 2774, "stumbling": 19730, "fixing": 15887, "factory": 4713, "##\u201c": 30058, "millennia": 27620, "\u2295": 1612, "\u90e8": 1960, "czechoslovakia": 12833, "naturalized": 27558, "ministerial": 18645, "jesuits": 20297, "mvp": 12041, "000": 2199, "##iso": 19565, "##onga": 26356, "spines": 20352, "explosions": 18217, "##haus": 13821, "britannia": 24677, "messing": 22308, "boxer": 10423, "1612": 29186, "orleans": 5979, "##\u0f0d": 29961, "punishment": 7750, "miracles": 17861, "##wehr": 27156, "prussian": 10734, "blogger": 28205, "##\u099b": 29893, "necessary": 4072, "sellers": 19041, "\u3092": 1690, "##osta": 28696, "acquisitions": 19530, "quite": 3243, "explore": 8849, "[unused617]": 622, "00": 4002, "##inkles": 28562, "proportion": 10817, "##chai": 24925, "annual": 3296, "\u1d43": 1496, "nonprofit": 14495, "mina": 19808, "00pm": 27995, "ultraviolet": 26299, "profile": 6337, "##erence": 20935, "mcgee": 22034, "##ky": 4801, "##br": 19892, "assess": 14358, "jurisdictions": 17370, "##tp": 25856, "##\u03bd": 16177, "##oma": 9626, "jody": 27562, "stake": 8406, "penelope": 18641, "beatles": 11555, "summary": 12654, "price": 3976, "longest": 6493, "horizon": 9154, "henrik": 18745, "palestine": 8976, "brentford": 26550, "##ned": 7228, "raymond": 7638, "adi": 27133, "pubs": 23598, "helmet": 10412, "yuan": 11237, "##brand": 23544, "jack": 2990, "frightened": 10363, "screw": 11224, "standalone": 26609, "lower": 2896, "flashback": 21907, "revue": 17480, "alongside": 4077, "geologic": 22125, "shia": 20474, "devoid": 22808, "##won": 19291, "##rat": 8609, "wrapping": 12252, "mayo": 14415, "emitted": 22627, "\u27e8": 1629, "defeating": 6324, "lil": 13451, "hillary": 18520, "polka": 29499, "##\u211d": 30107, "leaked": 15748, "suspense": 23873, "whaling": 23687, "garfield": 20170, "dorchester": 27252, "[unused664]": 669, "announces": 17472, "complete": 3143, "suggestions": 15690, "willard": 19138, "und": 6151, "firm": 3813, "authoritarian": 27246, "tracey": 25984, "vent": 18834, "##sari": 22740, "chiefly": 15897, "average": 2779, "pen": 7279, "=": 1027, "tea": 5572, "rent": 9278, "spectacle": 21177, "rejected": 5837, "colonel": 4327, "mayfield": 27224, "heaven": 6014, "wessex": 27886, "##\u1174": 30018, "##od": 7716, "commuted": 26704, "##oin": 28765, "ser": 14262, "shrug": 13409, "##stic": 10074, "##gy": 6292, "exported": 15612, "##psis": 18409, "##agne": 25440, "freestyle": 9817, "cadillac": 20425, "martial": 7761, "transformations": 21865, "##\u11bc": 30025, "weave": 25308, "utilizes": 21852, "##phonic": 27385, "empathy": 26452, "sang": 6369, "video": 2678, "##ton": 2669, "touchdowns": 10183, "math": 8785, "stella": 11894, "##itch": 20189, "flap": 20916, "asleep": 6680, "roster": 9238, "##ution": 13700, "##inator": 23207, "roy": 6060, "creamy": 24519, "##encia": 27742, "marius": 20032, "##\u05e5": 29808, "thumbs": 16784, "abdominal": 21419, "##phic": 17926, "##dron": 19440, "[SEP]": 102, "thorns": 28408, "##gement": 20511, "##wark": 24298, "cisco": 26408, "\u1d65": 1510, "\u7684": 1916, "advocate": 8175, "ono": 21058, "reeling": 28515, "[unused635]": 640, "concentrating": 16966, "aids": 8387, "flora": 10088, "##ins": 7076, "scare": 12665, "bengals": 23227, "##ioms": 29178, "exercise": 6912, "efficiently": 18228, "sewage": 19873, "anand": 18887, "marries": 19941, "##ances": 26755, "discovering": 13648, "invitation": 8468, "francis": 4557, "scan": 13594, "societe": 18341, "##12": 12521, "patterns": 7060, "dinah": 26562, "symphonies": 29355, "aged": 4793, "friar": 25287, "drugs": 5850, "hodge": 23148, "##llus": 20159, "salvage": 18340, "secrecy": 20259, "archive": 8756, "##rization": 26910, "tormented": 29026, "fanny": 17813, "transmit": 19818, "##games": 26393, "reacting": 24868, "clenching": 23970, "physiological": 19389, "hectares": 9076, "mabel": 19486, "209": 19348, "##gged": 15567, "disruption": 20461, "##von": 17789, "crawl": 13529, "fordham": 27302, "ferocious": 27863, "##lag": 17802, "guise": 21980, "demolished": 7002, "judgment": 8689, "guerra": 24698, "purity": 18433, "tabitha": 21581, "foolish": 13219, "healy": 25706, "watts": 11042, "##\u53f8": 30317, "pd": 22851, "##\u110b": 29999, "clement": 12223, "##\u30e7": 30256, "##zard": 26154, "opportunity": 4495, "exclusively": 7580, "1854": 8421, "\u3066": 1665, "\u211d": 1579, "beat": 3786, "##tops": 25181, "longevity": 26906, "innsbruck": 28914, "why": 2339, "100": 2531, "##olo": 12898, "##inium": 27585, "##\u0294": 29705, "tram": 12517, "##urable": 23086, "ariel": 16126, "injured": 5229, "##wat": 24281, "##lla": 4571, "nascar": 11838, "luther": 9678, "eta": 27859, "minority": 7162, "preliminary": 8824, "##rag": 29181, "139": 16621, "##icio": 27113, "michelangelo": 27701, "dome": 8514, "armed": 4273, "\u091f": 1320, "cheerleading": 25721, "kang": 16073, "landscaping": 28404, "eugen": 29273, "##\u00bb": 29663, "ministry": 3757, "##\u660e": 30391, "murderous": 25303, "awarded": 3018, "elementary": 4732, "hired": 5086, "[unused853]": 858, "soul": 3969, "properly": 7919, "##lani": 21141, "informal": 11900, "incompatible": 25876, "lantern": 12856, "igor": 14661, "basic": 3937, "harvest": 11203, "nothing": 2498, "118": 12963, "blurted": 18751, "lane": 4644, "1604": 28754, "lead": 2599, "topography": 21535, "governor": 3099, "yankees": 11081, "##bir": 17706, "deter": 28283, "trough": 23389, "26": 2656, "paying": 7079, "volatile": 20606, "madeline": 16974, "\u306e": 1671, "cliffs": 13333, "fleetwood": 23866, "##isson": 24077, "obstacle": 18355, "timeless": 27768, "##zy": 9096, "leonid": 27316, "explosives": 14792, "commencing": 25819, "marsden": 29558, "##ice": 6610, "##dna": 28911, "sears": 18493, "1941": 3874, "##vs": 15088, "guinea": 7102, "shuttle": 10382, "harrow": 24560, "christianity": 7988, "ox": 23060, "reviewed": 8182, "[unused348]": 353, "##uo": 19098, "philanthropic": 25321, "yucatan": 28631, "##\u056f": 29774, "lakeside": 28701, "##age": 4270, "schuster": 24253, "practically": 8134, "throne": 6106, "clears": 28837, "minute": 3371, "feeds": 14172, "##gist": 24063, "voice": 2376, "destinations": 14345, "healed": 15027, "varying": 9671, "rotterdam": 15632, "disrupted": 20275, "##block": 23467, "brest": 22451, "vamps": 24064, "reginald": 14435, "dangers": 16796, "bane": 25163, "pointing": 7302, "anxious": 11480, "##rgen": 25892, "trace": 7637, "whitish": 16800, "##yev": 17240, "jedi": 27273, "trucks": 9322, "annoying": 15703, "references": 7604, "stern": 8665, "asian": 4004, "weakening": 22031, "socially": 14286, "##tream": 25379, "teasing": 12216, "edge": 3341, "authorization": 20104, "access": 3229, "governorate": 15162, "synth": 24203, "258": 24398, "beale": 28371, "\u09be": 1378, "velocity": 10146, "programmed": 16984, "bounded": 10351, "##\u27e9": 30156, "##power": 11452, "##ind": 22254, "bounty": 17284, "heinz": 17655, "tho": 27793, "exposing": 14944, "m\u00b2": 7030, "referenced": 14964, "vehicle": 4316, "pradesh": 7970, "filing": 15242, "bb": 22861, "##lad": 27266, "[unused271]": 276, "pitcher": 8070, "##90": 21057, "##dial": 27184, "skipper": 23249, "occurrences": 27247, "ventura": 21151, "my": 2026, "antique": 14361, "photo": 6302, "competitors": 10159, "invade": 18445, "repealed": 21492, "sash": 24511, "venerable": 24541, "partisan": 14254, "##lles": 20434, "young": 2402, "##\u793e": 30450, "##uan": 13860, "##estra": 26199, "[unused963]": 968, "multiple": 3674, "pre": 3653, "mask": 7308, "hang": 6865, "academic": 3834, "britten": 29429, "\u0bc7": 1398, "john": 2198, "appearing": 6037, "wellington": 8409, "clinical": 6612, "nissan": 16509, "toy": 9121, "occurred": 4158, "parcel": 20463, "institution": 5145, "uruguayan": 23464, "cylinders": 18729, "##ffy": 16329, "giggling": 21783, "jumper": 21097, "try": 3046, "tolkien": 23602, "##fan": 15143, "firstly": 15847, "vin": 19354, "housed": 7431, "personally": 7714, "eddy": 16645, "##vot": 22994, "##lov": 14301, "##\u0996": 29890, "peterborough": 17587, "\u201a": 1522, "chopin": 25479, "newspapers": 6399, "blending": 23293, "exceptional": 11813, "reactor": 13308, "##oric": 29180, "fulfilling": 21570, "dumb": 12873, "hammering": 27883, "loyola": 21580, "sol": 14017, "##imov": 25299, "descent": 6934, "compiler": 21624, "##ry": 2854, "suspect": 8343, "idaho": 9795, "patricia": 10717, "controls": 7711, "salad": 16521, "suez": 21974, "##\u5dde": 30362, "maple": 11035, "##cology": 19824, "turbulent": 22609, "successively": 24288, "decision": 3247, "##ngen": 25997, "##\u0252": 29678, "surveillance": 9867, "nedra": 28240, "\u0916": 1316, "manufacturers": 8712, "duluth": 28218, "genealogical": 29606, "##\u2096": 30094, "computed": 24806, "route": 2799, "realm": 8391, "[unused550]": 555, "tom": 3419, "indicted": 21801, "bop": 29432, "pastures": 24813, "remodeled": 27170, "##ders": 13375, "##eron": 26534, "sharon": 10666, "debated": 15268, "##iza": 21335, "##version": 27774, "warren": 6031, "allegiance": 14588, "barney": 15377, "valleys": 12467, "foundations": 10100, "tributaries": 15777, "##\u6b66": 30415, "essex": 8862, "augustine": 14060, "wielding": 26974, "[unused591]": 596, "##chin": 17231, "mangrove": 29340, "##dee": 26095, "estranged": 24211, "\u0251": 1110, "decide": 5630, "achievements": 10106, "dusseldorf": 18160, "linux": 11603, "[unused896]": 901, "##person": 27576, "queer": 19483, "##ept": 23606, "wizard": 10276, "gold": 2751, "glimpse": 12185, "altitudes": 21973, "laser": 9138, "lunch": 6265, "helen": 6330, "##cultural": 29415, "##eno": 16515, "corrected": 13371, "belinda": 24574, "leaving": 2975, "ps": 8827, "hips": 6700, "ssr": 20896, "township": 3545, "mood": 6888, "attract": 9958, "nucleus": 13502, "cyclist": 14199, "##write": 26373, "auditorium": 11448, "hated": 6283, "\u067e": 1302, "eighth": 5964, "reissued": 14805, "knicks": 27817, "##hara": 11077, "behave": 16582, "2002": 2526, "grandmother": 7133, "2001": 2541, "divisional": 14167, "manhattan": 7128, "honest": 7481, "hodges": 19772, "##ulo": 18845, "42nd": 21373, "shoes": 6007, "decimal": 26066, "##oit": 28100, "looking": 2559, "unlock": 19829, "patronage": 15694, "##rgy": 22637, "1705": 29326, "malibu": 29047, "adored": 28456, "countess": 11716, "parlor": 18746, "essendon": 25149, "manipulated": 20063, "sullivan": 7624, "followers": 8771, "server": 8241, "rate": 3446, "honoring": 21494, "commotion": 23960, "sanctions": 17147, "##ssing": 18965, "residents": 3901, "ached": 15043, "##dhar": 25632, "[unused855]": 860, "wish": 4299, "folded": 6999, "departing": 15971, "rocker": 24779, "impetus": 27961, "137": 14989, "cartridge": 15110, "unbearable": 24257, "prowess": 26120, "mathew": 25436, "kidnap": 22590, "newborn": 20662, "wholesale": 17264, "louisa": 15731, "crucial": 10232, "##pie": 14756, "putting": 5128, "##ners": 16912, "milestone": 19199, "organizing": 10863, "winning": 3045, "[unused866]": 871, "crew": 3626, "##view": 8584, "##rod": 14127, "\u5206": 1775, "\u9673": 1972, "##ency": 11916, "colon": 16844, "##cliffe": 18115, "##zos": 28370, "##chester": 25322, "##oft": 15794, "glover": 20012, "discarded": 15105, "rouge": 12801, "carlos": 5828, "##rica": 14735, "tramway": 17050, "brian": 4422, "mmm": 25391, "##nsky": 25655, "ax": 22260, "\u5948": 1814, "would": 2052, "determination": 9128, "chang": 11132, "connell": 17199, "maru": 26280, "oaks": 13396, "graders": 23256, "gunslinger": 29274, "##nder": 11563, "##f": 2546, "bravo": 17562, "poets": 9736, "coin": 9226, "summoned": 11908, "active": 3161, "sovereign": 11074, "bubble": 11957, "1760": 19096, "tale": 6925, "lover": 7089, "ness": 23384, "confines": 25722, "##atable": 27892, "shamrock": 28782, "marvelous": 28851, "resting": 8345, "stormy": 24166, "hormone": 18714, "tennis": 5093, "##ographic": 13705, "send": 4604, "vacated": 15348, "1741": 25280, "basha": 26074, "##55": 24087, "[unused639]": 644, "sable": 23492, "[unused902]": 907, "studios": 4835, "eyebrow": 9522, "sufficiently": 12949, "##tead": 14565, "##quay": 25575, "crabs": 26076, "barbecue": 26375, "lei": 26947, "air": 2250, "hypnotic": 28322, "divorced": 9196, "olive": 9724, "finalist": 9914, "fuels": 20145, "twigs": 27964, "but": 2021, "wr": 23277, "zack": 13658, "sf": 16420, "thing": 2518, "##eis": 17580, "##trum": 24456, "##\u098f": 29887, "rough": 5931, "dazed": 19720, "##life": 15509, "schools": 2816, "[unused417]": 422, "optimistic": 21931, "duval": 23929, "castes": 26254, "alfonso": 13591, "barrett": 12712, "[unused924]": 929, "##dridge": 21482, "preseason": 20038, "scares": 29421, "##\u0268": 29684, "ismail": 19214, "barrier": 8803, "##trick": 22881, "taxpayers": 26457, "policing": 21107, "airplay": 15341, "43": 4724, "congregations": 16850, "rub": 14548, "travis": 10001, "##ended": 21945, "[unused595]": 600, "banks": 5085, "johnstone": 24160, "cop": 8872, "kinds": 7957, "weakened": 11855, "primarily": 3952, "##sg": 28745, "scales": 9539, "##aw": 10376, "cranes": 27083, "staple": 18785, "gained": 4227, "yarmouth": 28792, "phrases": 15672, "complimented": 27175, "onwards": 9921, "fierce": 9205, "blackpool": 17444, "frankly": 19597, "archival": 22796, "sheffield": 8533, "[unused99]": 104, "\u2074": 1538, "giant": 5016, "marched": 9847, "primera": 14837, "flag": 5210, "##tek": 23125, "malaria": 19132, "\u5f73": 1845, "aaron": 7158, "tipping": 25486, "sculptors": 28417, "couple": 3232, "sociological": 24846, "room": 2282, "accessed": 11570, "regulating": 21575, "beneath": 4218, "##ils": 12146, "suppose": 6814, "ferris": 23202, "muddy": 15405, "muscle": 6740, "sec": 10819, "129": 14378, "rams": 13456, "##cote": 19800, "##oza": 25036, "convinces": 19480, "##ragan": 28905, "##quet": 12647, "playable": 16854, "findings": 9556, "knitting": 26098, "homicide": 18268, "entrusted": 18011, "sabbath": 19546, "##ffey": 24513, "marcelo": 24984, "neolithic": 19061, "tied": 5079, "moore": 5405, "##oured": 16777, "ira": 11209, "cornered": 25878, "leadership": 4105, "remembered": 4622, "chop": 24494, "violent": 6355, "shows": 3065, "##lena": 20844, "televised": 13762, "sebastian": 6417, "##bill": 24457, "risen": 13763, "##isk": 20573, "transportation": 5193, "again": 2153, "six": 2416, "fungus": 16622, "bangor": 21895, "uncle": 4470, "eligible": 7792, "biographies": 22056, "lots": 7167, "rammed": 27653, "[unused828]": 833, "oskar": 28626, "ragged": 14202, "alec": 9752, "totaled": 23596, "##\u03bf": 29730, "##ische": 13719, "federal": 2976, "singleton": 28159, "whistle": 13300, "pcs": 27019, "latter": 3732, "##fe": 7959, "unsuccessful": 7736, "voyager": 23493, "##cia": 7405, "jesuit": 13840, "\u028a": 1132, "\u3051": 1654, "appointments": 14651, "mt": 11047, "differently": 11543, "poe": 18922, "##\u3009": 30164, "1966": 3547, "seminole": 28909, "1806": 12518, "struggle": 5998, "twenties": 18946, "##gno": 26745, "##ty": 3723, "faso": 22773, "##rrigan": 28706, "being": 2108, "86": 6564, "##zak": 20685, "politician": 3761, "guard": 3457, "alley": 8975, "translations": 11913, "##dae": 6858, "warrant": 10943, "racing": 3868, "##iti": 25090, "1891": 6607, "contracted": 11016, "##pies": 13046, "blanco": 20036, "claudia": 13479, "aground": 29406, "carved": 7844, "beaming": 27910, "issuing": 15089, "##fm": 16715, "##firm": 27972, "delight": 12208, "linger": 26577, "begins": 4269, "multicultural": 27135, "parasitic": 26045, "veteran": 8003, "vivo": 24269, "ian": 4775, "limitations": 12546, "regression": 26237, "grasp": 10616, "hinduism": 19632, "tail": 5725, "rounds": 6241, "recession": 19396, "attack": 2886, "pia": 24624, "##torium": 24390, "var": 13075, "[unused663]": 668, "\u0564": 1222, "##ulin": 18639, "organic": 7554, "##p": 2361, "##ella": 8411, "##ching": 8450, "janeiro": 11497, "outer": 6058, "##rish": 18774, "##cast": 10526, "evolving": 20607, "2019": 10476, "malik": 14360, "mesopotamia": 25889, "biceps": 27947, "##\u2265": 30136, "##pse": 29251, "lgbt": 12010, "hurricanes": 17035, "softened": 16573, "mahmud": 25886, "leningrad": 15930, "intending": 16533, "pontifical": 22362, "##eur": 11236, "admits": 14456, "gerard": 11063, "19": 2539, "reporter": 6398, "[unused419]": 424, "##eet": 15558, "grande": 9026, "manuscript": 8356, "\u2010": 1513, "brittany": 12686, "intervening": 26623, "commando": 15054, "without": 2302, "humor": 8562, "nomination": 6488, "token": 19204, "industries": 6088, "wiley": 18825, "[unused203]": 208, "semester": 13609, "[unused79]": 80, "343": 27810, "fists": 10006, "righteous": 19556, "##\u2012": 30050, "passenger": 4628, "##gga": 23033, "negative": 4997, "breed": 8843, "##vocation": 19152, "destroyers": 13242, "sea": 2712, "##xes": 20156, "diagrams": 26309, "playstation": 9160, "##illon": 20343, "comprehension": 26683, "camped": 27077, "rendering": 14259, "observing": 14158, "responsible": 3625, "folding": 12745, "##sed": 6924, "##iu": 17922, "talmud": 24380, "ignatius": 26841, "leaks": 29324, "merits": 22617, "aires": 9149, "worm": 15485, "##\u00b4": 29658, "remark": 17674, "frost": 10097, "paternal": 15112, "paste": 19351, "charley": 20430, "##ush": 20668, "##rangle": 21476, "fuck": 6616, "bros": 10243, "dwyer": 29394, "##\u6cb3": 30425, "plurality": 29018, "1954": 4051, "discretion": 19258, "troupe": 16017, "crate": 27297, "##ulsive": 23004, "sentencing": 23280, "##ram": 6444, "##gos": 12333, "coupling": 19780, "tasks": 8518, "##nica": 12782, "##eca": 19281, "wounding": 27285, "communities": 4279, "##berman": 23991, "pleasure": 5165, "posse": 25751, "allie": 16944, "mom": 3566, "hiking": 13039, "jericho": 17309, "milos": 26038, "infiltrate": 29543, "exclusion": 15945, "olympics": 3783, "slovenia": 10307, "##los": 10483, "##hoff": 17896, "vessel": 6258, "asha": 24595, "sbs": 21342, "##zai": 25290, "47": 4700, "53": 5187, "\u0993": 1352, "casa": 14124, "commodore": 12957, "doha": 26528, "trusting": 19836, "seo": 27457, "flights": 7599, "tighten": 21245, "##ness": 2791, "[unused399]": 404, "marlene": 26921, "##oulos": 28262, "descend": 18855, "[unused877]": 882, "\u2080": 1547, "\u092f": 1332, "##\u96c4": 30500, "blacksmith": 20987, "##\u02bf": 29714, "goa": 15244, "delicious": 12090, "##udence": 29424, "bungalow": 27563, "strips": 12970, "brethren": 17937, "belief": 6772, "##\u043b": 29436, "curved": 9203, "[unused502]": 507, "\u5cf6": 1833, "kidd": 25358, "\u00a33": 28182, "reproduce": 21376, "spark": 12125, "\u571f": 1801, "[unused3]": 4, "speculation": 12143, "carving": 18441, "mcpherson": 24332, "##\u308a": 30212, "metropolis": 18236, "basil": 14732, "bars": 6963, "holder": 9111, "honor": 3932, "trouble": 4390, "snatch": 23365, "chalmers": 29069, "sheep": 8351, "indictment": 24265, "donkey": 20325, "##llen": 12179, "qu": 24209, "joker": 19318, "mayors": 21941, "##nock": 18057, "##rating": 15172, "\u028c": 1134, "boyd": 12164, "rig": 19838, "patty": 17798, "rushed": 6760, "samurai": 16352, "tumbling": 21552, "kendrick": 25341, "caretaker": 17600, "##camp": 26468, "##kot": 23342, "##utus": 23998, "everything": 2673, "belonging": 7495, "##\u25a0": 30144, "##\u2ea9": 30158, "managerial": 24465, "cycling": 9670, "relegated": 7049, "ligament": 25641, "##ppy": 27659, "sweatshirt": 28095, "amsterdam": 7598, "good": 2204, "curve": 7774, "bloc": 15984, "bombers": 10544, "contacts": 10402, "tunisian": 22946, "##ool": 13669, "##af": 10354, "##nburg": 22642, "47th": 28243, "decrease": 9885, "6th": 5351, "conversation": 4512, "troops": 3629, "\u4e8c": 1752, "forum": 7057, "brook": 9566, "stainless": 18676, "juno": 20788, "##nh": 25311, "ui": 21318, "spire": 19823, "##phate": 24556, "##avio": 28471, "kara": 13173, "petite": 20146, "beautiful": 3376, "these": 2122, "pause": 8724, "odyssey": 18735, "[unused223]": 228, "capcom": 26861, "shillings": 29332, "baton": 15302, "harrisburg": 24569, "closest": 7541, "hair": 2606, "election": 2602, "tender": 8616, "reich": 14365, "din": 11586, "\u03c2": 1172, "administered": 8564, "charities": 15430, "motives": 17108, "sd": 17371, "prop": 17678, "salzburg": 18369, "oclc": 12258, "tricky": 24026, "favourite": 8837, "truly": 5621, "dumont": 25830, "progressing": 27673, "center": 2415, "waves": 5975, "##inate": 14776, "conceptual": 17158, "\u03b2": 1156, "window": 3332, "representing": 5052, "construct": 9570, "idiot": 10041, "faculty": 4513, "##die": 10265, "##ban": 8193, "painted": 4993, "fern": 20863, "signalling": 21919, "##for": 29278, "thomson": 11161, "locke": 18343, "ld": 25510, "##\u5dff": 30363, "decent": 11519, "##gon": 7446, "##enburg": 12059, "contents": 8417, "inadequate": 14710, "orphanage": 18504, "banners": 23562, "nuclei": 23767, "##ako": 20411, "metres": 3620, "##uze": 20395, "consonant": 18265, "hays": 29051, "sid": 15765, "cobra": 16604, "sofie": 26359, "##oko": 16366, "tactic": 19717, "leaned": 4016, "infantry": 3939, "marino": 17185, "transport": 3665, "\u044b": 1206, "##bi": 5638, "modulation": 25502, "guru": 11972, "canceled": 13261, "wryly": 28325, "inhuman": 29582, "2000": 2456, "ipswich": 15435, "rainer": 28035, "sevens": 19463, "##\u5409": 30319, "slight": 7263, "subsidiary": 7506, "module": 11336, "cruelty": 18186, "##ddin": 18277, "##bbon": 27684, "nam": 15125, "\u0142": 1105, "1802": 13515, "stroke": 6909, "magazine": 2932, "wreck": 12006, "##fine": 23460, "wasn": 2347, "gallantry": 22111, "\u85e4": 1944, "injustice": 21321,
[...]
