{"shrubs": 20918, "Danger": 21245, "1920": 3598, "policemen": 22452, "Chinatown": 24812, "\u0301": 389, "alter": 13000, "lips": 2089, "matters": 5218, "seller": 18275, "temples": 8433, "stairway": 27332, "overwhelming": 10827, "Architecture": 9021, "##ght": 10245, "##stable": 23276, "ceremonial": 13935, "CBE": 16779, "##blivion": 26962, "##mal": 7435, "Gregor": 18123, "collegiate": 14532, "government": 1433, "playful": 20303, "elementary": 7876, "Dickson": 24440, "descend": 20649, "##otte": 25722, "##SN": 24597, "chartered": 17064, "##rate": 5498, "McCarthy": 12780, "disks": 27725, "corps": 9389, "sin": 11850, "Bird": 8258, "intensely": 22695, "Summer": 2659, "shudder": 19986, "adopt": 11258, "Theory": 9560, "holders": 14322, "messed": 20147, "##side": 5570, "##gled": 8384, "intends": 20299, "##hta": 26489, "sustained": 8505, "specified": 9467, "\u017e": 339, "##vance": 24043, "Democrats": 7834, "amalgamated": 22131, "##ga": 2571, "eerie": 21914, "##sner": 23430, "##\u09bc": 28565, "ID": 10999, "daring": 17402, "Football": 2289, "publicity": 12623, "smash": 24881, "\u266f": 881, "##wn": 6540, "tour": 2465, "\u6751": 1041, "boots": 6954, "listening": 5578, "alleging": 26099, "Bangkok": 12829, "modules": 15412, "Pink": 10763, "avoid": 3644, "Ph": 7642, "Leaf": 21901, "Kingsley": 25393, "unfamiliar": 17546, "##raiser": 27014, "switching": 12806, "shivered": 14422, "##\uff01": 28989, "approaching": 8320, "\u09ac": 654, "exploded": 9736, "dominating": 24778, "dive": 12706, "clasped": 17874, "minute": 2517, "moon": 5907, "##ulse": 20996, "Tournament": 5629, "losses": 6053, "warriors": 9171, "Slovenia": 10163, "librarian": 18280, "shadow": 6464, "##quet": 10457, "Cause": 20111, "spontaneous": 20061, "Ocean": 4879, "referring": 7455, "##ferno": 24215, "##dives": 27943, "##\u4e0a": 28871, "derivatives": 18952, "rocket": 8964, "Pine": 11465, "algae": 20964, "greeted": 11196, "repay": 27842, "deprived": 19576, "stares": 14614, "spilled": 13843, "Owens": 15500, "votes": 3667, "##TO": 18082, "hoarse": 23523, "105": 8359, "##\u05b0": 28437, "Metro": 6431, "Pablo": 11660, "Dani": 21555, "convictions": 22978, "Tourism": 12067, "bassist": 10042, "##oss": 13159, "##ube": 15209, "canals": 20094, "##lade": 21414, "forged": 17667, "Diesel": 21651, "lunar": 15383, "##xed": 14771, "era": 3386, "##hea": 13836, "donors": 20023, "##\u0398": 28321, "handle": 4282, "Sino": 21572, "##alia": 19457, "infrared": 18688, "felt": 1464, "entirety": 16635, "kill": 2311, "lunch": 5953, "narrow": 4142, "approx": 26403, "bike": 8295, "Prakash": 24694, "\u30c9": 954, "recruited": 8443, "Mon": 22401, "Ku": 23209, "translation": 5179, "Victory": 10663, "Reports": 16098, "##minster": 27057, "##chin": 12285, "brother": 1711, "regional": 2918, "Environment": 9247, "legacy": 10261, "Close": 11145, "raised": 2120, "##bid": 14598, "Matrix": 25178, "Presidential": 9643, "Foster": 7895, "Alain": 16552, "passage": 5885, "##hibition": 16485, "producer": 2451, "consideration": 9486, "Towns": 24503, "secondary": 3718, "Jed": 27680, "##bing": 6791, "##mist": 18972, "replied": 3028, "toilet": 12356, "shocking": 19196, "McKenna": 24274, "specifications": 17285, "##ths": 26471, "VII": 8748, "Gran": 13529, "##bate": 13859, "##tronomy": 25814, "Ju": 23915, "ESPN": 10967, "duct": 26862, "##bayashi": 26412, "##hya": 20622, "##bal": 7767, "rounded": 7982, "Besides": 4981, "paper": 2526, "curriculum": 9403, "glowed": 17531, "##ier": 2852, "refuse": 10250, "Encyclopedia": 15047, "blanket": 8560, "Surgery": 17910, "\u6728": 1038, "##rino": 16987, "##aru": 19131, "duty": 4019, "Laurence": 10833, "freed": 11485, "bronze": 4394, "Gregg": 19672, "Kaplan": 25666, "##bered": 25757, "exhibited": 7799, "Origins": 27358, "##graphic": 11293, "culture": 2754, "Every": 4081, "medications": 23897, "sustainability": 20598, "wrist": 6703, "##undy": 27478, "2009": 1371, "##por": 18876, "##lates": 23591, "##keepers": 26888, "FC": 3604, "Seymour": 13572, "scored": 2297, "##cats": 21393, "[unused34]": 34, "\u00ec": 258, "humidity": 20641, "##?": 28145, "instructions": 7953, "Rosie": 16853, "vertically": 22026, "rubber": 9579, "158": 18960, "##ynn": 20906, "pointed": 3356, "cardinal": 15058, "Wanted": 20601, "exited": 16095, "286": 28112, "trust": 3496, "##nate": 13978, "UFC": 12047, "1867": 6988, "constitutional": 7950, "1768": 21560, "wealth": 6968, "##made": 12540, "knights": 15480, "Violin": 19042, "##ghter": 20781, "wages": 13588, "rely": 11235, "respective": 7514, "##bina": 23051, "railway": 2529, "##nist": 22158, "edited": 5045, "representation": 6368, "independence": 4574, "cult": 9528, "Rules": 8385, "##heus": 25212, "gag": 21102, "lands": 4508, "wings": 4743, "occupational": 25779, "##ndas": 27417, "None": 7330, "##mart": 22736, "185": 16183, "Honey": 12632, "prophecy": 19214, "SL": 27103, "non": 1664, "drinking": 5464, "hunger": 10023, "per": 1679, "##\u30d0": 28851, "static": 12182, "Webber": 21630, "203": 20022, "radial": 17172, "compound": 7090, "salon": 20310, "ankle": 10845, "bargaining": 25656, "##uveau": 27377, "\u00b6": 217, "##ssen": 12789, "coached": 8692, "Spike": 12901, "ached": 15808, "hopeless": 24858, "absorbing": 23774, "slate": 15989, "Legends": 15704, "snow": 4883, "McKinley": 24610, "Napoleon": 9006, "da": 5358, "illustrate": 20873, "Mitsubishi": 21450, "Rate": 24442, "Allied": 7194, "##tric": 11048, "goals": 2513, "hire": 11562, "rugby": 4896, "##print": 10988, "##rber": 19644, "##MA": 8271, "inn": 14880, "##MS": 7182, "##eran": 19776, "bye": 11901, "aggregate": 9453, "acquisitions": 23345, "cheated": 25695, "169": 20065, "Wonder": 10991, "blessed": 15865, "atop": 10343, "fortunate": 22649, "##ova": 8625, "Alonso": 18918, "sounded": 4234, "##hia": 10652, "Egypt": 4498, "emergency": 5241, "##TE": 12880, "##\u306e": 28808, "protector": 23476, "##iti": 17030, "Sometime": 25205, "Lil": 14138, "[unused31]": 31, "Cuba": 6881, "joke": 8155, "Basin": 10432, "Laos": 16765, "##hetto": 17643, "pageant": 14188, "Harriet": 14766, "##gni": 22152, "concerto": 25657, "Doncaster": 20474, "proponent": 25046, "Guinea": 6793, "livestock": 12490, "##marked": 19384, "cooperative": 14561, "prejudice": 22648, "applicant": 27414, "ski": 10458, "Castle": 3856, "admission": 10296, "154": 17733, "\u2083": 814, "mounted": 5378, "Again": 5630, "166": 20104, "Rand": 16731, "Marjorie": 23813, "campaigns": 7827, "tract": 14441, "gasoline": 15117, "\u2010": 779, "##polis": 14386, "Birthday": 16168, "Events": 17437, "fashionable": 22338, "##\u062b": 28478, "Birth": 20729, "Outside": 9572, "126": 14491, "Gujarat": 15019, "heat": 3208, "involvement": 6083, "encoded": 12544, "aquatic": 16500, "##cist": 14015, "Jayne": 27469, "##borne": 16275, "##XT": 23206, "indication": 12754, "Machine": 7792, "51": 4062, "surpassed": 16509, "orchestras": 23252, "Ida": 19022, "Stock": 9924, "presently": 16269, "scrutiny": 19258, "Newspaper": 21158, "counties": 6292, "villains": 20246, "##dence": 23496, "territorial": 10120, "Wills": 23480, "Missouri": 4499, "whale": 17757, "Lower": 5738, "far": 1677, "Qatar": 12778, "Hara": 21046, "Video": 6301, "encourage": 8343, "Fine": 4730, "dedicated": 3256, "Cross": 3156, "spine": 8340, "stepfather": 24133, "real": 1842, "bonus": 6992, "Would": 5718, "morality": 19613, "##era": 5970, "Want": 8631, "Subsequent": 20499, "fathers": 15920, "z": 195, "propeller": 17358, "##ulator": 19410, "##ptera": 26523, "##\u011b": 28222, "Wolfe": 14815, "Rhythm": 15885, "Jays": 21592, "geologic": 25542, "Reggie": 19343, "SPD": 26765, "\u2208": 850, "Fourteen": 27711, "cared": 8361, "deliberately": 9938, "\u1fe6": 777, "##arra": 25203, "Gibson": 9096, "An": 1760, "Dragon": 6891, "\u00f8": 270, "Faye": 20958, "##pling": 11624, "Systems": 6475, "2018": 1857, "wildlife": 10501, "Desert": 9054, "advisory": 13372, "shops": 7116, "Christmas": 3394, "consists": 2923, "Stanton": 16766, "##court": 13683, "slowed": 9551, "##\u53f2": 28891, "Omega": 17648, "Labour": 4560, "packaging": 17019, "gazing": 18538, "##\u10dc": 28605, "essential": 6818, "Path": 17392, "Vehicle": 19357, "cream": 7081, "##erjee": 21186, "lattice": 19843, "comfortably": 20542, "##keeping": 14692, "understanding": 4287, "##als": 7264, "festival": 3782, "Period": 16477, "bikes": 20852, "##static": 27372, "Dirk": 19862, "PM": 14123, "##cola": 19673, "Ottawa": 7711, "Ballad": 27309, "brown": 3058, "Essays": 19880, "Hate": 20735, "excited": 7215, "operators": 9298, "##classical": 23974, "##nza": 12541, "##zhen": 21821, "cutter": 24639, "Freiburg": 25476, "##b": 1830, "##\u03ae": 28337, "Take": 5055, "##\u6751": 28934, "316": 26896, "##urney": 24339, "##M": 2107, "Boeing": 10178, "##igo": 11466, "cart": 12411, "Dear": 12956, "converts": 22042, "eds": 14625, "calmed": 22980, "mixtape": 23374, "Emma": 4913, "Silesian": 22374, "referenced": 15780, "haired": 10742, "downhill": 23895, "More": 3046, "Jungle": 17009, "Calhoun": 25627, "disagreements": 26805, "Jiang": 23678, "\u0939": 627, "Fergus": 23130, "##ons": 4199, "wanting": 5277, "##mbe": 17329, "221": 21319, "puzzles": 22747, "shouts": 17371, "##gold": 26684, "Maker": 23279, "Baghdad": 14465, "Nairobi": 23248, "##eological": 24135, "1928": 3825, "surprisingly": 12283, "##inga": 28050, "\u00fc": 274, "hazardous": 20981, "##es": 1279, "surface": 2473, "##acles": 18281, "illustrated": 8292, "Pietro": 16413, "twenty": 2570, "##mee": 21563, "##dea": 18747, "##har": 7111, "##ometric": 23930, "##\u0117": 28220, "calf": 23256, "marshes": 23832, "Mikhail": 11329, "##ckoned": 21666, "stock": 4482, "frustrated": 11010, "concealed": 14914, "\u2192": 845, "envelope": 11427, "migrants": 18677, "glove": 20155, "interchange": 9629, "worlds": 11308, "Dixie": 20578, "Miranda": 9120, "lenses": 16938, "##og": 8032, "blaze": 26124, "Dennis": 6277, "##ger": 2895, "##TF": 22169, "##\u0993": 28543, "Northeastern": 23362, "\u015e": 320, "K\u00f6ppen": 22414, "##hare": 22705, "Designer": 25174, "bodily": 23006, "tutor": 17463, "turrets": 23422, "##\u02e2": 28308, "Trace": 22681, "balloon": 15758, "sixteenth": 16704, "citizens": 4037, "Catalonia": 17795, "Goal": 20338, "forensic": 21330, "##uge": 22584, "furious": 10927, "tease": 20826, "Language": 6828, "Greeks": 13466, "NZ": 23412, "uncle": 4906, "##hdi": 26946, "Chiefs": 12359, "##bang": 25903, "Goddess": 15728, "Viking": 13264, "Rear": 15053, "fixture": 15927, "##ivable": 25768, "##yer": 7904, "##kas": 13257, "\u3002": 886, "unwanted": 20194, "protesting": 23708, "\u00e9tat": 24948, "Discovery": 11250, "fungi": 17005, "##iferous": 25093, "Solo": 11977, "departments": 7844, "sheet": 6837, "##hered": 22802, "eyeing": 21593, "##imeter": 19998, "slippery": 27562, "perch": 25886, "##edic": 24506, "\u0915": 607, "##\u00fd": 13933, "##FP": 20912, "##roots": 25142, "Zealand": 2512, "Marty": 12768, "##linity": 25230, "Party": 1786, "arrangement": 6204, "\u2153": 842, "advocating": 22660, "mildly": 21461, "restraint": 21769, "##roper": 26554, "signals": 7981, "\u0431": 476, "Carthage": 24326, "88": 5385, "Meet": 16053, "laughed": 3348, "##yal": 18543, "##\u1da0": 28627, "shooting": 4598, "desk": 3917, "platoon": 18231, "##ied": 4830, "mutations": 17157, "[unused28]": 28, "playground": 18514, "##ttering": 20809, "##ressed": 18089, "awake": 8264, "only": 1178, "romantic": 6376, "smile": 2003, "faintly": 20525, "Bern": 17666, "Oaks": 16518, "Carlisle": 13939, "Okinawa": 15777, "cu": 16408, "night": 1480, "Pascal": 19636, "##azi": 19888, "militant": 19850, "##gation": 10716, "##igan": 10888, "submarines": 13191, "##orum": 23044, "Bear": 8073, "Portuguese": 4269, "expert": 6640, "enterprises": 14839, "Plastic": 26759, "Lara": 14179, "vocabulary": 18074, "Ray": 4150, "demons": 8568, "\u0f7a": 696, "nobles": 15621, "##\u6b66": 28939, "Churches": 13701, "Jerry": 5466, "inches": 4519, "endured": 17861, "neutral": 8795, "boss": 6054, "citation": 19548, "tenant": 19197, "55": 3731, "cemetery": 6680, "##\u0141": 28233, "genre": 6453, "##nius": 19206, "physically": 8027, "Filipino": 10121, "offerings": 16102, "Clock": 20957, "partial": 7597, "framework": 8297, "##GP": 17095, "##cine": 15459, "accusations": 14144, "##houses": 15246, "Fed": 26356, "Mir": 20522, "marching": 14058, "##nas": 13146, "Shelby": 16080, "punished": 14897, "opened": 1533, "focus": 2817, "Practice": 14354, "##gate": 4948, "Trail": 6938, "##aries": 5927, "Adrian": 7687, "filing": 16504, "##RO": 21564, "##vocation": 17105, "Triangle": 20742, "coaster": 20814, "transports": 21951, "Verona": 22051, "##\u2228": 28751, "also": 1145, "intensive": 12885, "appointed": 1923, "singing": 4241, "admits": 15077, "##\u0582": 28436, "##ado": 9359, "##nat": 24226, "step": 2585, "Trenton": 18338, "Explorer": 18092, "Africans": 19442, "shaft": 9202, "27th": 15757, "1761": 23514, "intentional": 24629, "Twin": 12213, "larvae": 9923, "filmmaker": 13140, "40th": 17583, "Oracle": 19265, "Sydney": 3122, "Julie": 7129, "##\u300d": 28783, "loss": 2445, "##rieve": 27055, "##sik": 24577, "sparkling": 18439, "stellar": 21371, "bought": 3306, "asking": 4107, "investigations": 11041, "\u9f8d": 1087, "recurring": 10993, "##ees": 8870, "Fresno": 22885, "Eton": 24085, "Ben": 3096, "Zurich": 16142, "aged": 4079, "beers": 23147, "connectivity": 24466, "Josephine": 18355, "voiced": 7350, "Ethan": 5386, "SBS": 23798, "\u03b7": 424, "Reservoir": 15220, "##with": 22922, "forward": 1977, "##z": 1584, "##works": 9975, "Gardiner": 23272, "paste": 24854, "Hess": 26349, "##xi": 8745, "Honour": 16451, "1924": 4002, "Rutherford": 19936, "##\u0430": 10286, "funding": 4198, "Victorian": 6046, "##bone": 9527, "instruments": 5349, "elimination": 10466, "octagonal": 25360, "interpreter": 23102, "orbits": 22508, "huts": 26931, "years": 1201, "Abbot": 17659, "Drive": 6877, "mechanic": 19459, "Rowing": 21480, "Simmons": 14068, "##vent": 14850, "Dracula": 20128, "Hendrix": 22609, "##\ufb01": 28987, "crowded": 11090, "tracts": 26945, "Appointed": 23598, "places": 2844, "fishermen": 18993, "optimal": 17307, "pierced": 17547, "refusal": 14686, "##\u01d4": 28269, "misses": 26334, "Diaz": 21246, "##yo": 7490, "Funny": 16819, "Aires": 8837, "\u56fd": 1004, "thoughtful": 17873, "CSI": 25011, "comes": 2502, "##ments": 4385, "fascinating": 19601, "lingered": 18942, "immortality": 25211, "columnist": 14219, "##cin": 16430, "Valencia": 13697, "developers": 10300, "Lama": 21795, "dried": 9490, "##fires": 20259, "##eous": 13169, "owner": 3172, "vomit": 26979, "country": 1583, "##bers": 11697, "received": 1460, "ignoring": 10372, "Division": 1784, "mood": 6601, "Sinclair": 11957, "##cover": 17800, "##reate": 15998, "bosses": 27086, "jewellery": 26682, "\u05bc": 534, "purposes": 4998, "co": 1884, "imagery": 14210, "hurling": 18409, "##PP": 20923, "##view": 7334, "intelligence": 4810, "advantages": 13300, "Part": 4539, "##pute": 22662, "ash": 11699, "Gerard": 13740, "Give": 7193, "nestled": 26533, "Ferdinand": 9422, "##ened": 4772, "exposure": 7401, "thirteenth": 17889, "glowing": 10140, "auditorium": 16280, "lighthouse": 13416, "recounts": 26214, "Verde": 17832, "illusion": 14488, "1926": 4082, "mean": 1928, "element": 5290, "commercially": 11514, "evolutionary": 14745, "devastating": 15667, "playback": 26249, "Ying": 26446, "##SU": 17281, "widened": 8344, "##thi": 14298, "pistols": 24389, "Vermont": 8472, "broke": 2795, "belief": 6369, "Gen": 9198, "110": 6745, "fields": 3872, "corner": 2655, "attorneys": 19724, "##AT": 13821, "scenery": 19335, "##pled": 13229, "scholars": 5716, "Rhode": 9502, "cab": 10347, "##nner": 27106, "wardrobe": 21468, "##tensive": 27291, "##clamation": 17405, "[unused86]": 86, "ABA": 24958, "allegations": 9966, "117": 12737, "Brown": 2671, "Seneca": 23399, "judges": 7030, "boys": 3287, "Lydia": 14639, "##vich": 11690, "dirt": 6786, "Traditionally": 19324, "comet": 27492, "##ept": 15384, "Within": 5360, "##rsk": 25223, "stench": 24218, "revenge": 7972, "##eers": 14350, "##\u0448": 28410, "integrate": 18831, "##\u30de": 28856, "bulb": 23447, "hiking": 14249, "##asing": 17764, "actresses": 22704, "##\u00f1": 28205, "Get": 3949, "##\u1d65": 28625, "Prairie": 13891, "condom": 23956, "##\u529b": 28885, "##yev": 16376, "ray": 7586, "##posed": 13541, "spell": 5814, "contract": 2329, "##secutor": 27727, "Hat": 19454, "military": 1764, "Except": 9656, "pulsed": 27787, "Sid": 17916, "Brandt": 21140, "##mura": 14535, "idol": 17642, "##lashes": 26056, "##ligent": 27518, "youngest": 6074, "##rrow": 8674, "##ttes": 20161, "nominally": 27937, "catch": 3963, "spacecraft": 12568, "##ndy": 22600, "##inian": 17054, "Spin": 22878, "Sofia": 8713, "periodicals": 25640, "loaded": 8243, "facility": 3695, "insufficient": 14733, "red": 1894, "stomach": 3472, "Slowly": 13060, "interests": 4740, "poker": 15772, "OBE": 16611, "Bella": 12787, "##pired": 23709, "##ker": 4188, "Face": 10289, "Antoine": 12612, "##coe": 16123, "\u304a": 897, "regain": 12699, "##\u300b": 28781, "breath": 2184, "remember": 2676, "transferring": 15273, "zinc": 19159, "surfing": 25502, "cure": 11200, "hovering": 17785, "Cheney": 26568, "rebels": 9283, "seized": 7842, "unmarried": 18927, "rebuilding": 15921, "appreciation": 13542, "##udder": 23007, "Demon": 16805, "Winter": 4591, "Hart": 7103, "Playhouse": 19889, "400": 3434, "posed": 14114, "inning": 13320, "1764": 23688, "Madhya": 22959, "##eration": 17166, "##\u5c71": 28914, "inherit": 26047, "smart": 6866, "encountered": 8181, "ugly": 10126, "##\u03a4": 28330, "##otypic": 27202, "Bones": 13716, "Whitney": 9567, "listener": 23392, "exceptional": 12688, "coffee": 3538, "Mostly": 21981, "Macintosh": 26162, "gonna": 6100, "PhD": 7735, "##kus": 26688, "##ched": 6428, "peripheral": 17963, "Reece": 27208, "journalists": 9891, "exotic": 13640, "swirling": 17814, "##AS": 10719, "generals": 14729, "overlooked": 18459, "solid": 4600, "Seine": 19461, "\u4e0b": 979, "Leaving": 17003, "##ches": 7486, "Senators": 13205, "UC": 16991, "Declan": 17552, "poetry": 4678, "##ith": 7088, "##anti": 25711, "America": 1738, "Taylor": 3357, "sarcastic": 25322, "##angelo": 27638, "FBI": 8099, "##phism": 19649, "singer": 2483, "##acle": 25001, "Macedonian": 13296, "wasn": 1445, "##edestal": 27571, "##tracted": 16550, "1600": 15567, "discourse": 18644, "86": 5942, "Stations": 24650, "Herzegovina": 11464, "##emont": 26642, "\u0175": 333, "##rner": 18056, "Shi": 14104, "Charts": 25085, "Sullivan": 7124, "Sara": 6936, "therefore": 3335, "##\u099b": 28548, "Long": 3261, "cope": 16743, "slot": 10641, "Shapiro": 27747, "Highlands": 15343, "captain": 3495, "##hir": 14518, "Lal": 24298, "cartoonist": 23095, "indicating": 7713, "Ronald": 8565, "Aye": 16837, "mankind": 18442, "##vik": 13160, "##aving": 19176, "Tag": 9697, "server": 9770, "Amelia": 11691, "Natasha": 18612, "Johannes": 12697, "Herb": 20780, "Arnold": 7296, "##pion": 20585, "ticket": 7260, "los": 12724, "tuned": 17169, "##\u05b7": 28441, "territory": 3441, "Petersen": 25245, "Loving": 24141, "six": 1565, "newscast": 22741, "sand": 5387, "solitary": 15801, "shares": 6117, "hopefully": 16121, "editors": 11884, "Lowe": 14830, "sparse": 22726, "Campo": 25896, "##ay": 4164, "wetland": 27775, "##ward": 5984, "Jung": 13279, "##GS": 13472, "grimaced": 20663, "Matters": 26764, "\u2092": 826, "##\u0163": 28248, "bounded": 10350, "##\u092e": 28522, "Cast": 21452, "sailing": 9145, "peninsula": 10720, "proximity": 10013, "opinion": 4893, "paperback": 16885, "Greece": 4747, "74": 5692, "##enbach": 23091, "##itic": 26320, "perspective": 7281, "coughing": 24992, "diversity": 9531, "##sul": 24661, "potential": 3209, "##\u057d": 28433, "Arthur": 3456, "\u3046": 895, "##nies": 16133, "1848": 7518, "##father": 16064, "Indonesia": 5572, "II": 1563, "Court": 2031, "mechanisms": 10748, "portray": 18483, "##\u00ab": 28165, "deserve": 10026, "Edison": 18221, "##80": 18910, "Nacional": 10740, "Whether": 13197, "##feit": 23221, "coronation": 20743, "estuary": 24703, "psychic": 14181, "reactive": 26844, "Sasha": 15327, "Downtown": 11852, "shipping": 8629, "##cturnal": 26629, "Liang": 18842, "ladies": 8564, "several": 1317, "##ja": 3174, "annually": 6089, "transparency": 21595, "Cats": 17408, "responsibility": 4812, "operational": 6519, "suburban": 10786, "Nora": 12579, "norm": 18570, "##wa": 3624, "indicate": 5057, "status": 2781, "82": 5787, "liquid": 6161, "##eri": 9866, "securities": 19313, "Gong": 23703, "315": 25495, "alleviate": 27295, "surrounded": 4405, "fined": 18136, "storyline": 9844, "Scandinavia": 22570, "busy": 5116, "\u00bd": 223, "##physical": 18547, "Nikki": 15155, "##\u017a": 28257, "turtle": 19570, "Collector": 25493, "Steelers": 16060, "Poll": 24619, "##waters": 20038, "\u1eeb": 762, "Fun": 16068, "##tisfaction": 25734, "Lamar": 21712, "\u1edd": 757, "##igor": 25925, "##\u00bf": 28178, "Commission": 2827, "begin": 3295, "##nia": 5813, "From": 1622, "Martha": 8996, "##\u043b": 28400, "gets": 3370, "freight": 8872, "billionaire": 26961, "kg": 4023, "Annapolis": 28082, "utilize": 17573, "\u062b": 569, "OCLC": 12417, "##nta": 13130, "speed": 2420, "##gt": 19815, "Continuing": 20699, "resembled": 16807, "participate": 4868, "company": 1419, "void": 13340, "situations": 7832, "automatically": 7743, "leisure": 17036, "guiding": 18111, "Mindanao": 26576, "lessons": 8497, "classrooms": 13038, "##urable": 27984, "dialogue": 8556, "##ification": 5783, "shorts": 9330, "madness": 16870, "foothills": 21864, "photographer": 8152, "mornings": 19622, "report": 2592, "softball": 17607, "Qur": 25977, "clashes": 19708, "shortage": 16907, "crashing": 13423, "28th": 16398, "Jesuit": 14335, "Chicago": 2290, "##iname": 28085, "otherwise": 4303, "flashes": 18324, "##san": 9995, "stomped": 24299, "##\u58eb": 28901, "Griffiths": 24293, "##dis": 10396, "emerges": 21190, "arc": 10591, "Stadium": 3339, "juice": 12362, "##iff": 11093, "Kazakhstan": 11816, "fresh": 4489, "respect": 4161, "Dance": 4846, "hostile": 10518, "1648": 25020, "Sunni": 20610, "\u2032": 797, "\u0941": 631, "viewer": 15403, "closed": 1804, "##illa": 5878, "##inted": 18862, "##dium": 10876, "##phere": 13591, "##opsis": 26756, "desire": 4232, "##sp": 20080, "endowed": 22868, "##\u5927": 28902, "##\u90e1": 28969, "##aca": 16604, "##citation": 24214, "wonder": 4608, "Criminal": 10382, "##fly": 15911, "different": 1472, "extend": 7532, "##\u0633": 28484, "shoulder": 2342, "1882": 6543, "paranormal": 27044, "rag": 26133, "##op": 4184, "##\u00f4": 28206, "1757": 25146, "##ntial": 24459, "Lion": 9679, "##SI": 13882, "varying": 9507, "booth": 12960, "##roved": 16011, "##\u2022": 28696, "Gabe": 13123, "guerrilla": 18850, "telescope": 16737, "pickup": 17257, "##ulture": 15936, "harvested": 25309, "Fear": 11284, "Curse": 25893, "##os": 2155, "Turtle": 26024, "Nuremberg": 21072, "##\u00d6": 28192, "##bari": 25964, "Finals": 9801, "Santa": 3364, "aerospace": 27689, "tramway": 24516, "##ena": 7076, "Coming": 11050, "##hra": 20955, "##urai": 17319, "opening": 2280, "pressed": 3691, "supposedly": 11178, "College": 1531, "warfare": 9405, "conquer": 19280, "affect": 6975, "quotes": 18328, "decided": 1879, "arousal": 21019, "##\u03b1": 15561, "posing": 23614, "##hui": 23618, "Chris": 2929, "suspected": 6321, "Deportivo": 26569, "##uster": 25446, "Sixth": 12979, "executives": 14011, "Davy": 25915, "##wl": 10481, "\u3084": 923, "mystery": 8069, "\u012a": 298, "southwestern": 10231, "dir": 23155, "##\u2074": 28704, "##\u301c": 28786, "Austria": 4318, "enemies": 6380, "funk": 19657, "Provincial": 9087, "Ibrahim": 14338, "whatsoever": 20748, "##sius": 20478, "##ist": 1776, "lifted": 3358, "instantly": 6677, "Walters": 20789, "##rassed": 27857, "Miss": 3056, "Le\u00f3n": 14020, "\u77f3": 1062, "stamp": 13182, "Ethiopian": 15845, "Manager": 7165, "Directed": 16698, "book": 1520, "Ana": 9954, "Hooker": 25102, "sexually": 13014, "Munro": 23000, "168": 18030, "wars": 8755, "buying": 9241, "##\u1f00": 28670, "Row": 14706, "amusement": 10367, "obscured": 26771, "distant": 6531, "chicken": 9323, "Spanish": 2124, "fold": 11203, "Briggs": 16338, "employers": 13673, "Juniors": 24150, "##sbury": 14959, "##pectator": 23098, "waves": 5685, "Tina": 12106, "prisoner": 7396, "chord": 15461, "conditioned": 25592, "##hart": 11429, "lasting": 9810, "organs": 11932, "part": 1226, "traced": 9286, "bunch": 9670, "Chamberlain": 15506, "270": 14162, "steam": 5543, "curl": 17331, "courses": 4770, "manages": 8701, "\u0575": 520, "Portsmouth": 10867, "industrialist": 24916, "##lat": 16236, "##tony": 25843, "range": 2079, "game": 1342, "travelling": 9169, "quantity": 11978, "##cking": 12944, "reelection": 18955, "vowed": 19562, "##hmann": 28111, "##vanna": 19434, "bells": 12552, "Thankfully": 25375, "loud": 4632, "##sumption": 16937, "##lings": 11082, "Publisher": 26045, "Schneider": 15934, "Xiao": 22238, "Julius": 10315, "wavelength": 22335, "aboard": 7161, "bid": 6875, "abuse": 6704, "Check": 23114, "traditionally": 7440, "courthouse": 15608, "sculpted": 22079, "murmurs": 26792, "thee": 20021, "takes": 2274, "[unused97]": 97, "nap": 22956, "half": 1544, "visitor": 11972, "##\u6797": 28937, "Jacob": 5549, "roots": 6176, "224": 21448, "##PA": 10147, "nations": 6015, "Marsh": 11463, "Member": 3844, "supremacy": 27769, "groan": 13344, "This": 1188, "Navigation": 21288, "\u10e1": 705, "snack": 23029, "Ryder": 11779, "Primera": 15814, "Partnership": 17330, "Kaufman": 26517, "##ilities": 27968, "Meyer": 11545, "SR": 5833, "refrain": 24296, "stationed": 8651, "Goa": 16235, "illustration": 17011, "seconds": 3071, "##iden": 26859, "\u021b": 352, "##hyl": 18873, "##uti": 16065, "transition": 6468, "squad": 4322, "promoted": 3082, "printer": 17588, "bed": 1908, "songwriter": 5523, "AFC": 10402, "pursuing": 12137, "Gang": 12469, "##unch": 14480, "##EF": 14663, "Dub": 20691, "McPherson": 27441, "23": 1695, "behaviour": 9151, "prolific": 13127, "\uc528": 1090, "dynasty": 6107, "##ehan": 27749, "parliament": 6254, "Hadley": 23953, "##RI": 20595, "Royals": 17692, "despair": 15546, "\u3080": 920, "supplement": 15491, "variations": 9138, "farms": 9464, "##\u0399": 28322, "Sirius": 26848, "probation": 23793, "textbooks": 20980, "Kemp": 22443, "Ancient": 7622, "appealed": 12181, "Observer": 16460, "backward": 8740, "##shes": 26816, "##\u1e47": 28636, "Stefan": 8882, "archbishop": 19026, "dismantled": 18640, "\u02b0": 376, "\u2500": 869, "guaranteed": 13008, "##gelist": 26959, "edible": 24525, "\u05b7": 531, "##urger": 23872, "Half": 8636, "##\u304b": 28791, "reprinted": 15528, "prefix": 19586, "##ulata": 23811, "alloy": 20107, "pier": 16331, "Henley": 22935, "##nden": 28004, "wiped": 7960, "##throp": 21850, "jackets": 27310, "##lint": 22761, "Scientist": 22985, "summit": 7966, "canvas": 11246, "diagram": 18217, "kit": 11622, "catering": 22709, "network": 2443, "badminton": 22438, "Siberian": 24196, "weary": 18024, "scratched": 15844, "Harvey": 7206, "showcased": 24980, "##Cs": 18363, "Dorian": 17130, "\u00e8": 254, "##zzo": 12550, "##buster": 27338, "##ditional": 27988, "curtain": 12354, "##rgon": 22487, "##aria": 11315, "Paper": 11594, "mobility": 16178, "cavern": 19373, "##lattered": 26355, "##\u0272": 28284, "being": 1217, "\u00eb": 257, "##\u0638": 28489, "San": 1727, "##aar": 26028, "##ook": 9753, "##pin": 6709, "Hamlet": 20332, "DB": 24044, "##cell": 22494, "harness": 20211, "##wari": 20441, "##block": 27467, "firm": 3016, "Essex": 8493, "216": 22148, "##\u1d9c": 28626, "role": 1648, "Landmark": 18405, "ninth": 6948, "Associated": 12835, "Killing": 19949, "##VN": 18198, "react": 10573, "initiatives": 11751, "sediment": 22122, "Toyota": 11801, "bombing": 8602, "Rodney": 14360, "Rhodesia": 22228, "kind": 1912, "traveling": 6934, "sweaty": 22199, "Allan": 8577, "attempted": 3867, "##nov": 15847, "rewards": 22278, "208": 19980, "mocked": 27304, "Bull": 9255, "flaming": 27928, "republican": 22679, "Brock": 14389, "1987": 2164, "##elle": 11682, "comeback": 14019, "1970": 2459, "1947": 3138, "relieved": 7375, "##lows": 26044, "##Ps": 17598, "un": 8362, "Ballet": 10773, "##rom": 16071, "depiction": 16940, "wonders": 21346, "Reyes": 12823, "##rogen": 26767, "finish": 3146, "fast": 2698, "Because": 2279, "contributing": 7773, "##dorf": 10414, "coat": 4920, "zur": 23199, "warm": 3258, "wait": 3074, "##\u2010": 28681, "fossils": 13104, "India": 1726, "flashlight": 16319, "goodness": 18023, "software": 3594, "Evans": 5826, "Changing": 25855, "domains": 13770, "11": 1429, "parental": 22467, "##bs": 4832, "##powder": 24272, "Neal": 11003, "institutional": 15040, "##bide": 22742, "slipped": 5002, "smuggling": 21974, "sorting": 26258, "##versing": 27563, "adds": 9807, "##aal": 27679, "60s": 22891, "##6": 1545, "##ani": 7192, "sickness": 17663, "county": 2514, "passes": 4488, "dealing": 6705, "Testament": 9873, "\u03c5": 438, "orgasm": 14676, "##roduced": 27318, "gossip": 16378, "##fuse": 23718, "Grey": 6285, "quartz": 26747, "##ree": 8871, "bits": 9182, "bald": 18035, "##gable": 24363, "problematic": 20405, "buyer": 20315, "Wight": 23721, "##\u1e43": 28634, "hug": 8363, "##ose": 6787, "##}": 28155, "comparable": 12763, "dramatically": 12235, "Playboy": 24071, "jack": 24498, "harvest": 15390, "rigid": 12135, "##GE": 16523, "theory": 2749, "cow": 13991, "##dine": 10399, "imprint": 17322, "dotted": 22641, "Stone": 4118, "##umes": 25965, "##rata": 15471, "cycle": 5120, "tributary": 8597, "##is\u0142aw": 26515, "provinces": 7112, "Steel": 8180, "liberties": 27930, "prospect": 11870, "Crossing": 16188, "Sloane": 18823, "artillery": 6201, "##formatics": 27960, "wholly": 12907, "[unused53]": 53, "Rank": 25949, "northeast": 4691, "pillow": 10352, "honeymoon": 25619, "Grimsby": 27540, "natives": 14252, "2000": 1539, "##witch": 18548, "##tile": 23677, "population": 1416, "finding": 4006, "fiction": 4211, "Luther": 9413, "flee": 10556, "Soldier": 14595, "propelled": 17314, "spelled": 11517, "Linden": 26268, "maternal": 11476, "photos": 7630, "torment": 25944, "Masters": 6935, "lend": 23559, "\u0259": 357, "pale": 4554, "Excellence": 10600, "Ivan": 7062, "Keep": 7947, "##\u300e": 28784, "##dley": 11814, "##\u00fchrer": 24322, "mutation": 17895, "clutching": 15571, "cadet": 22602, "##disciplinary": 26096, "stared": 2729, "##alaya": 27399, "Armored": 22665, "Place": 5033, "[unused15]": 15, "null": 26280, "\u03ba": 427, "##cia": 6052, "Racecourse": 20042, "defects": 20705, "\u1e28": 729, "avoided": 9226, "##tland": 11910, "[unused75]": 75, "##usive": 17849, "stage": 2016, "##son": 2142, "##ids": 7540, "##boo": 24385, "centers": 6425, "##ario": 20438, "sequence": 4954, "chin": 5144, "festivals": 7731, "##'": 28131, "##ises": 13733, "apparatus": 16486, "##UR": 19556, "##cies": 9805, "##evich": 21075, "Tech": 7882, "layout": 9726, "groaned": 9393, "Pure": 16665, "ritual": 9181, "##ye": 4980, "differentiation": 23510, "jet": 8319, "midnight": 9191, "##uns": 17096, "experiment": 7886, "pan": 13316, "fertility": 20060, "Instrumental": 17809, "##onium": 23772, "incredibly": 12170, "pretending": 12714, "##edly": 17797, "wrists": 12294, "hp": 6857, "Rally": 15094, "Jai": 19183, "##layer": 22938, "07": 5004, "keyboards": 6184, "Adults": 15584, "Alexandria": 10142, "##dain": 21314, "##aling": 13248, "slender": 11226, "Assembly": 2970, "selecting": 19752, "important": 1696, "##lphin": 19030, "Potomac": 20419, "\u9053": 1074, "##PI": 23203, "##idy": 25382, "influence": 2933, "transit": 9575, "cavalry": 7915, "##reath": 18709, "conferences": 9759, "##ard": 2881, "Beijing": 6671, "Merry": 15871, "##uit": 10950, "commune": 5188, "##izes": 9534, "Mum": 20409, "Units": 21687, "agency": 4792, "##\u30af": 28833, "##oa": 12985, "##nton": 13124, "SS": 6663, "click": 13440, "##function": 26420, "core": 4160, "Alice": 4953, "inquiry": 12064, "##cence": 14797, "sounding": 9209, "unconventional": 27668, "##Works": 28039, "acquiring": 14585, "diverse": 7188, "##rin": 4854, "Hassan": 13583, "summon": 21147, "tallest": 14369, "locomotive": 8502, "##zier": 22815, "ing": 16664, "60th": 22963, "ve": 1396, "Leo": 6344, "##VB": 18339, "Eddy": 18998, "Erich": 18773, "These": 1636, "Ghana": 9446, "##olin": 27719, "Print": 27833, "1908": 4536, "seek": 5622, "Sciences": 4052, "Collective": 22380, "##ales": 19856, "researched": 20429, "Joanne": 27829, "sized": 6956, "further": 1748, "slash": 26632, "##\u00de": 28197, "##med": 4611, "outsider": 26948, "tags": 25613, "Clan": 14288, "disappears": 18441, "Vega": 17165, "Peoples": 19448, "hearth": 27965, "##\u222a": 28753, "thumb": 7446, "##ku": 4786, "Obama": 7661, "##\u1ebf": 28647, "Union": 1913, "opposed": 4151, "Market": 6923, "##rout": 20885, "##phobic": 22050, "##ishes": 19033, "##jas": 25983, "AMC": 24810, "Dundee": 14796, "##ayman": 25939, "1748": 27488, "Ares": 27489, "stood": 1866, "burying": 25317, "usable": 27343, "language": 1846, "vineyards": 26009, "emigration": 24806, "speakers": 7417, "##itution": 27067, "grey": 5583, "Lone": 19511, "##\u0987": 28541, "##\u30eb": 28863, "Heroes": 11312, "\u039d": 405, "ascended": 22208, "##\u05bc": 28444, "drilling": 18218, "##BE": 27211, "\u0398": 400, "##DM": 20002, "\u041c": 459, "figures": 3736, "sided": 11641, "\u00a5": 203, "Moscow": 4116, "reserves": 9114, "Centennial": 20988, "exclaimed": 12922, "##oted": 21493, "momentum": 11550, "##irs": 11836, "Motion": 12153, "Bosnian": 17173, "##rench": 18129, "bitterness": 26051, "favourite": 9122, "##\u00edn": 7326, "Der": 9682, "markers": 18004, "atoms": 14296, "Chinese": 1922, "##runcated": 28098, "unit": 2587, "UEFA": 6068, "##nier": 12682, "metal": 2720, "thereby": 8267, "##chs": 17704, "2013": 1381, "naive": 22607, "bent": 5950, "pulpit": 28079, "resist": 9345, "##try": 6013, "##ez": 6409, "fulfill": 14414, "reflective": 24449, "Prussia": 10612, "##lind": 27969, "##cam": 24282, "spectacle": 25396, "extent": 6102, "\u1ea1": 738, "formerly": 3147, "Eli": 12224, "##changing": 23286, "wrote": 1724, "papers": 4580, "memorable": 14113, "simplest": 23565, "##runched": 26640, "banker": 15304, "##35": 19297, "##bria": 24911, "Loss": 22008, "bra": 12418, "training": 2013, "##\u1e0d": 28628, "##sk": 5276, "shuffled": 20390, "Levin": 22104, "Isles": 15429, "##smopolitan": 27848, "##ieu": 21114, "spread": 2819, "Thorn": 22428, "journey": 5012, "Sharp": 13319, "##it": 2875, "exercises": 11536, "exhibits": 10877, "Lorenzo": 12662, "Gates": 12702, "Fourth": 7652, "named": 1417, "Bahn": 18718, "frustration": 9074, "urban": 3953, "##awa": 10946, "##\u0630": 28482, "700": 5689, "garde": 19484, "##tur": 20362, "##gant": 24581, "##zzling": 18537, "##litz": 15516, "progressively": 22770, "dancing": 5923, "brace": 22913, "Louisiana": 5060, "unison": 21658, "divine": 10455, "\u05b6": 530, "Company": 1881, "gave": 1522, "UN": 7414, "Thunder": 10798, "Moss": 13626, "Niall": 24233, "prescription": 24259, "Dead": 5620, "evolved": 7601, "##sby": 13341, "##\u02be": 28303, "ponytail": 21101, "Italian": 2169, "2014": 1387, "districts": 4210, "220": 10423, "##\u0634": 28485, "aftermath": 11026, "##\u045b": 28422, "immune": 11650, "##xon": 21501, "suggests": 5401, "194": 21720, "##rou": 20645, "ill": 5178, "nationalist": 11619, "##TL": 20156, "hydraulic": 16872, "switch": 6878, "Ethel": 20995, "old": 1385, "stern": 12172, "##nh": 15624, "Circle": 7933, "wound": 5785, "\u0251": 354, "##\u201c": 28691, "142": 17048, "##heimer": 19263, "lift": 6012, "slips": 19106, "chuckle": 16305, "Browns": 14559, "debut": 1963, "Savoy": 17438, "Sense": 26456, "cultural": 3057, "dragon": 7556, "##ctive": 13851, "started": 1408, "chemical": 5297, "Treaty": 6599, "oriented": 7779, "##heim": 6797, "Similar": 12250, "airs": 15692, "##tations": 18837, "March": 1345, "lobbying": 22085, "disgust": 13155, "faculty": 5449, "##\u2089": 28716, "EP": 4493, "towers": 8873, "lacrosse": 21135, "rotated": 23050, "##nts": 5240, "##hell": 24364, "##bro": 12725, "veto": 27484, "lesser": 9774, "breakthrough": 15036, "dripping": 15224, "Heights": 9000, "Cook": 6816, "organize": 11021, "DD": 23232, "guided": 8610, "pen": 8228, "##\u09cb": 28571, "GDP": 14781, "1955": 3115, "provider": 11482, "myself": 1991, "motivated": 13241, "bond": 7069, "True": 7817, "Honors": 25796, "autonomous": 10661, "\u02bb": 380, "chair": 2643, "draw": 3282, "Canal": 6327, "waved": 6577, "##boats": 15980, "Katy": 19513, "lovers": 12977, "ecclesiastical": 14767, "1993": 1949, "Wrestling": 5995, "##re": 1874, "##icit": 22308, "mind": 1713, "##anga": 21842, "Counter": 23064, "retailer": 23495, "##\u1ed5": 28656, "colony": 6417, "Kids": 9904, "creates": 8743, "Berlin": 3206, "Lily": 6916, "##zoic": 23020, "Hellenic": 25792, "tones": 13647, "Lauren": 10177, "Chairman": 4284, "Latvian": 15332, "bit": 2113, "\u20ac": 836, "Experimental": 17635, "##\u65e5": 28926, "##centric": 24684, "##rates": 14048, "fence": 8617, "Lexi": 17174, "##zas": 23538, "sucking": 14571, "Chance": 12423, "Borders": 25746, "Syria": 7303, "##nders": 24373, "Moreover": 9841, "paired": 13185, "Forum": 8576, "\u1f00": 768, "##wave": 17159, "##umour": 27226, "front": 1524, "Denver": 7068, "405": 26904, "uncomfortably": 25103, "Shut": 15104, "##iary": 18665, "Ms": 6980, "##ax": 7897, "Olivier": 15061, "##sler": 21318, "##mented": 24674, "\u05d3": 538, "mit": 26410, "lawyer": 4545, "##eman": 12437, "dripped": 25188, "##ield": 12350, "Spiritual": 23509, "Variations": 26257, ":": 131, "many": 1242, "reproduced": 25017, "14": 1489, "Zoe": 11929, "campaigning": 20648, "locks": 11992, "principle": 6708, "##`": 28152, "##bas": 16531, "[unused50]": 50, "founders": 9004, "Mayer": 15326, "faculties": 22094, "##hack": 17907, "##figured": 18930, "stations": 2930, "Treasurer": 15099, "literally": 6290, "Roma": 13120, "hospital": 2704, "Havana": 16092, "##\u00ce": 28189, "riding": 5569, "advisor": 10292, "genome": 15519, "masculine": 15838, "feudal": 18594, "Achilles": 26919, "spaces": 6966, "clue": 9956, "aristocracy": 26076, "[unused55]": 55, "served": 1462, "owners": 5032, "##si": 5053, "Sam": 2687, "1816": 12497, "et": 3084, "Globe": 10421, "nominees": 21512, "##plex": 21790, "standard": 2530, "possibly": 3566, "tire": 15269, "##\u2014": 28685, "[unused41]": 41, "Net": 20820, "##ngle": 22170, "Galaxy": 13021, "##\u20ac": 28731, "expression": 2838, "starts": 3816, "Terry": 6050, "Protestant": 7999, "substrate": 17498, "\u1d4f": 714, "pathways": 19530, "aggression": 16843, "throne": 5774, "tossing": 16824, "produce": 3133, "least": 1655, "Airfield": 17858, "contrasted": 24681, "Norma": 22796, "pregnancy": 10203, "attire": 22604, "crooked": 19785, "Irvine": 17297, "Midlands": 13869, "restless": 20806, "##ude": 10308, "White": 2061, "Order": 2864, "Master": 3257, "Matches": 20380, "##ishly": 21120, "Han": 7699, "Hazel": 21021, "Alma": 15717, "weekend": 5138, "pick": 3368, "##war": 7200, "apples": 22888, "heavens": 21782, "Presbyterian": 10091, "##\u7248": 28946, "Rebecca": 9135, "granddaughter": 13118, "increases": 6986, "312": 23101, "tilt": 20827, "##rica": 15353, "boxer": 12156, "\u1ed9": 755, "##yah": 18713, "Awards": 2763, "crashes": 21110, "##gro": 21932, "nesting": 24056, "1771": 22683, "##mini": 25685, "doubtful": 25889, "interview": 3669, "Operations": 7273, "starring": 3937, "cloth": 8217, "remains": 2606, "swimmer": 14412, "##iro": 9992, "##uss": 13356, "Howard": 4115, "##iri": 17262, "##uh": 23698, "Alternate": 14234, "Croydon": 24148, "shuddered": 14423, "uprising": 13034, "weaving": 17603, "interstate": 20905, "Kathy": 15698, "utilizes": 24242, "bullets": 11959, "damaged": 4938, "topics": 7662, "its": 1157, "##19": 16382, "equation": 8381, "Dare": 22471, "cheeks": 5388, "Style": 13023, "gun": 2560, "Bari": 25788, "melancholy": 27990, "my": 1139, "volunteers": 8118, "##lau": 15554, "Genesis": 12117, "parchment": 25680, "alumni": 12762, "early": 1346, "##oso": 22354, "Sloan": 20675, "outpost": 26411, "##ary": 3113, "##lication": 20721, "oxide": 17151, "##\u0103": 15287, "basins": 26404, "\u2093": 827, "consecutive": 4776, "twist": 11079, "##ttered": 16616, "Product": 22249, "involved": 2017, "##ggs": 15493, "plant": 2582, "hanging": 5205, "Solutions": 20470, "administer": 23972, "vault": 13454, "thirds": 12704, "Wells": 7909, "solemn": 22752, "Hong": 3475, "atomic": 12861, "whipping": 27317, "##\u00a1": 28157, "Directors": 9970, "Sahara": 21465, "##valent": 24709, "##lined": 14523, "1930": 3630, "biography": 9631, "cannot": 2834, "keeps": 7634, "messenger": 17957, "featuring": 3022, "friction": 16630, "analysts": 22018, "mutual": 9175, "Languages": 18388, "##AP": 12240, "Convention": 5818, "cartoons": 15669, "Status": 22130, "challenger": 24997, "Grove": 8051, "Theresa": 15532, "Deck": 26769, "sounds": 3807, "##dre": 11114, "Paralympic": 19099, "Rodrigo": 20551, "##ham": 2522, "##wara": 11525, "##pted": 15514, "songwriters": 26324, "AT": 13020, "##\u0250": 28274, "covers": 3662, "confluence": 14475, "Eureka": 23695, "balls": 7318, "bowed": 11543, "Management": 3973, "endless": 12401, "gut": 9691, "bleeding": 9793, "virgin": 16946, "\u0169": 327, "rest": 1832, "model": 2235, "instrumentation": 19391, "Act": 2173, "Stan": 9633, "##ited": 10334, "Airborne": 16607, "##dox": 15942, "schooling": 15113, "##\u0280": 28286, "sale": 4688, "wagons": 15643, "##tters": 18899, "straw": 15235, "varies": 9544, "championship": 2899, "Sun": 3477, "Mall": 11123, "##payers": 27452, "##rn": 4558, "sparks": 20304, "Branch": 6541, "contestants": 11061, "Councillor": 18073, "##ggle": 25186, "##lum": 7776, "140": 8183, "Su": 15463, "Persons": 24113, "silent": 3826, "north": 1564, "##\u0627\u0646": 21273, "Beau": 21477, "conclude": 17581, "component": 6552, "tonnes": 10992, "accessed": 12269, "nm": 19137, "backseat": 22375, "Scale": 20334, "Tiger": 8134, "##sse": 11553, "dolls": 22084, "discovering": 15137, "figuring": 27862, "subdivision": 16422, "signal": 4344, "stare": 5698, "##\u00f5": 28207, "Zane": 6359, "hallway": 6219, "assure": 14955, "##dened": 20639, "##\u042d": 28390, "Index": 10146, "unexpectedly": 15484, "download": 9133, "inland": 11054, "collection": 2436, "\u09a5": 649, "were": 1127, "TD": 15439, "##\u00e7\u00e3o": 18052, "tech": 13395, "tremendous": 15194, "##ivation": 16617, "duel": 17253, "##lums": 27195, "##mell": 27575, "Thai": 6888, "CW": 21303, "contributor": 12708, "crisis": 5532, "creepy": 19857, "Bray": 21920, "##ahl": 24166, "##oke": 9143, "liturgical": 22628, "Ty": 5331, "twentieth": 9976, "maneuver": 19844, "Tsar": 22565, "Turning": 12848, "Sons": 9946, "Spider": 8454, "monks": 10547, "##tour": 18834, "shades": 16327, "##25": 17600, "Majority": 23670, "bedside": 21685, "Harley": 14062, "Angelo": 12622, "I": 146, "##hlete": 25519, "applicable": 13036, "touring": 7048, "##eer": 8284, "Pavel": 20270, "Crisis": 12234, "\u0294": 375, "##su": 6385, "drawers": 25604, "##while": 21053, "##\u00e2": 28198, "\u27e9": 883, "##geny": 21004, "[MASK]": 103, "##yres": 19168, "##cis": 21349, "mounds": 23727, "custom": 8156, "metabolic": 25158, "Opera": 5434, "Cora": 18805, "##piration": 22631, "obtain": 6268, "\u0290": 372, "sq": 4816, "pizza": 13473, "Polytechnic": 16258, "Larson": 23360, "AllMusic": 17628, "##lier": 9888, "##rrogance": 27457, "Monastery": 14098, "Foley": 18412, "Certain": 16482, "[unused72]": 72, "sunshine": 18080, "Jain": 18489, "Samson": 19893, "been": 1151, "Impossible": 26138, "combat": 4127, "merely": 5804, "attraction": 8322, "##fan": 16740, "##uria": 19700, "cook": 9834, "collar": 9704, "Collections": 26294, "184": 21421, "Vera": 13050, "Colchester": 21930, "dry": 3712, "countryside": 11408, "defendant": 14259, "etched": 22526, "1964": 2668, "interference": 11364, "##ooster": 24163, "satisfied": 8723, "resulted": 3657, "re": 1231, "##hurst": 10623, "Telugu": 12321, "individually": 15473, "Shri": 15795, "federation": 18159, "##33": 23493, "##\u0259": 28278, "Naomi": 13042, "fiery": 17412, "Guido": 22277, "Derek": 6749, "excellence": 14509, "Giacomo": 25533, "Third": 4180, "properly": 7513, "cartoon": 11540, "lots": 7424, "##\u10d4": 28602, "1958": 2996, "envisioned": 19512, "exclude": 26132, "Gary": 4926, "22nd": 14260, "km\u00b2": 2287, "Louisa": 16649, "Marius": 21915, "reference": 3835, "Institutes": 24496, "##KS": 25370, "##some": 11743, "shopping": 6001, "adult": 4457, "Tobias": 18167, "\u300a": 887, "##ilated": 27388, "##tase": 25347, "weeping": 24305, "patrols": 15803, "store": 2984, "##roi": 21418, "287": 25724, "WWE": 11729, "aesthetic": 13492, "Philadelphia": 3562, "##hol": 14084, "\u72ac": 1054, "mineral": 10956, "trends": 14652, "fist": 7374, "Think": 9471, "##ites": 7571, "happening": 5664, "00": 3135, "Sunshine": 13122, "Championship": 1935, "specialty": 13858, "offspring": 14416, "[unused91]": 91, "##EC": 8231, "Return": 11121, "authentic": 16047, "hideous": 25801, "cues": 26602, "##eted": 27860, "##\u093e": 28531, "\u044e": 505, "intend": 13938, "availability": 11731, "\u1f70": 772, "insane": 10049, "involves": 6808, "neighborhood": 4532, "\u3044": 894, "##ards": 13584, "summers": 14921, "Lopez": 13253, "feminine": 13385, "##ounced": 24276, "attempt": 2661, "widow": 8244, "glands": 26310, "abrupt": 20494, "Wars": 6238, "mouse": 10322, "\u01ce": 344, "##dgson": 26229, "##\u0130": 28229, "guarantees": 24512, "##our": 6334, "##cycle": 19964, "info": 23992, "Rs": 19003, "parlor": 21799, "chained": 25953, "##makers": 11877, "##ony": 10031, "\u8fb6": 1073, "##\u0303": 28311, "Isabelle": 14446, "sculptures": 11101, "alcohol": 6272, "wa": 20049, "actor": 2811, "footballer": 3585, "##stadt": 21039, "##ted": 1906, "images": 4351, "requested": 6792, "dude": 17869, "##hawks": 18822, "Adams": 5234, "Park": 1670, "conceded": 16806, "surrendered": 10738, "beams": 13903, "BCE": 10596, "Different": 14380, "interiors": 25556, "Wharton": 27256, "##church": 26037, "\u3048": 896, "philosophers": 20692, "Bad": 6304, "compartment": 16290, "##\u209b": 28728, "Parks": 10112, "##aw": 7220, "##gnetic": 19975, "tight": 3600, "rebuild": 15596, "Roberto": 10599, "##forcing": 20586, "Partner": 24961, "Previously": 11642, "Web": 9059, "Chambers": 12990, "obeyed": 25314, "temporal": 18107, "##\u0561": 28425, "Gold": 3487, "Edward": 2594, "peak": 4709, "##we": 7921, "PS": 12727, "Matthias": 19317, "\u2229": 858, "##ano": 7428, "dip": 20866, "Orient": 20032, "Biennale": 23754, "##aya": 12057, "##lma": 16882, "##ous": 2285, "##cted": 8436, "##bo": 4043, "occasional": 7957, "consider": 4615, "##ope": 15622, "##cline": 24230, "enzymes": 17664, "anterior": 16557, "Ex": 16409, "intro": 27553, "passengers": 4861, "1929": 3762, "dagger": 12506, "Charlton": 19155, "Superintendent": 12987, "Giro": 21332, "114": 12620, "inscription": 9237, "##gles": 15657, "Asian": 3141, "waived": 17548, "Eat": 21327, "##\u7f8e": 28959, "sunglasses": 18679, "exchanged": 10476, "road": 1812, "insulted": 26984, "Timothy": 10746, "##\u0996": 28545, "##\u660e": 28927, "adopted": 3399, "official": 2078, "instances": 12409, "##person": 14359, "Saskatchewan": 9861, "frantically": 18144, "organisations": 8485, "desperately": 9600, "Mustafa": 21638, "wore": 4307, "nonprofit": 15773, "lawyers": 10630, "Shaking": 25227, "Silva": 11211, "atrocities": 27232, "##mbs": 20630, "Portland": 6141, "wagon": 10625, "certificates": 21487, "veins": 9485, "##ven": 7912, "Maris": 27859, "colonial": 5929, "##\u0144": 19339, "Mechanical": 15433, "Chester": 8459, "##dial": 27565, "##ann": 11657, "instructors": 24165, "##zhou": 10753, "##pps": 21509, "Sabbath": 21952, "inscribed": 15505, "forever": 5221, "\u09b0": 657, "regulate": 16146, "scarf": 21413, "hardwood": 27059, "##\u0291": 28294, "##hrill": 24657, "steaming": 23026, "ensured": 17349, "##ffer": 12929, "Origin": 18999, "partnered": 12690, "##rsen": 22972, "airports": 15797, "Breuning": 19559, "claim": 3548, "album": 1312, "Normal": 14508, "##HT": 18784, "Rowland": 22473, "Castillo": 21218, "##kman": 27776, "Jasper": 15805, "Cyrus": 17093, "seeds": 8365, "employs": 13856, "venom": 22638, "debris": 11829, "##\u300f": 28785, "##dering": 24455, "aliens": 14498, "Lane": 5319, "husband": 2252, "merchandise": 18349, "Landscape": 20544, "for": 1111, "passing": 3744, "costumes": 13452, "##ct": 5822, "##ogist": 25976, "susceptible": 19464, "##ronic": 26003, "finger": 3602, "com": 3254, "Worker": 26455, "fits": 17976, "##\u03c7": 28358, "##aq": 22540, "costly": 18372, "##mins": 19296, "freak": 14406, "##\u03b6": 28343, "##\u00bb": 28175, "Direction": 17055, "boundary": 5904, "\u2264": 863, "##bet": 16632, "1900s": 17446, "\u570b": 1005, "##mission": 11234, "##tes": 3052, "inaugural": 7517, "Biography": 20599, "judgment": 9228, "##orio": 20571, "\u03c0": 433, "##urion": 27178, "Mountains": 5249, "360": 9174, "Khorasan": 25961, "311": 26277, "blouse": 20496, "executing": 26789, "shipyard": 20891, "Aerospace": 19417, "Chrysler": 18991, "Bathurst": 24231, "slip": 7324, "celebrations": 12746, "##jection": 26857, "prose": 14221, "bouncing": 18302, "restriction": 18760, "##varo": 25751, "Moines": 25998, "Allmusic": 16446, "socialist": 11181, "\u0bc1": 681, "Spears": 21214, "Indeed": 10364, "rhyme": 27063, "Investigation": 15701, "##mass": 23749, "loosely": 12158, "##31": 22639, "completing": 7332, "##lanche": 27474, "##cated": 11603, "possibilities": 12435, "vivid": 16756, "Lines": 12058, "##\u2032": 28699, "##xia": 19767, "Poe": 21377, "grumbled": 18163, "##LL": 23955, "##eng": 14429, "brows": 11424, "amazing": 6929, "Atlantis": 17793, "Iraq": 5008, "odor": 21430, "NL": 21239, "##unda": 22902, "Cairns": 26314, "trimmed": 24509, "paved": 12609, "##iding": 26313, "Japan": 1999, "statistics": 9161, "Feeling": 13085, "heal": 11544, "gas": 3245, "Meadows": 20593, "Getting": 14709, "embrace": 10249, "Horror": 16709, "rescued": 10043, "=": 134, "here": 1303, "\u0679": 597, "##tional": 15937, "##100": 20150, "2016": 1446, "Jennifer": 7184, "Bee": 16385, "##de": 2007, "Shelley": 16738, "defect": 23912, "withdrawal": 10602, "hesitant": 22489, "As": 1249, "relativity": 27373, "accomplished": 8587, "crawled": 12625, "##sted": 8546, "reluctant": 12061, "##sent": 27408, "opposing": 10137, "##\u0294": 28296, "Other": 2189, "crap": 11074, "Mega": 16501, "self": 2191, "Canadiens": 23454, "206": 20278, "##tment": 22668, "already": 1640, "Seventh": 13121, "##eve": 19907, "tendency": 12034, "Fountain": 19873, "##ibel": 23764, "claiming": 6330, "beat": 3222, "sculptor": 10324, "educator": 12102, "Sheriff": 8133, "##wall": 9456, "##toria": 14155, "##ley": 1926, "Associates": 15264, "Lana": 17723, "existing": 3685, "##ui": 6592, "##final": 25154, "Oliver": 5638, "physician": 7454, "Eight": 8371, "finds": 4090, "missionary": 10263, "Jamie": 5518, "##adia": 21403, "populace": 25087, "##uid": 16423, "##rch": 10340, "##ucks": 21515, "fraternity": 17188, "sermons": 26367, "##ffy": 12383, "Olympics": 2932, "surround": 16858, "##4": 1527, "Philippines": 4336, "Jimmie": 27806, "##io": 2660, "##7": 1559, "sailed": 6930, "mistress": 14198, "##oku": 23226, "\u039a": 402, "keep": 1712, "carved": 7470, "Romanian": 6481, "##ins": 4935, "sweetness": 27293, "Diane": 12225, "gesture": 8982, "interrogation": 18864, "Kitchen": 18988, "Glory": 12519, "##SB": 19117, "Narayan": 27520, "sooner": 10639, "##log": 13791, "determination": 9220, "thriving": 22522, "Empress": 11672, "\u00e4": 250, "Verity": 24835, "glance": 5410, "culminating": 18174, "\u00de": 244, "Performance": 6724, "Produced": 13662, "\u308a": 927, "Individual": 12265, "##ropriation": 25406, "Vuelta": 24033, "Cherry": 11328, "sanctions": 19344, "##inder": 23216, "415": 27813, "##rini": 19764, "Street": 1715, "295": 23931, "Putin": 24489, "Are": 2372, "Gladstone": 24068, "Dyer": 27028, "##\u05dc": 28456, "[unused16]": 16, "You": 1192, "funeral": 6594, "##oli": 11014, "Unable": 18097, "Paterson": 20843, "##zee": 26328, "metres": 2759, "##scription": 19256, "##\u0391": 28315, "Golf": 8206, "neglected": 16778, "hip": 5110, "##LS": 15928, "Certified": 25777, "Mary": 2090, "1898": 5381, "check": 4031, "##lle": 4838, "scholarly": 13527, "##500": 22682, "Session": 18012, "Latino": 6897, "circuit": 6090, "##liers": 12996, "polls": 15995, "toast": 17458, "##chord": 27874, "trusting": 22798, "##fill": 18591, "sprung": 25242, "wide": 2043, "Tanaka": 24128, "sitting": 2807, "##fair": 19803, "Bears": 10169, "realism": 18990, "62": 5073, "Winners": 8793, "bonded": 23781, "Corp": 13619, "##urs": 7719, "1893": 5843, "policy": 2818, "##erve": 22552, "Ce": 24664, "olds": 25343, "creative": 6228, "##sique": 24808, "##ures": 10374, "##pie": 15418, "toxicity": 25954, "##xham": 23384, "Dodge": 14205, "calculation": 19218, "##mizing": 25596, "monument": 7020, "##yman": 13276, "##wned": 22071, "violations": 13957, "##yle": 12415, "##tized": 26300, "UCI": 15166, "Four": 3396, "Callie": 21894, "ribbon": 14253, "##tein": 7242, "Aleppo": 25629, "Hearing": 22179, "Uruguayan": 26191, "circling": 20774, "tasting": 21296, "##amp": 19471, "##\u00b1": 28168, "lifelong": 14497, "Cheyenne": 19095, "price": 3945, "broken": 3088, "inadequate": 15694, "animation": 8794, "included": 1529, "##FB": 24366, "accommodate": 8378, "stocks": 17901, "##70": 20829, "predictions": 23770, "262": 24280, "pulses": 27631, "##ppan": 28087, "breeze": 10647, "Ain": 12088, "respond": 6297, "harmony": 12659, "contribute": 8681, "test": 2774, "dryly": 22874, "Critics": 10320, "earned": 2829, "generators": 18572, "1919": 3688, "moonlight": 15743, "ironic": 22564, "caution": 15597, "simulcast": 22820, "IT": 9686, "dwell": 26812, "witness": 7737, "Jersey": 3308, "channel": 3094, "Pakistan": 3658, "\u0647": 591, "yard": 3723, "methodology": 18576, "##c\u00e9": 27891, "Copenhagen": 9409, "cellular": 14391, "Problem": 21710, "unknown": 3655, "nearest": 6830, "identical": 6742, "guard": 3542, "sampling": 18200, "without": 1443, "##ulp": 20510, "combines": 14215, "graduates": 11529, "fusion": 11970, "flame": 9925, "##rick": 8053, "topology": 22411, "NAS": 25165, "Haley": 17703, "not": 1136, "1852": 8414, "tournament": 2348, "satisfying": 18330, "uranium": 16410, "##\u30ac": 28831, "frames": 11382, "between": 1206, "Ptolemy": 26262, "2002": 1617, "offer": 2906, "##oc": 13335, "Lennon": 14859, "##gling": 10134, "hers": 4364, "bottles": 11282, "side": 1334, "acoustic": 6659, "Qaeda": 20205, "##uated": 13567, "Games": 2957, "Broad": 16943, "org": 8916, "nickel": 20403, "Electricity": 23017, "\u4f8d": 989, "thence": 26972, "communist": 8356, "investments": 12372, "pictured": 17066, "##\u540c": 28894, "password": 25241, "Nagar": 18704, "Compton": 20110, "disposition": 25622, "integers": 27264, "energy": 2308, "##loy": 26179, "fair": 4652, "barn": 9328, "1876": 6789, "structural": 8649, "bombed": 20812, "survived": 4399, "Circuit": 7887, "Reed": 7527, "Magic": 6734, "artificial": 8246, "preserves": 20421, "garden": 4605, "superior": 7298, "Revolution": 4543, "##isan": 21599, "April": 1364, "##ola": 5326, "##une": 10038, "him": 1140, "##rissa": 26509, "Yong": 23816, "##arte": 26579, "novel": 2281, "Translation": 19996, "##unted": 13153, "unacceptable": 24726, "##\u308b": 28821, "female": 2130, "Claus": 20804, "closes": 15336, "##hov": 24922, "Point": 4221, "##ppel": 24756, "Quartet": 11861, "films": 2441, "tale": 8144, "dim": 12563, "\u0435": 480, "ignition": 20447, "1767": 23714, "Democracy": 12470, "trumpet": 10273, "##lizzard": 24002, "gambling": 13376, "\u2286": 866, "##\u0435": 19692, "hymn": 19978, "##ring": 3384, "Chao": 26168, "##zhi": 23239, "##resses": 26628, "shareholder": 20769, "symptoms": 8006, "##bles": 8350, "##yas": 13358, "##pec": 25392, "proud": 6884, "execution": 7581, "shrub": 16965, "ace": 20839, "cyclists": 25999, "reef": 18939, "Leipzig": 11212, "##week": 21394, "Genevieve": 26905, "\u05d4": 539, "##38": 23249, "##upation": 26392, "Writers": 10269, "\u6c34": 1048, "##lient": 19526, "Pizza": 26091, "curves": 10642, "unnoticed": 25649, "\u021a": 351, "Fifth": 9638, "stabbed": 13699, "Automatic": 24842, "Wu": 8769, "##uts": 10793, "phenomenon": 9501, "Saturn": 15476, "Sergio": 15720, "achievement": 8337, "Older": 26694, "zipper": 26074, "highlight": 13426, "Versailles": 19787, "Mus\u00e9e": 21808, "bird": 5285, "##mm": 6262, "Yunnan": 23967, "##ont": 9921, "commenting": 18912, "affected": 4634, "##hey": 24679, "Armand": 22276, "Viper": 24010, "marsh": 22295, "##gic": 11007, "##ables": 15759, "Church": 1722, "##ug": 9610, "prolonged": 16639, "##fie": 17569, "impulse": 18623, "compensation": 9806, "pots": 21917, "decommissioned": 15440, "D\u00fcsseldorf": 19822, "experienced": 4531, "MW": 13277, "Duchy": 13019, "Jonathan": 4947, "##gue": 7222, "barriers": 14317, "fairly": 6751, "##vening": 24248, "implicated": 22512, "complain": 19073, "mercury": 22617, "sold": 1962, "##backs": 11713, "##VP": 22819, "buzzed": 23697, "theatre": 4041, "halted": 12919, "Ronan": 20320, "sts": 9912, "##mann": 4119, "##ign": 11368, "Hole": 16535, "banning": 26380, "##wise": 15868, "127": 13272, "EA": 23616, "##nova": 14570, "CDP": 8170, "##lator": 13389, "serial": 7838, "codes": 9812, "Bacon": 17887, "##uve": 19581, "established": 1628, "\u7701": 1060, "Nielsen": 13491, "##ivers": 25105, "Carla": 18301, "stamped": 23245, "actions": 3721, "jail": 7237, "circulated": 18921, "##ara": 4626, "warrior": 8229, "##quence": 25113, "Alessandro": 19334, "##\u0393": 28317, "shouting": 11500, "\u20a4": 835, "Holmes": 8775, "surveyed": 13186, "##mogeneous": 28008, "Moor": 20973, "homosexuality": 18160, "##\u010di\u0107": 22147, "pension": 12966, "Cherokee": 14246, "##bic": 15421, "sort": 3271, "Alt": 14983, "pursuits": 27305, "glared": 9090, "denotes": 16699, "unusual": 5283, "Sir": 2203, "charts": 5896, "Tropical": 13536, "##vi\u0107": 10225, "blended": 22357, "blocking": 11016, "relating": 8616, "largely": 3494, "hate": 4819, "##ech": 11252, "Mountain": 3757, "##\u1ecb": 28652, "withdraw": 10570, "printed": 5757, "##her": 4679, "##turn": 23238, "sending": 5416, "travel": 3201, "paragraph": 24950, "privacy": 9909, "jealous": 10282, "reproductive": 17505, "King": 1624, "##unts": 17430, "##cor": 19248, "struggle": 5637, "journal": 4897, "lobes": 27645, "denial": 16926, "Mace": 28013, "flows": 5611, "##iam": 18331, "Frontier": 13984, "##ction": 5796, "Rice": 8859, "promotes": 14710, "stretched": 6572, "197": 21764, "supporters": 6638, "tomb": 8880, "multiple": 2967, "Chevrolet": 15348, "profitable": 16244, "torque": 18756, "##rong": 16822, "##\u4e8b": 28874, "creation": 3707, "Legislature": 10461, "reform": 5851, "##.": 28138, "##lify": 22881, "broadcaster": 12689, "Polly": 18905, "risen": 15495, "Wagner": 10171, "matrix": 8952, "hollow": 11134, "adorable": 27627, "MMA": 24062, "##lved": 25043, "ruined": 9832, "Forbes": 10754, "##\u00bc": 28176, "T": 157, "##ients": 24767, "possessive": 25254, "correspond": 18420, "maritime": 12657, "Marianne": 21659, "dressed": 4462, "##\u0f44": 28589, "impossible": 4763, "afford": 8658, "_": 168, "investigated": 10788, "reputed": 25153, "silly": 10729, "Jaya": 27368, "saying": 2157, "##oud": 13431, "##tam": 20284, "\u05e6": 554, "1980": 2253, "##vian": 10644, "terminus": 7132, "tram": 14172, "decreasing": 18326, "Bahamas": 18242, "lifetime": 7218, "##avelin": 25790, "op": 11769, "Villa": 8064, "Herrera": 26292, "Beaux": 24651, "attack": 2035, "razor": 20015, "##kley": 19490, "##ovsky": 22933, "shortages": 25630, "imply": 21276, "Tuesday": 9667, "golfer": 23564, "##II": 12738, "massive": 4672, "Ages": 9325, "242": 24899, "shouldn": 5380, "##nus": 9299, "##\u0621": 28470, "mice": 14105, "50th": 13163, "##ytic": 23894, "shone": 15515, "Gemma": 20916, "##TP": 17433, "suitable": 6736, "##aven": 24134, "Equal": 26933, "evergreen": 27818, "Electrical": 13779, "Confederation": 13052, "##\u0baf": 28578, "Alps": 14316, "monstrous": 27000, "##eni": 21462, "traitor": 20365, "##cate": 20127, "Hot": 4126, "##\u01b0": 28265, "fork": 13097, "differential": 12630, "park": 2493, "##ora": 6533, "pipes": 13655, "##\u795e": 28957, "obvious": 5119, "Voice": 7900, "\u5357": 995, "finite": 10996, "Nice": 8835, "Levant": 27728, "##oop": 24064, "2005": 1478, "Method": 20569, "##ays": 22979, "##gering": 27910, "3D": 7860, "battle": 2321, "monuments": 12449, "crafts": 22009, "tone": 3586, "menacing": 27242, "1969": 2540, "##del": 6738, "##FF": 17515, "##oint": 21506, "asserted": 14043, "nets": 26188, "Christophe": 26921, "scream": 7015, "##ie": 1663, "chart": 3481, "##gata": 18708, "Islam": 6489, "subdued": 22566, "Erwin": 24652, "panels": 9160, "Fernandez": 24840, "Jocelyn": 26653, "panel": 5962, "##nage": 17224, "represents": 5149, "Fairchild": 27345, "floors": 7849, "assault": 5937, "##\u00e1k": 24154, "Sally": 8595, "Flash": 12346, "##ndo": 13645, "ejected": 25292, "branch": 3392, "shove": 15909, "[PAD]": 0, "##balt": 26443, "\u99ac": 1085, "Cry": 15586, "Wise": 16089, "Marino": 18940, "hang": 7311, "##ert": 7340, "##zers": 26542, "commemorating": 23079, "##wife": 22267, "hopped": 18507, "##restle": 22713, "considerations": 19069, "map": 4520, "flush": 14991, "Destiny": 16784, "arts": 3959, "pope": 17460, "##ris": 4889, "##\u1d43": 28612, "Gypsy": 22153, "Marxist": 16583, "##yd": 19429, "##urance": 18054, "Softball": 26719, "\u03c1": 434, "Shelton": 24616, "Patrick": 3938, "\u304f": 900, "Ingram": 25885, "parole": 21122, "##kura": 24470, "##ca": 2599, "distribute": 17114, "27": 1765, "tanker": 24096, "agriculture": 6487, "elite": 8662, "42": 3565, "##roach": 20073, "##mans": 14761, "##omorphic": 23174, "repeatedly": 8038, "metabolism": 20443, "batsman": 14526, "##voke": 14638, "Crowley": 22804, "Case": 9060, "Electoral": 14282, "Graphic": 24318, "Sims": 20402, "##clave": 16768, "certain": 2218, "Snow": 8442, "went": 1355, "##\u043e": 16948, "Myanmar": 12820, "sessions": 6887, "##eria": 16386, "##cripts": 20506, "fitted": 6609, "Juno": 23359, "##:": 28140, "rectangular": 10848, "reach": 2519, "Cambodian": 27463, "##verse": 10840, "##rka": 23870, "institutes": 19077, "Commerce": 7873, "freely": 10297, "integrity": 12363, "##lars": 23502, "accepted": 3134, "operations": 2500, "ascent": 19079, "##\u02b0": 28297, "progress": 5070, "Fe": 11907, "##asis": 14229, "##\u0416": 28372, "beyond": 2894, "facilities": 3380, "kingdoms": 16685, "Cadet": 20306, "tugged": 10531, "##cal": 7867, "capita": 8008, "##ai": 3814, "##nik": 7923, "Tampa": 9720, "Duncan": 6809, "disappointed": 9333, "searches": 18806, "calculations": 17891, "faced": 3544, "156": 17801, "##style": 19994, "reading": 3455, "Compared": 22439, "##BM": 27616, "##\u1ef3": 28668, "Cade": 20426, "##rta": 16242, "Masovian": 26506, "\u10dc": 702, "posthumous": 22691, "intervals": 14662, "Celebration": 22677, "Journey": 12015, "architectural": 6645, "Clare": 11148, "retrospective": 18675, "helmets": 26472, "91": 5539, "unexpected": 9334, "Haitian": 23595, "progresses": 25541, "Religion": 11893, "expands": 27903, "##storm": 18251, "swing": 8046, "Looks": 15218, "pupil": 11602, "synagogue": 17452, "movement": 2230, "##lihood": 26596, "feeder": 27026, "Belfast": 10189, "Chess": 11503, "Reno": 19139, "1999": 1729, "Massacre": 20507, "Works": 5853, "Traffic": 15727, "##oni": 11153, "##ute": 6140, "##quiries": 24929, "Nash": 10544, "spins": 26670, "days": 1552, "Expressway": 15616, "Manny": 17381, "makeshift": 21324, "father": 1401, "Statistical": 12121, "casually": 13725, "##ltz": 23501, "\ufb02": 1095, "\u03ce": 445, "commit": 10836, "##heses": 18769, "Czech": 4833, "figured": 6101, "overnight": 12292, "Pearl": 7585, "progressive": 8706, "horns": 13011, "Mini": 14393, "knew": 1450, "\u00c1": 227, "inner": 5047, "rapidly": 5223, "acted": 5376, "Stores": 26811, "GO": 27157, "haul": 16238, "kicking": 10710, "##sma": 24557, "Homeland": 21725, "##logy": 6360, "lesbian": 15026, "##nob": 22360, "Beatles": 11581, "##\u1e25": 28630, "##lby": 14974, "\u10e0": 704, "assigned": 3346, "##CA": 11356, "marathon": 14147, "##ark": 23822, "kin": 15190, "Barry": 5631, "##ntes": 21713, "bank": 3085, "boxing": 10568, "##olate": 14995, "\u0446": 497, "doctoral": 12308, "##wamy": 27785, "*": 115, "mocking": 21701, "##yu": 9379, "roller": 14167, "teeth": 3307, "em": 9712, "assemble": 24945, "Ontario": 3717, "Booker": 18542, "attendees": 23150, "maneuvers": 27559, "Murder": 12082, "plug": 15244, "Policy": 7037, "compulsory": 16472, "counselor": 23550, "drawer": 13560, "unsuccessfully": 11586, "Collin": 24565, "seduce": 26317, "##ura": 4084, "delegation": 11703, "awaiting": 16794, "Jaenelle": 22755, "\u00b1": 212, "punish": 17912, "fringe": 22164, "Consort": 27765, "Royce": 15466, "Heaven": 7830, "rental": 13519, "quote": 15882, "gleaming": 20353, "157": 18611, "Consider": 25515, "Elliot": 11825, "##ze": 3171, "Russo": 18182, "##charya": 24396, "Everyone": 6064, "referendum": 9905, "##HD": 23527, "##rive": 17389, "##won": 16732, "Presidents": 19279, "##\u592b": 28905, "sermon": 24353, "Kent": 5327, "##\u0441": 28403, "Guatemala": 11835, "1758": 17922, "##chy": 8992, "firms": 9780, "organizational": 15610, "\u0645": 589, "highway": 4083, "bug": 15430, "coordinated": 15245, "They": 1220, "##pu": 16091, "orchestrated": 26383, "##\u1e6d": 28639, "livery": 21193, "Shop": 13125, "proposals": 10698, "Genus": 17763, "##vous": 11944, "##ided": 10517, "amongst": 5690, "streaming": 11403, "husky": 24418, "block": 3510, "goal": 2273, "##fu": 14703, "heck": 26913, "##cake": 19453, "trilogy": 14927, "1850": 7493, "##fying": 16877, "mushroom": 25590, "##\u00e9ra": 25570, "refer": 5991, "##mpt": 18378, "[unused12]": 12, "##gly": 18901, "##bound": 8346, "##iol": 19840, "musical": 2696, "Aden": 17533, "Sawyer": 14564, "##ocytes": 26431, "Lady": 2876, "remarkably": 19957, "reason": 2255, "Overseas": 18624, "journeys": 24452, "sometime": 9961, "##citing": 24254, "Lawn": 26189, "Luxembourg": 10665, "deal": 2239, "##sty": 13913, "##erland": 23921, "broadly": 14548, "stubborn": 15437, "##met": 11006, "cubic": 12242, "intervention": 9108, "Rocks": 17198, "forthcoming": 18394, "hardness": 26902, "Inc": 3561, "Agriculture": 8273, "counters": 27633, "WCW": 27189, "##\u057f": 28434, "\u00c7": 232, "war": 1594, "induced": 10645, "defenders": 15024, "ministerial": 25672, "Macquarie": 26828, "Halle": 22867, "Clarkson": 20177, "##ness": 1757, "AU": 21646, "Sorry": 6502, "Transit": 9972, "Live": 3374, "##cher": 6072, "##^": 28150, "negotiating": 21262, "achieving": 11190, "##card": 10542, "##yun": 14935, "\u092d": 618, "##ges": 7562, "affordable": 19017, "##rsa": 24129, "##OT": 14697, "analyzed": 17689, "ideal": 7891, "1690": 27899, "##bor": 12207, "radiating": 26120, "##\ufb02": 28988, "yellowish": 19238, "current": 1954, "infant": 11551, "Indiana": 4456, "EMI": 13435, "##ckle": 19053, "Christoph": 23607, "##lta": 23934, "##vade": 27923, "magnetic": 8364, "Rollins": 26255, "rejected": 5164, "palace": 5717, "encouragement": 17568, "Ordnance": 19369, "papal": 16701, "Nat": 15857, "bamboo": 19062, "##ief": 19436, "collaborators": 24146, "Pan": 6991, "Dangerous": 20924, "successfully": 4358, "gaining": 8289, "##ats": 9971, "##\u01d0": 28267, "noted": 2382, "Editor": 9057, "Damascus": 17065, "Delaware": 8056, "borrowed": 12214, "racism": 16654, "Caracas": 23947, "combustion": 18785, "dorm": 22181, "\u010c": 284, "mentioning": 20368, "##marine": 19845, "802": 26758, "Palmer": 8450, "##bius": 19071, "pushed": 2873, "sauce": 14313, "slap": 15933, "acre": 7583, "Bermuda": 13906, "famine": 20859, "##\u02d0": 28306, "saved": 4987, "##chard": 16657, "rainforest": 24369, "##oper": 19807, "stallion": 24434, "attachment": 15708, "worm": 19686, "following": 1378, "##ting": 1916, "Nottingham": 11330, "Gloucestershire": 16832, "18th": 4186, "gang": 6939, "elected": 1809, "Jim": 3104, "therapist": 22573, "-": 118, "\u09a7": 651, "commotion": 27846, "##\u00a8": 28162, "Frank": 2748, "##urier": 16706, "##\u00ff": 28211, "Fowler": 15738, "compiling": 24615, "Bey": 24896, "families": 2073, "berries": 26571, "##\u30d6": 28854, "##astic": 25066, "profile": 6168, "Carole": 27422, "##uz": 14875, "Kosovo": 11494, "hears": 15953, "Hawk": 11906, "accumulation": 23168, "Gathering": 26532, "\u00b5": 216, "\u5cf6": 1022, "##bull": 17719, "discussed": 6352, "Stamford": 24944, "1827": 12445, "##bell": 14545, "Grammar": 11803, "Ignoring": 27853, "motivation": 15710, "bays": 15520, "Ai": 19294, "##tius": 18392, "1905": 4761, "##ancipation": 25305, "stories": 2801, "Android": 13693, "withstand": 21043, "##uchi": 16643, "##\u66f8": 28929, "Piedmont": 20970, "##digo": 22039, "Mohawk": 25797, "ones": 3200, "nostrils": 16212, "##vied": 26889, "battleship": 21335, "Zhu": 16920, "##hound": 16930, "Marina": 11391, "Aiden": 15848, "##ium": 3656, "\u4e00": 976, "thief": 16529, "flushed": 13338, "##ienne": 18559, "British": 1418, "Pi": 21902, "shipped": 12212, "marking": 10079, "##activated": 21797, "painful": 8920, "winding": 14042, "Koreans": 27757, "##\u1ec3": 28649, "billed": 15954, "1745": 24088, "shore": 5781, "hole": 4569, "##\u1e33": 28633, "Wilkins": 25302, "Keller": 17158, "Hussain": 21984, "\u056b": 517, "Railroad": 5451, "internationally": 7460, "Madagascar": 12014, "rower": 24773, "axe": 16301, "pub": 11030, "passports": 23047, "##acher": 25750, "somehow": 5006, "Title": 11772, "heels": 8260, "proclamation": 22684, "packets": 27284, "Walsh": 10984, "recalling": 25839, "fencing": 20716, "welcoming": 20028, "underwear": 15082, "Quran": 23593, "exactly": 2839, "Probably": 10109, "petals": 17270, "Serge": 24575, "##ista": 11663, "##racy": 23557, "flagship": 10818, "congressional": 10974, "Revue": 27657, "Car": 8185, "spring": 3450, "appearance": 2468, "sex": 2673, "Flowers": 14122, "accusing": 18001, "##ki": 2293, "glide": 25701, "circumstances": 5607, "Kai": 13354, "recommended": 6315, "sadness": 12928, "##ots": 12129, "##rod": 13225, "USL": 24927, "\u05df": 549, "Bass": 7716, "blame": 7338, "Bharatiya": 27326, "wireless": 12784, "##\u0449": 28411, "celebrity": 10948, "researching": 22513, "##\u00edo": 26804, "tumors": 24309, "published": 1502, "compliment": 21215, "##nine": 20677, "##cilla": 23694, "Tucker": 9594, "rule": 3013, "designation": 7970, "crowds": 13484, "Silver": 4826, "501": 17196, "Called": 20469, "orthodox": 23808, "compounds": 10071, "fuselage": 13959, "Newmarket": 25000, "##\u21cc": 28742, "guts": 22075, "##phic": 21990, "##elling": 25518, "Prentice": 26323, "lens": 11039, "##\u0636": 28487, "authorities": 3912, "logging": 17844, "##pating": 19167, "federally": 26129, "wrestling": 7325, "Sven": 23468, "36": 3164, "wall": 2095, "Regis": 25510, "mitochondrial": 27850, "N": 151, "##asperated": 27423, "FDA": 18762, "dick": 14458, "skill": 7864, "comforting": 17526, "club": 1526, "1754": 25109, "both": 1241, "##istic": 5562, "Yahoo": 23535, "Africa": 2201, "lets": 11446, "drawing": 4619, "Yourself": 26379, "monitor": 8804, "Armenians": 22204, "##weiler": 23768, "Alberta": 7153, "midfielder": 8852, "Archdiocese": 14873, "##rave": 22116, "RAM": 20898, "Bucharest": 14806, "selections": 19674, "Kyoto": 16083, "Appeal": 13969, "##kers": 8811, "Ferris": 26428, "folk": 5191, "gentle": 6892, "##metric": 13689, "##liptic": 24021, "Joaquin": 26261, "retreated": 11706, "NBA": 5803, "[unused59]": 59, "attract": 9781, "Help": 12056, "Musa": 27389, "respectively": 3569, "tipped": 11213, "totally": 5733, "watches": 12642, "Stars": 6200, "nominate": 26366, "intellectual": 8066, "mayor": 4398, "known": 1227, "\u0baa": 673, "##gawa": 14612, "latitude": 18579, "Siege": 14214, "##nds": 15613, "particles": 9150, "wilderness": 15211, "bracelet": 21982, "combined": 3490, "Myers": 14311, "##rad": 9871, "muscular": 14310, "\u0177": 334, "6": 127, "products": 2982, "renamed": 3286, "feels": 5115, "\u2217": 852, "surveillance": 10900, "organizer": 22007, "Audience": 23590, "##titis": 27659, "##blast": 27184, "screened": 12468, "##ulation": 6856, "lingering": 16329, "Stratford": 19011, "surgeon": 10690, "Betsy": 24903, "##ries": 3377, "blues": 9274, "au": 12686, "tents": 19544, "phrase": 7224, "##cius": 24869, "##\u03bf": 28351, "##\u026a": 28283, "##ignment": 24571, "Photography": 12954, "##\u00fcck": 24116, "rhetoric": 21933, "NC": 14056, "saint": 10916, "##llin": 23824, "municipality": 2667, "amalgamation": 25016, "mirrors": 15700, "Overall": 8007, "centralized": 25864, "sensory": 19144, "##olis": 25694, "voter": 16977, "\u1d43": 709, "continental": 10998, "destroyed": 3072, "##rations": 26720, "greater": 3407, "\u041a": 457, "basket": 12916, "peculiar": 15404, "##ts": 2145, "##olia": 26578, "##\u30a6": 28827, "Girls": 4808, "BS": 21948, "Lucas": 5675, "Slavic": 14331, "Belarus": 12715, "##sons": 22966, "##alytic": 23672, "commodities": 26279, "pressure": 2997, "##RS": 8900, "Charge": 24510, "Bills": 17651, "AG": 14731, "prepared": 4029, "Norse": 16152, "##icle": 26726, "disasters": 21887, "televised": 14463, "heroes": 10962, "Pulling": 22706, "\u010f": 286, "##ination": 9400, "aloud": 13934, "coupling": 22728, "Organ": 20383, "translations": 12825, "Joe": 2658, "Meeting": 12505, "invites": 20384, "giants": 21170, "##worthy": 13849, "disturbing": 15958, "Croix": 20719, "Sabrina": 24250, "Pearson": 13079, "noticeable": 19178, "kneeling": 19765, "ridge": 8699, "Cretaceous": 19605, "manufactures": 26441, "overseeing": 21661, "opposition": 4078, "witch": 8288, "trophy": 11073, "Bangladesh": 6735, "##agu": 28026, "lent": 20283, "fleet": 4535, "causes": 4680, "repeal": 26228, "##hp": 16194, "pieces": 3423, "proposed": 3000, "\u1d40": 708, "equal": 4463, "##hur": 26033, "##wer": 12097, "route": 2438, "lay": 3191, "lunged": 19070, "feature": 2672, "Austen": 27165, "broadcasters": 27271, "##scribed": 25626, "genus": 2804, "##\u0423": 28384, "Queen": 2454, "refugees": 8940, "event": 1856, "goose": 20398, "Visual": 12071, "##tine": 12569, "plantations": 16666, "gathered": 5260, "BA": 12465, "Suez": 24436, "##\u0bbe": 28582, "implementation": 7249, "Sinatra": 21396, "charming": 14186, "##oodoo": 25053, "black": 1602, "##ove": 18122, "##\u00eds": 16928, "task": 4579, "draped": 16006, "##pi": 8508, "Afghan": 13099, "##sex": 23152, "Official": 9018, "##ttle": 16257, "Yu": 10684, "sack": 14204, "\u0441": 492, "Hoffmann": 27505, "rests": 17808, "Atlas": 12974, "##plate": 16671, "##science": 22274, "fight": 2147, "##volving": 24828, "##sh": 2737, "Featured": 27207, "Ministers": 15102, "\u300d": 890, "taut": 24609, "1781": 17870, "nightmares": 18118, "poem": 5510, "##ented": 22666, "failed": 2604, "sucked": 8286, "association": 3852, "Upon": 4352, "Orchard": 23939, "Too": 6466, "Brewster": 25673, "derivative": 14478, "sampled": 20744, "1840": 8535, "Notes": 8797, "Madrid": 6331, "glorious": 18127, "Rani": 24202, "flexed": 27292, "##\u060c": 28469, "##\u30a3": 28825, "latest": 6270, "Anne": 3967, "wouldn": 2010, "##60": 16480, "Rosario": 19274, "gasped": 8140, "##hr": 8167, "Beyonc\u00e9": 24041, "version": 1683, "Yugoslav": 12433, "##ours": 24453, "over": 1166, "inviting": 16067, "clit": 19393, "intercepted": 17771, "beaten": 7425, "Homer": 12353, "##rab": 17952, "##uck": 8474, "MLS": 17388, "Squadron": 3837, "Ross": 5104, "##ificant": 18772, "##ase": 6530, "Jing": 25837, "41st": 27203, "bachelor": 8091, "documentation": 14371, "VIP": 24425, "##FS": 17691, "Rather": 11056, "Archives": 12422, "nitrogen": 15385, "##odus": 25405, "##conscious": 27307, "Wisdom": 22960, "Railways": 9058, "biting": 13602, "Bloody": 17921, "begged": 13308, "##gia": 9037, "##\u1ea5": 28642, "##ibility": 7706, "swept": 6769, "completed": 2063, "Whoever": 20834, "##oked": 27499, "Gibbs": 16556, "telegraph": 22821, "parties": 3512, "spans": 15533, "##yt": 25669, "greatly": 5958, "Bohemia": 17984, "##28": 24606, "Michigan": 3312, "[unused14]": 14, "##lops": 22101, "engineering": 3752, "resisting": 26337, "USSR": 10183, "Beneath": 23319, "Control": 6342, "Corey": 19521, "oversight": 20051, "Wentworth": 22541, "##lding": 12918, "resemblance": 14634, "##\u65b9": 28925, "analyses": 18460, "premiership": 18262, "power": 1540, "entertainment": 5936, "shotgun": 15210, "Angelica": 23262, "reliability": 17104, "centuries": 3944, "Republicans": 11115, "##them": 25962, "##\u00e8ge": 26650, "Elliott": 9657, "reconstructed": 15755, "minors": 21675, "Sr": 8731, "migrate": 25572, "Markus": 26085, "##CF": 27783, "Rudolf": 12995, "\u1d57": 718, "Heather": 9644, "##each": 17269, "kept": 2023, "turkey": 25138, "Handball": 25283, "Maharashtra": 12626, "Chesapeake": 22907, "##\u041e": 28379, "trash": 13151, "1824": 11638, "\u1ef1": 765, "##rudge": 27577, "booked": 18951, "\u0160": 322, "unity": 11721, "commissioned": 4156, "Region": 4171, "flavor": 16852, "##\u5b89": 28909, "##eries": 15297, "Porto": 14333, "reissue": 19654, "Nova": 6584, "transmissions": 25436, "clicking": 25600, "proportion": 10807, "accompanied": 4977, "##aded": 17535, "Appeals": 12566, "marries": 22029, "##ther": 8420, "intervene": 20406, "Kiran": 24967, "chase": 9839, "##sford": 20176, "exports": 15765, "flutter": 27471, "Brave": 20853, "advantage": 4316, "so": 1177, "Busch": 16773, "Billy": 4224, "coastline": 16783, "winced": 16433, "Mansion": 18239, "ensembles": 24957, "Lewis": 3726, "tourist": 7798, "vinyl": 9744, "\u30b0": 941, "Cobb": 18358, "##hall": 8897, "Effects": 23009, "drugs": 5557, "fielded": 23142, "compares": 26153, "Chip": 20379, "\u06af": 601, "chip": 11451, "##oria": 16420, "readers": 8460, "##estone": 22971, "##bul": 27515, "aired": 4086, "##fication": 11531, "##rar": 22190, "Plate": 15930, "trillion": 27005, "diabetes": 17972, "##erated": 20725, "ours": 17079, "##lving": 25115, "Nobody": 9913, "##uintet": 19473, "\u00b4": 215, "##uch": 9827, "exists": 5903, "Casper": 27950, "\u2660": 876, "flipping": 21547, "contracting": 26706, "Vince": 12279, "##\u00a5": 28160, "bows": 24179, "fellows": 27465, "DNA": 5394, "influential": 5918, "expanding": 9147, "##loom": 13853, "Farmers": 19506, "contempt": 18875, "moth": 5330, "civilization": 12442, "melody": 11961, "Wolverhampton": 21900, "##le": 1513, "##ali": 10584, "Ruby": 11374, "shark": 15623, "Don": 1790, "##ailing": 26753, "clothing": 5413, "##\u30df": 28857, "Reeves": 19481, "specialists": 18137, "crops": 8592, "Antony": 17289, "municipal": 5186, "glaciers": 25625, "##\u03c3": 28354, "curled": 7787, "tan": 15925, "Resource": 17282, "##cross": 17414, "Willy": 17624, "Lea": 12958, "##mei": 27750, "Yukon": 21684, "programmer": 23981, "##ovo": 18105, "\u0576": 521, "##lug": 16693, "surrender": 7906, "\u093e": 628, "sunk": 10406, "4th": 3492, "Mitch": 11942, "Vocal": 15922, "##hisky": 23395, "##lamour": 23823, "Geoff": 15620, "dangers": 18552, "deepened": 22047, "##berry": 6614, "##lard": 26531, "1971": 2507, "Boys": 4760, "branches": 5020, "calm": 5017, "doesn": 2144, "grazing": 16747, "aquarium": 27496, "demonstrates": 17798, "coin": 9584, "equality": 11986, "##rlene": 25140, "sources": 3509, "heats": 21247, "Gina": 18943, "##rson": 15379, "Sick": 27056, "##rist": 12937, "aid": 4256, "##46": 23435, "negatively": 21598, "mute": 26782, "divorce": 8126, "vice": 4711, "freeway": 14373, "##bur": 19364, "ad": 8050, "DSO": 25577, "##nery": 16227, "##orn": 8456, "Ad": 24930, "ache": 12953, "Alfredo": 21269, "Libyan": 20914, "baron": 26347, "1940": 3020, "Isa": 27334, "Hop": 12965, "##\u1d52": 28619, "Melissa": 9350, "holiday": 7946, "CIA": 9878, "athletics": 11645, "bio": 25128, "Theodore": 10408, "Nepal": 7795, "abbot": 19966, "##imation": 21517, "adults": 6323, "Voyage": 24131, "allegedly": 9273, "Sophie": 7800, "Jude": 12776, "1952": 3130, "Enforcement": 22990, "Bergman": 27644, "Alabama": 5359, "vein": 13585, "lifts": 14302, "Kensington": 19087, "precursor": 15985, "1804": 13419, "##ogenic": 17960, "terrorism": 12010, "Luca": 16730, "copper": 7335, "Dancing": 13234, "Advisor": 20567, "bind": 15600, "##green": 24448, "surveying": 23621, "##\u7701": 28953, "##\u09df": 28573, "##gel": 8863, "bartender": 18343, "##inated": 16868, "neo": 15242, "hidden": 4610, "Muller": 27418, "committee": 3914, "compilation": 5983, "blackness": 22942, "strategy": 5564, "destinations": 15309, "tracing": 19225, "##rrier": 20133, "\u0578": 522, "disputes": 12530, "preserve": 8333, "\u041e": 461, "Navy": 2506, "lasted": 5695, "IATA": 9595, "abandon": 11092, "##fighting": 24663, "adding": 5321, "reassure": 27879, "centimetres": 14421, "stint": 12249, "Impact": 13788, "Odessa": 21613, "dart": 23466, "bruises": 20514, "Season": 5623, "Strait": 12925, "Bed": 26573, "\u2044": 799, "##wart": 18320, "teenage": 11009, "geologist": 25166, "aka": 10908, "##cat": 12650, "heap": 19943, "Sleeping": 21751, "girlfriend": 6124, "1819": 12720, "sealing": 26787, "##\u00e8ne": 18265, "##yana": 23732, "launcher": 27966, "##\u00c7": 28185, "##\u4e0b": 28872, "Customs": 17050, "\u03a6": 410, "Holocaust": 12066, "##lium": 14635, "1797": 14643, "Regulation": 22575, "healthcare": 12520, "1888": 6079, "nationwide": 9708, "Bangladeshi": 27260, "##as": 2225, "Keynes": 24543, "rejecting": 25537, "##lad": 23850, "sliding": 7989, "bow": 7125, "personality": 5935, "worms": 23357, "Wolf": 6499, "Atari": 20694, "modified": 5847, "1815": 10569, "Metal": 9953, "Bernhard": 23627, "screwed": 15020, "1895": 5639, "Stockton": 20865, "##cule": 21025, "##ito": 8383, "##code": 13775, "advocacy": 13871, "##kker": 27587, "Trains": 20223, "##lls": 9872, "flicker": 20454, "\u65b0": 1031, "\u0272": 363, "ask": 2367, "submission": 13455, "freshwater": 13800, "##\u0438": 17424, "Noelle": 25425, "rhythms": 21890, "Volume": 6849, "##cca": 19495, "duration": 9355, "planetary": 23724, "[unused26]": 26, "##\u0142": 20671, "Commander": 4350, "squirrel": 25817, "Potter": 11434, "##using": 19578, "classroom": 10229, "Amy": 6279, "\u0646": 590, "Fellow": 6229, "generator": 14622, "psychologist": 16979, "##lement": 20041, "\u0bae": 674, "Kabul": 23321, "##pable": 20786, "sobs": 24523, "merits": 26207, "operation": 2805, "Oman": 17739, "index": 7448, "cop": 9947, "distinct": 4966, "generalized": 22214, "dot": 15645, "Abbas": 19166, "clinic": 12257, "59": 4589, "##mper": 20900, "##$": 28128, "Gotta": 26505, "\u00d7": 240, "\u0263": 360, "##asi": 17506, "leave": 1817, "##\u00e7a": 15331, "directional": 23317, "##rient": 27286, "1872": 7052, "##aco": 17312, "symphony": 19395, "charted": 12883, "192": 18868, "goods": 4817, "whenever": 7747, "##locating": 27970, "##\u028c": 28292, "linebacker": 17625, "\u10d0": 698, "##sson": 6598, "regulations": 7225, "danger": 5170, "Rich": 8864, "tumbled": 19749, "Golden": 3684, "MGM": 16241, "get": 1243, "Maria": 3406, "Insurance": 11037, "Equipment": 22897, "\u045b": 512, "twisting": 13769, "[unused83]": 83, "##kata": 24011, "##guin": 25913, "##thing": 25202, "##rille": 26327, "##ryn": 15023, "space": 2000, "##ixel": 28076, "letters": 3784, "tolerant": 26827, "Bulgarian": 7145, "##vated": 18588, "jewels": 21743, "##tive": 3946, "disturbed": 13162, "Honor": 7337, "##sistence": 19031, "##roc\u0142aw": 26524, "##\u1ee7": 28662, "survivors": 8771, "can": 1169, "permission": 6156, "Aboriginal": 10970, "lanes": 11348, "gorgeous": 10144, "\u02d0": 385, "\u9577": 1080, "translated": 4957, "mi": 1940, "pumps": 17309, "fitness": 12691, "Made": 10865, "McGuire": 26821, "walks": 7104, "pig": 13407, "Willard": 20816, "\u05b9": 533, "\u1ed1": 752, "a": 170, "serve": 2867, "rods": 22598, "##rmaid": 24744, "educators": 24937, "Dow": 26535, "siding": 20181, "firefighters": 27552, "Basic": 11568, "NYC": 17520, "##vention": 21987, "Champion": 4445, "##TI": 21669, "interfering": 27666, "1784": 17521, "suburb": 7144, "##des": 4704, "Ram\u00f3n": 23775, "keel": 25040, "Suns": 25412, "cooler": 16314, "suggestion": 10219, "winger": 18962, "Monaco": 15422, "females": 3032, "Cut": 15411, "##dad": 14810, "Hawthorn": 26493, "##\u00f3w": 6781, "unite": 20301, "candidate": 3234, "##rrell": 11862, "members": 1484, "circular": 8287, "confesses": 25528, "Ever": 10006, "financed": 14395, "ou": 20796, "Angelina": 26876, "Steve": 3036, "Wish": 18861, "chilled": 27278, "owed": 12390, "iTunes": 12145, "historian": 4864, "contemplated": 25835, "Breton": 17935, "\u0440": 491, "flourished": 19249, "1968": 2477, "retired": 2623, "passport": 14171, "Architects": 14650, "discussing": 10751, "##rrigan": 27613, "worker": 7589, "formulation": 22661, "Bow": 21107, "Employment": 18340, "Grande": 9109, "tunnel": 5280, "Rankings": 22732, "##standing": 17277, "Hollow": 19098, "blocked": 8192, "##wen": 10781, "corrected": 13808, "Buddy": 11999, "Calais": 25804, "Female": 9714, "##lded": 15414, "site": 1751, "ratings": 8532, "tornado": 13914, "newspaper": 3054, "Carnival": 16902, "Jameson": 24791, "paperwork": 18989, "PD": 27802, "General": 1615, "Believe": 12457, "severely": 8669, "cultivation": 13958, "[unused8]": 8, "##rf": 11931, "##d": 1181, "Unit": 6115, "##valence": 25388, "helicopters": 13614, "mountainous": 15806, "\u00b9": 219, "Studios": 5406, "##oja": 26840, "##\u05d0": 28445, "1830": 9200, "Dome": 17917, "Warrior": 12896, "##Leod": 18763, "##tman": 21544, "##viation": 27444, "Bordeaux": 17441, "beautifully": 19758, "##queduct": 26934, "comedic": 24504, "stuff": 4333, "nervous": 5604, "exercised": 19065, "##je": 5561, "connects": 8200, "##\u2086": 28713, "1989": 2056, "Roots": 20138, "Wow": 11750, "weakly": 19057, "##opus": 17298, "hectares": 8754, "strands": 15060, "Th\u00e9\u00e2tre": 18519, "reconstruction": 10442, "topped": 9065, "disposed": 24303, "Ma": 7085, "Coca": 19906, "nominal": 16251, "languages": 3483, "whom": 2292, "includes": 2075, "Citizens": 14649, "Runners": 15076, "ONE": 24497, "toll": 10484, "Shot": 18427, "allies": 8224, "##avan": 21714, "Down": 5245, "32": 2724, "learning": 3776, "##\u0131": 12262, "Auburn": 15096, "morning": 2106, "criticisms": 22316, "hail": 26943, "pointless": 27092, "charter": 7394, "\u00c8": 233, "Salvatore": 18746, "Utah": 6041, "\u03b3": 420, "Zimbabwe": 11395, "##iek": 24324, "poking": 24337, "##ungen": 25821, "##uction": 18305, "Ho": 9800, "uneven": 19616, "\u91d1": 1079, "##tty": 13932, "extinction": 16137, "Flores": 18827, "Avon": 17139, "miniature": 14547, "outfit": 11378, "ceilings": 23679, "bucket": 15398, "mosques": 26054, "splendid": 27120, "##reator": 26284, "##\u00fan": 26784, "Venice": 7433, "##TM": 19974, "##ske": 17726, "##VD": 23935, "manga": 9675, "Omaha": 13072, "Slim": 22191, "##paper": 26311, "spoiled": 22048, "##sies": 23434, "Her": 1430, "##erie": 15148, "cares": 16903, "Brewer": 24720, "memorial": 6768, "bi": 16516, "line": 1413, "##chang": 26236, "Dover": 14493, "Princeton": 8845, "spinning": 9754, "##verted": 17534, "stimulate": 26225, "mothers": 12694, "One": 1448, "activists": 10254, "terror": 8938, "1927": 3951, "fi": 20497, "diagonal": 22698, "performer": 9963, "##mus": 6308, "liberation": 14278, "dreadful": 25671, "##utter": 18553, "##rb": 26281, "selling": 4147, "takeoff": 22149, "Farrell": 17271, "ballet": 10921, "narratives": 26712, "bolt": 11538, "influences": 7751, "Never": 5091, "Raja": 10291, "##inus": 12376, "##antly": 12481, "warned": 6926, "Ridge": 7082, "knuckles": 15158, "Assam": 15984, "restoration": 6912, "##ad": 3556, "feather": 21013, "beliefs": 8810, "##\u032f": 28313, "knight": 11295, "[unused5]": 5, "##ntin": 26728, "119": 13606, "Bree": 24479, "breeds": 17530, "Jews": 4384, "Cruise": 16474, "##ods": 16476, "\u2096": 829, "possible": 1936, "constitution": 7119, "anybody": 11183, "regulated": 12521, "impress": 19726, "reared": 26235, "baby": 2963, "grabbed": 3182, "Napier": 23471, "dropping": 7367, "remnant": 22499, "##lava": 24330, "Dorothy": 9771, "##uity": 21028, "Sanford": 23266, "make": 1294, "facade": 10611, "1915": 4135, "expecting": 7805, "succeed": 9381, "snapping": 17332, "Activities": 21966, "immediately": 2411, "commemorated": 20858, "Pratt": 13528, "Edna": 23273, "sandy": 13366, "transaction": 13618, "##nda": 7807, "Boogie": 27593, "Rural": 4985, "blasted": 20527, "##lbert": 16985, "Milano": 23933, "stung": 21777, "offered": 2356, "portrays": 18801, "hem": 23123, "three": 1210, "##ughter": 26760, "##\u027e": 28285, "search": 3403, "##eal": 13003, "Trans": 13809, "elastic": 25460, "##kon": 19890, "containers": 17769, "consultation": 18261, "discusses": 16900, "false": 6014, "cameras": 8457, "##ffin": 16274, "visible": 5085, "##wski": 9587, "estates": 10015, "##nde": 11131, "##rio": 8558, "##oaming": 27303, "template": 27821, "Superior": 10905, "dull": 10884, "Simple": 16896, "engineered": 16419, "prevents": 17356, "##fulness": 21047, "##gonal": 22976, "##urage": 26800, "##och": 9962, "##rri": 14791, "Walls": 22211, "##rae": 20439, "congress": 16821, "monastery": 7197, "Joint": 7885, "TNA": 21940, "##bine": 16405, "Ernest": 8075, "1000": 6087, "initial": 3288, "oversees": 25312, "##hy": 7889, "\u30ec": 971, "##rocodile": 24198, "decorative": 12300, "limiting": 15816, "Fortunately": 18101, "buy": 4417, "judge": 3942, "tuning": 19689, "Millie": 21317, "##nstein": 18475, "eastward": 18953, "Pittsburgh": 5610, "percentage": 6556, "##nacht": 27416, "manipulation": 18776, "##lov": 14185, "##chi": 4313, "apex": 15764, "##pelled": 24015, "Lance": 11856, "##vary": 24022, "##safe": 27789, "utilized": 12750, "meaningful": 17119, "Malik": 15147, "##\u91d1": 28972, "tandem": 22090, "alone": 2041, "##\u0281": 28287, "oppose": 16315, "Soundtrack": 22349, "Men": 3401, "reportedly": 7005, "divisions": 5760, "caves": 12142, "##sia": 6370, "accustomed": 19292, "Stacy": 20072, "vapor": 23548, "desert": 6941, "lipstick": 28005, "consciousness": 8418, "Through": 4737, "Hal": 12193, "wage": 12634, "deposed": 19866, "Braun": 24317, "##\u4eba": 28878, "controls": 7451, "ethnic": 5237, "pits": 16187, "##me": 3263, "Colin": 6381, "genetically": 21989, "pounder": 22809, "RBIs": 26417, "horrific": 26651, "Lviv": 26681, "Goes": 15150, "##ole": 9016, "accelerate": 26872, "crude": 14699, "##habilitation": 27778, "inhabitants": 4131, "\u03a4": 409, "threat": 4433, "##ati": 11745, "##ike": 13012, "Rock": 2977, "##vil": 15655, "composing": 18031, "\u05ea": 558, "##uang": 25530, "pertaining": 22383, "erection": 14398, "##\u2071": 28703, "Gareth": 22100, "Gear": 20683, "permitted": 7485, "definitions": 16687, "Lund": 24232, "disqualified": 20200, "##AA": 11189, "##\u02bf": 28304, "##\u30b5": 28836, "##\u05e6": 28464, "CO": 18732, "##ran": 4047, "##i": 1182, "jurisdiction": 6993, "##mer": 4027, "Colour": 25809, "transcription": 15416, "limit": 5310, "Won": 9083, "medicine": 5182, "product": 3317, "##ckney": 24614, "guitarist": 5506, "railing": 16690, "disgusting": 22852, "poor": 2869, "##district": 26013, "screenplay": 10850, "##\u0986": 28540, "Oakland": 8847, "##ulu": 14693, "##horse": 16336, "Conner": 18938, "groom": 23799, "martial": 8317, "Name": 10208, "[unused67]": 67, "Fund": 6606, "pay": 2653, "publisher": 6654, "flute": 10284, "spray": 13477, "happened": 2171, "Sa": 17784, "ACC": 18396, "##arm": 20350, "Bucks": 22633, "Grady": 20747, "##Pad": 24300, "analog": 13022, "Animation": 15048, "1880s": 12931, "seat": 1946, "blend": 13390, "Send": 25929, "##\u1eaf": 28646, "1829": 11527, "##w": 2246, "according": 2452, "graduate": 4469, "##DR": 17308, "Granada": 17644, "youthful": 25708, "patents": 15674, "surprises": 22810, "Workers": 8736, "##\u099f": 28550, "neighbours": 18832, "banned": 7548, "Govt": 27327, "Yard": 13177, "Collegiate": 14329, "straps": 21702, "##powering": 26703, "tennis": 5538, "Pentagon": 25122, "\u02e3": 388, "Coronation": 22137, "flanks": 26435, "##hao": 22235, "\u06c1": 602, "Buddhist": 7558, "deer": 10064, "myth": 12849, "willingly": 19711, "tribute": 7529, "##warm": 18900, "drawn": 3795, "Industrial": 7080, "reveal": 7063, "try": 2222, "Maddy": 22838, "tablets": 20159, "ICAO": 19426, "coma": 19737, "##lace": 17510, "lineup": 10545, "Mead": 24700, "sensible": 25152, "##table": 8637, "severity": 20997, "Axel": 20575, "wishes": 8921, "entry": 3990, "##sten": 15874, "Photo": 21906, "Davey": 22618, "Ljubljana": 23835, "kidnapping": 16440, "##ble": 2165, "tempted": 17749, "##dr": 23632, "masonry": 20860, "shrines": 26723, "issued": 3010, "continuation": 14961, "Boat": 12936, "McKay": 17453, "minorities": 16130, "warmer": 18153, "baptized": 22162, "##gene": 27054, "sibling": 26563, "Taipei": 14512, "Quarterly": 19516, "rib": 23298, "striking": 8261, "Parliamentary": 10628, "1965": 2679, "Satellite": 16827, "returns": 5166, "Cannon": 16017, "armoured": 16267, "semifinals": 11499, "web": 5127, "Drummond": 20978, "17": 1542, "Carter": 5007, "estimated": 3555, "##rland": 20313, "Sony": 8028, "##\u00ec": 21409, "Agents": 28052, "\u056f": 518, "Thorne": 14872, "approached": 4685, "A": 138, "funded": 6264, "choose": 4835, "##coat": 17518, "spawned": 19897, "forefront": 26325, "attempts": 4021, "fists": 9993, "spun": 6964, "Sweden": 3865, "GT": 14965, "Hawaiian": 12314, "##inhabited": 27784, "Herald": 9707, "Beginning": 8404, "believes": 6616, "Bob": 3162, "crossing": 4905, "##bia": 10242, "Chicken": 18770, "outlines": 25854, "urges": 27169, "antibodies": 26491, "##ill": 7956, "seventeenth": 18032, "bids": 23733, "##\u10e1": 28608, "##die": 7782, "practically": 7892, "##pian": 22032, "advancement": 19024, "##MR": 21148, "runner": 6057, "conditions": 2975, "##mme": 12140, "Gabon": 25806, "redesignated": 16210, "##user": 19399, "folklore": 16106, "anchored": 15283, "loser": 19398, "##oise": 17724, "technique": 5531, "trams": 22539, "Shrewsbury": 19561, "##ili": 18575, "##zation": 8569, "\u0303": 390, "trim": 13373, "cautiously": 16828, "Nehru": 26373, "##Script": 27780, "nodding": 13393, "reflecting": 11636, "8": 129, "\u0165": 326, "Night": 3259, "Namibia": 16228, "##CU": 23520, "##ulous": 14762, "hormones": 23602, "amplitude": 25437, "##cchi": 27992, "##\u039c": 28325, "\u015b": 319, "Schubert": 27823, "ensued": 20530, "Weird": 24209, "##laced": 25094, "1854": 8023, "faces": 4876, "\u2194": 846, "##ania": 11262, "##rds": 15093, "##oes": 19270, "investigators": 17718, "comparatively": 22673, "G\u00f3mez": 21550, "Barclay": 26560, "photographers": 21083, "Harcourt": 25272, "Violet": 10826, "carry": 3564, "ethics": 13438, "uncommon": 14124, "infinite": 13157, "Leroy": 25335, "surveyor": 25646, "##\u00e2n": 27708, "Clinic": 18601, "twitched": 17848, "Merrill": 17247, "Imagine": 22449, "validity": 17782, "log": 9366, "##amon": 25902, "Chemical": 10957, "Jo": 8125, "inlet": 27036, "statistical": 11435, "Ranking": 13332, "clusters": 13687, "##signed": 16173, "awkwardly": 20714, "Pursuit": 23756, "##zzi": 15284, "Exempt": 19861, "Baku": 17987, "Davenport": 17352, "bleak": 26481, "##tras": 25352, "##m\u00e9": 25729, "Boer": 21929, "Claremont": 26537, "Granny": 23957, "##uro": 11955, "guilt": 8169, "lounge": 15238, "straightened": 11161, "Rover": 16823, "Jaguar": 21694, "\u2014": 783, "Watford": 24019, "##linear": 24984, "Gale": 19820, "appointments": 16323, "##lons": 22318, "##aled": 18121, "astonished": 26136, "Tobacco": 25159, "##oid": 7874, "it": 1122, "rings": 8374, "##\u0161": 10222, "Nathaniel": 14453, "lick": 19676, "lame": 25492, "filtering": 26299, "Prior": 4602, "1660": 19306, "Australians": 16646, "Brunei": 20249, "Hollywood": 4613, "Uh": 11205, "Daughter": 16039, "Specialist": 25607, "##rop": 12736, "Blood": 5657, "gear": 6990, "crystal": 8626, "##thy": 15644, "Boulevard": 8691, "irritated": 17072, "detained": 15474, "##ates": 5430, "Voyager": 26677, "defenses": 14192, "124": 13743, "clues": 17645, "##port": 4342, "ban": 8214, "junior": 4635, "Mohammad": 12460, "Darryl": 25389, "scoring": 3859, "coarse": 23137, "logs": 16959, "Evaluation": 27845, "##\u1ee5": 28661, "Performing": 14005, "que": 15027, "talent": 5939, "collaborating": 23365, "music": 1390, "285": 24053, "bastards": 26711, "chiefs": 16588, "concession": 18750, "archaeological": 8962, "##ceptor": 25979, "\u0451": 507, "saddle": 14783, "##\u05b6": 28440, "fill": 5475, "Vegas": 6554, "Buster": 21526, "##anche": 23742, "La": 2001, "impression": 8351, "##more": 4982, "1775": 14826, "##finery": 23011, "##liest": 23484, "jeans": 5831, "may": 1336, "##licity": 17432, "##rrer": 26875, "\u1e43": 732, "Brunswick": 8857, "Batman": 8622, "stronger": 5992, "##ful": 2365, "Kelley": 21282, "Naked": 21838, "Pe\u00f1a": 25273, "##\u05b4": 28438, "sacred": 8854, "ourselves": 9655, "Harry": 3466, "Malm\u00f6": 27501, "##lung": 24356, "##lies": 7875, "375": 19397, "lady": 5141, "seminal": 23046, "##atch": 25095, "Ella": 11915, "##\u0161a": 23834, "##lone": 25770, "10th": 5368, "Chain": 19589, "disturbance": 19019, "[unused81]": 81, "van": 3498, "vast": 6047, "laugh": 4046, "upset": 5737, "knocking": 10760, "Quincy": 17134, "logo": 7998, "anime": 9499, "Reich": 14994, "healing": 9523, "specialist": 9131, "##MB": 20660, "Priory": 20736, "ports": 9267, "##e": 1162, "acquire": 9703, "##rked": 23499, "Romano": 24897, "lately": 10634, "deposition": 23042, "##wes": 14291, "boiled": 19040, "their": 1147, "medicines": 26016, "Arch": 19797, "##ductory": 26739, "variously": 18995, "culminated": 18048, "words": 1734, "ethanol": 27236, "Siberia": 17991, "Mail": 11508, "doubts": 14351, "\u1d47": 710, "##\u00ed": 6212, "see": 1267, "composition": 5239, "manufacturers": 9263, "chancellor": 15046, "sweet": 4105, "##fluenza": 27206, "commercial": 2595, "conflict": 4139, "Dallas": 5043, "Domingo": 16540, "lifeless": 25581, "bending": 16571, "##Ms": 25866, "Atlanta": 5161, "##\u00da": 28195, "Magdalena": 27971, "Tasmania": 12484, "##erina": 18866, "vain": 18329, "predators": 15334, "possibility": 5417, "##lea": 19094, "thirty": 3961, "HQ": 17426, "user": 4795, "convened": 21419, "horizon": 11385, "orange": 5925, "axle": 19100, "small": 1353, "Exactly": 18342, "##nard": 20373, "##oan": 23516, "LLC": 11847, "hastily": 17132, "##olar": 21459, "Pyramid": 26910, "Astros": 24462, "\u1d64": 722, "glucose": 20636, "##sting": 19584, "shut": 3210, "tea": 5679, "outcomes": 13950, "Pact": 27175, "Ice": 6172, "roughly": 4986, "soda": 18402, "root": 7261, "accord": 22973, "deliberate": 16170, "revenue": 7143, "productive": 13909, "\u53e3": 997, "excluding": 14243, "reactor": 15056, "reward": 10703, "mon": 19863, "Annette": 25022, "passed": 2085, "clumsy": 26928, "Ein": 23922, "imagination": 10405, "institutions": 4300, "winning": 2183, "##ways": 8520, "Vietnam": 4357, "Papa": 14885, "401": 25182, "##uise": 15456, "ranch": 10804, "##ffed": 9845, "call": 1840, "handles": 17180, "continuity": 15126, "R\u00edo": 21683, "1839": 9796, "m": 182, "terrain": 9260, "miles": 1829, "##hom": 25453, "punishment": 7703, "best": 1436, "Trinidad": 11923, "##ael": 12060, "Latter": 20509, "Labs": 24621, "Din": 17228, "##sta": 8419, "##{": 28153, "upward": 10828, "defending": 6611, "Ukraine": 5231, "##mous": 15852, "pp": 4329, "deals": 8927, "1990s": 3281, "Contemporary": 6845, "residences": 15417, "invading": 19185, "kids": 4067, "rough": 5902, "writers": 5094, "##ugh": 6289, "##llers": 25029, "gazes": 26469, "gap": 7275, "inheritance": 13998, "nucleus": 14297, "verge": 18691, "pretend": 9981, "thrusting": 24386, "##43": 25631, "negotiated": 14071, "And": 1262, "Everything": 5268, "dove": 15811, "scale": 3418, "\u0f72": 694, "Memorial": 4136, "Rings": 22518, "Spartans": 27340, "stove": 18362, "##uni": 19782, "Heavyweight": 10251, "Hybrid": 27602, "##kushima": 27974, "\u3061": 909, "Basel": 14562, "Xu": 17584, "voyage": 10007, "Liberation": 10912, "Nonetheless": 16097, "##\u05e8": 28466, "Rams": 15183, "shoulders": 3221, "Samoa": 15850, "coincidence": 18264, "defunct": 12273, "Fang": 18602, "Bahadur": 24290, "12th": 5247, "sophisticated": 12580, "Madness": 24843, "similarity": 15213, "clutched": 13887, "##cs": 6063, "improvement": 8331, "airfield": 11897, "##ua": 6718, "##dicative": 26289, "alliances": 25012, "automobile": 11707, "captured": 3297, "Ash": 8603, "Aid": 15386, "##tec": 19000, "##zaki": 21150, "humorous": 15705, "disappointing": 16703, "Bethlehem": 21078, "##ville": 2138, "Communion": 27212, "systemic": 27410, "chloride": 21256, "\u0391": 394, "transforms": 24573, "pu": 23609, "Few": 17751, "##obbing": 22967, "highest": 2439, "Eric": 3601, "clinging": 19728, "##HP": 18104, "babies": 12237, "greatest": 4459, "sensation": 8710, "rpm": 14804, "##\u0282": 28288, "improve": 4607, "pound": 10074, "Reporter": 18096, "##otes": 27468, "##een": 9561, "SE": 12342, "Ramsey": 15828, "Lao": 21422, "Equity": 25083, "Alaska": 6883, "NBC": 6181, "prince": 6927, "Pirates": 11286, "Forget": 17323, "162": 19163, "join": 2866, "Amir": 22135, "surveys": 13634, "paralyzed": 25691, "somewhat": 4742, "prestige": 19846, "fictitious": 26732, "hard": 1662, "##MLL": 25210, "composer": 3996, "##ott": 15719, "Parkway": 14293, "##girl": 17001, "Piper": 12558, "hampered": 25454, "##jit": 23324, "Ramon": 19437, "skeleton": 15427, "Tears": 9846, "##nne": 10934, "##ezer": 23762, "##hab": 17266, "wrath": 23127, "movements": 5172, "m\u00b2": 6450, "phased": 24590, "##ities": 4233, "##pants": 21868, "##elles": 18840, "##run": 10607, "tongue": 3661, "Found": 17107, "sperm": 20479, "cuisine": 13994, "accreditation": 21653, "Wildcats": 21992, "strikeouts": 23318, "Inquiry": 24866, "Read": 15152, "Theater": 5978, "Tiffany": 14989, "surprised": 3753, "##tration": 18794, "chose": 4102, "##phony": 27716, "suicide": 5680, "##gi": 5389, "advise": 19961, "##nosis": 27078, "spike": 21644, "Foot": 13929, "pigs": 18348, "participants": 6635, "dusk": 24494, "Bowl": 5308, "##lton": 13464, "##IX": 19678, "\u01a1": 342, "##OD": 15609, "fronts": 25036, "##ngo": 18255, "viewers": 6827, "Hero": 9390, "vampire": 3980, "written": 1637, "tops": 15553, "mammals": 12905, "terribly": 18049, "residence": 4662, "Saw": 20318, "Maharaja": 24659, "fluids": 24024, "sentenced": 6874, "repeat": 9488, "struck": 4168, "Burlington": 16402, "Armenia": 9917, "troop": 14768, "gaze": 2806, "Lagos": 17883, "Sato": 26824, "decree": 11903, "##\u00e3o": 9290, "##\u6c0f": 28940, "Boxing": 16876, "Early": 4503, "Sing": 13315, "Motors": 13931, "climbing": 8259, "Secretary": 2909, "1871": 6899, "gravity": 9926, "Doyle": 11296, "Butch": 19504, "mac": 23639, "hence": 7544, "treaties": 19151, "triumph": 14558, "Cold": 7437, "Population": 10858, "##\u201d": 28692, "Brooks": 8084, "break": 2549, "southeastern": 9785, "capital": 2364, "Texas": 2245, "submerged": 14203, "##dalgo": 27128, "Empire": 2813, "##copy": 20739, "bitten": 21381, "Favorite": 22585, "Carlson": 24623, "plain": 6188, "##ulus": 11430, "\u0444": 495, "Dominique": 19553, "McGregor": 25812, "Freeman": 11818, "##bel": 8511, "who": 1150, "hitting": 6886, "collaborations": 19575, "evidence": 2554, "ample": 23336, "##ump": 15629, "flared": 15671, "sped": 18132, "##rcle": 24490, "logical": 11730, "30": 1476, "violated": 15079, "Ernesto": 24918, "Catholicism": 17164, "##L": 2162, "mob": 13221, "merged": 4564, "##mother": 15051, "Times": 2706, "rows": 10389, "##phy": 22192, "siege": 8098, "engined": 23391, "resolved": 10456, "13": 1492, "Cat": 8572, "fourteenth": 20872, "rowing": 18656, "room": 1395, "brewing": 23800, "##imes": 15370, "any": 1251, "Sheikh": 13609, "##itas": 23849, "##ryan": 25641, "Lord": 2188, "rural": 3738, "##ket": 22523, "millions": 9215, "##struction": 26372, "PGA": 14743, "Andre": 12971, "##nji": 21440, "sheath": 24561, "anyone": 2256, "Kashmir": 13705, "solely": 9308, "disaster": 7286, "\u1ecd": 751, "Transformers": 25267, "##rdy": 21366, "neighborhoods": 12073, "Islands": 3503, "Otis": 20579, "\u2265": 864, "Jane": 4074, "Parsons": 13883, "lieu": 27190, "screams": 12264, "submitted": 7402, "Oak": 8957, "##SD": 15203, "undefeated": 16467, "objected": 16894, "##hiva": 22268, "Petra": 23424, "##\u221a": 28748, "Abraham": 7752, "slaves": 6864, "G\u00f6ttingen": 26619, "Minh": 21481, "##pace": 12204, "Hungary": 5169, "Defensive": 21368, "prepares": 23133, "##\u751f": 28949, "spire": 23887, "machines": 6555, "earlier": 2206, "Holdings": 14575, "organism": 17102, "Vanderbilt": 18213, "##kini": 25009, "##sey": 8780, "##\u304d": 28792, "##nis": 7221, "Montana": 7976, "1992": 1924, "\u011b": 292, "Bengal": 7756, "whilst": 5994, "remnants": 11834, "bitter": 9178, "regent": 19611, "Freddy": 21051, "##icus": 14191, "relics": 19052, "##haven": 12842, "##erries": 22707, "stained": 9729, "recalled": 6901, "denominations": 18857, "##ulet": 20117, "Fallon": 17592, "WHO": 23750, "accounts": 5756, "aesthetics": 27456, "##mitage": 27811, "Pharmacy": 24774, "Roman": 2264, "prayer": 8070, "##read": 11613, "##dheim": 21934, "nicknamed": 10446, "pour": 11480, "mastered": 20881, "compare": 14133, "quickly": 1976, "Heinz": 18928, "Telecom": 25119, "cultures": 8708, "forgetting": 20608, "Netflix": 22989, "attention": 2209, "Venezuelan": 16128, "##tist": 12948, "baths": 26066, "Iranian": 7239, "libretto": 19535, "##jee": 24260, "##un": 3488, "Sussex": 9206, "Mental": 16725, "Qing": 13838, "ladder": 11413, "Viscount": 12897, "shall": 4103, "##itarian": 12403, "Goldman": 19085, "playing": 1773, "##link": 13255, "GA": 20173, "scenario": 12671, "pairing": 25942, "detectives": 23641, "Russians": 12677, "historical": 3009, "Thinking": 16204, "47": 3862, "predictable": 24017, "##ulge": 26272, "Freyja": 6491, "things": 1614, "frenzy": 27221, "organic": 7878, "Confederate": 7730, "##urers": 24990, "##lino": 26340, "Nuclear": 11560, "##post": 21341, "Lindsay": 12218, "Chapman": 11554, "##ah": 3354, "Beauty": 10764, "Taft": 21707, "##fic": 21361, "Campaign": 7988, "camping": 15973, "wingspan": 11564, "##pert": 17786, "contention": 21374, "##hun": 17315, "brigadier": 23965, "spent": 2097, "760": 27746, "nationals": 17160, "External": 22841, "153": 17777, "sire": 21558, "Fraser": 9156, "##night": 11683, "##ede": 15018, "gown": 12042, "popularly": 17413, "clinics": 20562, "Fool": 21935, "audit": 23097, "fulfilled": 18210, "Bolshevik": 27904, "confirmation": 15468, "Pain": 13304, "en": 4035, "Depot": 15525, "Los": 2238, "##\u00c9": 28187, "##\uc528": 28983, "Everybody": 14325, "serum": 23651, "reservation": 15702, "cathedral": 8846, "##kari": 20231, "\u2090": 824, "proceeding": 20793, "addiction": 15658, "renewable": 17216, "lines": 2442, "##uer": 10232, "chambers": 13065, "statement": 4195, "Above": 12855, "shear": 21660, "'": 112, "visited": 3891, "##nger": 11576, "indeed": 5750, "Mar": 9751, "Elise": 14945, "Ada": 19222, "Finn": 8994, "infamous": 15881, "translator": 12111, "turret": 15781, "duke": 16093, "abdomen": 14701, "Mecca": 25160, "NASA": 9085, "\u207b": 809, "contributors": 19492, "\u1eaf": 744, "Bennett": 7611, "Current": 9493, "convention": 6765, "significantly": 5409, "\u02c8": 384, "##cre": 13782, "squeezed": 7293, "Flora": 15527, "##rey": 12210, "Samantha": 11421, "##\u025b": 28279, "wit": 20787, "Salmon": 22144, "apply": 6058, "correction": 22590, "armies": 9099, "Amherst": 21618, "sympathy": 12775, "Augustus": 11740, "scarred": 25201, "conditional": 21152, "mates": 16195, "##EE": 27073, "Grandpa": 18103, "Hunter": 4242, "##\u4ec1": 28880, "Artemis": 20886, "##stop": 26645, "##yte": 14300, "##gne": 8376, "dormitory": 25565, "pursued": 9281, "\u1e29": 730, "##haft": 26484, "\u013e": 304, "contact": 3232, "Norwegian": 4236, "observer": 14440, "artists": 2719, "bones": 6476, "fertile": 16332, "mater": 23662, "Government": 2384, "##zel": 13430, "laboratory": 8087, "var": 15661, "##cer": 14840, "Fruit": 22490, "##\uc0ac": 28982, "forearm": 17284, "Sanctuary": 15206, "Iron": 5621, "originated": 7506, "Marian": 14789, "##rah": 10659, "Antarctica": 13116, "Lockheed": 18904, "\u0622": 561, "sharply": 8930, "\u00a32": 24155, "creating": 3780, "excess": 10116, "##rgy": 17292, "##meter": 19401, "loving": 9207, "liability": 15509, "\u03bc": 429, "Arizona": 4565, "Darkness": 13107, "neurons": 16993, "euros": 25921, "##emann": 26958, "##graphical": 25582, "departed": 7361, "##27": 24458, "Ren": 16513, "Ser": 19536, "IRA": 16561, "hardest": 20773, "Anand": 20556, "squares": 16004, "tingling": 26882, "Heritage": 5560, "\u30c0": 949, "##yler": 21944, "distances": 12424, "##led": 2433, "scheduled": 4533, "es": 13936, "primary": 2425, "temper": 12653, "enlarged": 12089, "capitalism": 20582, "##\u0159": 28242, "Nicholson": 18063, "978": 4087, "##nea": 25362, "Baylor": 26860, "pumping": 15486, "Crusaders": 24174, "Speech": 19656, "##vie": 9756, "##VC": 19076, "\u2026": 795, "singles": 3896, "cadets": 22943, "oblique": 23455, "##ceded": 26141, "##esh": 10654, "hour": 2396, "Norwich": 12867, "Blue": 2770, "Invasion": 20209, "fore": 24387, "bordered": 11460, "##pped": 10438, "cupped": 14168, "Protestants": 21516, "wraps": 21738, "criminal": 4771, "##ugs": 22188, "\u5ddd": 1023, "Central": 1970, "invasion": 4923, "Cincinnati": 7304, "pavement": 15823, "equity": 12288, "patrons": 14645, "adopting": 17827, "don": 1274, "tolerance": 15745, "##adores": 27217, "highlighted": 11634, "Type": 6902, "points": 1827, "carnival": 21446, "##ej": 21024, "\u1eed": 763, "174": 21223, "##evity": 25769, "courtyard": 10629, "functioning": 12641, "##ode": 13040, "AB": 16151, "Wet": 27855, "celestial": 25432, "sword": 4346, "Hitler": 7579, "##hou": 14640, "Reach": 26836, "Pier": 17006, "disgusted": 20524, "persuaded": 11879, "actors": 5681, "##lid": 17299, "foyer": 18297, "reliance": 24727, "##\u016b": 9798, "ominous": 26858, "##tting": 19162, "anchor": 8494, "##vid": 18312, "##dock": 16417, "##7th": 24151, "Educational": 11423, "glacial": 20666, "examination": 8179, "##ig": 6512, "L": 149, "Visitors": 22253, "marriage": 2742, "hits": 4919, "Presley": 18386, "##omb": 20972, "partners": 6449, "standards": 4473, "Alfred": 5492, "engagement": 8164, "reinforced": 11331, "smiling": 5278, "Doctorate": 24893, "liberated": 22241, "Susie": 26796, "Great": 2038, "/": 120, "limited": 2609, "descent": 6585, "secured": 6561, "Lock": 18292, "thanked": 16490, "evidently": 20178, "Nashville": 8029, "robe": 11580, "##utive": 27375, "Manuel": 7283, "\u5b50": 1014, "tail": 5287, "\u1ef9": 767, "Ireland": 2270, "##gan": 3820, "##razed": 18721, "maintaining": 8338, "\u208e": 823, "##lak": 28001, "affairs": 5707, "Belmont": 18672, "Provinces": 23478, "armored": 14085, "Roberts": 6444, "##taking": 17181, "Malaysia": 5355, "dates": 4595, "turbine": 16181, "##renched": 17902, "Li\u00e8ge": 23176, "##found": 27794, "Neil": 6003, "correspondence": 12052, "export": 10107, "folder": 22073, "washed": 8589, "Lynch": 11764, "displayed": 6361, "himself": 1471, "Carlo": 9503, "burial": 9278, "fat": 7930, "##mata": 23436, "steals": 16867, "##ington": 5541, "##uka": 12658, "endemic": 6850, "injuring": 25359, "Milo": 22644, "\u793e": 1063, "conservation": 7472, "gray": 5021, "flexible": 13156, "blackish": 24534, "96": 5306, "eye": 2552, "Bogot\u00e1": 27976, "##ld": 5253, "nineteen": 14834, "##ance": 3923, "knees": 4257, "Asylum": 24492, "Reformation": 16746, "watts": 22469, "Shah": 7686, "##mund": 13889, "##ly": 1193, "##BL": 13360, "Falcon": 13893, "##\u0451": 28417, "Family": 3921, "Peace": 5370, "recognizing": 17344, "qualify": 7044, "##\u1e45": 28635, "moving": 2232, "\u0395": 398, "Islamic": 4769, "##ners": 9268, "Feng": 22720, "Rotten": 15135, "##bler": 16551, "##dez": 15125, "authority": 3748, "Conor": 22524, "##VR": 19400, "##ler": 2879, "[unused51]": 51, "Sale": 21862, "Ellison": 23736, "##f": 2087, "slopes": 10336, "jerk": 12935, "policeman": 17559, "[unused49]": 49, "beginning": 2150, "panic": 7011, "anxiety": 10507, "religious": 2689, "compose": 18742, "charged": 4601, "Platform": 17742, "Considering": 23243, "bishops": 11358, "##ak": 3715, "hotel": 3415, "confirmed": 3659, "Emilia": 22836, "incorporation": 19542, "Germanic": 15886, "nuclear": 4272, "house": 1402, "Bill": 2617, "##urge": 27793, "nails": 10821, "Alive": 15907, "\u300b": 888, "spoon": 19184, "continues": 3430, "attendance": 7794, "##ascism": 26492, "Anglican": 9137, "Punk": 19491, "orientation": 10592, "Hugo": 9110, "guessed": 11474, "212": 19538, "Reviews": 20321, "silky": 21453, "##\u771f": 28954, "drained": 11094, "1960s": 3266, "##len": 7836, "VA": 19497, "Olaf": 22745, "Mart\u00edn": 18060, "Burt": 20215, "Bonn": 21066, "Denise": 16160, "graveyard": 20701, "Sometimes": 5875, "possess": 10192, "shoving": 18164, "purchases": 18908, "##vir": 25740, "##\u05b9": 28443, "creatures": 7207, "##stituted": 26742, "Gabrielle": 18145, "infrastructure": 6557, "flatly": 27337, "Hunting": 25330, "joked": 21455, "outdoors": 23178, "Colbert": 26866, "thereof": 24234, "suburbs": 10386, "penalties": 13095, "plea": 16150, "announcing": 14563, "Terrorism": 27792, "Ahmed": 10045, "##cimal": 27924, "freelance": 17694, "[unused45]": 45, "incorporated": 4572, "jumped": 4874, "corporate": 6214, "Via": 15709, "##ogram": 28012, "digit": 16521, "conflicting": 21776, "Reagan": 11546, "birthplace": 15979, "Eclipse": 22301, "Jazz": 5990, "##ash": 10733, "lateral": 11937, "Engine": 13451, "fear": 2945, "##\u0151": 28239, "\u674e": 1040, "##ision": 15575, "##ren": 5123, "##din": 7126, "Carrier": 16983, "##eus": 12963, "lasts": 17503, "Caribbean": 6562, "Marlborough": 25398, "cringed": 26881, "covering": 4576, "bombers": 12555, "##quisition": 18540, "##lge": 21463, "judicial": 9799, "Romance": 13589, "Otto": 7639, "Quickly": 26705, "breakdown": 14025, "Poetry": 9721, "##leashed": 24906, "##sz": 21529, "indicated": 4668, "Amnesty": 25072, "%": 110, "paler": 28089, "##ximal": 23984, "actively": 8525, "maintenance": 5972, "Companion": 17631, "##\u0928": 28518, "\u02b7": 379, "Maurice": 7523, "Appearances": 24012, "Mustang": 21064, "giggling": 25108, "soldier": 5176, "##stant": 16566, "lectures": 9548, "Dominic": 11288, "innings": 6687, "##\u3081": 28814, "##\u0161i\u0107": 23571, "Previous": 24142, "Witness": 26874, "vernacular": 21662, "##\u0457": 28419, "Daily": 5732, "della": 12391, "Vocals": 9826, "Woodward": 20825, "Roy": 5396, "weeks": 2277, "considered": 1737, "tent": 9459, "wed": 26055, "##vre": 9699, "spreading": 9243, "backdrop": 20552, "controllers": 25747, "J": 147, "hands": 1493, "##gal": 6997, "commanders": 12392, "##awed": 21449, "immediate": 5670, "##human": 15319, "generate": 9509, "##same": 24947, "Guard": 4813, "\u0928": 615, "Commissioner": 6520, "Travel": 7938, "filter": 12123, "Rico": 6526, "Amongst": 24693, "Manning": 13489, "Morse": 18582, "garage": 7419, "integer": 18157, "Salisbury": 14268, "##RL": 20550, "takeover": 17748, "cooking": 8739, "spending": 5369, "parish": 3363, "kiss": 3041, "##\u09b2": 28561, "##the": 10681, "##\uff0c": 28992, "violin": 7106, "each": 1296, "Hearts": 12290, "grip": 5688, "83": 6032, "##ily": 5264, "requirement": 8875, "233": 24482, "##zac": 25616, "quarter": 3861, "authoritative": 27355, "VP": 23659, "arranging": 21203, "##tility": 20688, "motifs": 18916, "earliest": 5041, "controversy": 6392, "##gum": 19524, "\u039c": 404, "buffer": 20232, "Chair": 7507, "explode": 16099, "Ara": 25692, "linking": 11723, "##\u2026": 28697, "Came": 23878, "cash": 5948, "batch": 15817, "enhanced": 9927, "tapes": 16200, "Cameroon": 14292, "Kelsey": 23111, "\u7fa9": 1067, "inspector": 17672, "##ynx": 22093, "##hot": 12217, "Patel": 22545, "##leo": 26918, "documentaries": 17221, "region": 1805, "##mote": 21294, "[unused100]": 104, "models": 3584, "distraction": 15879, "stabbing": 24728, "##zine": 25593, "##\u0645": 26259, "wallet": 17364, "judiciary": 25348, "##roke": 20265, "students": 1651, "silvery": 24910, "Sector": 17063, "Marcel": 13737, "Roses": 17303, "else": 1950, "proved": 4132, "##vington": 26251, "Properties": 25420, "rematch": 19824, "##cript": 13590, "Protected": 15344, "antenna": 14843, "cut": 2195, "Len": 22824, "interrupting": 25602, "suites": 26683, "cost": 2616, "##put": 16156, "swamp": 16407, "startled": 10057, "necessity": 14176, "##uild": 19118, "lust": 13051, "##vern": 24472, "Punjab": 8907, "Hands": 13719, "##iano": 16265, "##\u028b": 28291, "Climate": 13540, "Rosenberg": 23171, "coast": 3153, "Morrow": 23611, "##zza": 22221, "Knoxville": 21837, "##nical": 25116, "Straits": 24884, "\u9580": 1081, "##tale": 15903, "gasp": 12271, "Flag": 13654, "Duck": 16627, "##eter": 24951, "anxious": 11841, "LSU": 24184, "patron": 10063, "Winkler": 22382, "##ddled": 19545, "ancestry": 11626, "ked": 17316, "##gies": 19310, "1891": 6002, "Maritime": 11081, "##zon": 9515, "RFC": 15274, "\u306a": 913, "regretted": 20632, "##eley": 23814, "protein": 4592, "##bao": 21154, "market": 2319, "Teacher": 14208, "##lant": 9180, "City": 1392, "prompting": 16825, "##\u0424": 28385, "##logies": 27600, "##bolic": 21022, "rumbled": 24666, "stereotypes": 26478, "occurred": 3296, "##dridge": 23760, "bare": 6038, "Secondary": 7934, "Carnegie": 11298, "Wolff": 26243, "##dance": 26444, "Cleveland": 5364, "accurately": 14702, "developing": 4297, "binding": 7861, "goddamn": 21087, "##ek": 4820, "liner": 12119, "Put": 11913, "Farmer": 15198, "espionage": 25652, "##cumenical": 26240, "unmistakable": 27360, "snuck": 27731, "##strom": 22230, "urging": 14992, "devoted": 6970, "weapon": 4621, "Dictionary": 12496, "pending": 15498, "assets": 6661, "Josh": 5868, "medley": 19362, "21st": 6880, "invited": 4022, "Progress": 12798, "attained": 12961, "##rue": 26930, "centered": 8663, "builder": 15369, "ego": 15550, "initially": 2786, "##ulent": 16564, "Text": 18430, "\u5b89": 1016, "480": 18478, "disappearance": 14158, "key": 2501, "##kowski": 17445, "prosecuted": 24004, "increase": 2773, "duet": 13401, "merging": 17862, "benefits": 6245, "internship": 27265, "##\u014b": 28236, "deadly": 10310, "\u00cd": 235, "program": 1788, "sunset": 16855, "Wireless": 21697, "Sessions": 18003, "84": 5731, "Blanche": 21086, "lighting": 7570, "classification": 5393, "Lars": 17468, "##\u03b7": 28344, "mathematician": 13919, "Glover": 21895, "##grim": 21956, "advent": 16889, "##mized": 26740, "camp": 3227, "servant": 8108, "My": 1422, "##otion": 24035, "Two": 1960, "Rotterdam": 16508, "outstretched": 23217, "monster": 7121, "Best": 1798, "innovations": 18168, "corpse": 12382, "singers": 9500, "melodic": 19126, "##la": 1742, "removed": 2856, "Graduate": 11045, "##\u99ac": 28978, "104": 9377, "ministries": 25404, "license": 5941, "disco": 19959, "Missionary": 21343, "hundreds": 5229, "nearby": 2721, "Hinduism": 21415, "spotted": 6910, "\u044d": 504, "controversial": 6241, "equipment": 3204, "Heidi": 23669, "##ho": 5114, "authorized": 9320, "Theatre": 2872, "cruise": 11270, "difficulty": 7262, "24th": 13722, "##mium": 19276, "##nter": 22456, "equipped": 5440, "lord": 7692, "that": 1115, "##ned": 3540, "however": 1649, "reject": 16589, "Character": 23543, "stable": 6111, "Construction": 6568, "stripped": 10168, "Arts": 2334, "Gideon": 12310, "Nile": 16022, "expose": 16479, "consult": 27231, "squeeze": 11633, "fishing": 5339, "1765": 22799, "zoo": 15003, "##ky": 3781, "Neither": 8853, "Raiders": 12317, "intervened": 23250, "Sting": 23082, "medal": 3086, "seasonal": 13286, "##net": 6097, "measured": 7140, "restrictions": 9118, "Trey": 15558, "systems": 2344, "metaphor": 21927, "fantasy": 7369, "happily": 11786, "Platinum": 16629, "chess": 10924, "ballad": 15000, "##\u2609": 28769, "Comedy": 8909, "Randolph": 13290, "##cho": 8401, "##eel": 19032, "Hair": 19817, "mention": 4734, "Stay": 9999, "pads": 21910, "##sonic": 19500, "Cotton": 12871, "noteworthy": 22076, "on": 1113, "##git": 24632, "bottom": 3248, "vocational": 18341, "H": 145, "Sarajevo": 19788, "acidic": 27675, "hoping": 4717, "online": 3294, "negotiate": 14169, "##cket": 21633, "runs": 2326, "Coal": 14250, "roared": 14877, "##iology": 17288, "Mari": 17978, "resignation": 7809, "Darling": 12777, "Rapid": 16356, "Healthcare": 22993, "Painter": 15502, "David": 1681, "exclusively": 7097, "treasure": 11272, "restricted": 7458, "suffrage": 18817, "doubling": 21756, "labour": 8596, "winner": 2981, "heaving": 27941, "##horn": 9772, "diamond": 9883, "Poor": 11767, "##hine": 17108, "hawk": 25497, "weak": 4780, "populous": 22608, "humiliation": 24093, "Sundays": 15492, "allowed": 2148, "retreat": 7826, "poisoning": 17539, "Domesday": 24871, "holidays": 13413, "##lite": 21998, "Chin": 19935, "longitude": 27097, "Tactical": 14379, "motor": 5968, "reign": 5436, "litter": 21491, "summarized": 25172, "Norte": 22095, "Gore": 16455, "Morocco": 9614, "listen": 5113, "biographer": 19382, "##ldred": 28040, "angular": 17553, "seven": 1978, "Axis": 17831, "caressed": 23744, "financial": 2798, "Matt": 3895, "Tai": 16191, "compression": 14928, "gripped": 9430, "NHS": 18435, "July": 1351, "silicon": 22818, "balancing": 23858, "Students": 6510, "##tend": 22910, "Technology": 3529, "doctors": 8114, "##akes": 20874, "##tate": 10237, "processes": 5669, "folded": 6443, "findings": 9505, "dispersed": 16478, "Rule": 11575, "bolted": 19532, "removing": 9305, "useless": 12277, "Having": 5823, "##membrance": 21207, "C\u00e9sar": 21730, "baggage": 23539, "1962": 2832, "##thermal": 27703, "##50": 11049, "embarked": 11322, "slang": 25881, "resumed": 7475, "Highness": 19525, "MVP": 12162, "pleasant": 10287, "Easton": 23908, "##sso": 20808, "Amendment": 10060, "heavier": 12163, "processing": 6165, "\u0686": 599, "Mali": 17168, "##)": 28133, "\u1ec5": 748, "Adler": 19358, "##ganized": 24087, "grains": 19707, "##itors": 27517, "McDonald": 9092, "secretly": 10173, "##chet": 17374, "##\u0411": 28367, "Near": 9669, "professional": 1848, "guarantee": 11865, "Lyon": 10067, "ensures": 23613, "Glad": 27652, "##\\": 28148, "Minister": 2110, "1944": 2782, "lacked": 10778, "declaring": 14442, "1907": 4796, "Mention": 26898, "GE": 25075, "effort": 3098, "weddings": 24536, "##dress": 18380, "Egyptians": 26145, "##\u041c": 28377, "galaxies": 26341, "Cyclone": 26847, "reality": 3958, "Congressional": 12537, "vulnerability": 20727, "Claude": 7695, "##ires": 22758, "tablet": 16048, "9": 130, "Ace": 12860, "##kling": 18278, "gotten": 4690, "Bunny": 21198, "entering": 5273, "\u738b": 1055, "adviser": 14269, "patronage": 17326, "battalions": 11592, "\u00e2": 248, "Erica": 21205, "Sadie": 23486, "##uel": 24741, "##ipur": 26164, "Elements": 22786, "kissing": 7567, "1": 122, "##imed": 24733, "##ival": 15895, "Railway": 2847, "shots": 6981, "##hay": 24368, "Soto": 27395, "conceptual": 20046, "Lighthouse": 21432, "Band": 4230, "Vaughn": 19633, "donated": 6384, "##l\u00e9": 18076, "##lers": 10369, "prediction": 20770, "\u00a1": 200, "prisoners": 5419, "Felix": 9423, "dough": 28075, "Reader": 17608, "Connolly": 23110, "appropriate": 5806, "dominated": 6226, "Wally": 19650, "\u30e5": 967, "##urer": 26616, "##rana": 26231, "##nai": 26727, "citizenship": 9709, "##zz": 16771, "Smart": 13015, "No": 1302, "##laid": 16898, "predecessor": 8283, "spinal": 19245, "##pf": 20201, "Lucien": 11809, "rendering": 15171, "Fellows": 19973, "northernmost": 24873, "##hs": 9524, "\u0650": 596, "Sarawak": 23794, "patients": 4420, "Advances": 25308, "pioneer": 8578, "##dick": 25699, "boxes": 8171, "##\u063a": 28491, "Talking": 17940, "Boyle": 17846, "1935": 3588, "##rius": 10048, "\u0218": 349, "Jeep": 19146, "rumours": 23620, "Gala": 26376, "equations": 11838, "pioneering": 14024, "burns": 14947, "sometimes": 2121, "Sunderland": 16362, "##risto": 26691, "tackle": 11407, "##\u1e5b": 28637, "sell": 4582, "Rosen": 24580, "schools": 2126, "Wouldn": 20487, "##hashi": 21230, "##I": 2240, "builders": 21903, "Guillermo": 23167, "##iculate": 26748, "optimistic": 24876, "##spective": 16776, "organization": 2369, "prime": 5748, "Phillips": 7651, "Citadel": 23989, "Clube": 28070, "Patricia": 10711, "##imate": 15774, "adrenaline": 18108, "##llum": 21275, "##\u00b4": 28169, "movies": 5558, "##quencing": 27276, "filed": 5770, "pledged": 18215, "neighbourhood": 11685, "drastically": 23173, "torpedo": 11029, "Armstrong": 8800, "Panzer": 18753, "Dewey": 22213, "Ion": 19447, "comparative": 18008, "lion": 11160, "[unused76]": 76, "Muhammad": 6710, "Strand": 21939, "LP": 6400, "Forces": 4791, "Nine": 7357, "Thereafter": 20146, "less": 1750, "Editorial": 23640, "##text": 17380, "shine": 18978, "saga": 24170, "tasked": 13940, "Harmony": 17859, "##erham": 25499, "halves": 26853, "##\u03a8": 28333, "clean": 4044, "##\u30ba": 28840, "hardly": 6374, "310": 18333, "batting": 9698, "##bbled": 14437, "supermarket": 20247, "protection": 3636, "songs": 2040, "##34": 23124, "complications": 13522, "lazy": 16688, "1902": 5061, "Philippine": 7313, "wave": 4003, "CPU": 18701, "Spain": 2722, "ma": 12477, "##in": 1394, "Sheffield": 8139, "\u03cd": 444, "neck": 2455, "stretches": 14664, "fighter": 6295, "rip": 13579, "originally": 2034, "##section": 25461, "concussion": 27233, "Vampires": 23233, "hide": 4750, "Babu": 23475, "l": 181, "##around": 27692, "##rophe": 24658, "skater": 21827, "Hiroshima": 22091, "oz": 24919, "##n": 1179, "steel": 3649, "Arctic": 10925, "Hesse": 17416, "1976": 2402, "inception": 12548, "##cakes": 23393, "##lair": 20293, "tinged": 25275, "kindergarten": 15001, "resolutions": 22446, "##sport": 21209, "orphanage": 22899, "aft": 18616, "Wolverine": 25862, "lavish": 25871, "governmental": 11219, "##tl": 26414, "##rier": 10914, "gorge": 25601, "##zard": 18551, "Gross": 15161, "##fty": 27944, "##ead": 12393, "##ending": 16264, "fixtures": 19219, "cave": 5812, "##rying": 18224, "bring": 2498, "Hereford": 23254, "##arity": 14405, "\u1ee5": 759, "##achi": 19226, "Kuala": 16343, "banking": 9339, "Draw": 22877, "Nair": 25233, "Fashion": 13215, "overhead": 9008, "Especially": 11008, "Jenna": 13862, "delay": 8513, "Tucson": 18740, "wished": 5608, "trivial": 23594, "##;": 28141, "Worlds": 15746, "\u1ee9": 761, "barrier": 9391, "##erman": 14170, "Zombie": 25249, "Leonardo": 15358, "##\u02b2": 28298, "honesty": 19242, "SC": 9314, "##\u1d49": 28615, "##ceps": 28062, "newborn": 24820, "##isi": 26868, "Mu": 19569, "excitedly": 26988, "##ur": 2149, "Aberdeen": 12184, "Julian": 5916, "Panic": 18896, "##ratic": 21961, "135": 11498, "Electronics": 13983, "hangs": 19565, "Jonah": 16576, "\u09bf": 664, "dreams": 6149, "weighs": 23363, "topic": 8366, "Highway": 3580, "wired": 26473, "say": 1474, "reefs": 24934, "Euro": 11854, "whereby": 13949, "measures": 5252, "decreased": 10558, "##\u6c34": 28941, "##roth": 21941, "arm": 1981, "tenants": 16086, "Garner": 26971, "publishing": 5550, "##\u1f50": 28673, "magic": 3974, "Dudley": 12840, "failures": 16676, "##arium": 19841, "assert": 23163, "106": 9920, "Seth": 6081, "##agan": 18323, "##ras": 7297, "surgery": 6059, "claimed": 2694, "memoirs": 18171, "marks": 6216, "##\u0445": 28407, "preparing": 7963, "##za": 3293, "Dot": 25584, "Toronto": 3506, "Families": 21860, "Anglia": 27225, "1642": 27015, "Bulldogs": 16051, "Montenegrin": 27064, "##\uff0f": 28994, "distinctly": 21389, "\u05e7": 555, "##stic": 5668, "##nces": 21949, "Martins": 22670, "ranges": 9123, "Directory": 26432, "made": 1189, "Major": 2868, "outward": 16923, "1777": 17128, "updates": 15549, "EPA": 20875, "dial": 17693, "poison": 11539, "Greens": 22412, "##\u201e": 28693, "Groups": 18744, "drum": 7505, "snatched": 14779, "trainer": 11277, "##hu": 6583, "remainder": 6311, "concerns": 5365, "##lag": 18974, "##rgo": 17161, "rescuing": 27409, "margins": 18717, "drastic": 27735, "Whatever": 6853, "##mma": 12917, "##\u2194": 28741, "##ift": 17368, "Say": 8652, "PMID": 21936, "##tails": 23871, "bisexual": 28121, "Past": 11415, "\u00ea": 256, "planet": 5015, "##tore": 24612, "still": 1253, "submarine": 7027, "which": 1134, "approved": 4092, "rhythm": 6795, "##lation": 6840, "redundant": 24520, "##rc": 19878, "[unused22]": 22, "Southwestern": 22557, "FK": 14954, "\u05d6": 541, "##coil": 27137, "amused": 12003, "Patriarch": 17334, "cities": 3038, "]": 166, "##jid": 26151, "Marketing": 13801, "Quite": 22597, "castles": 19282, "##suke": 16431, "federal": 2877, "Cheltenham": 20296, "Pitchfork": 27186, "pushing": 5859, "modeled": 15320, "GAA": 22156, "Wallace": 7336, "Wildlife": 9749, "impaired": 20606, "Hatch": 25945, "##rda": 18484, "working": 1684, "Jared": 7927, "overwhelmed": 14127, "Pac": 19430, "##\u1e29": 28632, "##xa": 20192, "Burmese": 15080, "fighting": 2935, "##rise": 17789, "Liu": 8411, "Pool": 13384, "##bian": 12324, "Fern\u00e1ndez": 16918, "communism": 23154, "\u2248": 860, "like": 1176, "Cheshire": 14242, "##champ": 23542, "eyes": 1257, "Ismail": 21851, "RT\u00c9": 23890, "Tito": 22754, "Service": 2516, "programs": 2648, "prevent": 3843, "setup": 18011, "require": 4752, "knocks": 24895, "thousand": 4032, "Fred": 5291, "deed": 17194, "bar": 2927, "##LE": 17516, "\u6c5f": 1050, "\u5b80": 1015, "##dek": 27170, "picking": 8184, "##tha": 7702, "##chschule": 27357, "consistently": 10887, "Nationalist": 18018, "Singers": 24047, "id": 25021, "##wyn": 10349, "commuter": 17397, "slides": 15766, "Karachi": 16237, "dynamic": 9652, "Walden": 28020, "Dane": 15312, "##brae": 25171, "opener": 17622, "perfection": 17900, "calls": 3675, "overtime": 13357, "##\u092f": 28523, "##kra": 27311, "wherever": 12826, "Elders": 27932, "Wheel": 19754, "##\u043a": 28399, "inclusion": 10838, "fears": 10434, "##mett": 23355, "Greco": 19912, "##tory": 6207, "Hunger": 27962, "diamonds": 16031, "##ior": 18472, "##let": 5765, "marshal": 23963, "Lucifer": 27554, "kHz": 19125, "Lila": 21384, "1644": 26180, "Calgary": 9910, "previously": 2331, "names": 2666, "Cheng": 17525, "##\u09b6": 28562, "##cliffe": 16208, "Zambia": 16512, "Colonel": 4212, "Glacier": 13972, "Greatest": 10971, "rubble": 19468, "civil": 2987, "additional": 2509, "##oir": 24554, "nonsense": 17466, "##tative": 18216, "occupying": 14854, "praying": 16252, "defeated": 2378, "Trinity": 6626, "520": 21338, "\u1d65": 723, "##36": 22997, "almost": 1593, "Alternatively": 23104, "hall": 2885, "flashing": 13294, "[unused90]": 90, "installations": 15111, "masters": 11573, "380": 18130, "Rwanda": 18845, "Judy": 12248, "Rothschild": 21457, "Lyle": 24311, "erratic": 27450, "inauguration": 20105, "spectral": 20277, "##row": 7596, "Packard": 27065, "Together": 6333, "evaluating": 27698, "##\u4f8d": 28882, "##lman": 12151, "undertook": 12722, "Michele": 18493, "Sherwood": 21164, "flickered": 16945, "##pot": 11439, "Hayward": 23739, "Shirley": 11281, "sustaining": 26081, "##iselle": 22080, "1991": 1984, "1779": 18870, "Internal": 13545, "Canary": 20462, "Te": 12008, "joining": 4577, "##ughty": 18313, "wish": 3683, "deities": 19018, "Tara": 10235, "insisted": 6744, "car": 1610, "comrades": 22506, "##rew": 11899, "towering": 23441, "BYU": 26319, "Plato": 21137, "Seahawks": 23572, "identity": 4193, "~": 199, "##ust": 8954, "Como": 25143, "##SM": 16450, "harp": 19960, "ethical": 15380, "Dal": 25938, "Hood": 10776, "##tone": 4793, "##eorological": 22272, "doubt": 4095, "Qualification": 26298, "dependence": 20917, "mentally": 10883, "IBM": 9768, "towards": 2019, "patient": 5351, "drummer": 6924, "Nazis": 13525, "coordination": 14501, "magistrate": 20261, "farmer": 9230, "Huntington": 17390, "drift": 13648, "\u30b7": 944, "##tista": 25645, "Andr\u00e9": 9343, "sewing": 27535, "##\u00fa": 12643, "tearing": 14156, "serving": 2688, "##uru": 12328, "##ingen": 15016, "##isse": 19202, "##pass": 11229, "##NG": 11780, "wisdom": 12304, "viola": 16221, "fifteenth": 19868, "##tia": 10691, "seas": 17043, "fetch": 21616, "##pressing": 24956, "widely": 3409, "stylized": 21527, "Sutherland": 14831, "Wilder": 22001, "##rries": 15494, "recommend": 18029, "##psy": 12685, "Janet": 9788, "Slade": 19466, "##vani": 25373, "Almost": 8774, "Coral": 20385, "##\u05d1": 28446, "unavailable": 22254, "\u1ee3": 758, "nodded": 2471, "limbs": 10765, "##ions": 5266, "##uta": 15012, "##Dowell": 24316, "tier": 8081, "##obia": 23145, "zombies": 17715, "steadily": 11383, "Irish": 2600, "##berger": 13184, "grimly": 26008, "Organic": 27977, "retained": 5366, "##ues": 10589, "Turbo": 23344, "properties": 4625, "Rockets": 24249, "Initially": 7245, "Corner": 14018, "Voivodeship": 6729, "ridges": 18431, "Its": 2098, "journalism": 10210, "junction": 6698, "Slovene": 19778, "liberal": 7691, "##zig": 24461, "MCC": 26692, "Patton": 19451, "##\u0627": 28475, "Cadillac": 22393, "constantly": 7480, "depleted": 25403, "\u014b": 310, "shrug": 13786, "turf": 19681, "##gement": 20512, "modes": 11958, "Torino": 27882, "Laboratory": 8891, "Weight": 25589, "sixteen": 7423, "top": 1499, "1826": 12000, "##dhi": 20832, "##\u208d": 28718, "playoffs": 7736, "analogy": 26799, "Election": 11905, "prevalence": 22760, "traits": 13474, "Blanc": 24687, "##Ds": 26436, "systematic": 12818, "timed": 25457, "##oi": 8136, "##union": 19698, "Tyrone": 20314, "28": 1743, "pianist": 9003, "\u043e": 489, "kissed": 4005, "##\u01d2": 28268, "##\u03b4": 28341, "publication": 4128, "Knowles": 25384, "adjustments": 27939, "communicate": 10621, "Minneapolis": 11338, "successors": 20475, "Names": 13313, "Headquarters": 9101, "\u30aa": 936, "upstream": 15011, "##thest": 22722, "flowing": 8342, "##hame": 25948, "cane": 14671, "Hardy": 10092, "stiffened": 17068, "##bility": 5474, "##ra": 1611, "enabled": 8824, "256": 18440, "accounted": 15365, "Inverness": 25558, "##opping": 20553, "young": 1685, "absurd": 21321, "##will": 17274, "##ingham": 11524, "\u221a": 854, "Entertainment": 4549, "Fork": 16384, "Czechoslovak": 23409, "Jett": 25653, "##mpus": 26696, "streak": 9192, "whether": 2480, "Emperor": 3637, "Rochester": 10425, "Cliff": 12483, "Gandhi": 12508, "1870s": 15583, "ne": 24928, "##xen": 25926, "##achal": 26992, "blacks": 14892, "broker": 24535, "Donaldson": 25825, "alerted": 25368, "Cars": 16644, "ornate": 19870, "##outs": 10469, "receivers": 21535, "1863": 6293, "knob": 21267, "kidnapped": 11665, "##iably": 22368, "trial": 3443, "shrieked": 24863, "vectors": 21118, "routed": 21443, "Konrad": 25834, "##ean": 7766, "##nch": 11273, "##uckled": 26737, "astronomical": 20771, "basketball": 3163, "Army": 1740, "##yoshi": 18724, "\u2074": 802, "buried": 3126, "Pa": 19585, "Iran": 3398, "Rashid": 24736, "Appearance": 27717, "213": 21640, "##thical": 26610, "after": 1170, "others": 1639, "care": 1920, "Aviation": 7650, "eliminating": 16520, "Rica": 11585, "##aris": 26464, "stab": 19428, "##oat": 20534, "Maj": 18285, "sworn": 10849, "##rea": 11811, "posterior": 16530, "doctrines": 27153, "\u6b63": 1045, "sanctioned": 15572, "Varsity": 21360, "Joy": 10768, "eh": 19563, "##nny": 15863, "##mada": 24817, "##ronology": 18327, "##H": 3048, "Que": 27328, "founder": 3249, "tied": 4353, "altogether": 11257, "nevertheless": 12341, "##uld": 24870, "1st": 2198, "revised": 8182, "oceans": 25909, "Industries": 10699, "treasurer": 17920, "km": 1557, "##orted": 17425, "Stephen": 3620, "panicked": 17708, "aisle": 12899, "\u0995": 641, "ponds": 20054, "Communications": 6345, "##going": 25251, "platforms": 6833, "petitioned": 25042, "lobby": 9722, "Adult": 11635, "\u672c": 1039, "\u05d0": 535, "surname": 12239, "platinum": 11980, "##idian": 27967, "Issue": 15653, "Burn": 16915, "wake": 5314, "plural": 14920, "##cene": 15127, "##medical": 20489, "remastered": 23109, "\u0633": 577, "Use": 11696, "column": 5551, "Doctor": 4157, "Daniels": 13549, "handkerchief": 27570, "granting": 16078, "Equality": 25478, "attributed": 6547, "subsequent": 4194, "\u1d35": 707, "Vance": 17750, "##GR": 27617, "towel": 10166, "Dove": 20169, "fingers": 2220, "Materials": 19591, "1953": 3185, "safer": 15033, "##putation": 19675, "land": 1657, "##\u2015": 28686, "Navajo": 24954, "16": 1479, "executions": 26107, "premise": 20197, "##used": 11031, "##gh": 5084, "Archaeological": 17249, "##nees": 27075, "##\u0940": 28533, "##\u05d5": 28450, "##ul": 4654, "wicked": 13273, "Republican": 3215, "analyze": 19774, "artifact": 24690, "Tajikistan": 26307, "splash": 24194, "dazed": 24528, "Ring": 8467, "noises": 16256, "slalom": 28095, "bend": 12078, "poses": 25366, "Hand": 9918, "arose": 10246, "zombie": 16192, "Waters": 12542, "##erick": 19997, "typical": 4701, "Chronicle": 11047, "##\u9580": 28974, "##nam": 12881, "##wine": 17679, "\u0399": 401, "China": 1975, "service": 1555, "##ll": 2339, "darkness": 4542, "lyrical": 18799, "contrasts": 26856, "##*": 28134, "##nut": 12251, "screamed": 6673, "Fr": 13359, "Fantasy": 10037, "\u02bf": 383, "\u660e": 1034, "15": 1405, "##loaded": 18268, "housing": 3328, "\u2089": 820, "transmission": 6580, "projected": 11479, "effectively": 5877, "##fining": 24110, "audiences": 9569, "recognized": 3037, "plaintiff": 23940, "Corridor": 21740, "Hard": 9322, "Sacred": 11373, "##isk": 13189, "discovered": 2751, "keys": 6631, "Ethics": 17475, "##oon": 6931, "##dding": 15977, "curiously": 18941, "factors": 5320, "science": 2598, "##lal": 14258, "Vol": 5713, "compliance": 14037, "blue": 2221, "sons": 3824, "Macau": 17982, "countered": 19347, "##gman": 24540, "skipped": 18002, "Alan": 4258, "##yon": 15136, "crossover": 18847, "Peninsula": 7339, "Bhutan": 20325, "Shaun": 17946, "universe": 6271, "carefully": 4727, "##\u1f76": 28675, "##ceipt": 27333, "Denton": 26763, "1833": 11004, "Elgin": 26665, "##eking": 25819, "Chandra": 17595, "carriages": 19486, "##linger": 18332, "##bley": 26672, "Parents": 24261, "repulsed": 27986, "##is": 1548, "weighted": 20167, "##odles": 27267, "##il": 2723, "adapted": 5546, "relocate": 22036, "argument": 6171, "widen": 23899, "##bject": 24380, "Our": 3458, "mirror": 5220, "Editing": 25960, "transmitting": 27536, "tilted": 9766, "above": 1807, "##eti": 26883, "##bin": 7939, "##slow": 20120, "asks": 4390, "##x": 1775, "stride": 20856, "Advanced": 8445, "Nina": 9394, "victorious": 15566, "95": 4573, "clocks": 24998, "Latin": 2911, "linked": 5128, "Changes": 21395, "Ingrid": 24665, "equestrian": 27940, "curse": 9188, "Eva": 9734, "##eda": 14604, "Sunny": 17321, "Choice": 10373, "##mash": 21575, "Your": 2353, "\u30cf": 957, "115": 10520, "##Os": 22234, "##ceive": 23566, "themselves": 2310, "meantime": 13115, "##tech": 22218, "##ilation": 16230, "\u0417": 455, "##16": 16229, "sailor": 16389, "interrupted": 6634, "Bart": 13045, "visibility": 18319, "refrigerator": 20035, "gallery": 7183, "\u211d": 841, "sorry": 2959, "Newman": 10525, "##rai": 14089, "pollution": 11738, "##hn": 7272, "##lani": 21690, "marked": 3597, "default": 12973, "Psychology": 11695, "Cha": 24705, "phrases": 16954, "Port": 3905, "##rming": 21290, "##rato": 24306, "Raceway": 26611, "##hammer": 21427, "##ata": 6575, "kingdom": 6139, "sick": 4809, "monitoring": 9437, "##lene": 11936, "Piano": 8802, "expansion": 4298, "Leicestershire": 21854, "Bruno": 10305, "predicted": 10035, "slope": 9877, "##\u00b7": 28172, "Vladimir": 8591, "##\u0442": 28404, "Vancouver": 6336, "425": 25933, "##lia": 4567, "nowadays": 20148, "Robertson": 9693, "Rex": 10896, "commenced": 8042, "attacked": 3623, "Die": 5736, "Ludwig": 10143, "##utt": 25131, "coordinating": 27513, "Nokia": 24547, "recipient": 7668, "Baxter": 15291, "##ight": 11381, "##pruce": 21641, "##\u2070": 28702, "steady": 6386, "view": 2458, "vehicle": 3686, "ownership": 5582, "##beat": 14262, "recovering": 14299, "introduced": 2234, "discontinued": 8779, "sectors": 11346, "Catch": 25079, "innovation": 11279, "Certificate": 14972, "Chen": 8742, "bill": 4550, "##fied": 8971, "Automobile": 27336, "##data": 27922, "hailed": 17932, "feedback": 13032, "World": 1291, "slam": 15606, "spend": 4511, "Chaplin": 26065, "locality": 10157, "Hawkins": 14289, "Johannesburg": 16919, "\uc758": 1091, "\u0561": 515, "hostage": 14551, "##ghan": 23136, "nervously": 12938, "199": 22690, "1890": 5522, "##owski": 13379, "EC": 16028, "confined": 12597, "cheer": 18456, "##market": 19919, "catalogue": 13571, "STS": 25435, "proliferation": 23766, "glimpse": 12513, "Infantry": 4155, "##ces": 7723, "straight": 2632, "##gos": 12443, "Lesley": 26801, "Sky": 5751, "residents": 3159, "##\u02bc": 28302, "explains": 7155, "Kamen": 24932, "##wheel": 26587, "Common": 6869, "Progressive": 10709, "Emerson": 12836, "Reserves": 24635, "Marie": 4238, "Commissioners": 19405, "famed": 16916, "Barnett": 21886, "Drums": 11714, "newcomer": 25551, "recipe": 20538, "theoretical": 10093, "asset": 13274, "workforce": 17034, "149": 18513, "##anza": 18260, "arises": 20251, "jurist": 26908, "\u0153": 316, "Science": 2444, "Claudia": 14035, "##puted": 18505, "sued": 13187, "regiments": 11988, "Apr": 23844, "Lombard": 26416, "Christie": 13442, "[unused93]": 93, "instability": 20482, "Alfonso": 13961, "differing": 18470, "##ban": 7167, "Warwickshire": 19876, "##hler": 14460, "##nife": 23373, "materials": 3881, "##rma": 10841, "Ranger": 13415, "Robbins": 19462, "##nay": 16691, "gradual": 18258, "##\u2190": 28738, "edged": 13324, "##wan": 5491, "Slovak": 12984, "\u094b": 633, "##zano": 23371, "whole": 2006, "Organization": 6534, "Speak": 24976, "##\u10dd": 28606, "laying": 10377, "sensed": 10494, "council": 3193, "connected": 3387, "##gible": 12192, "Aquino": 27194, "attendant": 19389, "Venus": 11968, "Louis": 2535, "syllable": 17578, "mall": 8796, "smacked": 20969, "##yrian": 21149, "Quarter": 12664, "approve": 14942, "##gating": 18401, "concepts": 8550, "##\u0627\u062f": 25717, "##dford": 24020, "art": 1893, "voters": 7179, "thy": 21153, "##lyn": 8068, "sting": 17975, "deliver": 7852, "##rgent": 14527, "meadows": 25958, "scouts": 21417, "territories": 6835, "Lo": 10605, "\u05d2": 537, "bars": 6668, "##udge": 17717, "Championships": 2708, "Flames": 19002, "changed": 2014, "##ship": 6607, "cent": 9848, "Fu": 14763, "slogan": 15367, "##utile": 26555, "##ouse": 17237, "overrun": 28025, "Prof": 11644, "privately": 9045, "##ond": 16838, "##cedural": 27433, "\u011f": 293, "occupy": 12774, "\u02be": 382, "Rao": 10546, "Reynolds": 9296, "return": 1862, "Restaurant": 17925, "Page": 8500, "distinguished": 6019, "grassland": 23560, "Mongols": 24640, "##cise": 14636, "mix": 5495, "##et": 2105, "##gnate": 21772, "##lown": 23054, "Hogan": 15603, "remedy": 23615, "\u2227": 856, "permits": 15267, "slightly": 2776, "Happiness": 25410, "##iman": 25512, "Eddie": 5040, "Co": 3291, "designs": 5054, "arrange": 14211, "##biology": 25181, "persecution": 15873, "Years": 5848, "rainfall": 10465, "##m\u00e1n": 24092, "##\u0939": 28530, "##eep": 17059, "productivity": 18222, "##morandum": 22251, "expressed": 4448, "exhibit": 8245, "apart": 3966, "deaths": 6209, "generates": 21241, "Riding": 15862, "##oids": 18093, "##gra": 14867, "tumbling": 25441, "interactive": 12196, "mentions": 9541, "cute": 10509, "##outh": 16397, "emission": 17744, "Generally": 15559, "##UI": 22054, "judged": 13680, "##uth": 15796, "##hardt": 16464, "Georgie": 22186, "capitals": 24199, "##nikov": 28036, "##iq": 28101, "##\u2021": 28695, "shiny": 13388, "scalp": 23658, "playable": 18197, "Extended": 19757, "\u06d2": 604, "Owen": 6761, "1874": 7079, "##rm": 9019, "##cision": 16073, "##visor": 22348, "Tasmanian": 23584, "Akira": 23980, "deportation": 27605, "Belinda": 27700, "refers": 4431, "these": 1292, "blown": 10816, "##\u65b0": 28924, "slit": 19884, "\u017a": 335, "Li": 5255, "strained": 12448, "Classics": 14387, "hearted": 21898, "unlimited": 22921, "br": 9304, "Lulu": 24702, "##\u211d": 28736, "tumor": 14601, "##sm": 6602, "##jong": 25507, "##rley": 12586, "unconscious": 9719, "min": 11241, "Benny": 12036, "dynamics": 14189, "budget": 4788, "Curran": 21428, "vase": 26100, "##rks": 18416, "slipping": 12186, "Stevie": 18702, "cone": 15775, "Watson": 7422, "Anglo": 7342, "##\u221e": 28749, "derived": 4408, "retailers": 18399, "collided": 19060, "submit": 12295, "##sors": 25481, "##raction": 27612, "sexual": 3785, "Daemon": 13698, "65": 2625, "recovered": 6203, "440": 18629, "customers": 5793, "##zin": 17817, "drainage": 12779, "##\u8eca": 28965, "operate": 4732, "normal": 2999, "Priest": 13246, "Otherwise": 15853, "ambient": 20068, "Markets": 28023, "Already": 16599, "Kilkenny": 18277, "epithet": 21397, "Sandra": 13114, "1950s": 4057, "Breakfast": 20289, "##tism": 15813, "\u21d2": 848, "children": 1482, "upstairs": 8829, "vibrant": 18652, "Sands": 18869, "##rve": 24941, "720": 25434, "##\u01eb": 28270, "slashed": 26551, "grenades": 24872, "shirts": 11710, "tactic": 21800, "##LT": 26909, "##\u043f": 28402, "likes": 7407, "Boone": 15753, "##actic": 19102, "unanimously": 16642, "McGill": 19307, "criticizing": 23707, "debt": 6695, "advertisements": 15448, "endorsement": 22843, "Adobe": 25327, "wedge": 22432, "Mar\u00eda": 9842, "Mirage": 27288, "sour": 17948, "belongs": 7017, "Germany": 1860, "Beat": 11938, "mixing": 7021, "##\u03a6": 28331, "Ajax": 20145, "actress": 3647, "chaired": 12624, "dislike": 20662, "Fifteen": 20902, "Galway": 14943, "Colombian": 13977, "built": 1434, "census": 2314, "clients": 7550, "plate": 4885, "##quitaine": 28120, "settlements": 7536, "Event": 16223, "Kathryn": 22404, "newest": 15649, "##mism": 20279, "##fari": 21975, "object": 4231, "Dynamo": 19725, "What": 1327, "Driving": 26010, "##grounds": 26171, "subscribers": 18786, "F1": 22341, "##ody": 22320, "Burger": 24435, "scared": 5528, "dated": 5422, "##NS": 12412, "##\u0935": 28526, "accompany": 12910, "Courts": 16624, "Bond": 8211, "consistency": 20904, "staple": 22088, "archaic": 26152, "##lica": 9538, "##\u72ac": 28947, "##pores": 22708, "##ossa": 25637, "Athletic": 6244, "basically": 11519, "tapping": 16911, "17th": 4815, "heavily": 3777, "##amed": 25282, "why": 1725, "##ava": 15677, "Domestic": 21057, "Philosophy": 8714, "##dant": 26977, "institution": 5375, "155": 14691, "excavation": 18682, "Parramatta": 25394, "Label": 20943, "annual": 2683, "Harlem": 15557, "Prussian": 10633, "##iss": 14788, "bleed": 24752, "Hyderabad": 14033, "Release": 17443, "Peel": 18961, "##dir": 15232, "##rwick": 25431, "communion": 27782, "Provisional": 18639, "Romney": 21350, "Reaper": 23696, "Mom": 4563, "##\u0915": 28510, "meetings": 5845, "Nero": 21722, "##\u2666": 28773, "Nigeria": 6860, "registry": 25097, "Old": 2476, "Katie": 9482, "interviewed": 10361, "ripped": 8899, "##luk": 17086, "phosphate": 19273, "Buck": 11505, "##vender": 22622, "death": 1473, "fuck": 9367, "consonants": 21972, "embassy": 12318, "##\u0649": 28497, "drank": 10741, "aircraft": 2163, "tow": 18345, "scary": 13952, "Institut": 18531, "##utz": 27578, "brand": 4097, "hundred": 2937, "##time": 4974, "opinions": 11089, "##lent": 13147, "propose": 17794, "##care": 23340, "##liche": 26567, "copied": 16804, "directing": 10404, "1945": 2481, "fur": 9015, "affluent": 25539, "halt": 9700, "Achievement": 10295, "Syriac": 27095, "##nor": 13523, "Waiting": 16602, "385": 27462, "Westphalia": 25562, "limo": 27297, "MAC": 25424, "bandwidth": 22965, "Junction": 7364, "Reference": 19714, "if": 1191, "Letters": 10557, "sticking": 14103, "##tura": 21280, "Test": 5960, "generated": 6455, "##lying": 15318, "capture": 4821, "##nose": 22583, "Laws": 12077, "##ob": 12809, "icon": 15802, "parachute": 22021, "surprising": 11567, "Relations": 9269, "packing": 16360, "recruitment": 17964, "colonization": 23204, "##hone": 17541, "Village": 4671, "Schedule": 23070, "##ustic": 20596, "crash": 5683, "Mixing": 21796, "intense": 5827, "insurance": 5986, "patted": 12009, "##tian": 11969, "soldiers": 2803, "##zen": 10947, "message": 3802, "Danny": 5595, "speech": 4055, "Movies": 19318, "chemist": 17382, "##\u05d7": 28452, "recent": 2793, "Writing": 8687, "\u1d48": 711, "had": 1125, "##HF": 13561, "joy": 8730, "conceived": 10187, "Everton": 19433, "chanting": 25526, "\u00bb": 221, "##\u308a": 28820, "benches": 21726, "involve": 8803, "##PD": 15481, "strangers": 15712, "greenhouse": 19883, "##rets": 24067, "coincide": 21439, "molecules": 10799, "Hern\u00e1ndez": 22844, "analytical": 22828, "prey": 8368, "Thom": 24484, "##reta": 22714, "Copyright": 22359, "##wold": 27980, "documenting": 26678, "Gulf": 5634, "Gertrude": 20286, "Cameron": 6681, "Oil": 9105, "##\u0438\u0439": 21911, "Scheme": 20591, "##\u0932": 28525, "neither": 4534, "III": 2684, "##\u03a0": 28328, "creators": 19894, "detector": 21819, "Grant": 4468, "reviewing": 19730, "Middle": 3089, "deserves": 18641, "Foods": 21015, "electors": 23241, "give": 1660, "Movement": 6257, "##rops": 25287, "Una": 24258, "##ille": 8683, "##hit": 17481, "Mount": 3572, "Xi": 20802, "##rrel": 18337, "define": 9410, "##xing": 24118, "Swimming": 14899, "groundwater": 27218, "##ake": 9899, "Find": 15944, "Engineer": 8252, "Connell": 18354, "batted": 13033, "##rogate": 25232, "Dry": 18112, "confess": 20989, "shed": 8478, "Wii": 17716, "experiencing": 13992, "##mmer": 10951, "error": 7353, "Route": 3320, "##ensis": 11085, "trousers": 16555, "credits": 6459, "##rap": 14543, "quarterback": 9119, "Damian": 22945, "Sienna": 22624, "##oos": 26459, "pulled": 1865, "Cap": 17212, "De": 3177, "##islav": 23012, "##quisite": 26089, "##\u09be": 28566, "Nature": 7009, "splits": 22141, "##yam": 17485, "##river": 26999, "ecosystems": 23600, "cabin": 6493, "\u1d4d": 713, "##\u0427": 28388, "pitcher": 8092, "angle": 6341, "globe": 12868, "Ye": 15821, "representations": 16539, "Grimes": 28045, "faults": 21688, "commentary": 9068, "last": 1314, "1983": 2278, "Lab": 14470, "sprang": 16636, "Gillespie": 23166, "Spokane": 24193, "aux": 24544, "resonance": 20370, "insisting": 25504, "Mark": 2392, "Linux": 11735, "University": 1239, "wolf": 6164, "Clarence": 11863, "strengthened": 14544, "Ghosts": 26598, "abandoning": 22634, "Audio": 14065, "Top": 3299, "Partners": 12532, "Newcastle": 7685, "defence": 6465, "##bert": 7488, "Institution": 11127, "Milk": 18165, "Dyke": 28055, "spokesperson": 18391, "##agh": 19947, "Anastasia": 21201, "\u9fb8": 1088, "catches": 11401, "Celtics": 25931, "insulting": 27296, "messages": 7416, "##ene": 7582, "Hindi": 9001, "ratio": 6022, "##lim": 24891, "accordion": 22827, "weekends": 14464, "statutory": 17302, "##graphs": 21217, "Unlike": 5472, "Talbot": 15547, "##rants": 18937, "Spa": 23665, "Vicar": 22269, "stealing": 11569, "roar": 14148, "Islanders": 21574, "entire": 2072, "Section": 6177, "##vsky": 13510, "instance": 5374, "Known": 13915, "longing": 17767, "Note": 5322, "68": 5599, "Jacksonville": 13326, "##mb": 12913, "Radical": 20411, "Hook": 15867, "necessary": 3238, "advances": 11823, "Earle": 26773, "##MD": 18219, "\u041d": 460, "specials": 25736, "395": 27790, "stores": 4822, "nothing": 1720, "covered": 2262, "warn": 11857, "ways": 3242, "Minutes": 19051, "##vale": 18236, "leagues": 8903, "Abby": 9234, "Lancashire": 9365, "biblical": 16239, "luxurious": 23211, "woods": 6269, "sabotage": 23959, "reclaimed": 26224, "bounced": 13990, "\u0100": 278, "##rail": 12797, "become": 1561, "\u0965": 636, "##lante": 26093, "\u00f1": 263, "overlooking": 12904, "tales": 11297, "virtue": 13456, "creature": 6093, "guitars": 7789, "##nu": 14787, "##\u044e": 28416, "flowed": 13565, "boiler": 17587, "##rna": 11782, "seeking": 5788, "1909": 4818, "##mir": 15191, "Clean": 17508, "mutually": 22376, "battled": 21600, "##ontaine": 27656, "descriptions": 14256, "Cornwall": 10248, "##cession": 16122, "lonely": 12494, "planting": 16109, "snail": 11119, "persona": 20122, "Celia": 19629, "##\u0bbf": 28583, "Heart": 4641, "demise": 14353, "awe": 16958, "casual": 10243, "accidental": 19839, "\u0443": 494, "##tos": 11990, "Jesse": 7133, "given": 1549, "Rail": 8654, "Beatrice": 16131, "##p": 1643, "deep": 1996, "Rupert": 15288, "neutrality": 25449, "Born": 3526, "Nintendo": 9811, "dashed": 19647, "Municipal": 7360, "locker": 13804, "shortly": 3992, "reduce": 4851, "Intel": 15397, "\u0940": 630, "Edinburgh": 5238, "Fiat": 22163, "308": 27201, "fatal": 11874, "panting": 17700, "Grand": 2224, "##ometer": 20182, "formulated": 21650, "##ifice": 26718, "draft": 5039, "Sign": 20979, "Beautiful": 9896, "contracts": 8216, "G": 144, "Estonian": 12127, "1750": 19546, "subject": 2548, "terminated": 12830, "##load": 9607, "##eavor": 26687, "effect": 2629, "cited": 6024, "Z": 163, "Campbell": 5379, "accommodation": 11822, "Afro": 20075, "picks": 11606, "\u5149": 990, "strengthening": 18185, "centimeters": 19567, "pools": 13546, "trapped": 7333, "deploy": 23660, "verdict": 16023, "Stanford": 8036, "MLA": 20222, "belonged": 5609, "our": 1412, "Cave": 11900, "Lamb": 16978, "simply": 2566, "hurriedly": 27670, "knock": 7466, "border": 3070, "##ller": 9860, "bakery": 23986, "Wings": 11237, "parody": 13129, "insect": 15754, "cakes": 27748, "##monia": 21667, "##\u90ce": 28968, "supply": 3880, "wrapped": 4293, "Marseille": 17851, "Flynn": 13580, "##uted": 18527, "fierce": 9250, "spectators": 12902, "Forty": 15487, "##pis": 19093, "##rmon": 26654, "##llen": 13815, "Squad": 14346, "##rug": 27744, "##\u03c4": 28355, "##ys": 6834, "hypothesis": 11066, "Jakarta": 15032, "##ographic": 9597, "##\u00e9": 2744, "##poli": 23311, "intimacy": 24268, "Bulgaria": 7599, "destination": 7680, "Eve": 6721, "aiming": 14485, "incidence": 21014, "delta": 20811, "McCormick": 25900, "scouting": 26820, "Nakamura": 26903, "centres": 9335, "seniors": 20566, "##tin": 6105, "1776": 14447, "merge": 14713, "trance": 21724, "\u039b": 403, "##stered": 25924, "Clinical": 15961, "Hagen": 27080, "find": 1525, "assuming": 11577, "matrices": 24350, "Kirk": 11667, "smiled": 2387, "staggered": 15366, "Rob": 6284, "hot": 2633, "depicted": 7801, "##llo": 6643, "lump": 16401, "Gallery": 3889, "Boca": 26178, "wider": 6815, "\u90e1": 1076, "boost": 14112, "abused": 18400, "##ald": 18728, "##per": 3365, "cells": 3652, "Kuwait": 13397, "hugging": 19558, "shadows": 6719, "flesh": 5352, "occupied": 3749, "whispered": 3125, "content": 3438, "be": 1129, "##\u5409": 28893, "wondered": 4205, "##lve": 23534, "anyway": 4050, "slid": 4144, "bruised": 20617, "nights": 6823, "Stanley": 5481, "Jenny": 8067, "eased": 10982, "accredited": 12032, "bidding": 19520, "##uff": 9435, "##collegiate": 23791, "Crusade": 23983, "exceptions": 12408, "\u00a3": 202, "celebrate": 8294, "extra": 3908, "crawling": 17872, "daylight": 13258, "##jk": 17187, "244": 27160, "Canadians": 17524, "\u0438": 483, "Invisible": 24823, "developed": 1872, "Browne": 15711, "Konstantin": 26956, "##tled": 16271, "##rough": 14929, "dam": 6961, "checking": 9444, "finishing": 4416, "economist": 14893, "Johnston": 10675, "pitch": 6158, "Bram": 22924, "married": 1597, "sergeant": 13956, "totaling": 24224, "Publications": 12524, "cabins": 23108, "##version": 12475, "grandfather": 5112, "Legion": 8890, "Active": 17244, "cycling": 12951, "sprint": 12766, "##witz": 15648, "forces": 2088, "buyers": 19682, "C\u00f3rdoba": 22643, "councillor": 16517, "amendments": 19696, "Mann": 10852, "Lee": 2499, "ex": 4252, "##gall": 22629, "##lish": 10550, "privileged": 24758, "##ela": 9945, "##flower": 15055, "\u00d1": 237, "cum": 16040, "contemporary": 3793, "terminating": 26702, "ultimately": 4444, "##ory": 4649, "Nursing": 15192, "ninety": 16696, "##\u3088": 28818, "##ps": 3491, "happy": 2816, "vibration": 20401, "doubled": 11590, "Host": 15919, "##BR": 26166, "\u30a3": 932, "Department": 1951, "Eastman": 27251, "Jarvis": 23255, "##ire": 5817, "Bulls": 14542, "##\u00b3": 19763, "##missible": 27119, "##classified": 23916, "Earl": 4008, "licence": 12155, "share": 2934, "##\u016d": 28251, "\u09ae": 655, "cease": 14092, "Singer": 10636, "smoked": 23235, "nearly": 2212, "Primary": 6933, "weights": 17981, "wakes": 19355, "buffalo": 26700, "Side": 6383, "buildings": 2275, "##ings": 5018, "gentleman": 12400, "UFO": 27609, "into": 1154, "crater": 12742, "save": 3277, "excavations": 16444, "##sser": 14607, "uniforms": 11620, "calcium": 15355, "trembling": 10409, "##boe": 21968, "densely": 21265, "1980s": 3011, "wire": 7700, "Craig": 6422, "81": 5615, "assume": 7568, "##mis": 15394, "smirk": 15861, "Lillian": 21044, "pop": 3618, "indigenous": 6854, "outline": 13905, "ultimate": 10010, "expired": 14224, "Been": 18511, "##ational": 21404, "Akron": 25324, "##icidal": 27804, "organizes": 24532, "##ishi": 20800, "divisional": 22724, "Consul": 23184, "push": 4684, "##chemist": 27239, "screw": 13084, "earning": 6957, "##wind": 11129, "laundry": 16524, "simpler": 17633, "Regulations": 24124, "shout": 12941, "1770": 18980, "importantly": 16246, "Sen": 14895, "immortal": 15642, "Distance": 22694, "Tammy": 21791, "[unused95]": 95, "##ette": 6347, "suited": 10891, "intentions": 11489, "surely": 9929, "##\u91ce": 28971, "##sitive": 22472, "brutality": 28024, "##53": 24239, "##cursion": 20079, "Carmine": 21228, "instincts": 17477, "##powered": 18186, "periodical": 25907, "chemicals": 13558, "Chattanooga": 26020, "Angela": 10516, "##loat": 23223, "##lang": 19514, "##mate": 7213, "passive": 14403, "elders": 19240, "opera": 4677, "refused": 3347, "##root": 27906, "plans": 2714, "Kellan": 21445, "barony": 26488, "basis": 3142, "##reased": 20934, "##iza": 23228, "Confederacy": 21885, "Trek": 12293, "##ync": 27250, "##ono": 23038, "human": 1769, "conspiracy": 10758, "##hard": 9421, "suffer": 8813, "header": 23103, "Pomerania": 20152, "hub": 10960, "diocesan": 26937, "##ggio": 21541, "rush": 6274, "Sufi": 25062, "gal": 20003, "Munster": 13816, "##jure": 28014, "graves": 14489, "feel": 1631, "Sisters": 9361, "relegation": 9647, "##wayne": 25920, "\u00e7": 253, "##bbe": 20584, "escapes": 13481, "photographed": 17411, "technological": 12675, "##B": 2064, "Conservative": 5739, "estimate": 10301, "edition": 2596, "slaughtered": 26071, "synonym": 10646, "Proto": 22388, "overhaul": 20131, "##come": 19191, "Trust": 4623, "\u0410": 448, "lions": 20050, "##ended": 15399, "Hmm": 23031, "Stadion": 25297, "pole": 7712, "205": 17342, "##dice": 19237, "spying": 26470, "nodes": 15029, "wild": 4098, "govern": 23633, "stormed": 17236, "powered": 5605, "gay": 6463, "criticised": 10543, "Oscar": 7248, "grouping": 23291, "##rehension": 17121, "##orms": 25972, "filled": 2709, "##\u0bcd": 28585, "Decree": 27235, "victims": 5256, "Dora": 23758, "\u013d": 303, "Seminary": 11186, "Di": 12120, "##shing": 12802, "common": 1887, "itself": 2111, "##lification": 17489, "polynomial": 19068, "##bar": 6824, "Archie": 13581, "ten": 1995, "Cool": 13297, "bundled": 28003, "recall": 9148, "highlights": 12976, "anthropology": 20233, "certified": 7720, "lagoon": 25237, "##offs": 18438, "dwellings": 18495, "188": 20783, "mythical": 22766, "##ector": 20302, "mathematics": 6686, "displays": 8609, "Marine": 4620, "retain": 8983, "XIII": 16214, "##ailed": 17239, "##\u0575": 28430, "expand": 7380, "USB": 20453, "ballistic": 24244, "Ka": 14812, "Vivian": 14261, "Junior": 3800, "loan": 4891, "##CP": 13113, "Edgar": 9407, "grasping": 24624, "##ise": 4862, "vocal": 5563, "##ranton": 27601, "##icides": 25606, "\u1ea9": 742, "Pole": 13172, "continually": 15395, "missionaries": 12799, "##NU": 21760, "##P": 2101, "center": 2057, "swamps": 26216, "lover": 7559, "Under": 2831, "##how": 17193, "##chu": 17143, "Support": 8704, "ropes": 16024, "Fantastic": 19420, "accidentally": 9340, "protagonists": 24541, "targeted": 9271, "before": 1196, "rituals": 14490, "Jorge": 10780, "carriers": 11837, "##keeper": 11953, "Anthony": 4140, "hunters": 13202, "Highest": 26209, "Halloween": 15101, "Marilyn": 15407, "##tically": 23817, "trail": 5126, "##cars": 18633, "Tour": 3124, "beans": 15154, "Till": 22430, "X": 161, "##ushing": 17760, "supports": 6253, "Hz": 25364, "minimum": 5867, "competed": 3042, "##ow": 4064, "pencil": 16372, "honor": 3874, "Lucia": 13625, "##lative": 26304, "##\u03b8": 28345, "later": 1224, "chest": 2229, "ground": 1747, "Mercury": 10080, "Mirror": 13861, "credentials": 25644, "tugging": 19029, "USC": 16403, "shelters": 18833, "##44": 25041, "additionally": 19148, "Red": 2156, "League": 1453, "##khar": 23553, "squash": 25714, "##vet": 21095, "Public": 2710, "troubles": 16115, "\u00a2": 201, "Outer": 18539, "##ies": 1905, "Typhoon": 26490, "##\u4e09": 28870, "31": 1955, "portable": 15139, "Important": 21991, "Dash": 23460, "Nowadays": 25883, "##adi": 14230, "##bie": 9725, "Dominion": 17609, "##\u0261": 28280, "##cum": 19172, "##ably": 5382, "phones": 11947, "tails": 21315, "Copa": 10576, "Athletics": 8058, "Alpha": 8461, "glare": 11043, "Kara": 14069, "ragged": 15588, "##CO": 15678, "motive": 17941, "##rrey": 25676, "##\u09af": 28559, "moss": 24908, "wicket": 13386, "##burgh": 16854, "##smos": 18818, "Little": 2743, "Guggenheim": 22310, "sucks": 22797, "outlook": 25059, "drug": 3850, "##lio": 9436, "proper": 4778, "shifting": 9914, "Twenty20": 24785, "Fleet": 6711, "1957": 3034, "Ames": 22501, "freeze": 16020, "##hood": 5914, "##gon": 7528, "Mirza": 20855, "remembers": 19858, "northbound": 23328, "Lecturer": 24378, "Carver": 24714, "Colonial": 10319, "centred": 17720, "October": 1357, "continuously": 10861, "##ghty": 27390, "liberty": 15470, "Darius": 15552, "##\u10e0": 28607, "##tude": 17684, "vital": 9301, "close": 1601, "Renault": 15234, "##tun": 19972, "\u0425": 468, "advising": 28002, "War": 1414, "Suddenly": 7935, "emigrated": 11384, "So": 1573, "presumed": 15504, "allows": 3643, "Paula": 14153, "flicked": 12988, "##lev": 23403, "Schuster": 27243, "enforced": 17538, "coefficient": 21130, "regard": 7328, "Cass": 17500, "including": 1259, "Action": 6605, "Jacques": 6909, "adaptations": 18830, "due": 1496, "mortar": 16597, "activist": 7041, "Richards": 9450, "##abi": 23156, "author": 2351, "winds": 7390, "affinity": 18859, "sob": 20295, "congregation": 9201, "pages": 5097, "167": 17866, "##\u0395": 28319, "sends": 10130, "offensive": 5810, "dressing": 11597, "travelers": 18204, "##bio": 25959, "killing": 3646, "164": 19290, "refined": 16686, "##rots": 27460, "##lius": 14968, "nun": 22108, "Becker": 16139, "##tated": 20213, "Rhys": 14418, "\u0420": 463, "curved": 8981, "##coon": 18201, "##rator": 11412, "liar": 22569, "##alet": 26391, "provincial": 5586, "##\u044b": 28413, "grasped": 16375, "Calder": 21056, "1997": 1816, "ceramics": 21703, "Know": 9224, "##pas": 22939, "fortification": 26863, "Post": 3799, "Robbie": 12751, "##ative": 5838, "Iraqi": 8612, "HK": 25660, "Exploration": 27734, "sandwich": 14327, "Medal": 3803, "conference": 3511, "##ration": 6108, "deputies": 18317, "##nna": 10186, "great": 1632, "Annie": 7765, "##luded": 27567, "##cie": 25982, "Schmidt": 13167, "Garth": 23988, "declaration": 11156, "##mentary": 27533, "##avia": 19962, "million": 1550, "manage": 5494, "Afghanistan": 6469, "advocate": 9411, "erotic": 16263, "podcast": 19777, "chimney": 20143, "##cial": 12562, "privilege": 15641, "##ccelerator": 26154, "Painting": 18189, "##r\u00f6m": 26370, "Heath": 10640, "sourced": 26442, "laborers": 27245, "robbery": 15522, "Crosby": 14841, "##\u5e73": 28918, "Fairy": 18643, "##or": 1766, "predator": 19653, "Towards": 16220, "reissued": 16129, "favors": 24208, "injuries": 5917, "Historia": 26454, "copies": 4034, "cattle": 6937, "mph": 4955, "remorse": 27502, "##\u2286": 28760, "revealed": 3090, "fellow": 3235, "occupation": 5846, "Bet": 26615, "Italians": 17867, "Stokes": 20476, "THE": 7462, "tightly": 6852, "Finalist": 24814, "Paso": 19234, "sweat": 7920, "learns": 10123, "##\u30c8": 28846, "brake": 15042, "Images": 21496, "Gibbons": 25759, "skull": 7753, "Giorgio": 18969, "All": 1398, "experience": 2541, "sections": 4886, "bullshit": 17480, "relaxation": 27475, "lizard": 20730, "##\uff09": 28991, "Harbour": 10770, "Missing": 20801, "nail": 16255, "Talent": 17077, "##shu": 16138, "Sant": 16612, "do": 1202, "parishes": 12131, "rules": 2995, "collision": 13213, "Walkover": 20204, "##\u305b": 28799, "voting": 6612, "Northwestern": 13437, "Loyola": 23828, "\u539f": 996, "kernel": 18670, "friendly": 4931, "crow": 25586, "##ulo": 22806, "Commonwealth": 5044, "\u030d": 391, "##ader": 21706, "genetic": 7434, "Watts": 15215, "shadowy": 26117, "fragment": 17906, "2D": 22947, "##\u0686": 28502, "##9": 1580, "Administration": 4918, "##\u2192": 28740, "withdrawn": 9512, "Features": 24972, "typically": 3417, "Illinois": 3461, "height": 3976, "Content": 27551, "Melvin": 23088, "greenish": 26953, "Notable": 11017, "betrayed": 12546, "surviving": 5932, "\u0413": 451, "supper": 20644, "Alex": 3230, "Oldham": 19684, "shifted": 4707, "depended": 18520, "1877": 7028, "##tata": 18244, "theological": 14757, "alleged": 6351, "imaging": 14377, "Cromwell": 17829, "propagation": 25934, "Floor": 22774, "Lodge": 9262, "tug": 14370, "Immaculate": 27024, "Got": 7348, "Solomon": 8848, "Ang": 26285, "\u1d50": 715, "\u2022": 794, "illumination": 25842, "Scotia": 9418, "motto": 13658, "nausea": 22882, "##fast": 27704, "Psychological": 24797, "maintain": 4731, "occasionally": 5411, "ni": 11437, "cookies": 18621, "##building": 12851, "implied": 13806, "Profile": 26890, "gently": 4588, "suite": 9555, "##land": 1931, "by": 1118, "##life": 14430, "cried": 6104, "echo": 16278, "Scouting": 22768, "##\u00f0": 28204, "Palestine": 8619, "\u2663": 877, "corpses": 20540, "threshold": 11810, "stems": 12878, "Gerhard": 23118, "guessing": 18453, "Delhi": 6175, "echoing": 19067, "Countess": 13106, "Mister": 13960, "\u03af": 417, "\u03c8": 441, "Sylvester": 21855, "##screen": 17721, "exclusive": 7114, "Dame": 8022, "clan": 7019, "quarters": 7541, "Likewise": 18872, "molecular": 9546, "criterion": 26440, "contents": 8792, "Gabriel": 5487, "carries": 7450, "meal": 7696, "feasible": 25667, "Normandy": 13652, "1792": 13747, "##inas": 16924, "Sindh": 22201, "gaped": 26722, "Mosque": 16815, "Saturday": 4306, "namely": 8199, "##ross": 21721, "Freud": 21058, "##roner": 21947, "rushes": 20577, "blade": 6275, "333": 23335, "Gray": 4823, "##loss": 20831, "Fisheries": 21817, "definition": 5754, "##kell": 24888, "Conrad": 10904, "incorrect": 18238, "##oam": 23270, "##vere": 25243, "##mi": 3080, "albeit": 12456, "##roft": 27421, "Apostles": 28094, "monasteries": 18846, "Swansea": 17057, "##\u05b8": 28442, "encoding": 18922, "##\u9577": 28973, "##\u1fd6": 28678, "remarked": 10694, "signatures": 17926, "Species": 11763, "Manufacturing": 17023, "\u0f62": 691, "\u0f66": 693, "closing": 5134, "Match": 11492, "politics": 4039, "##air": 8341, "##pine": 18351, "\u0638": 582, "Amazing": 16035, "Advertising": 25010, "1988": 2115, "archipelago": 21255, "##ION": 24805, "incorporates": 12560, "\u1ea7": 741, "thus": 2456, "##GC": 13478, "arrives": 8121, "spared": 18173, "##cy": 3457, "accomplishments": 19156, "capitalist": 22886, "regarding": 4423, "Hey": 4403, "camps": 7869, "notorious": 14140, "yo": 26063, "Artists": 8428, "Learning": 9681, "Patterson": 12587, "flown": 10578, "invariant": 27289, "sponsored": 5988, "Fast": 13227, "Clubs": 18812, "##hibit": 23034, "1818": 12191, "hold": 2080, "##UE": 24846, "questionable": 23589, "Urdu": 12655, "Jeremiah": 18789, "##mberg": 23701, "##ciating": 26346, "Dorothea": 27139, "borrow": 20055, "##hampton": 24207, "Inspector": 9089, "wooded": 18524, "editing": 10620, "nomination": 6294, "stored": 7905, "##bus": 7441, "reformed": 13350, "##LD": 20521, "##mott": 27374, "##riated": 22356, "##\u0629": 23525, "restaurant": 4382, "files": 7004, "Wrath": 27561, "Gallagher": 18497, "##24": 19598, "430": 21268, "##uds": 23218, "Composer": 19208, "sturdy": 26887, "jumper": 25563, "abortion": 12030, "placing": 6544, "priesthood": 20343, "boasted": 26072, "Fay": 26630, "exhibitions": 8639, "sing": 6928, "slightest": 16960, "sees": 5302, "NSA": 27020, "Talmud": 27512, "\u222a": 859, "appropriately": 26620, "warmth": 8059, "yelled": 7089, "Seriously": 18725, "attached": 4309, "##SA": 8055, "Salvador": 10479, "##NE": 22680, "##\u30c0": 28842, "suspended": 6232, "Saints": 7099, "##cellular": 18091, "math": 12523, "endangered": 11532, "occupants": 20664, "Olympic": 3557, "trustees": 14052, "painfully": 17562, "swaying": 24578, "Biological": 20312, "victories": 9056, "liable": 21988, "##connected": 24323, "justification": 22647, "doom": 26375, "##tano": 26445, "contains": 2515, "Summers": 22596, "\u1fd6": 776, "triggered": 13746, "##voked": 18891, "##jects": 26394, "##dic": 13328, "93": 5429, "##\u0397": 28320, "Antwerp": 14492, "treatment": 3252, "rig": 25462, "spear": 14690, "##passing": 21793, "foliage": 21731, "bishop": 5446, ")": 114, "units": 2338, "##rre": 11604, "Algiers": 25571, "seventh": 5001, "##manship": 15924, "##izer": 17260, "observatory": 23014, "guy": 2564, "bored": 11920, "##iki": 12635, "Judaism": 14142, "advised": 9213, "sharp": 4295, "Deputies": 21588, "Albuquerque": 21037, "broader": 12594, "realizes": 10875, "Robot": 20354, "conglomerate": 27482, "or": 1137, "taller": 12891, "vertex": 22132, "Thanksgiving": 17148, "Martinez": 16247, "raise": 4693, "document": 5830, "##ease": 23860, "Races": 20157, "cousin": 5009, "furnished": 21904, "moderately": 19455, "football": 1709, "Avengers": 15697, "specializing": 14774, "##tis": 6620, "44": 3140, "##LC": 12674, "bankruptcy": 11102, "##smith": 11195, "##IF": 15499, "boarded": 18666, "coding": 19350, "artistic": 6037, "Rap": 21196, "##lacing": 24001, "\u0456": 508, "\u0192": 341, "inspect": 25151, "irregular": 12692, "##\u03cc": 28361, "##iled": 11908, "Baby": 6008, "Thailand": 5872, "##PM": 14808, "drop": 3968, "##tron": 19138, "easy": 3123, "240": 11202, "vicious": 16094, "tracking": 10066, "barred": 17081, "\u00c2": 228, "semifinal": 20410, "[unused4]": 4, "Embassy": 13530, "streaked": 23533, "leading": 2020, "attacker": 19114, "loose": 5768, "Chart": 6900, "HD": 10728, "\u05e0": 550, "Shall": 17604, "Pastor": 19744, "leopard": 27865, "##ino": 4559, "sideways": 13158, "Maltese": 20093, "robot": 10975, "Cooperation": 17612, "offset": 18134, "##ciation": 15253, "geometry": 12053, "Manitoba": 10391, "##stics": 19251, "##band": 10198, "laser": 10221, "mm": 2608, "presentations": 20531, "##book": 6470, "Mata": 28044, "##definite": 28090, "##O": 2346, "Sexual": 21843, "trades": 19288, "##nn": 9238, "##kai": 10098, "Kristen": 24933, "##\u09a5": 28552, "permanently": 8321, "##\u0bb5": 28581, "strikes": 9778, "toxic": 12844, "gallons": 20188, "Goldberg": 20029, "pretended": 15401, "Hermann": 12360, "useful": 5616, "Coordinator": 25561, "##uad": 18413, "1934": 3729, "Casino": 14773, "Botanical": 24136, "Soldiers": 16587, "clause": 13620, "##ering": 5938, "118": 13176, "##X": 3190, "siblings": 9302, "certainty": 17140, "comune": 24382, "presidency": 11223, "reluctantly": 12306, "\u0f74": 695, "determined": 3552, "##tino": 20064, "encouraged": 6182, "Arm": 24446, "##dition": 14669, "lined": 7265, "\u041f": 462, "Katz": 22795, "evaluated": 17428, "nod": 6873, "\u02bc": 381, "\u1e25": 728, "fundraising": 17290, "unchanged": 16684, "sheer": 12027, "Coke": 19630, "##tries": 22734, "cuffs": 27917, "##king": 4419, "##ible": 5225, "Counties": 12259, "exact": 6129, "bullying": 21619, "primarily": 3120, "##\u1eed": 28665, "Less": 13568, "abnormal": 22832, "launches": 21285, "sofa": 10907, "MCA": 24955, "Orleans": 5705, "circa": 14121, "\u0146": 308, "##rien": 22500, "beetles": 15730, "storey": 12758, "\u2085": 816, "starvation": 26389, "chamber": 5383, "\u0121": 294, "delicious": 13108, "Jam": 13263, "##\u2218": 28747, "##ha": 2328, "EU": 7270, "athletes": 7653, "##position": 14572, "##IL": 17656, "cowboy": 17803, "Darcy": 18981, "##suse": 24784, "skins": 27033, "violent": 5973, "bull": 12200, "Rubin": 22686, "Iris": 13476, "grasses": 24567, "Horizon": 20218, "Skyla": 24013, "Stewart": 5272, "Sharif": 22645, "Baden": 12311, "means": 2086, "\u060c": 559, "##tic": 2941, "##eu": 14272, "##liva": 24186, "##nes": 3965, "Version": 8812, "Everest": 26885, "oversized": 24223, "Diocese": 7169, "ministry": 8382, "roses": 16760, "practitioner": 22351, "Murphy": 6528, "\u063a": 584, "Bengali": 11276, "1787": 17016, "##ch": 1732, "Wall": 6250, "threw": 3885, "inherited": 7459, "Returning": 15250, "Birmingham": 5836, "##gol": 26603, "##r": 1197, "Bollywood": 17155, "##ores": 12238, "##wide": 15665, "passionate": 14472, "1752": 27852, "spark": 14798, "bumps": 21090, "considering": 6103, "##AD": 14569, "##oga": 23282, "76": 5465, "tray": 12389, "##\u1ea9": 28644, "\u2609": 875, "Putnam": 22072, "nude": 17899, "candy": 13962, "wounds": 8503, "##ssion": 16656, "Ministry": 3424, "##morphic": 24285, "\u30ad": 939, "photographic": 15368, "Estate": 9765, "Cole": 4922, "##aging": 10588, "##pit": 18965, "##xton": 14933, "agitated": 24346, "##pp": 8661, "nuns": 19394, "tunic": 25852, "horn": 9621, "affection": 12721, "Barbara": 5934, "Virginia": 2550, "fitting": 11732, "agenda": 12932, "bath": 10919, "tag": 9235, "Degree": 16861, "##oki": 21420, "lot": 1974, "shaken": 18673, "1967": 2573, "Sundance": 22012, "Hockey": 5109, "[unused44]": 44, "[unused35]": 35, "comment": 7368, "tile": 15305, "pit": 7172, "crimson": 18798, "Media": 3957, "Life": 2583, "adjust": 14878, "peaked": 6009, "lurking": 28018, "Should": 9743, "devastated": 14778, "dei": 21357, "exchange": 3670, "##ete": 16618, "Moore": 4673, "consequently": 14007, "##lancing": 24855, "##ery": 5075, "triple": 9225, "formidable": 20466, "vassal": 28080, "##\u0625": 28473, "Follow": 19253, "pilots": 8486, "ER": 23580, "efficacy": 23891, "##\u0e23": 28586, "?": 136, "contested": 6839, "disciple": 21647, "##urning": 24049, "Penang": 24099, "##wood": 2615, "##40": 12882, "mortgage": 16935, "##wu": 20236, "Uganda": 9831, "yellow": 3431, "Sand": 16377, "Scotland": 3030, "slaughter": 20723, "##twined": 23141, "Beaufort": 26427, "baseball": 3866, "usual": 4400, "Flood": 19590, "cruelty": 22125, "##gam": 17634, "Provence": 21818, "classics": 18046, "healed": 15884, "alphabet": 14502, "quality": 3068, "Kiss": 10976, "##harf": 16608, "respects": 18788, "Governors": 18711, "hearings": 21873, "imagine": 5403, "fluid": 8240, "Hopkins": 10055, "##bloid": 27109, "eleventh": 14079, "Marcia": 25663, "averaged": 11445, "obituary": 25917, "surfaced": 16713, "plotting": 23214, "1938": 3412, "\u10d4": 699, "How": 1731, "spot": 3205, "Flint": 17741, "mimic": 27180, "\u0442": 493, "governments": 6670, "ridiculous": 9944, "##gai": 21347, "leap": 13660, "coldly": 28048, "##eno": 26601, "stack": 10926, "governors": 17620, "Belize": 20449, "##etic": 9265, "Advancement": 23827, "\u02b3": 378, "induce": 21497, "238": 24370, "Ann": 5083, "##otype": 27172, "Hodge": 26201, "Spirits": 27761, "Applied": 12547, "oven": 19645, "##\u02e3": 28309, "##\u2264": 28757, "##pathian": 24555, "Turn": 12128, "Wallis": 26983, "##yper": 24312, "Ciudad": 24038, "\u10d8": 700, "Warden": 20206, "promotional": 10626, "\u00e1": 247, "##tto": 8849, "Tonight": 8912, "ring": 3170, "golf": 7135, "disappeared": 4712, "specialised": 18768, "banged": 25697, "Coliseum": 20947, "##rois": 26865, "Dan": 4317, "brewery": 17876, "railroads": 18558, "seating": 11051, "CB": 18893, "select": 8247, "vintage": 17787, "accept": 4392, "Sang": 22409, "##hips": 12526, "Plateau": 17069, "musicians": 4992, "##\u092d": 28521, "worried": 4472, "cloud": 7180, "Anger": 22155, "Danish": 4979, "spells": 12168, "governance": 12711, "\u044f": 506, "##\u043d": 17127, "##ant": 2861, "##ru": 5082, "biology": 10256, "basement": 8078, "##uben": 27076, "mapped": 20305, "107": 10428, "distributed": 4901, "layer": 6440, "types": 3322, "Skills": 26210, "obligation": 16207, "##\u00e4": 17479, "##ater": 19987, "examples": 5136, "jewelry": 12731, "##esta": 16144, "alpine": 16780, "shoes": 5743, "observers": 15793, "##stan": 13946, "area": 1298, "explanations": 19940, "said": 1163, "Mia": 9103, "##\u00fas": 22521, "around": 1213, "afraid": 3737, "Mid": 9825, "composite": 14752, "Clifton": 17295, "VHS": 18808, "hybrid": 9890, "soul": 3960, "butterflies": 18344, "##\u045a": 28421, "Auxiliary": 18102, "medals": 6498, "##lit": 12888, "##dote": 26595, "justified": 16489, "gift": 5309, "rusty": 26195, "##runk": 26467, "##down": 5455, "Network": 3998, "SmackDown": 26050, "WWF": 17860, "foreigners": 16714, "##ale": 7531, "noble": 8604, "Preparatory": 26329, "Subsequently": 10608, "##du": 7641, "Emery": 28019, "Santos": 11064, "crane": 22386, "##\u30ab": 28830, "##lett": 21664, "##sch": 9022, "##graving": 26200, "stops": 6260, "Prayer": 16203, "endowment": 27738, "heads": 4075, "##ropolis": 26776, "##ota": 16339, "Trial": 12819, "Expeditionary": 19345, "IGN": 17478, "attends": 27150, "##edd": 23372, "cavity": 19421, "##uc": 21977, "decisive": 13630, "##\u0632": 28483, "research": 1844, "dawn": 9623, "Jammu": 23664, "emeritus": 24055, "##steries": 24748, "remind": 11484, "##ika": 7223, "Helens": 27068, "##shot": 21879, "Lilly": 15482, "##rca": 23433, "judgement": 21261, "thickness": 15830, "floating": 8379, "shared": 3416, "imagined": 7683, "pepper": 18700, "follows": 3226, "arrows": 15130, "palms": 9797, "Burma": 11023, "soothing": 18059, "slowing": 20098, "monkeys": 22413, "Baroque": 12869, "department": 2853, "Casimir": 27839, "unprecedented": 16789, "Matthew": 4754, "farmland": 17790, "instructor": 10332, "##wasaki": 28069, "intrinsic": 27799, "diversion": 24183, "predatory": 24519, "quoted": 9129, "twists": 24008, "\u01d4": 347, "brief": 4094, "Radio": 2664, "##sto": 12223, "division": 2417, "##22": 20581, "Journal": 3603, "regime": 6716, "Aunt": 8416, "relates": 15286, "Additionally": 5533, "requests": 11458, "restructuring": 20841, "Widow": 26634, "\u30e3": 966, "Cardinal": 8538, "actual": 4315, "Restoration": 15988, "##pheric": 24551, "rounds": 5720, "foreign": 2880, "##win": 7445, "##uf": 16205, "statutes": 24026, "Sultan": 7931, "longest": 6119, "Romeo": 12992, "##gging": 10932, "shy": 12076, "recognise": 18986, "reasonably": 17517, "formations": 14075, "haven": 3983, "Wonderful": 20361, "##\u0bb0": 28579, "##\u3086": 28817, "##psis": 17990, "running": 1919, "investigative": 19043, "societal": 27266, "dependent": 7449, "##imus": 26552, "Moose": 25183, "trembled": 15529, "considerably": 9627, "Payne": 13802, "##where": 15839, "##actions": 22946, "##gins": 19579, "yielding": 23731, "##sio": 23652, "demeanor": 24160, "Maximum": 13878, "monetary": 15997, "##umatic": 25930, "##\u00e7ais": 26293, "##gno": 25566, "Children": 4288, "critique": 20113, "##fine": 24191, "\u09b2": 658, "adjoining": 14241, "Dog": 8166, "##stars": 26932, "Trying": 19020, "##\u00fe": 28210, "Charleston": 10874, "##gler": 14849, "##holm": 20798, "pocket": 4480, "probability": 9750, "succeeded": 3760, "##dh": 17868, "Pride": 12614, "##rooms": 19050, "1800s": 21655, "Sox": 8913, "steps": 3343, "dramatic": 7271, "Anita": 13173, "Newark": 13164, "salaries": 23343, "Aaron": 6619, "Dusty": 23246, "Warsaw": 7760, "Yuan": 13049, "amassed": 24592, "Underwood": 25402, "examined": 8600, "al": 2393, "pinned": 11973, "##hor": 13252, "Juventus": 25334, "affiliate": 8563, "applause": 24670, "Northumberland": 17206, "Split": 17012, "management": 2635, "Croatian": 7491, "rabbi": 20887, "##solidate": 28078, "aspiring": 25850, "mole": 26365, "ahead": 3075, "antagonist": 19173, "Staffordshire": 18187, "\u0bb5": 678, "Sue": 11728, "fire": 1783, "influx": 19540, "\u03a3": 408, "\u30ca": 955, "##ored": 13841, "Kelly": 4368, "Bolivia": 11686, "Portugal": 5288, "Du": 12786, "\u307e": 918, "##ty": 2340, "Juliet": 14143, "shop": 4130, "sad": 6782, "nobody": 8582, "portrayed": 6313, "pulsing": 26069, "##ack": 8741, "episcopal": 24451, "Paris": 2123, "found": 1276, "Beth": 6452, "elves": 25743, "attracted": 5666, "steer": 25284, "caps": 10184, "##oxide": 22040, "composers": 11146, "Constitutional": 12339, "snake": 8925, "prayed": 14913, "Their": 2397, "spoken": 4606, "##tar": 6817, "Hi": 8790, "##ux": 5025, "1814": 10943, "disastrous": 17985, "corpus": 26661, "\u2018": 786, "Jax": 13612, "paternal": 16063, "##ure": 3313, "##bial": 23467, "[unused92]": 92, "home": 1313, "sleep": 2946, "##und": 6775, "Brother": 8388, "leapt": 14462, "inherent": 17575, "grounded": 18395, "stairs": 4377, "eleven": 5450, "##liography": 27800, "Pendleton": 27406, "packed": 8733, "reviewers": 19475, "eighteen": 8105, "Scenic": 27314, "sorts": 12072, "Baja": 21519, "Tbilisi": 24875, "privileges": 15676, "Mainz": 21657, "Mix": 7347, "flux": 24256, "Geological": 14802, "##mers": 19134, "healthy": 8071, "moves": 5279, "Lucky": 8034, "questions": 3243, "stating": 4797, "##AF": 12303, "##case": 14083, "arise": 14368, "AR": 22133, "##versible": 24582, "Yun": 27413, "Visa": 21009, "##inator": 24682, "##lake": 13238, "##erson": 18608, "lemon": 22782, "Ebert": 25204, "##\u306a": 28806, "frown": 11369, "investigator": 17805, "south": 1588, "cell": 2765, "##\u00eb": 13420, "ON": 21748, "graceful": 21620, "##rians": 19896, "replaces": 22974, "Angie": 15612, "Could": 7426, "##onic": 13207, "possessing": 21171, "radius": 12717, "dances": 12761, "##bis": 14866, "##ordination": 24546, "pleaded": 12404, "\u067e": 598, "Henri": 8498, "##ilitating": 26039, "NFL": 4279, "balcony": 12025, "surge": 12814, "##Es": 27485, "worshipped": 25610, "Crete": 21070, "officers": 3099, "##sis": 4863, "Hawke": 28064, "relentless": 26011, "roles": 3573, "\u0250": 353, "painted": 4331, "forecast": 24647, "Cape": 4343, "calculating": 23172, "stall": 15523, "revolves": 20932, "##sions": 14971, "tracked": 13183, "Baton": 22178, "Doris": 16434, "1778": 17343, "pivotal": 22927, "Boots": 25023, "magician": 22334, "##ops": 9706, "publishes": 12701, "Listen": 10817, "Edith": 13917, "##32": 17101, "##ogan": 26843, "Defaulted": 20445, "##pio": 27931, "##so": 7301, "campuses": 14495, "V": 159, "Lille": 25411, "Pozna\u0144": 21475, "verified": 22480, "rigorous": 22112, "##aa": 22118, "newer": 11483, "fare": 14550, "Conservation": 8749, "[unused43]": 43, "clever": 13336, "Fuji": 23219, "contribution": 6436, "hobby": 22510, "Cleopatra": 24432, "##wai": 20264, "\u01eb": 348, "4000": 21955, "Syndicate": 25139, "##date": 9216, "presented": 2756, "fireworks": 19612, "microphone": 16976, "dollars": 5860, "till": 6174, "furrowed": 22538, "presents": 8218, "authorization": 25279, "Wizards": 26398, "##nap": 27864, "tastes": 18689, "est": 12890, "Weather": 14263, "Rise": 13600, "sustain": 16974, "##chal": 17436, "freezing": 13543, "pasture": 24495, "teams": 1929, "Arrow": 16174, "fridge": 18243, "##obe": 21367, "hear": 2100, "foundations": 11217, "Kurdish": 16441, "Pandora": 20944, "Pocket": 22595, "##rified": 24269, "##gen": 4915, "Ceylon": 17469, "relation": 6796, "Sega": 17979, "births": 20665, "Selected": 17018, "customer": 8132, "245": 23067, "237": 25950, "Tavi": 27342, "\u0628": 566, "Iceland": 10271, "Buildings": 19149, "Rita": 11821, "replace": 4971, "worthy": 11649, "grade": 3654, "lyricist": 24379, "##ular": 5552, "various": 1672, "directorial": 24836, ".": 119, "commencement": 26103, "\u0631": 575, "reconnaissance": 11469, "Sabha": 11349, "ISBN": 2282, "Taste": 27589, "Sterling": 12319, "brigade": 8196, "waits": 24344, "##thal": 17939, "Kind": 15994, "##\u1ead": 28645, "Centre": 2961, "##boa": 22126, "instant": 6879, "restrict": 23951, "##nder": 9824, "kW": 5897, "insults": 27115, "assignment": 8641, "sound": 1839, "250": 4805, "chased": 13781, "prospects": 19743, "Usually": 12378, "##koto": 27710, "thinking": 2422, "existed": 5131, "celebrated": 5719, "activation": 14915, "##oons": 17658, "welfare": 9319, "disguised": 19074, "ram": 26084, "Lenin": 18804, "mark": 4551, "males": 3508, "##ares": 18828, "Humans": 22143, "eminent": 17115, "equals": 22455, "notions": 25071, "##US": 13329, "loneliness": 24921, "##\u3064": 28803, "##\u0531": 28423, "Medieval": 15902, "boulder": 23751, "oversaw": 14658, "odds": 10653, "##wson": 27294, "plots": 15836, "Shanghai": 7962, "bands": 4393, "cases": 2740, "motel": 18976, "Dude": 22995, "Thatcher": 23300, "Ginger": 20326, "Sherman": 10981, "\\": 165, "Six": 4995, "Shane": 8299, "fed": 7672, "Communist": 5248, "concentrating": 18761, "firearms": 16025, "meanings": 17686, "holds": 3486, "graphic": 9429, "rulers": 11507, "werewolves": 22730, "Buzz": 22687, "Miami": 4916, "Cumberland": 12454, "protested": 11472, "##vable": 12598, "##\u0148": 28235, "captained": 17251, "handed": 3541, "##tre": 7877, "##\u306b": 28807, "##tier": 14175, "reluctance": 24072, "Wen": 23158, "Powerplant": 25390, "##rned": 23537, "Including": 25951, "Matter": 21773, "Founder": 16505, "##IN": 11607, "165": 14383, "patented": 17994, "gothic": 25213, "Money": 8948, "##\u0121": 28224, "flu": 23896, "Gentleman": 25623, "Cochrane": 24763, "transmitted": 12086, "heiress": 22915, "Troop": 18020, "##rafford": 26664, "rail": 4356, "reducing": 7914, "Hayden": 14344, "Barton": 13235, "281": 25567, "sanctuary": 11563, "barrels": 14619, "nose": 3678, "skinny": 19244, "##\u05b5": 28439, "engines": 4540, "throat": 2922, "fairy": 11210, "\u57ce": 1007, "##zu": 10337, "hill": 4665, "applying": 11892, "[unused18]": 18, "discrimination": 9480, "Apollo": 9053, "Administrative": 14275, "##tz": 5745, "suspicion": 11340, "##chtenstein": 23561, "sacrificed": 22353, "##iu": 19009, "##tical": 10165, "poverty": 5224, "hunting": 5693, "oath": 12749, "dizzy": 21441, "##out": 3554, "occasion": 6116, "\u548c": 1002, "Creative": 10963, "scripts": 15690, "argued": 4491, "incentive": 23692, "##tus": 4814, "Adriatic": 26122, "\u2076": 804, "Arroyo": 28061, "##lial": 25737, "corporations": 12584, "Vale": 10532, "##bad": 8330, "##lysis": 15140, "interested": 3888, "Redskins": 18811, "le": 5837, "##vis": 9356, "Arena": 6492, "###": 28127, "##tering": 9930, "##upe": 26939, "employing": 16846, "comprehend": 24822, "what": 1184, "Goddard": 25064, "factions": 14468, "limitation": 26802, "\u27e8": 882, "biodiversity": 23797, "Hari": 23803, "hormone": 21055, "##pent": 22083, "Routledge": 23331, "breach": 13275, "\u0421": 464, "uncertain": 9591, "faithful": 12969, "hangar": 22043, "constituent": 17962, "reunited": 11909, "##rbonne": 26029, "bugs": 19048, "bricks": 15453, "newly": 3599, "Formula": 8266, "swirled": 20883, "\u0110": 287, "Mick": 10829, "behind": 1481, "##\u0173": 28254, "Nigel": 13026, "Argentina": 4904, "##ener": 24475, "Mississippi": 5201, "German": 1528, "commander": 3877, "Hampton": 11648, "[unused29]": 29, "##pe": 3186, "##teral": 16719, "CD": 2891, "filling": 7843, "charcoal": 21648, "targeting": 15141, "botanical": 20764, "##\u0162": 28247, "bat": 7693, "##nges": 20364, "destroyer": 11871, "movie": 2523, "blankets": 15971, "##rip": 16669, "##lect": 18465, "Nelson": 5232, "danced": 11103, "##gy": 4873, "extinct": 8256, "outfielder": 23944, "there": 1175, "##ships": 18373, "Wren": 19088, "forest": 3304, "motionless": 22303, "Channel": 4076, "Highways": 27204, "actually": 2140, "styling": 23809, "Short": 6373, "130": 7029, "stacked": 18452, "##tography": 22556, "never": 1309, "comments": 7640, "billion": 3775, "IP": 14274, "##ndra": 17394, "Soccer": 6863, "Doug": 8426, "screen": 3251, "Turnpike": 23303, "\u3064": 910, "##ize": 3708, "fauna": 18335, "wreckage": 24069, "cracks": 16694, "##ride": 17731, "##avi": 21704, "##eck": 14021, "Guangzhou": 20272, "Echo": 12940, "jerking": 26525, "Isaac": 7026, "##\u1ee9": 28663, "commission": 5500, "##ygiene": 21431, "Chapel": 7557, "Dixon": 11372, "Midwest": 14661, "##zad": 24981, "executive": 3275, "##act": 11179, "Zheng": 23673, "Target": 18525, "Dean": 4285, "fails": 12169, "##rank": 14687, "Vinnie": 27213, "DJs": 27353, "Ferry": 11976, "Ramsay": 21178, "herd": 17804, "##oka": 9865, "Eliot": 17324, "Strings": 24777, "##anus": 20387, "question": 2304, "\u30fb": 974, "Have": 4373, "Brothers": 5216, "shown": 2602, "knocked": 6011, "##eat": 13448, "nursing": 11138, "##ppy": 20099, "Hubbard": 17640, "Premier": 3863, "Laughing": 26556, "locals": 10953, "Riot": 27179, "Mussolini": 25086, "##\u2016": 28687, "Silence": 12939, "CT": 16899, "Kerr": 15587, "\u1e6d": 737, "conflicts": 9802, "##con": 7235, "recaptured": 26819, "particle": 11287, "##py": 5005, "amazed": 16603, "Trojan": 28099, "##mber": 10615, "Gupta": 22560, "##\u021b": 28273, "##ulf": 19284, "humming": 23474, "departing": 18646, "practitioners": 16681, "##guchi": 17471, "##rno": 11791, "died": 1452, "councillors": 16306, "Gerald": 9532, "Ali": 4149, "Olive": 17971, "bite": 6513, "rotting": 25407, "sites": 3911, "##itz": 8976, "physicians": 15230, "Arlington": 14415, "Services": 4326, "\u016b": 328, "1746": 27594, "Downs": 15794, "breathed": 8399, "hindwings": 17383, "suspicious": 10108, "Manual": 9128, "##oly": 23415, "##ficiency": 23622, "sarcastically": 26708, "onward": 17765, "Shepard": 24620, "Jump": 18454, "Card": 10103, "grandson": 7254, "magnitude": 10094, "##dges": 25477, "streams": 9136, "Resort": 15579, "\u0412": 450, "versatile": 27133, "\u0531": 513, "\u0434": 479, "\u064a": 594, "motions": 16628, "Stacey": 21807, "##\u05d2": 28447, "aids": 23078, "##ney": 4695, "vicar": 19228, "[unused19]": 19, "returning": 3610, "documents": 4961, "Rose": 3831, "##erton": 20024, "colloquially": 27963, "variance": 26717, "dividing": 18699, "Benjamin": 5816, "anytime": 20166, "millimetres": 13721, "##rouch": 22454, "totaled": 26451, "dwarf": 13076, "reached": 1680, "assurance": 23296, "TX": 21514, "Infrastructure": 22791, "spherical": 21279, "kidnap": 25969, "mass": 3367, "Ian": 3978, "instrumental": 6338, "conveyed": 23777, "syndrome": 9318, "in": 1107, "\u85e4": 1069, "well": 1218, "vigorous": 24739, "##gence": 12329, "peasant": 17231, "client": 7230, "orchid": 20468, "parents": 2153, "Merlin": 17205, "##boy": 9858, "Tabitha": 23856, "Damien": 12757, "MLB": 10872, "\u2081": 812, "Novi": 24283, "Benton": 20228, "Caden": 26402, "Earlier": 15993, "Examination": 26947, "1808": 13295, "##sign": 19638, "honorary": 7316, "sexuality": 15771, "townships": 16553, "favorites": 25735, "##oda": 16848, "regulator": 27335, "loudly": 9733, "##press": 11135, "Patriotic": 27428, "Ed": 5316, "##biotics": 25523, "##OR": 9565, "Python": 23334, "assignments": 15799, "##\u0218": 28271, "Federal": 3467, "Wilderness": 16436, "duties": 5078, "Smile": 21278, "immigrant": 12338, "rented": 12765, "Somali": 17950, "Chemistry": 10847, "ties": 7057, "##dt": 12518, "##lora": 24171, "Screenplay": 21257, "binary": 13480, "vector": 9479, "##sa": 3202, "##anna": 11762, "##FI": 17675, "torture": 8831, "Phi": 14890, "Son": 6913, "Metacritic": 15168, "braced": 16438, "irritation": 19380, "##grading": 20407, "rumored": 25472, "##\u3089": 28819, "##alan": 24240, "clown": 25778, "[unused64]": 64, "filly": 27090, "##site": 13068, "\u05dc": 546, "Poets": 25336, "instructed": 10154, "Durham": 8975, "Sigma": 15015, "\u0937": 625, "2015": 1410, "scenarios": 18414, "Baptiste": 18529, "##anne": 15733, "##am": 2312, "##trusion": 22097, "##\u2248": 28754, "groove": 22482, "bump": 20700, "alpha": 11164, "insulin": 26825, "slight": 6812, "[unused89]": 89, "Malay": 12808, "solution": 5072, "multinational": 24924, "diffusion": 22873, "excuses": 25179, "LDS": 18966, "salvage": 22212, "behaviors": 16711, "##moky": 22582, "Saratoga": 25867, "[unused17]": 17, "Lester": 14682, "Blair": 10378, "##rge": 12272, "Mohamed": 15083, "##els": 5999, "##\u00e1rez": 21823, "Secrets": 19958, "Taliban": 17677, "ball": 3240, "hushed": 27253, "tee": 26425, "##ency": 9517, "growl": 13818, "succeeds": 24219, "\u201e": 791, "caring": 12605, "atmosphere": 6814, "Hampshire": 6446, "overseas": 7474, "gigantic": 23275, "Lions": 7862, "injustice": 26991, "commentaries": 26094, "Bang": 12926, "parted": 10155, "Special": 3139, "float": 15666, "##rump": 27321, "Hammond": 11425, "##OH": 23293, "containing": 4051, "##blin": 17529, "sign": 2951, "Pauline": 16473, "cortex": 21284, "novelist": 10050, "1961": 2920, "Reservation": 21542, "Wake": 13062, "lays": 22307, "caused": 2416, "accordance": 10274, "rite": 24332, "Bethany": 17621, "complaining": 19533, "Cohen": 9735, "licking": 20238, "##SF": 19261, "ARIA": 21356, "winter": 3701, "dimension": 11025, "##ndon": 17996, "##mmal": 27568, "Culture": 6076, "Monte": 10046, "Carolina": 2938, "Hungarians": 26964, "\u0130": 300, "certification": 12146, "thing": 1645, "Local": 5328, "bankrupt": 19004, "doubted": 13216, "##sei": 17191, "window": 2487, "successive": 11598, "##OW": 17056, "Cycling": 18934, "Regarding": 23840, "endorsed": 11889, "sarcasm": 23790, "Requiem": 25426, "badge": 13088, "pilgrimage": 17385, "nape": 26808, "scroll": 21105, "allocation": 18205, "hectare": 22364, "tape": 6649, "examining": 13766, "authorised": 21812, "Kitty": 16834, "##ilizer": 25833, "Resources": 9868, "reinforcements": 15132, "skip": 19476, "abuses": 23711, "Graves": 16494, "Prescott": 22721, "Shark": 24143, "Ni": 27453, "scheme": 5471, "phases": 12877, "snaps": 22675, "1966": 2678, "##j\u014d": 21006, "and": 1105, "Maccabi": 27016, "colored": 6805, "routes": 5441, "Technical": 6846, "##stituting": 23346, "##hman": 16277, "Area": 3894, "##gnant": 15454, "Illustrated": 16424, "density": 3476, "exported": 16578, "blinking": 18617, "Fringe": 23863, "1973": 2478, "strategic": 7061, "##uating": 20807, "Janice": 21872, "chickens": 26199, "##teca": 27560, "1807": 13518, "film": 1273, "##gated": 10901, "1828": 11521, "Cartoon": 22450, "clergyman": 25215, "subsidiaries": 22423, "alternating": 16307, "circuits": 15329, "meadow": 20558, "Virgin": 6567, "##rvin": 22466, "celebrates": 24408, "Lumpur": 19083, "Eastern": 2882, "eve": 23491, "Telecommunications": 23356, "##oy": 7341, "escape": 3359, "Gordon": 4345, "little": 1376, "arrival": 4870, "##BS": 9782, "castle": 3804, "##yk": 17252, "##ractical": 18890, "discrete": 18535, "alike": 11609, "lung": 13093, "Twilight": 17629, "##iving": 21877, "##\u2044": 28701, "Henrietta": 22807, "Fairfield": 20609, "Dolores": 23952, "misleading": 25175, "statesman": 25248, "Hell": 5479, "##bu": 7925, "\u016f": 330, "Isn": 12357, "Sword": 14059, "Micro": 27730, "\u65e5": 1033, "##\u1ec5": 28650, "##sman": 8878, "Olga": 16514, "##\u1edd": 28659, "##came": 22865, "les": 8241, "Elsie": 27737, "me": 1143, "spiritual": 6170, "##sberg": 19945, "Fish": 9425, "Cassie": 8512, "Promoted": 15431, "##erd": 25081, "Lithuania": 9602, "slung": 22056, "saw": 1486, "garment": 22424, "1769": 22632, "theatrical": 9033, "##eur": 8816, "Dorset": 16180, "Field": 3479, "Hartford": 13709, "##\u1d4f": 28617, "Elena": 8712, "1789": 14145, "Montr\u00e9al": 23687, "advancing": 11120, "Whitman": 23459, "\u30e9": 968, "shit": 4170, "Tibet": 13659, "##lves": 14455, "ruthless": 20871, "1715": 25127, "Cambridge": 3900, "charity": 6630, "windshield": 21522, "##\u0422": 28383, "gel": 27426, "switched": 6759, "Quentin": 16909, "asteroid": 13708, "Power": 3794, "sight": 3617, "categories": 6788, "Adelaide": 6908, "raiding": 27166, "\u30af": 940, "tends": 12246, "meet": 2283, "##5": 1571, "cleaned": 12370, "tens": 17265, "ambition": 19034, "Neo": 14521, "##reis": 19766, "religion": 4483, "trend": 10209, "##lants": 23288, "inhabited": 9375, "brakes": 14656, "cherry": 20170, "Hotels": 25704, "Dual": 27791, "explosives": 16454, "rocking": 16964, "longitudinal": 23191, "Marathon": 12719, "Volvo": 23212, "##gent": 11549, "dunes": 23207, "disciples": 21429, "##iant": 13789, "Associate": 9666, "history": 1607, "Is": 2181, "##ti": 3121, "ministers": 9813, "##titled": 14657, "Duffy": 19352, "falling": 4058, "needed": 1834, "Mandarin": 17819, "##ador": 21784, "distributing": 23099, "raided": 20574, "wing": 3092, "enforce": 17542, "abundance": 15569, "800": 4645, "triangular": 14894, "##rud": 25980, "##\u00f8": 17945, "leans": 12957, "thrill": 21401, "isolation": 13345, "\u0964": 635, "Helena": 10196, "\u09a6": 650, "minds": 10089, "teamed": 12854, "numb": 18152, "undercover": 20486, "##\u056b": 28427, "##\u611b": 28921, "ambushed": 24722, "Decision": 27935, "##fender": 27896, "##ssie": 16869, "marketplace": 24210, "diploma": 14985, "token": 22559, "##ois": 8586, "priest": 4924, "Pound": 28033, "angered": 22296, "union": 3779, "realised": 11326, "breathe": 7164, "2001": 1630, "##plied": 18148, "Hale": 13684, "divides": 22646, "worn": 5624, "##hai": 10390, "goodbye": 12903, "##enburg": 13233, "##cup": 18637, "sodium": 15059, "corridor": 7512, "##rily": 11486, "##ele": 11194, "promises": 11323, "Lizzie": 16817, "##lary": 18480, "Friend": 13058, "##fields": 14922, "##\u1fc6": 28677, "cultivated": 13783, "divorced": 8963, "mollusk": 13641, "gain": 4361, "##IG": 23413, "parent": 6486, "Canyon": 10084, "coverage": 5811, "##gus": 12909, "proven": 9893, "##verty": 26462, "rubbing": 10365, "Toy": 22416, "##\u30d7": 28855, "Algeria": 11347, "Must": 14303, "storm": 4162, "notices": 15749, "elevations": 20341, "backbone": 25776, "copy": 5633, "Guardian": 7754, "##\u307f": 28812, "\u2088": 819, "forests": 5775, "Newton": 8102, "Nathan": 6578, "questioned": 8449, "Augustine": 14579, "scholarship": 7084, "perished": 25996, "##\u00a2": 28158, "##\u30b3": 28835, "na": 9468, "##scraper": 27699, "Professional": 6861, "Lesser": 19286, "29": 1853, "Chapter": 2943, "##res": 4894, "Wiltshire": 18188, "dialect": 9222, "Shaw": 7802, "expressway": 26185, "##written": 16674, "superficial": 26558, "beard": 12832, "##fected": 21601, "##utnant": 27739, "mouthed": 22546, "sins": 19452, "bestowed": 18668, "Friends": 7025, "##DC": 15556, "number": 1295, "tables": 7072, "Premiership": 18536, "talking": 2520, "clubs": 3514, "agent": 3677, "##iche": 26312, "denomination": 20493, "garrison": 10609, "comprehensive": 8232, "nightstand": 25895, "Hans": 6458, "\u0639": 583, "##tisfied": 20605, "upgrades": 20889, "Constable": 16113, "##wick": 6196, "##eit": 27863, "Graeme": 24149, "literature": 3783, "martyr": 26899, "act": 2496, "character": 1959, "Southampton": 11881, "##ueva": 24048, "330": 14747, "indictment": 27926, "KC": 23702, "County": 1391, "terrible": 6434, "\u1ec3": 747, "##ncy": 7232, "blind": 7198, "Elite": 13995, "Copper": 20657, "##tion": 2116, "Oregon": 4660, "Ji": 13997, "##arel": 24971, "##oo": 5658, "##was": 20963, "\u751f": 1056, "Ned": 13105, "Pictures": 7392, "pounded": 14216, "exterior": 8786, "Sidney": 11441, "##gado": 23224, "##\u6c35": 28942, "favourable": 20440, "daughter": 1797, "##eed": 11394, "Hampson": 24065, "note": 3805, "performed": 1982, "##plain": 18220, "Domain": 20237, "Without": 4914, "peoples": 7983, "##sham": 20241, "##bark": 24063, "Un": 12118, "##zal": 25049, "Anyone": 15859, "Resurrection": 26461, "\u00ef": 261, "Weston": 12946, "##\u30b8": 28838, "Week": 6237, "recorded": 1802, "2019": 10351, "##ifier": 17792, "Phillies": 16620, "##isco": 21097, "Gracie": 20653, "typed": 23477, "##\u03c5": 28356, "dams": 20245, "\u4e0a": 978, "diesel": 8887, "brain": 3575, "Petroleum": 20396, "##omi": 18882, "Orthodox": 6133, "plaza": 19075, "##gned": 26884, "McKenzie": 20269, "##copic": 22258, "Gymnasium": 19431, "191": 21625, "consultant": 9496, "Jones": 2690, "Upper": 5454, "218": 22723, "##rading": 23857, "##vations": 22553, "Smoke": 19440, "Lu": 14557, "intimate": 10666, "195": 18500, "Amanda": 7872, "distribution": 3735, "habitats": 10902, "erupted": 12773, "Ariel": 17214, "##\u00ea": 24559, "##ntation": 24832, "Agreement": 11225, "##less": 2008, "Filming": 23773, "technicians": 25032, "AND": 16716, "underworld": 23796, "frost": 26109, "##ppard": 22261, "##sky": 4969, "Transportation": 8373, "stunt": 18151, "colonies": 8990, "Prague": 8254, "Forrest": 17367, "##taining": 26174, "remarried": 21068, "Asher": 18479, "Australian": 1925, "arguably": 18271, "maiden": 13636, "##oe": 7745, "pseudo": 23563, "gum": 19956, "Focus": 18176, "comb": 27481, "trips": 9185, "crossings": 24605, "outlet": 14688, "detailing": 18954, "truck": 4202, "##ige": 13417, "wear": 4330, "discretion": 21435, "Titanic": 24342, "volume": 3884, "demos": 23740, "direction": 2447, "beetle": 7924, "modern": 2030, "meter": 8227, "testimony": 11405, "##dio": 13447, "##fa": 8057, "##ple": 7136, "Esther": 15261, "ocean": 5969, "Electric": 6763, "Seems": 25686, "##drick": 21847, "Road": 1914, "Winner": 7387, "Abd": 22358, "ethnicity": 21052, "##ci": 6617, "article": 3342, "##AN": 14962, "ferry": 9452, "Obviously": 15580, "k": 180, "meanwhile": 17527, "peace": 3519, "arrested": 3950, "lie": 4277, "Eug\u00e8ne": 26689, "##ously": 9537, "##skaya": 23888, "biologist": 24742, "levels": 3001, "mainly": 2871, "utterly": 13006, "##umbling": 17776, "blurred": 20611, "super": 7688, "Jurassic": 21834, "toe": 12514, "Uttar": 15670, "stew": 26036, "shoe": 12228, "tried": 1793, "275": 18783, "curiosity": 11380, "##\u1ea7": 28643, "cloak": 12923, "devotees": 27145, "shivering": 22397, "proceed": 10980, "fullback": 25540, "##\u0936": 28527, "Computing": 20463, "faster": 4946, "reserved": 9142, "isn": 2762, "bet": 7023, "initials": 22563, "AAA": 13807, "appeared": 1691, "YOU": 19141, "gliding": 25545, "study": 2025, "Revolutionary": 9013, "beacon": 25973, "Yerevan": 26082, "##\u6b63": 28938, "##cker": 8638, "kits": 21195, "##quel": 15966, "angels": 13266, "electrified": 19746, "connections": 6984, "wash": 10124, "Atlantic": 3608, "Operation": 5158, "concurrently": 18061, "##\u00be": 28177, "epic": 11431, "\u53f8": 999, "\u00fa": 272, "Anatolia": 26575, "perennial": 15894, "Memory": 14500, "##rilla": 18792, "values": 4718, "Manhattan": 6545, "##iler": 25614, "seminary": 17403, "portraits": 10285, "Al": 2586, "##nks": 18683, "compared": 3402, "narrowly": 11982, "symbol": 5961, "stole": 10566, "Albany": 10128, "measurement": 11842, "averages": 22284, "AD": 5844, "##sworth": 14775, "##cend": 25981, "Edwin": 9854, "Portal": 27455, "navy": 9466, "troops": 2830, "out": 1149, "132": 14588, "Mansfield": 16154, "overthrow": 18310, "\u00b9\u2044\u2082": 20262, "steamer": 20472, "nuts": 13937, "##est": 2556, "##\u0107": 7128, "Kramer": 17615, "Exhibition": 9336, "blogs": 27220, "##K": 2428, "##amine": 19577, "Buckingham": 19180, "\u01d2": 346, "jungle": 11800, "\u1d56": 717, "residue": 24456, "##mming": 25004, "provides": 2790, "neighbor": 12179, "off": 1228, "loved": 3097, "garlic": 24861, "Brotherhood": 15831, "evil": 4719, "branched": 24101, "RBI": 18058, "##\u0650": 28499, "40": 1969, "Motown": 25301, "Counsel": 18645, "##ability": 6328, "safety": 3429, "canyon": 18964, "sit": 3465, "Australia": 1754, "cancel": 19722,
[...]
