{"##4th": 26724, "[unused355]": 360, "chalk": 16833, "mobile": 4684, "enhancing": 20226, "overseeing": 19642, "observes": 24451, "##ares": 17933, "grapes": 16575, "debates": 14379, "##\u516b": 30297, "##nagar": 14346, "russ": 18072, "football": 2374, "monasteries": 15947, "mergers": 28585, "mexican": 4916, "curling": 11599, "hammond": 11309, "##ssa": 11488, "##deck": 26547, "meath": 26856, "asia": 4021, "280": 13427, "fray": 25975, "232": 20666, "forgive": 9641, "##bbly": 24200, "##nnis": 27803, "gunnery": 27919, "mustang": 18851, "opinion": 5448, "figurative": 29407, "giles": 13287, "wendell": 24526, "augusto": 29085, "[unused507]": 512, "manchester": 5087, "##stle": 22516, "134": 15170, "prolonged": 15330, "juvenile": 11799, "transform": 10938, "[unused48]": 49, "lifeless": 22185, "mathews": 23287, "marines": 9622, "refined": 15514, "meaningless": 25120, "alternatives": 15955, "maturity": 16736, "\u3044": 1647, "initial": 3988, "##aves": 21055, "##piece": 11198, "influenced": 5105, "bushes": 14568, "opaque": 28670, "##eros": 27360, "fission": 27521, "where": 2073, "amherst": 19850, "410": 19151, "suburban": 9282, "snow": 4586, "paper": 3259, "laura": 6874, "rugby": 4043, "those": 2216, "generations": 8213, "114": 12457, "tract": 12859, "showcase": 13398, "[unused267]": 272, "lorraine": 13895, "grounds": 5286, "widespread": 6923, "pga": 14198, "kyoto": 15008, "substitute": 7681, "amber": 8994, "figure": 3275, "classify": 26268, "withdrawing": 21779, "##ows": 15568, "##ilised": 21758, "##rco": 29566, "prairie": 10996, "##eta": 12928, "##leigh": 13615, "addition": 2804, "[unused666]": 671, "subjects": 5739, "##p": 2361, "bail": 15358, "regain": 12452, "arid": 17511, "hamas": 22129, "kitchens": 26051, "casinos": 27300, "minions": 28071, "##zow": 22670, "bravery": 16534, "using": 2478, "da": 4830, "candles": 14006, "##ehan": 24660, "##bble": 11362, "[unused945]": 950, "##90": 21057, "premature": 21371, "repulsed": 24571, "flow": 4834, "issuing": 15089, "retrieve": 12850, "##\u0646": 15915, "congo": 9030, "##vington": 21827, "multi": 4800, "turner": 6769, "romanized": 7651, "##charged": 22620, "##jon": 14339, "moran": 17866, "witnesses": 9390, "[unused289]": 294, "xvi": 16855, "tragic": 13800, "stan": 9761, "mole": 16709, "##bana": 19445, "crooked": 15274, "##\u05e1": 29804, "naia": 29511, "##\u110f": 30002, "carmine": 18791, "reason": 3114, "##herton": 27949, "andrey": 29219, "berman": 29482, "assortment": 26285, "called": 2170, "heavyweight": 8366, "##chman": 19944, "entertained": 21474, "townsend": 16139, "demolished": 7002, "oceania": 20526, "antrim": 24142, "1815": 10679, "fallout": 23902, "philharmonic": 12355, "appropriated": 29223, "bears": 6468, "completely": 3294, "##\u0e22": 29952, "nw": 22064, "flatly": 24295, "[unused895]": 900, "mw": 12464, "unnatural": 21242, "accusing": 16723, "inquired": 24849, "laden": 14887, "sears": 18493, "pinning": 22866, "##uis": 27020, "driving": 4439, "tara": 10225, "##\u3002": 30162, "ancient": 3418, "peaked": 6601, "nationwide": 9053, "##kee": 20553, "bite": 6805, "apples": 18108, "status": 3570, "bridgeport": 27986, "shelley": 15828, "hungarian": 5588, "closer": 3553, "revealing": 8669, "loosely": 11853, "obstacles": 15314, "curiosity": 10628, "claiming": 6815, "bombardment": 10400, "[unused827]": 832, "time": 2051, "making": 2437, "coordination": 12016, "northernmost": 22037, "##ute": 10421, "apartment": 4545, "##iere": 21253, "gareth": 20243, "##\u5742": 30329, "relocated": 7448, "##around": 24490, "auditioned": 23008, "##mins": 21266, "ascot": 29036, "\u0e40": 1423, "[unused349]": 354, "goal": 3125, "animation": 7284, "bullet": 7960, "obtaining": 11381, "millie": 19561, "##rti": 28228, "evade": 26399, "##pps": 28281, "triassic": 29529, "forbid": 27206, "##sef": 20106, "##|": 29641, "marlene": 26921, "mercenaries": 19331, "##talk": 28014, "armament": 14410, "secretaries": 23660, "canucks": 26177, "specialization": 28031, "[unused87]": 88, "\u6b62": 1887, "general": 2236, "town": 2237, "##nae": 17452, "squinting": 29156, "protocols": 16744, "portrait": 6533, "newport": 9464, "cheating": 16789, "slant": 27474, "planner": 24555, "arturo": 20520, "##aks": 29243, "treat": 7438, "lara": 13679, "remembrance": 19451, "leader": 3003, "##rag": 29181, "olivia": 7710, "rank": 4635, "weekday": 16904, "onboard": 27120, "result": 2765, "invade": 18445, "prisoners": 5895, "odyssey": 18735, "visibility": 16476, "fulbright": 26695, "overrun": 24672, "promotions": 15365, "[unused206]": 211, "corporations": 11578, "friedman": 18486, "books": 2808, "\u05d1": 1242, "malay": 12605, "##rok": 27923, "yeast": 21957, "##ario": 16843, "etienne": 16821, "depended": 17292, "conceived": 10141, "[unused370]": 375, "[unused952]": 957, "discharge": 11889, "segunda": 19071, "##thal": 24090, "sufi": 21845, "##shaw": 17980, "##ides": 8621, "jia": 25871, "ipswich": 15435, "boasted": 23390, "socrates": 26772, "##stad": 16917, "[unused443]": 448, "neill": 11511, "hades": 23003, "fundraiser": 28536, "##\u5ca1": 30358, "cassie": 8869, "[unused740]": 745, "grip": 6218, "noticeable": 17725, "sport": 4368, "weave": 25308, "blah": 27984, "##dam": 17130, "diocese": 5801, "dickinson": 17590, "derek": 7256, "##ira": 7895, "frightened": 10363, "interrupted": 7153, "chose": 4900, "##ptic": 20746, "##ena": 8189, "\u03b5": 1159, "daily": 3679, "9": 1023, "##yoshi": 19196, "[unused101]": 106, "##yat": 26139, "##rift": 16338, "thierry": 26413, "uv": 23068, "sweep": 11740, "circuit": 4984, "##ble": 3468, "shale": 18488, "modernization": 20181, "settlements": 7617, "fm": 4718, "spells": 11750, "penelope": 18641, "gods": 5932, "knesset": 27899, "##fu": 11263, "hughes": 8099, "[unused680]": 685, "##ay": 4710, "malacca": 28481, "harley": 13653, "[unused341]": 346, "[unused676]": 681, "kitchen": 3829, "\u0630": 1279, "pulses": 23894, "spectrum": 8674, "tt": 23746, "##iman": 18505, "canned": 27141, "pipes": 12432, "lit": 5507, "precursor": 14988, "keys": 6309, "magician": 16669, "recited": 24843, "crowley": 20748, "ware": 16283, "xiao": 19523, "mellon": 22181, "mainly": 3701, "deteriorating": 28440, "without": 2302, "www": 7479, "generator": 13103, "##mise": 28732, "soup": 11350, "sighs": 19906, "##tius": 22638, "blitz": 22312, "impairment": 25172, "\u1109": 1461, "kicked": 6476, "passed": 2979, "ordained": 9492, "[unused721]": 726, "luxurious": 20783, "overseas": 6931, "urge": 9075, "dorothy": 9984, "intersect": 29261, "munitions": 21061, "deserted": 12768, "tendencies": 20074, "flap": 20916, "kazakhstan": 11769, "docks": 15093, "undertaker": 27568, "austrian": 6161, "produce": 3965, "##ably": 8231, "toni": 16525, "breton": 16659, "harvesting": 21534, "embraced": 14218, "##0": 2692, "fame": 4476, "[unused375]": 380, "starter": 11753, "serpent": 16517, "69": 6353, "ting": 28642, "##\u2087": 30083, "##ooping": 29046, "cellular": 12562, "flutes": 28453, "conquest": 9187, "predecessor": 8646, "87": 6584, "martinique": 29365, "oils": 20631, "timothy": 10805, "[unused159]": 164, "##lette": 27901, "motorcycles": 18580, "stir": 16130, "masked": 16520, "##tek": 23125, "populous": 20151, "##ion": 3258, "session": 5219, "##sell": 23836, "yi": 12316, "234": 22018, "seduce": 23199, "psalm": 22728, "adele": 17623, "occupants": 18837, "juarez": 25398, "##eto": 18903, "implementing": 14972, "[unused979]": 984, "highs": 26836, "##itude": 18679, "namesake": 17283, "\u2227": 1602, "\u025b": 1115, "camouflage": 21356, "##entes": 26933, "guantanamo": 23094, "ramirez": 15206, "barbados": 16893, "##plex": 19386, "\u203a": 1533, "farrell": 16248, "abducted": 20361, "thermal": 9829, "##mur": 20136, "##vah": 21927, "totaled": 23596, "inhabited": 9613, "hissing": 26386, "fox": 4419, "jain": 17136, "[unused606]": 611, "expressway": 11720, "girlfriends": 27408, "vectors": 19019, "mc": 11338, "amongst": 5921, "colts": 14390, "wives": 10403, "stacked": 16934, "monarch": 11590, "dayton": 14700, "banquet": 19032, "javier": 13824, "##oso": 19137, "beverley": 29057, "it": 2009, "preserve": 7969, "prominently": 14500, "neighboring": 8581, "blast": 8479, "endorsement": 20380, "##kos": 15710, "contamination": 18701, "pilots": 8221, "1729": 28449, "angular": 16108, "showcased": 22443, "1992": 2826, "[unused485]": 490, "collegiate": 9234, "latitude": 15250, "unit": 3131, "motorcycle": 9055, "##frid": 27439, "##ishment": 21808, "traversed": 27797, "##erence": 20935, "##lone": 27165, "[unused748]": 753, "##eville": 21187, "##itating": 16518, "\u2098": 1567, "\u8a9e": 1950, "\u20a4": 1572, "##taken": 25310, "sectional": 27197, "##gled": 11533, "alcohol": 6544, "infrared": 14611, "born": 2141, "slavery": 8864, "##ieving": 25587, "##hmi": 26837, "touchdowns": 10183, "gilded": 23880, "contractors": 16728, "releasing": 8287, "##ches": 8376, "163": 17867, "##tani": 17681, "skirts": 18184, "development": 2458, "memo": 24443, "##\u30bf": 30235, "santo": 11685, "cassandra": 15609, "scripture": 18919, "thousand": 4595, "essex": 8862, "eastman": 24252, "mit": 10210, "\u7687": 1917, "\u30b7": 1706, "##car": 10010, "22nd": 13816, "utilizing": 16911, "##tok": 18715, "rosen": 21701, "##18": 15136, "plantations": 14979, "##dhi": 19114, "reputed": 22353, "##kian": 28545, "own": 2219, "must": 2442, "##org": 21759, "\u02b3": 1142, "barrow": 15355, "induced": 10572, "unseen": 16100, "provinces": 6941, "module": 11336, "experiment": 7551, "bmg": 24499, "apocalyptic": 27660, "unable": 4039, "[unused202]": 207, "transit": 6671, "kathleen": 14559, "detailing": 17555, "mclaughlin": 23720, "qu": 24209, "##\u043d\u0430": 19865, "softer": 19013, "giants": 7230, "\u062a": 1273, "median": 3991, "georgian": 9166, "tattoos": 18395, "regimes": 25228, "##\uff0e": 30517, "airborne": 10519, "attacks": 4491, "dal": 17488, "beloved": 11419, "baggage": 20220, "trumpet": 9368, "##kko": 22426, "assassinated": 16370, "angelina": 23847, "##uy": 26230, "##rich": 13149, "\u7f8e": 1935, "flexed": 24244, "##\u21cc": 30118, "##\u30e7": 30256, "phillies": 15711, "hell": 3109, "\u624b": 1858, "##ost": 14122, "bahia": 22474, "##rith": 24292, "resting": 8345, "polished": 12853, "##llan": 19036, "151": 16528, "##\u2011": 30049, "watt": 15231, "##19": 16147, "jase": 18626, "[unused773]": 778, "sh": 14021, "##mx": 22984, "[unused573]": 578, "moss": 10636, "eurasian": 23399, "paddington": 26318, "mandela": 26887, "##ros": 7352, "scriptures": 22481, "##tur": 20689, "child": 2775, "translit": 28468, "ata": 29533, "strange": 4326, "thwarted": 28409, "##im": 5714, "##cular": 15431, "##inda": 23938, "##\u1d40": 30031, "neighbourhoods": 27535, "bumps": 18548, "seminal": 20603, "coefficients": 21374, "##gum": 22850, "aeronautical": 25010, "pot": 8962, "sheffield": 8533, "cooks": 26929, "brought": 2716, "sirius": 23466, "wandering": 13071, "peugeot": 26385, "casa": 14124, "methodology": 16134, "\u044d": 1208, "hawthorne": 23440, "robinson": 6157, "1714": 25241, "mg": 11460, "##\u20a4": 30100, "earlier": 3041, "primate": 25662, "eastbound": 24773, "1810": 11786, "mistaken": 13534, "quinn": 8804, "[unused313]": 318, "##ologist": 8662, "##lage": 20679, "morphological": 24012, "lenny": 19065, "scales": 9539, "stating": 5517, "glowed": 16497, "password": 20786, "merits": 22617, "bobbie": 27731, "##\u05dc": 29799, "##aria": 10980, "##rwood": 20941, "mixer": 23228, "antiquity": 16433, "1813": 12169, "arising": 17707, "pts": 19637, "displayed": 6913, "\u099b": 1357, "##lto": 23223, "##\u300d": 30168, "##makers": 12088, "excelled": 23081, "henley": 20768, "##ani": 7088, "shia": 20474, "fades": 26784, "##ger": 4590, "##\u3080": 30205, "mcmillan": 27436, "##bbon": 27684, "##inae": 16414, "saying": 3038, "jackets": 17764, "overheard": 20443, "lifespan": 26462, "meadows": 13524, "ponytail": 18865, "atlantis": 16637, "endowed": 19038, "peer": 8152, "overlook": 27590, "##ive": 3512, "ctv": 28720, "144": 14748, "vedic": 25824, "24": 2484, "roger": 5074, "response": 3433, "warmed": 17336, "nude": 15287, "elliot": 11759, "vhs": 17550, "feral": 18993, "spying": 22624, "260": 13539, "restricting": 26996, "freeman": 11462, "fleetwood": 23866, "boxer": 10423, "##riam": 25557, "deception": 17575, "contend": 27481, "legislators": 22680, "main": 2364, "comments": 7928, "loving": 8295, "recurring": 10694, "deny": 9772, "sid": 15765, "correlation": 16902, "viceroy": 19007, "discontinued": 8944, "ole": 15589, "novgorod": 24338, "tolerance": 13986, "##ification": 9031, "naomi": 12806, "nwa": 15737, "argyle": 26503, "structurally": 29060, "##lge": 28875, "barry": 6287, "surveying": 19654, "restraining": 28285, "welfare": 7574, "smoking": 9422, "bloody": 6703, "body": 2303, "dense": 9742, "jocelyn": 23786, "\u21c4": 1589, "\u571f": 1801, "multiple": 3674, "protective": 9474, "prominence": 12144, "squares": 14320, "bar": 3347, "rave": 23289, "profoundly": 28089, "new": 2047, "vet": 29525, "branch": 3589, "##tell": 23567, "force": 2486, "##uda": 14066, "kurt": 9679, "dazzling": 28190, "##lab": 20470, "humiliating": 28284, "much": 2172, "fuel": 4762, "erie": 13374, "disagreement": 18185, "ingredient": 21774, "effect": 3466, "ley": 25866, "##\u0444": 29749, "sigma": 13201, "prepared": 4810, "experimentation": 21470, "libby": 19533, "portions": 8810, "lucan": 20764, "lok": 13660, "planet": 4774, "[unused523]": 528, "possession": 6664, "rowing": 12037, "norte": 19931, "trigger": 9495, "[unused711]": 716, "222": 19015, "rates": 6165, "kilometers": 7338, "catfish": 23723, "resist": 9507, "paranormal": 20725, "##8th": 28264, "austrians": 28439, "tirana": 24631, "conception": 13120, "broke": 3631, "drifting": 15013, "offered": 3253, "magnet": 16853, "pa": 6643, "hearth": 22885, "confess": 18766, "walkover": 17495, "liverpool": 6220, "[unused934]": 939, "te": 8915, "\ufb01": 1984, "versions": 4617, "stade": 15649, "fibers": 16662, "###": 29614, "##nis": 8977, "abs": 14689, "##oj": 29147, "oclc": 12258, "developers": 9797, "##\u0982": 29882, "##\u898b": 30474, "dealers": 16743, "##rro": 18933, "##ug": 15916, "inhabit": 21490, "194": 19955, "cp": 18133, "##elin": 18809, "##may": 27871, "should": 2323, "##sai": 15816, "##lb": 20850, "##obe": 20891, "theology": 8006, "rot": 18672, "##wich": 12414, "##bham": 25522, "nicky": 20158, "##ror": 29165, "universally": 21186, "transgender": 16824, "archangel": 28185, "germain": 19192, "pioneered": 16193, "galician": 28830, "illustrated": 7203, "##fulness": 20938, "squirrels": 29384, "drove": 5225, "struggled": 6915, "commitments": 17786, "\u05dd": 1254, "flowers": 4870, "dimensions": 9646, "swelling": 18348, "edit": 10086, "##41": 23632, "backstage": 20212, "signalling": 21919, "##nob": 25083, "starts": 4627, "glided": 26936, "1875": 7466, "things": 2477, "luxembourg": 10765, "[unused983]": 988, "rune": 23276, "supervised": 13588, "customary": 16120, "healthy": 7965, "gameplay": 11247, "[unused559]": 564, "qualify": 7515, "drones": 24633, "coated": 15026, "okay": 3100, "##ports": 25378, "ensure": 5676, "lengths": 10742, "smashing": 21105, "##iol": 20282, "extreme": 6034, "concerned": 4986, "greece": 5483, "##rchy": 29389, "peach": 18237, "[unused992]": 997, "planning": 4041, "actor": 3364, "##oons": 27174, "133": 14506, "tuition": 15413, "sumatra": 18262, "vilnius": 20513, "innovative": 9525, "documentaries": 15693, "cnn": 13229, "wichita": 18614, "##ks": 5705, "pipeline": 13117, "andres": 15614, "[unused16]": 17, "05": 5709, "verlag": 14552, "mouths": 15076, "##sable": 19150, "zoological": 26168, "\u21d2": 1591, "lie": 4682, "tended": 11121, "distraction": 14836, "##quil": 26147, "##ulsion": 23316, "##\u208e": 30088, "significant": 3278, "celtic": 8730, "##est": 4355, "artisans": 26818, "[unused727]": 732, "[unused442]": 447, "suspended": 6731, "king": 2332, "1850s": 16488, "explanations": 17959, "servants": 8858, "horse": 3586, "ro": 20996, "turbo": 15386, "epithet": 19626, "charred": 29030, "lobster": 27940, "availability": 11343, "sloping": 24724, "bites": 15424, "seat": 2835, "executed": 6472, "tooth": 11868, "manipulated": 20063, "##fera": 27709, "georgie": 20280, "kali": 19924, "##rca": 18992, "roi": 25223, "drying": 17462, "ideal": 7812, "blew": 8682, "businessman": 6883, "\u0ba4": 1385, "loops": 15932, "psi": 17816, "folding": 12745, "reactor": 13308, "mum": 12954, "squirrel": 18197, "bing": 17620, "healer": 19783, "scientific": 4045, "dinosaurs": 18148, "din": 11586, "rippled": 26862, "import": 12324, "spared": 16891, "squared": 19942, "tbilisi": 22406, "danger": 5473, "##zh": 27922, "apes": 27754, "heiress": 20020, "##liest": 21292, "executions": 22679, "dahl": 27934, "boxes": 8378, "mod": 16913, "novice": 23131, "while": 2096, "acre": 7456, "cicero": 23080, "##nce": 5897, "finishing": 5131, "curtis": 9195, "consuming": 15077, "##kia": 21128, "inc": 4297, "##aan": 14634, "scandinavia": 20612, "goth": 25976, "##\u10e3": 29990, "realities": 22213, "\u53f8": 1791, "##onda": 29067, "##ives": 24653, "wardrobe": 17828, "airplanes": 24042, "##fen": 18940, "volcanic": 10942, "enjoying": 9107, "draped": 15098, "geographically": 20969, "words": 2616, "[unused378]": 383, "trying": 2667, "bs": 18667, "\u0bb2": 1392, "chunk": 20000, "950": 20317, "torpedo": 9862, "isn": 3475, "ph": 6887, "leopard": 16240, "lucas": 6326, "scraping": 23704, "caves": 10614, "struggles": 11785, "connector": 19400, "letterman": 26593, "##\u2190": 30111, "speaking": 4092, "demanded": 6303, "enacted": 11955, "95": 5345, "rope": 8164, "##kar": 6673, "[unused706]": 711, "verdict": 14392, "resides": 11665, "inserted": 12889, "famine": 15625, "kinda": 17704, "shitty": 28543, "tuba": 29242, "oboe": 22523, "notebook": 14960, "buffet": 28305, "crops": 8765, "cadet": 12738, "bronze": 4421, "undercover": 16382, "insurgents": 20541, "##garh": 13484, "##utter": 26878, "bhp": 22245, "utilize": 16462, "celine": 24550, "seizure": 18634, "outward": 15436, "##rvis": 29074, "beast": 6841, "determines": 16463, "agents": 6074, "lithuanian": 10333, "##ci": 6895, "breached": 25769, "\u207f": 1546, "\u0254": 1112, "##od": 7716, "##iana": 11410, "307": 24559, "cheated": 22673, "##mps": 25370, "overs": 15849, "dove": 10855, "nasty": 11808, "fein": 27132, "casino": 9270, "##chai": 24925, "legally": 10142, "crimean": 20516, "##tley": 18492, "vanilla": 21161, "a": 1037, "aggregation": 28041, "divert": 27345, "severity": 18976, "[unused715]": 720, "##ged": 5999, "siberian": 21822, "##lic": 10415, "sachs": 22818, "fingernails": 21243, "benji": 27231, "soaking": 22721, "knowledge": 3716, "alliances": 21277, "school": 2082, "norwood": 22804, "faded": 8105, "introducing": 10449, "licking": 17033, "##\u02b2": 29707, "torque": 15894, "74": 6356, "pizza": 10733, "encourages": 16171, "motor": 5013, "##vies": 25929, "clothing": 5929, "deposed": 18298, "[unused379]": 384, "lucia": 12337, "ramsay": 19460, "##cuit": 28168, "seniors": 15995, "ministerial": 18645, "jennie": 27557, "##rence": 24413, "heartland": 27399, "monte": 10125, "asylum": 11386, "efficient": 8114, "##fp": 22540, "albeit": 12167, "[unused957]": 962, "coma": 16571, "##a": 2050, "ruse": 26307, "lived": 2973, "adjustment": 19037, "redeveloped": 28053, "reserves": 8269, "matters": 5609, "##filtration": 28674, "[unused759]": 764, "clock": 5119, "##lr": 20974, "##iness": 9961, "aus": 17151, "312": 21036, "negatively": 19762, "christoph": 21428, "virtues": 21560, "vicente": 17280, "lateral": 11457, "##evic": 17726, "rte": 20375, "hoffman": 15107, "someplace": 24956, "judah": 23022, "ricky": 11184, "##lessly": 10895, "spider": 6804, "##systems": 29390, "uncertain": 9662, "rejects": 19164, "##\u10d0": 29974, "[unused404]": 409, "710": 27671, "diocesan": 18680, "disc": 5860, "rhineland": 21640, "##v": 2615, "retain": 9279, "conservatoire": 29233, "trucks": 9322, "\u2092": 1562, "1744": 25846, "##yce": 29297, "uk": 2866, "gulf": 6084, "reception": 7684, "spores": 23763, "\u4e09": 1741, "fabrics": 25123, "beaten": 7854, "wong": 11789, "tremendous": 14388, "silva": 11183, "[unused578]": 583, "narrative": 7984, "rallied": 24356, "wheeling": 29142, "surplus": 15726, "[unused121]": 126, "shack": 22200, "correlated": 23900, "birthplace": 14508, "[unused987]": 992, "manually": 21118, "ic": 24582, "prison": 3827, "lew": 24992, "honourable": 17164, "argus": 25294, "tunes": 13281, "courtney": 14139, "bewildered": 24683, "feminist": 10469, "[unused787]": 792, "##bre": 13578, "\u110b": 1463, "omaha": 12864, "ngos": 22165, "magistrate": 14351, "##resh": 21898, "army": 2390, "kay": 10905, "governor": 3099, "entity": 9178, "hunted": 14682, "[unused832]": 837, "investigations": 9751, "buyer": 17634, "responded": 5838, "\u0564": 1222, "xinjiang": 25904, "reflections": 16055, "vocabulary": 16188, "316": 23980, "longer": 2936, "disastrous": 16775, "##uting": 20807, "repertory": 21099, "nur": 27617, "indigo": 22472, "apologies": 25380, "collectors": 14256, "##static": 16677, "categories": 7236, "soo": 17111, "##\u0e21": 29951, "our": 2256, "favorably": 27597, "yerevan": 23383, "intensive": 11806, "##xing": 19612, "[unused209]": 214, "destroyer": 9799, "theorem": 9872, "john": 2198, "theories": 8106, "##haw": 14238, "fill": 6039, "##vill": 26548, "ultrasound": 27312, "diameter": 6705, "ships": 3719, "rann": 26312, "papa": 13008, "##31": 21486, "languages": 4155, "predominant": 21047, "yawned": 27626, "leisure": 12257, "synchronized": 25549, "pasta": 24857, "##\u03bd": 16177, "sas": 21871, "helix": 25743, "273": 25371, "interlude": 25347, "lid": 11876, "rayon": 26810, "overdose": 26641, "sniper": 17515, "baird": 20866, "collections": 6407, "furiously": 20322, "edinburgh": 5928, "seminary": 8705, "\u2097": 1566, "luther": 9678, "mentions": 9704, "excitedly": 23885, "distributed": 5500, "slammed": 7549, "ecstasy": 19069, "fangs": 11738, "##thed": 23816, "\u72ac": 1908, "hermit": 24308, "cocaine": 16034, "##\u85e4": 30470, "wildlife": 6870, "kade": 26159, "ling": 17002, "[unused633]": 638, "irish": 3493, "lasting": 9879, "\u09ae": 1370, "empress": 10248, "##powered": 27267, "marek": 29318, "surfaces": 9972, "hazard": 15559, "stu": 24646, "streamlined": 29445, "accused": 5496, "thessaloniki": 23162, "##hwa": 18663, "##cer": 17119, "chimed": 27460, "wouldn": 2876, "cd": 3729, "load": 7170, "raced": 8255, "styled": 13650, "soccer": 4715, "gillian": 22358, "scissors": 25806, "sk": 15315, "spraying": 29035, "##fication": 10803, "422": 29269, "hills": 4564, "stuff": 4933, "##gee": 18372, "kai": 11928, "[unused702]": 707, "robber": 27307, "sincerely": 25664, "##ando": 28574, "char": 25869, "##mic": 7712, "lay": 3913, "monastery": 6408, "daddy": 8600, "2014": 2297, "gt": 14181, "root": 7117, "violent": 6355, "cid": 28744, "##aneous": 17191, "summoned": 11908, "biodiversity": 17194, "protests": 8090, "inequality": 16440, "courtyard": 10119, "treatments": 13441, "siemens": 22108, "dictator": 21237, "##shah": 25611, "##tson": 25656, "11th": 6252, "marked": 4417, "grandchildren": 13628, "ripping": 17039, "defiance": 19674, "##games": 26393, "##pod": 27633, "saliva": 26308, "ballot": 10428, "31st": 17089, "umm": 26114, "brooks": 8379, "condemnation": 26248, "winding": 12788, "heinrich": 10952, "esther": 14631, "obligations": 14422, "osman": 28609, "gossip": 13761, "##zzled": 17269, "hindus": 18221, "verde": 16184, "selections": 16310, "slipped": 5707, "conquered": 11438, "\u0987": 1349, "spielberg": 28740, "parents": 3008, "jillian": 27286, "##ayan": 25868, "steam": 5492, "##night": 15864, "domesday": 22310, "##mental": 26901, "inter": 6970, "dome": 8514, "drowning": 14759, "bulldogs": 15120, "milky": 21582, "##ined": 21280, "notation": 14869, "[unused227]": 232, "perpetual": 18870, "classification": 5579, "thud": 20605, "newbury": 29457, "electrically": 29103, "##nik": 8238, "##dre": 16200, "just": 2074, "##\u092a": 29864, "imaginative": 28575, "imperial": 4461, "mets": 15253, "ama": 25933, "##bek": 24597, "llc": 11775, "representations": 15066, "1980": 3150, "\u10e2": 1453, "ticket": 7281, "marital": 23143, "experimental": 6388, "glorious": 14013, "reminiscent": 14563, "destroys": 20735, "pounding": 9836, "leak": 17271, "guitarist": 5990, "heightened": 21106, "tatum": 25913, "nbc": 6788, "commit": 10797, "##git": 23806, "endeavour": 26911, "scholarly": 12683, "equity": 10067, "succeeding": 13034, "liking": 16663, "##vious": 24918, "normally": 5373, "\u25a0": 1617, "##yi": 10139, "##fest": 14081, "poke": 26202, "##dna": 28911, "quebec": 5447, "danzig": 26669, "range": 2846, "##cho": 9905, "[unused509]": 514, "kyushu": 25885, "327": 28469, "197": 19975, "##dina": 18979, "commissioned": 4837, "hybrid": 8893, "california": 2662, "levy": 12767, "charged": 5338, "frederick": 5406, "bags": 8641, "\u9234": 1965, "widening": 17973, "##nsor": 29577, "cup": 2452, "napoleonic": 18813, "##iling": 16281, "digitally": 18397, "would": 2052, "##osphere": 25444, "admitted": 4914, "##\u0436": 29743, "[unused463]": 468, "##oint": 25785, "vanuatu": 27625, "perez": 10730, "craven": 21232, "dissemination": 28170, "rats": 11432, "mayfair": 28387, "1580": 28278, "beyond": 3458, "##tream": 25379, "[unused52]": 53, "##pse": 29251, "sued": 12923, "alias": 14593, "mcgraw": 24179, "successive": 11165, "filly": 22062, "dane": 14569, "issn": 23486, "interacting": 21935, "[unused357]": 362, "##yang": 12198, ",": 1010, "predatory": 21659, "tremor": 27734, "loan": 5414, "spans": 14798, "greeted": 11188, "bengals": 23227, "believes": 7164, "faux": 29276, "alvarez": 16309, "amazing": 6429, "costa": 6849, "reborn": 24910, "imagery": 13425, "##ffs": 21807, "covered": 3139, "para": 11498, "zachary": 19474, "dogs": 6077, "pier": 10356, "florence": 7701, "obey": 15470, "restaurant": 4825, "trade": 3119, "##ards": 18117, "dangerously": 20754, "operational": 6515, "ma": 5003, "fuji": 20933, "berwick": 24957, "##bags": 26813, "stone": 2962, "documented": 8832, "chess": 7433, "emanuel": 21135, "##endez": 28787, "stepfather": 21481, "##me": 4168, "flickering": 20046, "hussain": 20093, "hoping": 5327, "tchaikovsky": 25900, "##ghi": 28891, "sultanate": 21308, "myers": 13854, "snatched": 14177, "mayfield": 27224, "road": 2346, "frs": 25188, "evangelical": 11295, "protections": 28548, "boiler": 15635, "mendes": 27916, "transporting": 18276, "alarm": 8598, "maia": 23478, "instrumental": 6150, "laughing": 5870, "suffered": 4265, "bounded": 10351, "armenian": 7508, "pirate": 11304, "tango": 17609, "##izer": 17629, "racetrack": 28435, "frowns": 29303, "##>": 29631, "fluttering": 25001, "320": 13710, "peas": 26072, "yan": 13619, "mastered": 15682, "christopher": 5696, "conserved": 19995, "pity": 12063, "box": 3482, "compensated": 29258, "towing": 28379, "ridge": 5526, "405": 23988, "priests": 8656, "##uke": 15851, "regulation": 7816, "##write": 26373, "strung": 23509, "coyotes": 26880, "defend": 6985, "##uge": 22890, "steamer": 18027, "thistle": 24328, "arabia": 9264, "##rant": 17884, "interference": 11099, "medici": 22605, "weber": 13351, "tugs": 29306, "singular": 13048, "##gut": 27920, "penetrate": 19136, "clicking": 22042, "whenever": 7188, "iqbal": 28111, "\u2666": 1626, "separated": 5459, "purse": 8722, "cindy": 15837, "juniors": 16651, "sky": 3712, "patrons": 13497, "mbe": 20301, "clubhouse": 22067, "centenary": 17705, "##icide": 21752, "##\u00bd": 13714, "bloc": 15984, "highlighted": 11548, "##trip": 24901, "thank": 4067, "debating": 20767, "bismarck": 22029, "leaps": 29195, "colourful": 26102, "cows": 17188, "\u09b6": 1374, "such": 2107, "##zcz": 29419, "wherever": 11210, "freely": 10350, "coven": 25248, "mansfield": 15352, "undone": 25757, "\u30db": 1722, "##scia": 27210, "mars": 7733, "liberal": 4314, "ivory": 11554, "custom": 7661, "##ista": 11921, "firth": 25138, "rq": 28134, "\u2089": 1556, "bombers": 10544, "needing": 11303, "\u11a8": 1484, "\u0648": 1298, "speaker": 5882, "eerie": 18823, "##uk": 6968, "[unused57]": 58, "[unused664]": 669, "pointing": 7302, "##vas": 12044, "washing": 12699, "bequeathed": 27180, "avengers": 14936, "regiment": 3483, "afraid": 4452, "stranger": 7985, "phd": 8065, "splendid": 21459, "##\u116e": 30014, "davidson": 12017, "conner": 17639, "sweating": 18972, "apostolic": 11815, "institut": 17126, "hangul": 19051, "\u56d7": 1797, "doi": 9193, "plastered": 21832, "bullshit": 14636, "proficient": 27029, "##\u0434": 29742, "combining": 11566, "carpet": 10135, "vaccine": 17404, "northern": 2642, "jew": 16522, "val": 11748, "davey": 20436, "##rocity": 21735, "pulled": 2766, "[unused106]": 111, "leaf": 7053, "tactics": 9887, "horseshoe": 23449, "gerais": 29220, "instinctively": 16607, "wound": 6357, "\uff0d": 1990, "neville": 14871, "sai": 18952, "bertrand": 20586, "es": 9686, "##nka": 25804, "grow": 4982, "hosts": 6184, "ale": 15669, "rumored": 22710, "##idium": 28742, "##boats": 19468, "##hips": 19801, "commonly": 4141, "rap": 9680, "[unused809]": 814, "##bee": 11306, "jerk": 12181, "loki": 24143, "\u30b9": 1707, "pere": 23976, "disrepair": 27799, "effortlessly": 29483, "lila": 19286, "persuasion": 27577, "blushing": 25771, "mans": 16042, "smoothing": 27045, "joe": 3533, "##gre": 17603, "bleak": 21657, "\u677e": 1880, "##vard": 25911, "amplifier": 22686, "efficacy": 21150, "sarcastic": 22473, "olaf": 20514, "dc": 5887, "staring": 4582, "realistic": 12689, "1646": 28783, "creole": 21414, "conferred": 15186, "##ennial": 22929, "exercising": 28428, "spectator": 21027, "ironically": 18527, "1830s": 20400, "della": 8611, "\u2122": 1580, "soap": 7815, "specialist": 8325, "topical": 25665, "aachen": 29093, "##iny": 24300, "comb": 22863, "abdullah": 14093, "interesting": 5875, "mustache": 28786, "empires": 23560, "bidding": 17534, "##bil": 14454, "apache": 15895, "mbc": 27262, "##uo": 19098, "dana": 11271, "##gus": 12349, "meng": 27955, "##moor": 17622, "host": 3677, "failing": 7989, "precautions": 29361, "spaced": 19835, "lecturer": 9162, "darling": 9548, "walled": 17692, "repetition": 23318, "##\u03b7": 24824, "julius": 10396, "das": 8695, "periodically": 18043, "winged": 14462, "slamming": 15209, "ras": 20710, "##cini": 27085, "flees": 24776, "onto": 3031, "powers": 4204, "nailed": 26304, "##\u02bf": 29714, "##ented": 14088, "[unused500]": 505, "##lc": 15472, "replaced": 2999, "##e": 2063, "##ric": 7277, "popularized": 20339, "due": 2349, "distinguish": 10782, "hunched": 20498, "foo": 29379, "passions": 25289, "\u6b66": 1889, "pyrenees": 22696, "##nate": 12556, "ecosystem": 16927, "genius": 11067, "##tz": 5753, "environment": 4044, "ab": 11113, "upstream": 13909, "characterised": 17253, "wta": 21925, "##placed": 22829, "moral": 7191, "intervene": 18793, "columbia": 3996, "fires": 8769, "mathematician": 13235, "folds": 15439, "galveston": 26630, "labs": 13625, "shelves": 15475, "nay": 29349, "##hana": 15788, "abu": 8273, "deposits": 10042, "vial": 28475, "southwestern": 8772, "##glers": 25555, "##icative": 25184, "immunity": 15403, "intuitive": 29202, "embryo": 28086, "trams": 19216, "sling": 27076, "beef": 12486, "carrier": 6839, "terrain": 9291, "dump": 15653, "mantle": 16019, "emptiness": 23397, "amazement": 21606, "psalms": 26130, "##vor": 14550, "variously": 17611, "sparkling": 16619, "receivers": 19278, "1642": 24061, "sis": 24761, "urbana": 27929, "francais": 22357, "gravely": 28070, "exception": 6453, "kisses": 8537, "fe": 10768, "feud": 13552, "indicative": 24668, "##ipes": 28108, "##gara": 24864, "generosity": 26161, "trains": 4499, "for": 2005, "apt": 26794, "lei": 26947, "[unused679]": 684, "##paper": 23298, "displays": 8834, "space": 2686, "guy": 3124, "##\u06a9": 29841, "##bron": 21337, "opted": 12132, "soil": 5800, "foley": 17106, "309": 25048, "[unused565]": 570, "damp": 10620, "penal": 18476, "graphs": 19287, "maximilian": 18838, "##our": 8162, "dmitry": 22141, "gathers": 29438, "shudder": 18261, "shoulders": 4065, "##ffie": 29055, "\u11bc": 1489, "series": 2186, "evaluate": 16157, "sorted": 19616, "colleen": 28385, "disused": 26958, "##tine": 10196, "apps": 18726, "##oum": 24778, "\u6708": 1872, "alfredo": 19423, "question": 3160, "patriot": 16419, "commissions": 13239, "threatens": 17016, "tends": 12102, "stupidity": 28072, "playing": 2652, "dresses": 14464, "protein": 5250, "elisabeth": 12877, "geological": 9843, "indies": 9429, "86": 6564, "publisher": 6674, "patience": 11752, "dissatisfied": 25956, "embarrassed": 10339, "princely": 22771, "##ile": 9463, "soothing": 16684, "##\u2218": 30126, "reuters": 26665, "kilometer": 20595, "underworld": 13607, "##ae": 6679, "cbc": 13581, "raises": 13275, "shone": 14707, "norwich": 12634, "groundbreaking": 23222, "racer": 14878, "care": 2729, "##tron": 15312, "spitfire": 28323, "office": 2436, "albanians": 25267, "behaviors": 15592, "feb": 13114, "\u6c5f": 1897, "windows": 3645, "##ament": 24996, "referred": 3615, "nevada": 7756, "juris": 27551, "##nova": 13455, "breakdown": 12554, "losses": 6409, "sacks": 14918, "richards": 9712, "298": 27240, "##dion": 29573, "sisters": 5208, "[unused878]": 883, "electoral": 6092, "underwater": 11564, "decreasing": 16922, "harmony": 9396, "oddly": 15056, "manufacturing": 5814, "gown": 11739, "contention": 18974, "safeguard": 28805, "insurrection": 27860, "virgin": 6261, "zhang": 9327, "disciplinary": 17972, "inquisition": 24638, "neumann": 22860, "queen": 3035, "keyboards": 6269, "29th": 16318, "\"": 1000, "chances": 9592, "\u1d63": 1508, "guess": 3984, "hollow": 8892, "\u05d5": 1246, "dried": 9550, "##\u0569": 29771, "turrets": 21088, "##\u30df": 30250, "participants": 6818, "[unused630]": 635, "##ille": 10484, "clockwise": 22839, "##romatic": 23645, "mistake": 6707, "secretly": 10082, "cache": 17053, "bulgarian": 7643, "recession": 19396, "raphael": 12551, "causing": 4786, "##\u00f0": 29668, "##bold": 27495, "digital": 3617, "clench": 26753, "##11": 14526, "311": 23532, "motors": 9693, "coupled": 11211, "temperate": 16868, "##kir": 23630, "harvest": 11203, "rival": 6538, "hinted": 21795, "leith": 29011, "basic": 3937, "\u56fd": 1799, "titus": 18828, "kaufman": 23699, "##cake": 17955, "mentioned": 3855, "clutch": 15357, "hyper": 23760, "hackett": 28630, "##rize": 25709, "##zard": 26154, "bartlett": 20081, "lagos": 16738, "statute": 11671, "condoms": 29094, "imagined": 8078, "##ite": 4221, "##isms": 22556, "##lass": 27102, "shift": 5670, "budget": 5166, "white": 2317, "ensued": 18942, "1685": 25053, "##osaurus": 25767, "presence": 3739, "properties": 5144, "paws": 24392, "vengeance": 14096, "##\u110c": 30000, "##terol": 27833, "kent": 5982, "alessandro": 17956, "264": 21611, "gretchen": 21625, "##tres": 19168, "##\u00df": 19310, "##oles": 29111, "##raya": 29539, "decline": 6689, "picking": 8130, "uhf": 20131, "##\u2229": 30131, "[unused818]": 823, "##\u2085": 30081, "librarian": 13850, "tailed": 14578, "painfully": 16267, "##\u305b": 30185, "artifact": 20785, "requiring": 9034, "baseline": 26163, "##bard": 21458, "reciprocal": 28309, "##hin": 10606, "rises": 9466, "overcame": 26463, "streaked": 21276, "1990": 2901, "##\u1d48": 30034, "##llus": 20159, "\u0561": 1219, "fallen": 5357, "visitors": 5731, "##lius": 15513, "vans": 21994, "##\u00bf": 29666, "[unused682]": 687, "ping": 17852, "religious": 3412, "##sque": 17729, "melancholy": 22247, "##vey": 12417, "basil": 14732, "khorasan": 23225, "nouvelle": 25207, "nora": 12306, "##kh": 10023, "##rley": 12866, "mathematics": 5597, "simeon": 24371, "influential": 6383, "hacking": 23707, "fresco": 26991, "houston": 5395, "cohen": 9946, "feng": 19004, "preferences": 18394, "##tom": 20389, "warsaw": 8199, "tom": 3419, "martina": 23508, "winner": 3453, "vaudeville": 19698, "faso": 22773, "peng": 26473, "##corp": 24586, "nadu": 10703, "1651": 29077, "journalist": 4988, "alberto": 12007, "manages": 9020, "##so": 6499, "wicket": 12937, "guts": 18453, "sprinted": 25156, "sharpened": 26694, "tablet": 13855, "##ophone": 25232, "skating": 10080, "pei": 26850, "258": 24398, "seth": 6662, "##ieu": 17301, "brightest": 26849, "waivers": 28654, "dealer": 11033, "##da": 2850, "hammering": 27883, "##lik": 18393, "##ame": 14074, "[unused212]": 217, "##cs": 6169, "journeys": 19147, "coaster": 16817, "prestigious": 8919, "woodrow": 23954, "pitching": 14696, "saturdays": 18860, "##\u09ac": 29904, "reversed": 11674, "gauge": 7633, "grit": 24842, "potter": 10693, "dwarf": 11229, "posthumously": 12770, "miniseries": 13612, "weed": 17901, "##arts": 20591, "fanny": 17813, "gloom": 24067, "[unused848]": 853, "beating": 6012, "15th": 6286, "bernhard": 21432, "sally": 8836, "\u30b3": 1704, "consulted": 17535, "jakob": 19108, "weeping": 19750, "##sibility": 28255, "ville": 20184, "##bers": 17198, "demolition": 12451, "\u00b9\u2044\u2082": 18728, "falls": 4212, "##back": 5963, "guarantee": 11302, "intensity": 8015, "##49": 26224, "rusty": 13174, "meritorious": 22053, "undergoing": 14996, "room": 2282, "ask": 3198, "arrested": 4727, "bea": 26892, "poised": 22303, "remade": 26943, "\u6d77": 1902, "##rio": 9488, "##uche": 19140, "transatlantic": 26617, "objective": 7863, "[unused170]": 175, "observer": 9718, "coating": 18898, "##lika": 25421, "##\u2044": 30070, "roads": 4925, "peninsular": 22682, "deer": 8448, "excavation": 16456, "firm": 3813, "##vo": 6767, "##rne": 12119, "belong": 7141, "##wy": 18418, "seeds": 8079, "lightning": 7407, "somalia": 14717, "apostles": 19178, "activated": 8878, "jewellery": 21545, "prey": 8336, "oricon": 22237, "\u0649": 1299, "ethics": 9615, "corrugated": 27186, "##\u03bf": 29730, "1837": 9713, "sighting": 29426, "##iting": 15402, "##\u0930": 29869, "skin": 3096, "sympathetic": 13026, "malone": 16321, "cannons": 17138, "ul": 17359, "##mu": 12274, "1823": 12522, "autobiography": 10828, "qin": 19781, "tavi": 24283, "[unused640]": 645, "trumpets": 26506, "##utnant": 24620, "subsidiary": 7506, "nausea": 19029, "1697": 28690, "affect": 7461, "roosevelt": 8573, "##vid": 17258, "##hand": 11774, "lynx": 22636, "nelly": 29498, "harmless": 19741, "[unused466]": 471, "debts": 13930, "##usly": 27191, "##rger": 25858, "thirteen": 7093, "##400": 29537, "##\u300b": 30166, "sadly": 13718, "catalog": 12105, "campground": 29144, "tasked": 13487, "vegetation": 10072, "colleges": 6667, "196": 20035, "minimize": 18478, "illegal": 6206, "appearing": 6037, "122": 13092, "##\u27e9": 30156, "##aith": 22465, "defence": 4721, "##ounded": 26240, "mic": 23025, "\u0436": 1186, "rocco": 28167, "outrage": 19006, "whitaker": 27049, "persian": 4723, "detention": 12345, "greet": 17021, "subconscious": 27952, "sar": 18906, "ordinary": 6623, "##dai": 21351, "accustomed": 17730, "suicide": 5920, "helmut": 24515, "docking": 25776, "handing": 13041, "europeans": 13481, "felipe": 17095, "##\u03c2": 19579, "georgetown": 12982, "tyrone": 18770, "derives": 12153, "[unused132]": 137, "metal": 3384, "lacrosse": 13488, "csa": 27804, "makeshift": 19368, "nationale": 17360, "handy": 18801, "placing": 6885, "ops": 23092, "##orne": 23846, "us": 2149, "[unused570]": 575, "\u00bf": 1094, "70s": 17549, "tenor": 9534, "richardson": 9482, "##cting": 11873, "##rgan": 16998, "escalated": 26814, "immigrated": 17352, "bin": 8026, "##till": 28345, "\u0995": 1353, "authorised": 19256, "instructors": 19922, "parkway": 12602, "chico": 22136, "bulging": 27569, "clutches": 29497, "addressed": 8280, "strode": 11885, "sho": 26822, "##\u1172": 30016, "kite": 20497, "##endra": 19524, "sylvie": 26009, "hangar": 18284, "##sberg": 11711, "1672": 27253, "euros": 19329, "##mare": 24376, "comparisons": 18539, "mcconnell": 28514, "accept": 5138, "traction": 16493, "oblivious": 18333, "phenomena": 13352, "gratitude": 15531, "##oon": 7828, "##\u05e2": 29805, "earned": 3687, "##mour": 20360, "astronomer": 15211, "##\u201e": 30060, "werner": 14121, "smash": 15132, "communicated": 24162, "rooms": 4734, "conflict": 4736, "size": 2946, "landing": 4899, "##eu": 13765, "[unused446]": 451, "sainte": 16947, "tickets": 9735, "gavin": 9448, "##lace": 19217, "dec": 11703, "insurance": 5427, "##fan": 15143, "throws": 11618, "pun": 26136, "turf": 14585, "beer": 5404, "infections": 15245, "calculate": 18422, "computers": 7588, "screen": 3898, "##skie": 23955, "so": 2061, "##nay": 16741, "evacuate": 22811, "##\u06ba": 29843, "##ify": 8757, "vest": 17447, "damage": 4053, "astronomy": 12799, "socket": 22278, "located": 2284, "sympathy": 11883, "adolescence": 29101, "\u1106": 1459, "commendation": 23039, "specialising": 23315, "\u00b0f": 8157, "lilly": 14765, "\u6c38": 1896, "ca": 6187, "1908": 5316, "takes": 3138, "involving": 5994, "suffering": 6114, "knots": 9439, "promised": 5763, "conical": 24750, "israelis": 28363, "terrified": 10215, "##pling": 14353, "costume": 9427, "##ural": 11137, "canopy": 14582, "315": 22904, "breakaway": 26321, "##dya": 25838, "##ome": 8462, "realm": 8391, "browning": 18778, "nomination": 6488, "transvaal": 28336, "nails": 10063, "surround": 15161, "aragon": 16146, "[unused876]": 881, "capitals": 15433, "grins": 20237, "riots": 12925, "##enia": 19825, "offices": 4822, "socialism": 14649, "##pressing": 24128, "sabha": 11200, "denomination": 18683, "[unused755]": 760, "magdalene": 26890, "##rera": 24068, "background": 4281, "[unused98]": 99, "usually": 2788, "assembly": 3320, "peripheral": 15965, "viktor": 13489, "merlin": 15993, "##nts": 7666, "1644": 23477, "munster": 11348, "fit": 4906, "nationalist": 8986, "joking": 16644, "collingwood": 20044, "practitioners": 14617, "broadway": 5934, "revolt": 10073, "solicitor": 15468, "##ingdon": 29138, "lyrics": 4581, "car": 2482, "pacific": 3534, "greatest": 4602, "handicapped": 26920, "04": 5840, "##\u0e32": 29958, "t": 1056, "##yra": 19563, "blur": 14819, "neil": 6606, "drastic": 23956, "rockefeller": 16696, "cans": 18484, "textile": 12437, "va": 12436, "##\u043e": 14150, "##\u1110": 30003, "[unused387]": 392, "assassins": 18364, "letter": 3661, "greenberg": 24190, "##\u795e": 30451, "1822": 12307, "templar": 27850, "apr": 19804, "##ugh": 8953, "##eger": 26320, "chicken": 7975, "##castle": 23662, "accusation": 19238, "questions": 3980, "mariners": 18049, "elk": 18995, "##ime": 14428, "nedra": 28240, "##\u5b80": 30344, "struck": 4930, "##sund": 25168, "astronauts": 25881, "colour": 6120, "sabotage": 20223, "hesitated": 9369, "kgb": 25467, "retaining": 12823, "freaks": 29526, "##oli": 10893, "##bor": 12821, "cremated": 28376, "\u0263": 1117, "archbishop": 6507, "immense": 14269, "##fting": 26169, "jupiter": 13035, "olivier": 14439, "lecture": 8835, "elisa": 29490, "remove": 6366, "resultant": 28573, "operate": 5452, "joel": 8963, "minneapolis": 11334, "##urs": 9236, "profiles": 17879, "transported": 9687, "fellowships": 27298, "##lbert": 23373, "practiced": 9051, "televised": 13762, "musician": 5455, "customers": 6304, "estimates": 10035, "jeremy": 7441, "[unused686]": 691, "\u1d4d": 1500, "launching": 12106, "tunisia": 13437, "cemetery": 4528, "##mates": 15416, "achilles": 23167, "fiona": 13073, "growls": 27825, "develops": 11791, "corporal": 14265, "supplies": 6067, "cry": 5390, "##abe": 16336, "soloists": 27516, "mom": 3566, "khmer": 19472, "liz": 9056, "sculptors": 28417, "nobel": 10501, "ze": 27838, "dryly": 20825, "useless": 11809, "babylon": 17690, "sinclair": 11881, "payroll": 26854, "lucian": 18218, "unsafe": 25135, "slicing": 26514, "busy": 5697, "redemption": 18434, "450": 10332, "narcotics": 27290, "1680": 24621, "minogue": 27736, "[unused428]": 433, "##keepers": 24764, "keyboard": 9019, "lightweight": 12038, "acceptable": 11701, "quarterfinal": 29380, "feared": 8615, "bharatiya": 24243, "campaigned": 16196, "boise": 23193, "112": 11176, "disguise": 14249, "289": 27054, "anwar": 28372, "##bit": 16313, "##lee": 10559, "##ncia": 22750, "##\u0bbe": 29931, "trenches": 19874, "##rwin": 27349, "britain": 3725, "tyres": 24656, "earrings": 27212, "view": 3193, "mayo": 14415, "intentionally": 15734, "consoles": 22659, "##nsis": 11745, "##rigues": 22934, "inclined": 13050, "ivo": 28346, "constantin": 27991, "pathetic": 17203, "[unused225]": 230, "##culus": 28703, "aground": 29406, "bargain": 17113, "sees": 5927, "630": 23609, "kurdish": 15553, "stunt": 15412, "spartans": 24293, "\u062c": 1275, "newborn": 20662, "away": 2185, "convertible": 22840, "signatures": 16442, "analogue": 21800, "75th": 25092, "##kong": 25460, "lakeside": 28701, "baltimore": 6222, "##uding": 24539, "sudden": 5573, "horseback": 19926, "sam": 3520, "avoids": 26777, "assistance": 5375, "bacon": 11611, "limousine": 28012, "taxis": 25964, "rated": 6758, "collection": 3074, "guadalupe": 23529, "##\u0932": 29870, "use": 2224, "##\u5357": 30311, "aquino": 24183, "created": 2580, "##eda": 11960, "pub": 9047, "ashamed": 14984, "beginning": 2927, "##km": 22287, "##lang": 25023, "shaded": 25273, "##\u4ecb": 30285, "##ging": 4726, "\u535a": 1786, "dl": 21469, "worthless": 22692, "##cans": 26642, "[unused761]": 766, "##dling": 14423, "##lellan": 25839, "babu": 20948, "sculptures": 10801, "mildly": 19499, "donegal": 25415, "domain": 5884, "benin": 21164, "jobs": 5841, "postal": 10690, "semi": 4100, "##nat": 19833, "##titles": 27430, "four": 2176, "##go": 3995, "##khar": 22510, "siren": 19558, "nestled": 22704, "widow": 7794, "differentiation": 20582, "voltage": 10004, "testified": 14914, "cheeks": 6029, "\u1112": 1469, "scares": 29421, "intercontinental": 18725, "\u091f": 1320, "##kie": 11602, "##ism": 2964, "josie": 15293, "##ntly": 20630, "discussions": 10287, "\u30ec": 1734, "\u0989": 1350, "owners": 5608, "teeth": 4091, "##\u0926": 29861, "overly": 15241, "archer": 11024, "marijuana": 16204, "eventually": 2776, "kylie": 9008, "fooled": 25857, "worm": 15485, "lgbt": 12010, "customer": 8013, "priced": 21125, "##jong": 21958, "riddle": 21834, "narrowing": 21978, "bastards": 21123, "yun": 22854, "dwellings": 16707, "monitoring": 8822, "catalina": 22326, "incidents": 10444, "straighten": 28568, "sucks": 19237, "forget": 5293, "##\u2663": 30151, "\u6cd5": 1901, "lonely": 9479, "criterion": 19229, "##lich": 18337, "orb": 19607, "##ials": 26340, "broadcasting": 5062, "##naire": 20589, "mug": 14757, "##\u570b": 30326, "brian": 4422, "##sant": 22341, "provoked": 19157, "##ogist": 22522, "rent": 9278, "##son": 3385, "date": 3058, "littered": 24777, "##\u2044\u2084": 27392, "happen": 4148, "inn": 7601, "substrate": 16305, "operating": 4082, "consular": 27326, "marvin": 13748, "downloads": 22956, "##anga": 18222, "[unused77]": 78, "optical": 9380, "employed": 4846, "[unused539]": 544, "patiently": 19080, "disapproval": 21406, "focal": 15918, "coat": 5435, "suits": 11072, "gypsy": 16006, "almond": 26011, "##\u03c8": 29738, "square": 2675, "pas": 14674, "prevent": 4652, "##abad": 10542, "##gis": 17701, "beneficial": 15189, "in": 1999, "rock": 2600, "typical": 5171, "rex": 10151, "grossed": 17500, "yoo": 26823, "tenderness": 24605, "streets": 4534, "##orf": 16347, "alicia": 15935, "kits": 18628, "\u00a4": 1070, "2002": 2526, "tb": 26419, "enoch": 28178, "rediscovered": 26733, "reacted": 14831, "networks": 6125, "calder": 19347, "moors": 24812, "m": 1049, "##uen": 24997, "spheres": 19885, "235": 17825, "voter": 14303, "jumper": 21097, "\u0562": 1220, "kid": 4845, "##\u00b9": 27904, "##now": 19779, "laurie": 16450, "potassium": 18044, "blackness": 19573, "\u82b1": 1940, "##lham": 25968, "rebound": 27755, "cubic": 11919, "princes": 12000, "bluff": 14441, "transylvania": 20816, "arching": 27335, "##\u79c0": 30454, "endings": 21306, "cattle": 7125, "mohawk": 22338, "\u5d0e": 1834, "charlton": 17821, "frowned": 7335, "46th": 27990, "oceanic": 18955, "##lake": 14530, "extensive": 4866, "chargers": 18649, "exeter": 12869, "baths": 19692, "archaic": 19261, "##\u3009": 30164, "\u6a4b": 1885, "fishery": 22880, "1826": 11931, "emilio": 18644, "videos": 6876, "10": 2184, "overnight": 11585, "extremely": 5186, "403": 28203, "[unused961]": 966, "##helm": 24546, "curriculum": 8882, "edwin": 10049, "london": 2414, "spending": 5938, "##rted": 17724, "laboratories": 12030, "manipulating": 26242, "scenarios": 16820, "kingsley": 22819, "volume": 3872, "concern": 5142, "subjected": 13532, "\ufb02": 1985, "confluence": 13693, "statutory": 15201, "value": 3643, "discomfort": 17964, "00": 4002, "responsibilities": 10198, "##adan": 26335, "[unused304]": 309, "orbiting": 26472, "populace": 22508, "herself": 2841, "schumann": 29448, "[unused81]": 82, "##\u305f": 30187, "eh": 15501, "##ish": 4509, "astro": 28625, "tna": 20108, "ernesto": 22428, "59": 5354, "##\u3053": 30181, "##\u0993": 29888, "\u7701": 1920, "allocated": 11095, "flashbacks": 28945, "jacob": 6213, "1300": 19527, "##box": 8758, "whispers": 11054, "dynamo": 17205, "brisk": 28022, "credentials": 22496, "##hett": 28499, "flipping": 18497, "\u2020": 1526, "destroyed": 3908, "finals": 4399, "1887": 6837, "scratching": 20291, "deco": 21933, "msc": 23794, "##\u0280": 29693, "##zing": 6774, "rosario": 17496, "[unused224]": 229, "puerto": 5984, "lester": 14131, "physicist": 13702, "ivy": 7768, "[unused332]": 337, "snoop": 29044, "franz": 8965, "christmas": 4234, "sous": 27411, "later": 2101, "september": 2244, "##ral": 7941, "\u2026": 1529, "[unused20]": 21, "##aux": 13754, "760": 24643, "degrees": 5445, "pearls": 21944, "bribes": 29117, "relaxing": 19613, "mutual": 8203, "mercedes": 10793, "grupo": 26678, "papers": 4981, "lineage": 13321, "coughed": 19055, "##mona": 21781, "seventh": 5066, "##hony": 27629, "badly": 6649, "programme": 4746, "pool": 4770, "advantages": 12637, "genera": 11416, "hardcover": 20990, "##zers": 16750, "upton": 26900, "##mark": 10665, "##\u98a8": 30503, "expose": 14451, "recycling": 17874, "##itate": 17570, "wessex": 27886, "grinned": 6973, "neighbouring": 9632, "bosch": 25936, "revenge": 7195, "ascent": 16354, "[unused489]": 494, "wynn": 25328, "sources": 4216, "##\u1d62": 19109, "titular": 12960, "foothills": 18455, "strengths": 20828, "##rance": 21621, "bohemian": 18063, "sykes": 23531, "##ine": 3170, "usher": 20774, "disturbances": 24535, "relaxation": 23370, "##eed": 13089, "katie": 9734, "[unused817]": 822, "and": 1998, "rd": 16428, "puddle": 25081, "gears": 19456, "##fighting": 22158, "principality": 18018, "[unused460]": 465, "roderick": 28326, "butterfly": 9112, "##\u203a": 30068, "##\u0dbb": 29941, "memory": 3638, "##ffe": 16020, "woolf": 29572, "norma": 20692, "venture": 6957, "clears": 28837, "[unused741]": 746, "diffusion": 19241, "[unused122]": 127, "rihanna": 25439, "##gg": 13871, "partners": 5826, "assign": 23911, "##eni": 18595, "indifference": 25920, "mistress": 10414, "itunes": 11943, "settling": 9853, "predicted": 10173, "##val": 10175, "mingled": 25959, "brings": 7545, "quickly": 2855, "ogden": 23203, "##avia": 15164, "residing": 7154, "1987": 3055, "##pies": 13046, "ulster": 11059, "determination": 9128, "condemned": 10033, "##body": 23684, "parody": 12354, "emile": 17127, "##weed": 18041, "stark": 9762, "prepares": 20776, "##ent": 4765, "civilized": 25825, "quezon": 26564, "virtue": 11870, "elias": 14579, "runaway": 19050, "##ional": 19301, "##lam": 10278, "165": 13913, "##\u98df": 30504, "##eter": 15141, "jolly": 22193, "precedent": 20056, "contain": 5383, "vault": 11632, "[unused673]": 678, "nj": 19193, "##rton": 11715, "informal": 11900, "occupying": 13992, "reece": 24227, "##llon": 22179, "cylindrical": 18797, "285": 21777, "##\u10d5": 29979, "##\u1111": 30004, "\u0bae": 1389, "##na": 2532, "photographed": 16164, "inferior": 14092, "[unused697]": 702, "listed": 3205, "explore": 8849, "resort": 7001, "##zal": 16739, "flashing": 12659, "proportions": 19173, "clue": 9789, "draught": 25349, "##\u1d57": 30041, "builds": 16473, "branding": 16140, "provision": 9347, "climate": 4785, "##iae": 19001, "adorable": 23677, "[unused647]": 652, "wen": 19181, "mysteriously": 29239, "bothering": 17067, "beaver": 13570, "lab": 6845, "rangers": 7181, "jamaica": 9156, "emphasized": 13155, "dormitory": 21538, "##etta": 16549, "bile": 23974, "occurrences": 27247, "listening": 5962, "communism": 15523, "hungary": 5872, "sixth": 4369, "##ulla": 22187, "##tite": 23096, "brightly": 14224, "necessitated": 29611, "nightmares": 15446, "##cross": 16458, "fever": 9016, "##ended": 21945, "unsuccessfully": 11551, "##udeau": 27627, "broker": 20138, "colonization": 18962, "wasps": 23146, "cambridgeshire": 24197, "##gger": 13327, "marquette": 24223, "say": 2360, "##roller": 26611, "##code": 16044, "feel": 2514, "pathways": 16910, "early": 2220, "myrtle": 21381, "\u03b4": 1158, "huddersfield": 19715, "accessibility": 23661, "##lma": 19145, "h": 1044, "woodward": 19133, "dynamite": 21719, "##tton": 15474, "alternate": 6585, "scarborough": 18603, "relativity": 20805, "[unused749]": 754, "d": 1040, "subterranean": 28811, "wrought": 18481, "good": 2204, "framed": 10366, "136": 15407, "##\u09b0": 29908, "1980s": 3865, "##7": 2581, "##lus": 7393, "brawl": 23244, "aliens": 12114, "\u533a": 1782, "caldwell": 16589, "newcastle": 8142, "##gor": 20255, "whipped": 12428, "umpire": 20887, "zoom": 24095, "subsp": 24807, "[unused531]": 536, "armour": 12371, "halo": 17201, "similarly": 6660, "heather": 9533, "fishermen": 16532, "formerly": 3839, "##idon": 28201, "counters": 24094, "leases": 29597, "emil": 16243, "louisiana": 5773, "##bner": 29388, "##ply": 22086, "alcoholic": 14813, "sheds": 25999, "fitz": 27706, "60th": 20928, "s": 1055, "[unused587]": 592, "violations": 13302, "##lia": 6632, "##rist": 15061, "ark": 15745, "ring": 3614, "glitter": 27566, "interrupting": 22602, "##\u0e01": 29945, "organized": 4114, "##del": 9247, "##\u4e0d": 30270, "bedroom": 5010, "afghan": 12632, "factions": 13815, "uncertainty": 12503, "annoying": 15703, "abrupt": 18772, "facto": 13743, "rom": 17083, "##nto": 13663, "outdated": 25963, "get": 2131, "attackers": 17857, "drew": 3881, "holloway": 20977, "gustavo": 24801, "pebbles": 28962, "upland": 25770, "ferrer": 28390, "scholarship": 6566, "irving": 12415, "brake": 13428, "\u2086": 1553, "registry": 15584, "##sity": 17759, "balancing": 20120, "##\u2079": 30078, "gil": 13097, "abbot": 11428, "[unused337]": 342, "simulation": 12504, "##sport": 20205, "assure": 14306, "choked": 12444, "utc": 11396, "##6th": 25994, "blamed": 11248, "mcnamara": 28340, "heresy": 28354, "determining": 12515, "georg": 12062, "##\u00aa": 29653, "describes": 5577, "##\u00f7": 29669, "##rries": 26801, "pale": 5122, "utmost": 27917, "instructor": 9450, "jets": 9924, "##torm": 20654, "roster": 9238, "cosmetics": 25381, "3000": 11910, "infection": 8985, "nolan": 13401, "##idge": 13623, "ebony": 27680, "christophe": 23978, "organizations": 4411, "insulted": 23637, "fashion": 4827, "&": 1004, "pollen": 22482, "1924": 4814, "teaser": 27071, "##lau": 17298, "train": 3345, "evolutionary": 12761, "bela": 20252, "jazz": 4166, "grafton": 28680, "##gen": 6914, "qb": 26171, "bridge": 2958, "autonomy": 12645, "wish": 4299, "avalanche": 18846, "crude": 13587, "radical": 7490, "ibn": 7839, "##eles": 26741, "mercenary": 22146, "##zee": 23940, "1839": 10011, "##olate": 19425, "\u03c3": 1173, "rum": 19379, "croats": 26222, "##analysis": 25902, "rca": 12639, "ranged": 15844, "altered": 8776, "porte": 25927, "##ume": 17897, "propeller": 15692, "directly": 3495, "prints": 11204, "[unused169]": 174, "janice": 20029, "utterly": 12580, "bundled": 24378, "\u5341": 1783, "##ground": 16365, "##outh": 17167, "dowry": 29603, "misconduct": 23337, "melville": 20154, "palms": 9486, "frontier": 8880, "fremantle": 20358, "feet": 2519, "\u3059": 1658, "thoroughly": 12246, "amphibious": 16182, "josh": 6498, "clothes": 4253, "351": 28474, "##\u308d": 30215, "##oc": 10085, "##\u7acb": 30457, "##\u897f": 30473, "somewhere": 4873, "intercourse": 23198, "\u05e8": 1265, "prosecutors": 19608, "stated": 3090, "speech": 4613, "1900": 5141, "attends": 23933, "##\u5149": 30296, "90": 3938, "buddies": 24115, "reports": 4311, "richest": 18429, "##ors": 5668, "movements": 5750, "preparing": 8225, "speculated": 15520, "poison": 9947, "helens": 24074, "##kic": 29493, "##\u3092": 30216, "fire": 2543, "##\u30b3": 30230, "##\u4e94": 30279, "warily": 23625, "exchanged": 10573, "awakened": 20256, "authenticity": 21452, "acute": 11325, "badminton": 14618, "lifts": 13695, "buckled": 26368, "flesh": 5771, "tomas": 12675, "fulton": 17049, "##sser": 18116, "len": 18798, "eric": 4388, "cushions": 27205, "mood": 6888, "shaft": 9093, "##bm": 25526, "hardened": 15015, "congregations": 16850, "subgroup": 20576, "padma": 23731, "awhile": 19511, "informally": 21858, "pornographic": 26932, "diagnosed": 11441, "united": 2142, "dartmouth": 16960, "[unused409]": 414, "weddings": 20429, "gibbons": 22194, "clear": 3154, "##rations": 28893, "church": 2277, "reunion": 10301, "arms": 2608, "kenji": 25894, "javanese": 27344, "comet": 15699, "##\u2086": 30082, "banker": 13448, "offences": 18421, "##ven": 8159, "disqualification": 27782, "routed": 19578, "lsu": 21849, "comparison": 7831, "##him": 14341, "1682": 29478, "\u098f": 1351, "jersey": 3933, "bringing": 5026, "membrane": 10804, "\u30a1": 1692, "myspace": 24927, "enough": 2438, "lombard": 23441, "nights": 6385, "1880s": 12751, "reaction": 4668, "##lance": 23078, "##firmed": 23141, "##\u0e25": 29954, "[unused66]": 67, "react": 10509, "##\u10d4": 29978, "rod": 8473, "manuscript": 8356, "heated": 9685, "shaky": 15311, "##ulating": 10924, "imply": 19515, "pharmacy": 13882, "clergyman": 22232, "##ovic": 9142, "knob": 16859, "summary": 12654, "##cum": 24894, "freddie": 15528, "mcbride": 18958, "salesman": 18968, "updated": 7172, "shoulder": 3244, "slot": 10453, "solemn": 19487, "marlborough": 22830, "bleed": 19501, "motorola": 29583, "publicly": 7271, "facade": 8508, "\u043a": 1189, "felt": 2371, "wild": 3748, "\u0627": 1270, "throat": 3759, "cn": 27166, "[unused350]": 355, "draws": 9891, "permitting": 24523, "locations": 5269, "approximation": 20167, "[unused765]": 770, "brethren": 17937, "[unused739]": 744, "hc": 16731, "individually": 14258, "##due": 20041, "museum": 2688, "ochreous": 23474, "mendoza": 18021, "meteorological": 20557, "consecration": 24730, "##wyl": 27740, "##ridge": 9438, "transplant": 22291, "facilitate": 10956, "unionist": 17104, "robertson": 9923, "##\u0259": 29681, "##tight": 26143, "##kova": 18810, "jedi": 27273, "militia": 8396, "##\u4e95": 30280, "villages": 4731, "##erving": 25164, "altitude": 7998, "unnecessary": 14203, "279": 25745, "##\u7537": 30438, "322": 23768, "font": 15489, "renowned": 8228, "fibre": 20962, "landscapes": 12793, "[unused123]": 128, "detection": 10788, "harmonica": 16527, "1973": 3381, "[unused472]": 477, "archaeology": 12009, "filmmaker": 12127, "##meric": 25531, "denmark": 5842, "trout": 13452, "##ve": 3726, "ang": 17076, "##hima": 16369, "corpse": 11547, "sponge": 25742, "radiating": 23229, "1734": 27367, "tease": 18381, "absolutely": 7078, "##tt": 4779, "520": 19611, "novi": 21574, "franks": 21310, "[unused454]": 459, "##ement": 13665, "[unused200]": 205, "thorn": 16337, "screenings": 25437, "corrosion": 24625, "steward": 17946, "clerks": 26706, "erased": 23516, "##mack": 26945, "castile": 15656, "garments": 21902, "loudly": 9928, "cadets": 15724, "##hya": 17915, "infancy": 22813, "##\u6c34": 30419, "frozen": 7708, "willard": 19138, "salary": 10300, "mara": 13955, "##lm": 13728, "aided": 11553, "basement": 8102, "insight": 12369, "boats": 6242, "pain": 3255, "tokyo": 5522, "potsdam": 26554, "carpenter": 10533, "##\u2609": 30149, "[unused325]": 330, "##ington": 7853, "fare": 13258, "observatory": 9970, "compiler": 21624, "spiritual": 6259, "batsman": 13953, "operatic": 22534, "ur": 24471, "##strel": 26877, "grazing": 15400, "[unused14]": 15, "silent": 4333, "ringo": 25589, "defined": 4225, "night": 2305, "gazing": 16448, "straightening": 27508, "restoring": 16487, "unknown": 4242, "knitting": 26098, "soared": 29127, "ld": 25510, "around": 2105, "##tum": 11667, "benz": 17770, "yokohama": 20507, "nigeria": 7387, "hush": 20261, "lawsuits": 20543, "warned": 7420, "##partisan": 26053, "\u3009": 1638, "metis": 26057, "##aea": 21996, "1957": 3890, "mama": 9588, "ulysses": 22784, "deep": 2784, "clerical": 23106, "tombstone": 26671, "premiership": 11264, "finish": 3926, "wishes": 8996, "##unds": 26698, "producer": 3135, "##nal": 12032, "atoms": 13353, "gardens": 5822, "madonna": 11284, "circulating": 22458, "butcher": 14998, "##athi": 25457, "tavern": 13090, "davy": 23255, "typed": 21189, "##mouth": 14359, "wrexham": 27119, "vichy": 29177, "tighter": 12347, "sherry": 22268, "buck": 10131, "[unused525]": 530, "1988": 2997, "vu": 24728, "elbow": 8999, "##wari": 20031, "sharon": 10666, "marker": 12115, "printer": 15041, "confinement": 21551, "unspoken": 25982, "admits": 14456, "obsessed": 15896, "morgan": 5253, "keith": 6766, "initiatives": 11107, "casual": 10017, "grimace": 25898, "facades": 28708, "nasa": 9274, "mangrove": 29340, "##claiming": 27640, "straining": 21366, "reacting": 24868, "purity": 18433, "##nton": 15104, "ionic": 24774, "rainfall": 10101, "[unused646]": 651, "flash": 5956, "##\u1d64": 30044, "places": 3182, "[unused891]": 896, "##ise": 5562, "practices": 6078, "temporarily": 8184, "levi": 11902, "chewing": 17492, "bloom": 13426, "##\u79be": 30453, "confident": 9657, "##act": 18908, "newscast": 20306, "##\u05d5": 29792, "specific": 3563, "swallow": 10577, "mascara": 27700, "declare": 13520, "persistent": 14516, "##genesis": 23737, "indirectly": 17351, "ferrari": 13632, "cardiac": 15050, "suppose": 6814, "##person": 27576, "authorization": 20104, "pictorial": 28304, "outfit": 11018, "fascism": 23779, "##\uff08": 30513, "inches": 5282, "creepy": 17109, "egypt": 5279, "sindh": 20284, "[unused175]": 180, "asa": 17306, "derrick": 18928, "##xie": 16898, "staunch": 26355, "skipper": 23249, "lausanne": 22256, "##polis": 17699, "relieve": 15804, "houses": 3506, "finale": 9599, "iphone": 18059, "brilliant": 8235, "dietary": 23444, "##ior": 25346, "puff": 23893, "havoc": 22156, "##vc": 25465, "won": 2180, "##urities": 29366, "forbade": 27315, "expressions": 11423, "faults": 19399, "presidency": 8798, "sexy": 7916, "disposed": 21866, "##bahn": 16052, "apartheid": 17862, "\u27e8": 1629, "filled": 3561, "[unused53]": 54, "weather": 4633, "pools": 12679, "paddy": 16063, "evicted": 25777, "superfamily": 24169, "shin": 12277, "interdisciplinary": 18593, "##orth": 28610, "durga": 28746, "1864": 6717, "##\u3042": 30172, "nostrils": 15325, "inventor": 12235, "charlotte": 5904, "\u3075": 1674, "tried": 2699, "suspense": 23873, "choreography": 16967, "##hawk": 17998, "blinking": 15997, "##eck": 11012, "cheshire": 13789, "stereo": 12991, "closet": 9346, "540": 20263, "##\u0458": 29761, "tribune": 10969, "hong": 4291, "tanner": 12780, "##uce": 18796, "dukes": 16606, "periodical": 21802, "oversight": 15709, "graded": 21976, "ad": 4748, "scenic": 12916, "token": 19204, "pulpit": 23134, "casey": 9036, "settlers": 7322, "##uba": 19761, "spokesman": 14056, "catering": 18640, "believers": 20373, "kinase": 21903, "extends": 8908, "[unused238]": 243, "census": 2883, "[unused39]": 40, "[unused470]": 475, "relationships": 6550, "invites": 18675, "##\u4ee3": 30286, "downward": 14047, "\u0937": 1337, "dominique": 18165, "postmaster": 20707, "heal": 11005, "disgusting": 19424, "various": 2536, "##founded": 21001, "##upt": 29441, "##nology": 21020, "brandenburg": 16426, "investor": 14316, "muse": 18437, "rendition": 19187, "kings": 5465, "maneuver": 17519, "ether": 28855, "##cars": 20745, "\u2010": 1513, "shrugged": 6345, "evidently": 15329, "arsenic": 29596, "##iac": 20469, "verse": 7893, "\u05db": 1252, "##hul": 21886, "conglomerate": 22453, "nilsson": 29376, "word": 2773, "minerals": 13246, "ridden": 15230, "##rrard": 29599, "fresno": 20840, "##qu": 28940, "defense": 3639, "\u00b0": 1080, "##not": 17048, "anzac": 29224, "tourists": 9045, "uncover": 26944, "##free": 23301, "fan": 5470, "cop": 8872, "miracle": 9727, "dances": 11278, "[unused273]": 278, "corey": 18132, "authoritative": 23949, "##right": 15950, "bracelet": 19688, "monastic": 17361, "vegetarian": 23566, "employer": 11194, "##verted": 26686, "queue": 24240, "##guchi": 16918, "sixty": 8442, "otago": 21831, "macdonald": 10406, "advice": 6040, "##\u057d": 29781, "##\u1105": 29994, "[unused742]": 747, "##chy": 11714, "singleton": 28159, "##tor": 4263, "gala": 16122, "descendant": 12608, "impatient": 17380, "[unused965]": 970, "##oman": 20778, "expands": 24545, "cubs": 12469, "##gies": 17252, "boiling": 16018, "durban": 25040, "meade": 26501, "billion": 4551, "##75": 23352, "##rda": 13639, "##\u099f": 29895, "tradition": 4535, "##gni": 29076, "[unused882]": 887, "rutgers": 18607, "##inatory": 28230, "communes": 16569, "adjust": 14171, "choking": 18329, "introduce": 8970, "privacy": 9394, "wiring": 27930, "oversee": 17467, "hilary": 22744, "179": 20311, "##gra": 17643, "barge": 19398, "##kle": 19099, "beak": 23525, "shore": 5370, "##room": 9954, "##g": 2290, "house": 2160, "jimmy": 5261, "##aldi": 24657, "preliminary": 8824, "##giri": 23243, "baba": 14208, "##\u0f66": 29972, "sandwich": 11642, "consort": 13440, "\u5ca1": 1832, "coins": 7824, "elves": 16980, "genuinely": 15958, "gritted": 17307, "people": 2111, "descending": 15127, "pink": 5061, "portable": 12109, "##vian": 18073, "houghton": 21234, "favorable": 11119, "grasped": 15517, "kit": 8934, "##pins": 27915, "steps": 4084, "##uro": 10976, "scented": 25738, "baghdad": 13952, "ideological": 17859, "sumner": 23922, "charities": 15430, "57th": 28623, "[unused655]": 660, "pontiac": 24538, "##belt": 21561, "excursion": 26144, "avant": 14815, "weeds": 20777, "##onia": 12488, "freeing": 22198, "curses": 23897, "foundation": 3192, "saxe": 24937, "ankle": 10792, "stones": 6386, "hopefully": 11504, "##stered": 24167, "arrows": 12563, "rama": 14115, "##iza": 21335, "halle": 19769, "trusting": 19836, "screwing": 29082, "##rip": 29443, "ipa": 24531, "lawful": 26410, "\u00a3": 1069, "separation": 8745, "1946": 3918, "halftime": 22589, "obsidian": 29042, "beside": 3875, "ball": 3608, "##ikh": 28209, "tsar": 17608, "piece": 3538, "unanimously": 15645, "implications": 13494, "famous": 3297, "prefecture": 7498, "keller": 16155, "##pts": 22798, "calhoun": 22982, "elsa": 23452, "##dson": 25112, "dreamer": 24726, "##bara": 20709, "assume": 7868, "cartridge": 15110, "adulthood": 20480, "scoffed": 26326, "metres": 3620, "damn": 4365, "underway": 14128, "##\u3082": 30207, "sovereignty": 12601, "dow": 23268, "clouds": 8044, "lavish": 22689, "sensing": 13851, "cried": 6639, "dose": 13004, "adventures": 7357, "crusader": 25237, "amc": 21962, "##kiewicz": 28563, "quartermaster": 24688, "##mobile": 17751, "boardwalk": 29496, "aquarium": 18257, "##igny": 26978, "kingdom": 2983, "explains": 7607, "adequately": 23613, "sodium": 13365, "velocity": 10146, "braden": 27232, "tensor": 23435, "somethin": 27941, "sticking": 13423, "[unused493]": 498, "rule": 3627, "mega": 13164, "mondays": 28401, "1939": 3912, "[unused71]": 72, "shiny": 12538, "##han": 4819, "content": 4180, "listened": 7791, "fridge": 16716, "che": 18178, "nudged": 18666, "##yer": 10532, "rhapsody": 29395, "##otho": 29288, "[unused413]": 418, "1978": 3301, "natal": 17489, "emigrated": 11367, "squeak": 29552, "##quist": 18331, "investment": 5211, "mag": 23848, "##mie": 9856, "athena": 21880, "victories": 9248, "[unused199]": 204, "completing": 7678, "##tro": 13181, "accessories": 16611, "push": 5245, "geelong": 18664, "ng": 12835, "emission": 15760, "xiv": 15939, "##lka": 26518, "1663": 29016, "jennifer": 7673, "selective": 13228, "fifa": 5713, "explanation": 7526, "velvet": 10966, "##rmin": 27512, "employs": 13495, "nyc": 16392, "slabs": 28761, "waters": 5380, "immortality": 20107, "flaps": 26570, "##int": 18447, "primera": 14837, "49th": 25726, "archaeologists": 19254, "rutherford": 18472, "entrepreneur": 10670, "rec": 28667, "slovenia": 10307, "##cino": 21081, "cartel": 21680, "dhaka": 16479, "bulk": 9625, "texans": 23246, "station": 2276, "superstructure": 28391, "\u30d8": 1721, "seventies": 26232, "health": 2740, "##grad": 16307, "enables": 12939, "symbolism": 22050, "demographics": 28321, "knit": 22404, "[unused933]": 938, "groundwater": 22761, "gershwin": 25600, "babylonian": 26990, "##rued": 28551, "##town": 4665, "rao": 10546, "yamaha": 24031, "nl": 17953, "external": 6327, "aarhus": 29173, "earls": 27371, "contemporary": 3824, "\u201d": 1524, "inspection": 10569, "netflix": 20907, "##bridge": 6374, "croatia": 8097, "pharaoh": 22089, "loneliness": 20334, "neuroscience": 23700, "%": 1003, "[unused517]": 522, "135": 11502, "dino": 22412, "##\u0e1e": 29950, "arrivals": 25470, "himalayan": 28333, "##nh": 25311, "erratic": 24122, "##ieg": 28872, "[unused976]": 981, "dozens": 9877, "welch": 17939, "tags": 22073, "deciduous": 22411, "##er": 2121, "##43": 23777, "##llie": 23697, "\u90ce": 1958, "amid": 13463, "specify": 20648, "dvd": 4966, "doubles": 7695, "##bolt": 22803, "##aj": 13006, "##inge": 23496, "##dote": 23681, "conservatory": 11879, "##lard": 20822, "moment": 2617, "courage": 8424, "extracts": 27059, "##\u82f1": 30467, "termination": 18287, "m\u00b2": 7030, "##mounted": 27632, "##st": 3367, "hutchinson": 17165, "melbourne": 4940, "##carriage": 21539, "rag": 17768, "##see": 19763, "den": 7939, "reconstructed": 14858, "galway": 14370, "doll": 10658, "[unused796]": 801, "connell": 17199, "cradle": 18293, "mutually": 20271, "##rae": 16652, "\u0449": 1204, "niagara": 15473, "haggard": 27912, "nutrition": 14266, "stout": 18890, "battista": 28422, "##\u306b": 30194, "celebrated": 6334, "##\u6b66": 30415, "lately": 9906, "mirza": 18366, "314": 26257, "eaton": 17642, "##ods": 20620, "395": 24673, "eased": 10987, "##oth": 14573, "clan": 6338, "wee": 16776, "##wark": 24298, "##hian": 14204, "please": 3531, "cola": 15270, "##eka": 19025, "meyer": 11527, "genetics": 14471, "competed": 3879, "expects": 24273, "wrestlers": 14039, "[unused298]": 303, "appeals": 9023, "kappa": 16000, "mysore": 20761, "groin": 20092, "##eon": 10242, "measurement": 10903, "mice": 12328, "quay": 21048, "##dra": 7265, "coincidence": 16507, "penalties": 12408, "improving": 9229, "atop": 10234, "nut": 17490, "##eiro": 17166, "denied": 6380, "habsburg": 17486, "##neil": 27276, "##ured": 12165, "##illy": 20577, "##bos": 15853, "sable": 23492, "ra": 10958, "stefan": 8852, "example": 2742, "tiny": 4714, "right": 2157, "[unused347]": 352, "##hor": 16368, "membranes": 24972, "##resses": 25932, "hollis": 27477, "lack": 3768, "##lastic": 28723, "conjunction": 9595, "dune": 21643, "rolls": 9372, "instrumentalist": 29253, "according": 2429, "[unused333]": 338, "[unused148]": 153, "squeeze": 11025, "robert": 2728, "35": 3486, "##rbin": 27366, "samson": 18375, "grooves": 25880, "\uff0c": 1989, "nate": 8253, "guaranteed": 12361, "manage": 6133, "habitats": 10746, "##uity": 18518, "propose": 16599, "##ogo": 22844, "##\u30a7": 30223, "ser": 14262, "noah": 7240, "tea": 5572, "##yah": 17560, "cynthia": 15809, "recommend": 16755, "frail": 25737, "fluffy": 27036, "##\u0bc7": 29934, "##mide": 24284, "expedition": 5590, "##yk": 15922, "apparatus": 14709, "##enter": 29110, "elite": 7069, "kerr": 14884, "giggling": 21783, "ensuing": 13831, "love": 2293, "offender": 25042, "hardly": 6684, "##issa": 21205, "##cent": 13013, "heroes": 7348, "##lga": 27887, "\u82f1": 1941, "vague": 13727, "greco": 18180, "amar": 23204, "1812": 9842, "credible": 23411, "c2": 29248, "[unused323]": 328, "self": 2969, "straightened": 11168, "kung": 18577, "##\u094b": 29879, "netherlands": 4549, "crete": 19111, "election": 2602, "\u0430": 1180, "ballistic": 19630, "##ali": 11475, "functional": 8360, "conde": 24707, "relatively": 4659, "crying": 6933, "barrel": 8460, "##dents": 28986, "processing": 6364, "overlap": 17702, "##mina": 22311, "elevation": 6678, "comedian": 9971, "##dos": 12269, "whaling": 23687, "volcano": 12779, "[unused65]": 66, "fair": 4189, "gurney": 25061, "tar": 16985, "outlet": 13307, "magnolia": 24659, "\u7cf9": 1934, "eliminating": 15349, "moi": 25175, "alyssa": 26442, "rosie": 15820, "graduating": 6800, "copyright": 9385, "##court": 13421, "turnpike": 17116, "85": 5594, "fda": 17473, "pang": 20657, "subtly": 28797, "##xa": 18684, "\u4e4b": 1749, "forgot": 9471, "frequencies": 13139, "taxi": 10095, "##lices": 29146, "wary": 15705, "wikipedia": 16948, "surrounding": 4193, "\u5fc4": 1850, "measuring": 9854, "prostate": 25086, "nanjing": 21455, "royalty": 16664, "rake": 26008, "stained": 9702, "nipples": 28124, "item": 8875, "##kawa": 13069, "ie": 29464, "decks": 19963, "##ules": 16308, "solomon": 9168, "gotta": 10657, "ala": 21862, "mannheim": 25116, "267": 25491, "ah": 6289, "commanders": 11437, "sprang": 15627, "##eti": 20624, "rosewood": 29528, "skins": 21049, "platforms": 7248, "depot": 8470, "ahead": 3805, "argues": 9251, "dirt": 6900, "my": 2026, "\u2032": 1531, "despair": 13905, "1623": 29056, "\u0644": 1294, "reiterated": 28960, "wonderland": 20365, "techno": 21416, "eel": 24315, "untitled": 24819, "mosque": 8806, "characterized": 7356, "fence": 8638, "licenses": 15943, "nas": 17235, "du": 4241, "##ryn": 18143, "investing": 19920, "mp3": 23378, "cinder": 29399, "rus": 22949, "110": 7287, "##ori": 10050, "serbs": 16757, "\u767d": 1915, "##\u1d58": 30042, "\u00a9": 1075, "dalton": 12413, "suggestions": 15690, "formats": 11630, "polo": 11037, "sparkle": 26831, "mound": 12048, "moody": 14434, "##aca": 19629, "[unused270]": 275, "alice": 5650, "##mussen": 29134, "texts": 6981, "rodriguez": 9172, "quarterfinals": 9237, "kuala": 15490, "mumbai": 8955, "supervisors": 22565, "##28": 22407, "speculation": 12143, "seek": 6148, "market": 3006, "passing": 4458, "lux": 28359, "##\u53e4": 30315, "manning": 11956, "directional": 20396, "appointments": 14651, "alley": 8975, "##lid": 21273, "misleading": 22369, "1740": 21757, "healthcare": 9871, "aspirations": 22877, "##sier": 20236, "residues": 22644, "themselves": 3209, "##way": 4576, "simulations": 24710, "[unused423]": 428, "\u5bae": 1824, "hawke": 24882, "explicitly": 12045, "##rating": 15172, "##sm": 6491, "brewers": 20007, "pull": 4139, "belize": 18867, "##cked": 18141, "random": 6721, "boundaries": 7372, "##rop": 18981, "softly": 5238, "bowling": 9116, "youth": 3360, "fountain": 9545, "##ivate": 21466, "##taking": 17904, "##ahu": 21463, "brightened": 28996, "twinkle": 29038, "exclude": 23329, "[unused193]": 198, "##pta": 22799, "##run": 15532, "aqueduct": 24016, "shows": 3065, "##rval": 26585, "acted": 6051, "patrick": 4754, "sp": 11867, "##any": 19092, "opened": 2441, "internationally": 7587, "##4": 2549, "sarawak": 21546, "##ldon": 19932, "##psy": 18075, "##\u0459": 29762, "##get": 18150, "trent": 7990, "##\u30cb": 30242, "stubborn": 14205, "deportation": 23702, "##sse": 11393, "reactions": 9597, "specification": 12827, "##try": 11129, "##\u0445": 29750, "manifestation": 24491, "enamel": 29484, "socialists": 21633, "chevalier": 22019, "guyana": 18786, "[unused479]": 484, "x": 1060, "nes": 24524, "institution": 5145, "forcibly": 20951, "culture": 3226, "compares": 22963, "bald": 13852, "##wski": 10344, "promotional": 10319, "improvements": 8377, "libya": 12917, "##bbs": 17226, "lives": 3268, "rook": 28620, "frame": 4853, "farms": 8623, "bred": 13680, "relates": 14623, "marshal": 8610, "quantities": 12450, "arts": 2840, "vicki": 25424, "hicks": 17221, "desperation": 15561, "##weig": 27204, "sabre": 22002, "sciences": 4163, "studying": 5702, "mayor": 3664, "magazines": 7298, "starr": 14330, "isil": 19600, "##rting": 24097, "parachute": 13561, "krishna": 10871, "##test": 22199, "alistair": 23752, "rico": 7043, "##eza": 28640, "costs": 5366, "##uh": 27225, "\u2087": 1554, "##physics": 15638, "2012": 2262, "trained": 4738, "eyebrow": 9522, "completed": 2949, "pi": 14255, "186": 19609, "##tonic": 25009, "possessed": 8679, "co\u2082": 20190, "pad": 11687, "flicked": 12777, "\u1d30": 1492, "##ours": 22957, "submarines": 12622, "discovering": 13648, "resulted": 4504, "illuminated": 14640, "inlet": 15824, "[unused50]": 51, "##notes": 20564, "procedural": 24508, "revisited": 24354, "weekly": 4882, "\u0bc1": 1397, "entered": 3133, "[unused854]": 859, "lp": 6948, "sidney": 11430, "formidable": 18085, "##ville": 3077, "driver": 4062, "##zzle": 17644, "landowners": 20152, "courageous": 26103, "carvings": 22838, "whitehead": 23257, "##eering": 20550, "##inger": 9912, "penny": 10647, "##arium": 17285, "signal": 4742, "jesse": 7627, "bigger": 7046, "constituent": 13794, "##chfield": 22693, "demeanor": 21745, "##\u05d8": 29795, "aesthetic": 12465, "##ttle": 26328, "social": 2591, "inaugural": 7725, "anime": 8750, "reinforcement": 23895, "touchdown": 7921, "locality": 10246, "lyric": 13677, "cautiously": 15151, "psychiatry": 18420, "##lov": 14301, "notified": 19488, "tucking": 25056, "womb": 26578, "##sby": 14478, "householder": 7536, "anson": 25435, "christian": 3017, "[unused374]": 379, "fell": 3062, "inappropriate": 15884, "surreal": 16524, "##rder": 26764, "##oses": 27465, "##\u2153": 30109, "##za": 4143, "[unused913]": 918, "tears": 4000, "##led": 3709, "abdul": 10298, "newfound": 27608, "\u3046": 1648, "tex": 16060, "iec": 24940, "##jia": 26541, "committed": 5462, "\u093f": 1341, "##ice": 6610, "1796": 13885, "441": 28015, "212": 18164, "antennae": 28624, "##\u05d7": 29794, "##lithic": 28508, "##\u30ca": 30241, "freud": 19338, "##jali": 28948, "next": 2279, "infants": 16725, "nickel": 15519, "brooklyn": 6613, "##rini": 22612, "stump": 22475, "erotic": 14253, "fluids": 20989, "##rson": 17753, "##ring": 4892, "sunni": 18883, "collect": 8145, "christine": 10941, "pods": 26723, "toes": 10393, "erskine": 27139, "##+": 29622, "##yev": 17240, "beard": 10154, "atom": 13787, "##yo": 7677, "stool": 14708, "cuffs": 24347, "southampton": 11833, "roof": 4412, "##tained": 28055, "transmitter": 11659, "offer": 3749, "et": 3802, "dinamo": 22306, "1865": 6725, "sue": 9790, "monroe": 9747, "disqualified": 14209, "patriotic": 14314, "harmon": 25546, "twists": 21438, "goldstein": 25507, "bench": 6847, "ducked": 13781, "caroline": 7981, "sports": 2998, "enjoy": 5959, "populations": 7080, "[unused173]": 178, "cascade": 16690, "##ndra": 17670, "[unused228]": 233, "[unused245]": 250, "[unused857]": 862, "##egorical": 27203, "##-": 29624, "direct": 3622, "sigismund": 26748, "headache": 14978, "##ra\u00dfe": 27807, "leads": 5260, "championship": 2528, "##shima": 24772, "presses": 14616, "couple": 3232, "nathan": 7150, "wreck": 12006, "troubles": 13460, "involvement": 6624, "##\u8279": 30465, "\u8fb6": 1956, "1705": 29326, "[unused2]": 3, "alejandro": 16810, "\u6cb3": 1899, "##mus": 7606, "afforded": 22891, "marshall": 5832, "attendees": 19973, "##o": 2080, "##wer": 13777, "funnel": 25102, "winners": 4791, "brussels": 9371, "bullets": 10432, "graph": 10629, "##earing": 27242, "south": 2148, "presenting": 10886, "isla": 25340, "sprawled": 21212, "1871": 7428, "peasants": 13193, "##~": 29643, "maori": 12600, "shark": 11420, "tourism": 6813, "tray": 11851, "detainees": 26485, "barracks": 10492, "rejection": 13893, "##erin": 23282, "[unused302]": 307, "foxes": 24623, "##bler": 16213, "rust": 18399, "absent": 9962, "\uff08": 1987, "##urse": 28393, "programmed": 16984, "cottages": 18918, "stomach": 4308, "chance": 3382, "addiction": 13449, "witty": 25591, "1645": 26081, "comic": 5021, "energies": 19320, "immediate": 6234, "fa": 6904, "craig": 7010, "consume": 16678, "michael": 2745, "engines": 5209, "liver": 11290, "slower": 12430, "purchases": 17402, "invasions": 23536, "whispering": 13550, "strife": 27865, "##flower": 14156, "jenny": 8437, "tips": 10247, "prior": 3188, "nerve": 9113, "symbol": 6454, "dislike": 18959, "warship": 21905, "enlisted": 9417, "seeks": 11014, "your": 2115, "facilitates": 27777, "ethical": 12962, "##phonic": 27385, "canine": 28735, "copenhagen": 9664, "##tablished": 28146, "outbreak": 8293, "chao": 22455, "solvent": 23735, "magnesium": 24983, "mckinley": 22121, "##mont": 9629, "en": 4372, "dad": 3611, "##\u0627": 25573, "agree": 5993, "pills": 15345, "langdon": 15232, "labeled": 12599, "##ain": 8113, "[unused750]": 755, "cheerful": 18350, "hint": 9374, "inherent": 16112, "##aine": 18175, "adventure": 6172, "albrecht": 25542, "##rit": 14778, "kaitlyn": 28584, "select": 7276, "nobleman": 18487, "##sation": 26652, "plans": 3488, "yourself": 4426, "protect": 4047, "roaming": 24430, "##ocene": 25793, "significantly": 6022, "[unused643]": 648, "smelling": 19773, "orioles": 18893, "##joy": 24793, "stockings": 26412, "sort": 4066, "collarbone": 29600, "[unused910]": 915, "##cca": 16665, "folly": 26272, "##ceae": 9071, "skills": 4813, "##ml": 19968, "ow": 27593, "[unused758]": 763, "##rella": 21835, "[unused970]": 975, "block": 3796, "[unused134]": 139, "proceedings": 8931, "##iface": 29164, "rounded": 8352, "##lce": 23314, "reporters": 12060, "##\u2265": 30136, "um": 8529, "fried": 13017, "##rdes": 26371, "brandon": 8825, "retrieved": 5140, "##mmel": 29033, "concrete": 5509, "describe": 6235, "##dran": 24914, "too": 2205, "rhodes": 10588, "expo": 16258, "simpsons": 19047, "##hoot": 23416, "##eborg": 27614, "powerless": 25192, "\u00a310": 26812, "reno": 17738, "bows": 21207, "philadelphia": 4407, "arnold": 7779, "fiddle": 15888, "literature": 3906, "ruthless": 18101, "notions": 21951, "leaping": 21216, "crumbling": 24827, "turtles": 16489, "##game": 16650, "cooperate": 17654, "neptune": 21167, "subdued": 20442, "anterior": 15099, "cannot": 3685, "hornet": 26795, "final": 2345, "338": 27908, "##\u6c38": 30422, "believer": 24591, "henson": 27227, "1972": 3285, "moreover": 9308, "[unused528]": 533, "sportsman": 27168, "chin": 5413, "mai": 14736, "440": 17422, "25th": 10965, "quinlan": 28451, "circumstances": 6214, "staged": 9813, "##\u0251": 29677, "queensland": 5322, "relax": 9483, "##ulates": 18969, "jd": 26219, "##ou": 7140, "##ien": 9013, "##por": 17822, "captained": 16041, "instrument": 6602, "brentford": 26550, "##pes": 10374, "##lers": 12910, "fluid": 8331, "##schen": 23796, "218": 20741, "kids": 4268, "##nar": 11802, "318": 27003, "putin": 22072, "handkerchief": 23975, "order": 2344, "\u0452": 1211, "cigarette": 9907, "xv": 15566, "zoo": 9201, "smeared": 25400, "harcourt": 22714, "45": 3429, "rash": 23438, "compass": 16681, "momentum": 11071, "recognise": 17614, "cause": 3426, "wave": 4400, "chanting": 22417, "clapped": 18310, "scars": 13521, "pow": 23776, "\u30de": 1723, "copa": 10613, "civic": 8388, "supplement": 12448, "##boot": 27927, "\u5fb7": 1848, "serbia": 7238, "anglo": 7819, "melodies": 16106, "##venor": 26806, "80s": 16002, "[unused125]": 130, "##\u8c9d": 30478, "iq": 26264, "nicole": 9851, "katz": 20729, "##tford": 26341, "##ald": 19058, "vicar": 12340, "postwar": 20013, "mint": 12927, "validation": 27354, "siege": 6859, "he": 2002, "chuckled": 10252, "sharpe": 22147, "##enna": 24397, "1603": 25625, "water": 2300, "[unused949]": 954, "1906": 5518, "##\u266d": 24102, "##ret": 13465, "snuck": 24492, "graduates": 10845, "diane": 12082, "fulfilled": 16829, "deficiency": 18888, "unreleased": 13270, "wiping": 14612, "regaining": 28657, "diaz": 12526, "##\u093e": 29876, "specified": 9675, "inmate": 24467, "egyptian": 6811, "quincy": 16141, "pre": 3653, "rolling": 5291, "kn": 14161, "saunders": 15247, "\u5fe0": 1852, "laval": 26205, "highway": 3307, "deputy": 4112, "limits": 6537, "bordering": 18299, "objectives": 11100, "##tos": 13122, "bubble": 11957, "progressed": 12506, "ruben": 19469, "trunks": 20509, "buena": 27493, "##\u02bb": 29711, "##s": 2015, "organizers": 18829, "bishops": 8414, "\u91d1": 1964, "pushing": 6183, "##nese": 14183, "[unused339]": 344, "respecting": 27818, "denote": 19090, "figuring": 23218, "##runner": 23195, "betrayal": 14583, "complaint": 12087, "##\u0f44": 29963, "blinded": 20641, "##vance": 21789, "\u2070": 1536, "thomson": 11161, "applicable": 12711, "milo": 20359, "plus": 4606, "hendricks": 28895, "262": 21950, "\u0636": 1285, "[unused34]": 35, "##\u5bbf": 30352, "[unused491]": 496, "seeing": 3773, "forgotten": 6404, "brandt": 19407, "##ible": 7028, "##sc": 11020, "insignificant": 27018, "terminating": 23552, "punches": 17957, "greasy": 26484, "##gins": 16529, "sheriff": 6458, "heidi": 21372, "ecumenical": 23540, "ultraviolet": 26299, "huskies": 29471, "##dom": 9527, "cactus": 23265, "##zek": 24506, "motorway": 13119, "dancing": 5613, "humiliated": 26608, "##agh": 17988, "wraps": 19735, "reconnaissance": 8967, "mccoy": 16075, "excellence": 8012, "##bright": 26614, "sizable": 25908, "vanishing": 24866, "\u9593": 1969, "##\u2013": 30051, "alcoholism": 25519, "accelerate": 23306, "weird": 6881, "taft": 19911, "celebrate": 8439, "##tham": 22536, "uta": 28981, "##ware": 8059, "[unused23]": 24, "fran": 23151, "lt": 8318, "saskatoon": 25447, "##ola": 6030, "austria": 5118, "wonderful": 6919, "##jian": 27685, "eighty": 12021, "cabbage": 28540, "species": 2427, "mercy": 8673, "associates": 9228, "seminar": 18014, "32nd": 20628, "sponsorship": 12026, "preceding": 11003, "apparently": 4593, "difficulties": 8190, "flushing": 23519, "satellites": 14549, "amman": 25703, "##storm": 19718, "drive": 3298, "magistrates": 23007, "##\u201d": 30059, "beyonce": 20773, "\u0927": 1326, "uci": 14504, "yards": 4210, "croix": 18733, "spontaneous": 17630, "sewing": 22746, "[unused602]": 607, "equator": 26640, "concealed": 14091, "describing": 7851, "introduces": 13999, "zen": 16729, "atkinson": 18646, "\u6210": 1854, "ray": 4097, "ik": 20912, "excavations": 14018, "titles": 4486, "albion": 13392, "genealogical": 29606, "[unused389]": 394, "compound": 7328, "lutheran": 10034, "##uka": 15750, "hidden": 5023, "##more": 5974, "spruce": 19893, "conveyed": 21527, "##ating": 5844, "##ld": 6392, "gag": 18201, "unwanted": 18162, "godzilla": 26631, "##ung": 5575, "doctorate": 8972, "persecuted": 27666, "leaders": 4177, "kc": 21117, "##sco": 9363, "crunch": 24514, "documentation": 12653, "transmitters": 26288, "alzheimer": 21901, "[unused641]": 646, "jr": 3781, "tbs": 29584, "##trics": 29392, "##\u767d": 30441, "housing": 3847, "##\u092f": 29868, "##hosh": 26643, "sagged": 26719, "##ega": 29107, "[unused61]": 62, "blake": 6511, "##building": 25820, "remained": 2815, "fc": 4429, "mk": 12395, "data": 2951, "erect": 14908, "##para": 28689, "rogue": 12406, "personal": 3167, "##bal": 10264, "values": 5300, "ordnance": 14445, "kramer": 16322, "galerie": 17941, "permits": 14245, "##\u0432": 25529, "experiences": 6322, "mandal": 24373, "plaques": 28487, "sapphire": 21965, "52": 4720, "understood": 5319, "##os": 2891, "##enary": 24553, "alvin": 17348, "aimee": 23551, "sikhs": 26697, "[unused471]": 476, "onions": 24444, "personalities": 12857, "temporal": 15850, "covenant": 16077, "vote": 3789, "swaying": 21826, "gum": 16031, "\u6c11": 1892, "infrastructure": 6502, "tier": 7563, "[unused731]": 736, "lear": 26511, "cardiovascular": 22935, "tires": 13310, "recover": 8980, "acts": 4490, "roberts": 7031, "theodor": 21448, "##ova": 7103, "##cc": 9468, "immensely": 24256, "trend": 9874, "pursed": 21954, "##bruck": 28985, "[unused893]": 898, "individuals": 3633, "port": 3417, "hut": 12570, "tuck": 18029, "##mler": 18602, "serial": 7642, "haunt": 24542, "noteworthy": 19144, "visionary": 28036, "plants": 4264, "franchise": 6329, "khz": 17737, "narration": 21283, "kota": 23856, "xu": 15990, "\u2083": 1550, "broadcasters": 18706, "\u304f": 1653, "reginald": 14435, "hadn": 2910, "their": 2037, "##rad": 12173, "exploded": 9913, "disabled": 9776, "attempted": 4692, "##rman": 14515, "##\u1103": 29993, "whatever": 3649, "terminology": 18444, "influenza": 24442, "##ij": 28418, "##sop": 28793, "doc": 9986, "##mere": 13759, "masovian": 23703, "rhodesia": 20340, "\u03c9": 1179, "idea": 2801, "finite": 10713, "sired": 26940, "subsidiaries": 20178, "public": 2270, "##nos": 15460, "##date": 13701, "fenton": 27096, "momentary": 29089, "000": 2199, "owned": 3079, "likened": 28834, "assaults": 22664, "##growth": 26982, "##ois": 10054, "##\u6211": 30381, "linked": 5799, "originally": 2761, "revisions": 24699, "chieftain": 26625, "alligator": 28833, "florida": 3516, "outfielder": 21033, "markers": 16387, "vodka": 21092, "onslaught": 28644, "striking": 8478, "##nch": 12680, "intake": 13822, "puebla": 27452, "performance": 2836, "\u05d4": 1245, "elsewhere": 6974, "gig": 15453, "batteries": 10274, "penang": 21812, "schedule": 6134, "extend": 7949, "dusty": 12727, "popular": 2759, "informs": 15670, "portraying": 17274, "aesthetics": 20749, "prospective": 17464, "writing": 3015, "quo": 22035, "##xon": 22500, "##dity": 25469, "maybe": 2672, "backstroke": 28373, "coastline": 15458, "##ns": 3619, "##reen": 28029, "leonid": 27316, "surfing": 19967, "sleeper": 24372, "##5": 2629, "}": 1065, "\u2606": 1621, "shout": 11245, "cinematographer": 19245, "crossroads": 16760, "parade": 7700, "##zam": 20722, "courtroom": 20747, "##\u10e0": 29987, "##dication": 25027, "continuously": 10843, "##pio": 22071, "[unused855]": 860, "##ries": 5134, "sebastien": 28328, "##/": 29626, "underwood": 22751, "rugged": 17638, "munoz": 23685, "alert": 9499, "como": 18609, "escort": 8620, "admit": 6449, "slap": 14308, "suggests": 6083, "archived": 9749, "loaned": 13190, "shan": 17137, "##arns": 23549, "surveyed": 12876, "duffy": 17971, "absently": 21284, "injuries": 6441, "##les": 4244, "participate": 5589, "osaka": 13000, "mutant": 15527, "shepherd": 11133, "groove": 14100, "julian": 6426, "dawn": 6440, "synod": 15374, "##26": 23833, "icons": 18407, "##mbit": 28878, "britannia": 24677, "interfered": 28976, "##flow": 12314, "violation": 11371, "##ups": 22264, "werewolf": 12797, "1962": 3705, "deployment": 10813, "muzzle": 17750, "m\u00b3": 14241, "incarcerated": 23995, "##grade": 24170, "shelton": 22230, "tangled": 14170, "laser": 9138, "##hara": 11077, "html": 16129, "education": 2495, "futile": 24495, "exiles": 27127, "exotic": 12564, "medication": 14667, "melt": 14899, "kari": 27356, "eki": 23174, "1658": 28944, "lorenzo": 12484, "weaker": 15863, "unpaid": 23850, "##sie": 11741, "##ault": 23505, "strong": 2844, "##minate": 19269, "iain": 24486, "dodged": 28339, "[unused72]": 73, "signaled": 22319, "dominating": 21949, "eagerly": 17858, "vitro": 25714, "##una": 9521, "parkinson": 20310, "stimulation": 20858, "##mis": 15630, "bonnie": 12220, "monks": 9978, "##cian": 14483, "granville": 24926, "sterling": 10933, "learns": 10229, "editors": 10195, "mountain": 3137, "willingness": 19732, "[unused550]": 555, "percy": 11312, "boundary": 6192, "##\u25cf": 30146, "connections": 7264, "genre": 6907, "packed": 8966, "february": 2337, "torn": 7950, "shane": 8683, "wine": 4511, "##\u66f2": 30396, "june": 2238, "[unused902]": 907, "##my": 8029, "qui": 21864, "hide": 5342, "fuels": 20145, "marathon": 8589, "hanoi": 24809, "extending": 8402, "real": 2613, "aggression": 14974, "parapet": 27372, "bane": 25163, "other": 2060, "stephens": 15037, "compliant": 24577, "blocks": 5991, "sabrina": 21876, "false": 6270, "##sso": 24137, "faint": 8143, "consultants": 22283, "lowlands": 26411, "bearer": 20905, "lincoln": 5367, "tokugawa": 22065, "racing": 3868, "begins": 4269, "pat": 6986, "wade": 10653, "invaders": 17347, "executing": 23448, "scooted": 24289, "auspices": 20153, "jagger": 25827, "##olf": 28027, "\\": 1032, "##side": 7363, "##]": 29636, "dessert": 18064, "sounds": 4165, "selangor": 28904, "epoch": 25492, "##ix": 7646, "521": 26963, "caucus": 13965, "##\u0142": 18818, "##ndon": 19333, "rs": 12667, "tagged": 26610, "reinstated": 18671, "1718": 26995, "resolving": 29304, "##cise": 18380, "[unused919]": 924, "tyson": 19356, "\u5fd7": 1851, "bull": 7087, "wi": 15536, "receptions": 16466, "\u5e78": 1841, "maltese": 18563, "164": 17943, "holes": 8198, "\u7248": 1907, "germanic": 15139, "faith": 4752, "[unused15]": 16, "nikolay": 28494, "##he": 5369, "##sburg": 9695, "planetary": 17700, "contests": 15795, "mimic": 23150, "teachers": 5089, "##cor": 27108, "lucrative": 21115, "##\u25a0": 30144, "##boy": 11097, "##relli": 22948, "richer": 26108, "sutra": 26567, "athenian": 26956, "embrace": 9979, "abe": 14863, "extinction": 14446, "##fect": 25969, "##\u307e": 30203, "spine": 8560, "undergo": 13595, "zulu": 27359, "identifiable": 27800, "inadequate": 14710, "##nbc": 28957, "dunkirk": 29467, "practice": 3218, "horns": 11569, "chalmers": 29069, "corners": 8413, "##comb": 18274, "bony": 22678, "ja": 14855, "introductory": 23889, "nsa": 23971, "mississippi": 5900, "slavic": 13838, "##\u5fc4": 30376, "journey": 4990, "enemy": 4099, "eating": 5983, "creep": 19815, "relational": 28771, "mach": 24532, "simplest": 21304, "crashed": 8007, "recognize": 6807, "##liffe": 27931, "autobiographical": 18534, "orphaned": 27093, "handcuffs": 28338, "meek": 28997, "interview": 4357, "clever": 12266, "intrinsic": 23807, "accumulated": 14830, "##falls": 28067, "beverage": 19645, "jun": 12022, "drone": 18465, "west": 2225, "ignited": 22395, "[unused556]": 561, "powder": 9898, "denying": 16039, "malley": 25271, "quantum": 8559, "haydn": 25595, "scripts": 14546, "celeste": 21113, "litter": 19070, "[unused675]": 680, "auto": 8285, "yukon": 19898, "strangers": 12358, "quilt": 27565, "averages": 20185, "##li": 3669, "sony": 8412, "raped": 15504, "barrister": 19805, "fours": 23817, "kidd": 25358, "peeking": 28222, "agreements": 10540, "##phone": 9864, "\u0643": 1293, "##aling": 21682, "coloring": 22276, "hunt": 5690, "baked": 17776, "geo": 20248, "[unused695]": 700, "phases": 12335, "tyrol": 27193, "troubled": 11587, "brewery": 12161, "alps": 13698, "dwelling": 13160, "fierce": 9205, "\u057a": 1233, "miniatures": 28615, "crossed": 4625, "brendan": 15039, "whispered": 3990, "\u2088": 1555, "increased": 3445, "borrow": 17781, "[unused564]": 569, "##works": 9316, "stricken": 16654, "##dl": 19422, "forte": 24898, "##ory": 10253, "##ogenic": 24278, "nigel": 12829, "embroidered": 23590, "gibson": 9406, "129": 14378, "quarters": 7728, "yao": 23711, "[unused168]": 173, "mosquito": 22529, "##iferous": 23930, "leading": 2877, "out": 2041, "centrally": 25497, "##ffle": 18142, "fig": 20965, "miranda": 9392, "power": 2373, "norms": 17606, "##nism": 28113, "angeles": 3349, "bois": 19651, "##nett": 15361, "\u20ac": 1574, "teacher": 3836, "attitudes": 13818, "##ulsive": 23004, "##itte": 27100, "succumbed": 25642, "lords": 8140, "660": 20982, "trinidad": 11856, "plaid": 26488, "childhood": 5593, "comprise": 15821, "parole": 17393, "chip": 9090, "malibu": 29047, "nantes": 25387, "outdoor": 7254, "georges": 10870, "bargaining": 21990, "consciousness": 8298, "mcmahon": 17741, "qualifications": 15644, "fbi": 8495, "seized": 8243, "jolt": 22538, "flipped": 9357, "##pl": 24759, "\u0bb3": 1393, "1890s": 13678, "warns": 19428, "ea": 19413, "callie": 20072, "botanic": 27761, "##eves": 23047, "chairman": 3472, "mentioning": 18625, "1735": 26063, "let": 2292, "delivering": 12771, "achieved": 4719, "##hang": 18003, "perceive": 23084, "parishes": 11600, "granny": 19794, "sulawesi": 29078, "derbyshire": 15207, "upbeat": 27999, "steady": 6706, "chimneys": 28885, "99": 5585, "trader": 17667, "vomiting": 24780, "structure": 3252, "lister": 27177, "papal": 12156, "steven": 7112, "emphasizing": 22671, "##houses": 15666, "compression": 13379, "worry": 4737, "succession": 8338, "tristan": 9822, "heavy": 3082, "coal": 5317, "submission": 12339, "products": 3688, "cyber": 16941, "taxonomic": 27691, "multiplication": 24856, "##\u092e": 29867, "\u2205": 1593, "ministries": 16410, "hoarse": 21221, "surface": 3302, "palmer": 8809, "rei": 24964, "283": 25504, "##jin": 14642, "basque": 13915, "356": 27509, "bern": 16595, "dropped": 3333, "unreasonable": 29205, "limitations": 12546, "powell": 8997, "of": 1997, "##ni": 3490, "##?": 29632, "veil": 15562, "efficiency": 8122, "dracula": 18500, "brood": 25565, "##lynn": 27610, "##ec": 8586, "midlands": 13256, "sliding": 8058, "##n": 2078, "avatar": 22128, "guilty": 5905, "quit": 8046, "978": 4891, "baptized": 19775, "toronto": 4361, "bought": 4149, "substrates": 23725, "spearheaded": 27721, "chooses": 15867, "118": 12963, "fortunes": 18023, "brains": 14332, "convergence": 19143, "##\u0637": 29828, "##dgets": 28682, "punishments": 29115, "externally": 27223, "litre": 16812, "usl": 22448, "surged": 18852, "##taff": 22542, "drills": 28308, "[UNK]": 100, "##uating": 24133, "owes": 24381, "hours": 2847, "engaged": 5117, "177": 18118, "commando": 15054, "informed": 6727, "networking": 14048, "frustrating": 25198, "hurry": 9241, "[unused361]": 366, "irritated": 15560, "emerge": 12636, "##lly": 9215, "##dle": 10362, "invading": 17657, "##icular": 21412, "count": 4175, "##ype": 18863, "##morphic": 18078, "##vil": 14762, "pieces": 4109, "primitive": 10968, "chunks": 24839, "elton": 19127, "examiner": 19684, "financially": 13732, "peanuts": 27613, "snacks": 27962, "\u1d57": 1505, "##awan": 25903, "center": 2415, "winning": 3045, "jordan": 5207, "##\u3061": 30188, "##aint": 22325, "gonzales": 24334, "virtual": 7484, "grunt": 20696, "mater": 16289, "gentlemen": 11218, "##name": 18442, "disturbing": 14888, "[unused867]": 872, "drake": 7867, "break": 3338, "crashing": 12894, "##\u5927": 30336, "525": 25621, "kaladin": 22588, "##erated": 16848, "coming": 2746, "andy": 5557, "convicted": 7979, "carlton": 12989, "1650": 21875, "\u092d": 1330, "1833": 11040, "rotten": 11083, "##nl": 20554, "outer": 6058, "brewing": 16005, "[unused585]": 590, "\u00a3100": 27708, "relentless": 21660, "accomplish": 14570, "misty": 15167, "mines": 7134, "arrow": 8612, "wilkes": 20635, "straps": 19702, "authorities": 4614, "centuries": 4693, "bath": 7198, "##trom": 13887, "clyde": 12085, "pageant": 12438, "plane": 4946, "##\u044e": 29757, "bomber": 9472, "##\u767a": 30440, "padre": 28612, "##rre": 14343, "guangdong": 21287, "overhead": 8964, "dish": 9841, "converse": 23705, "bernie": 15941, "\u5f73": 1845, "\u674e": 1877, "duly": 25073, "enlightenment": 16724, "wryly": 28325, "descriptive": 22726, "##avs": 29553, "baker": 6243, "staying": 6595, "clients": 7846, "##ities": 6447, "wharf": 16435, "##alis": 13911, "towns": 4865, "nave": 12847, "acoustic": 6490, "primetime": 18474, "montana": 8124, "libertadores": 27968, "\u0294": 1139, "proximity": 10039, "##nov": 16693, "256": 17273, "cube": 14291, "##ibility": 13464, "eminent": 14953, "ricardo": 13559, "##pis": 18136, "##nde": 13629, "##rity": 15780, "ligand": 27854, "##kas": 13716, "##\u30af": 30228, "handbook": 14812, "##wan": 7447, "roma": 12836, "met": 2777, "reject": 15454, "reminds": 15537, "##yu": 10513, "violating": 20084, "##furt": 24428, "pastures": 24813, "smoked": 20482, "climatic": 27301, "shade": 8703, "districts": 4733, "poured": 8542, "##rix": 17682, "invoked": 24959, "arguing": 9177, "##uer": 13094, "continually": 14678, "lush": 16299, "locally": 7246, "barbie": 22635, "unmarked": 25779, "##ron": 4948, "stadium": 3346, "unbeaten": 20458, "astros": 22058, "simultaneously": 7453, "##tology": 23479, "navigation": 9163, "1925": 4849, "genuine": 10218, "alexandre": 16971, "protestants": 19592, "##bbing": 23200, "jaguars": 24017, "##ctor": 16761, "urdu": 12454, "immigration": 7521, "[unused906]": 911, "##oun": 23709, "cutler": 24975, "sponsor": 10460, "##hide": 26100, "yu": 9805, "banking": 8169, "lads": 29126, "tingle": 25792, "113": 12104, "hodges": 19772, "larvae": 9673, "##personal": 28823, "[unused331]": 336, "metz": 24424, "blu": 14154, "##lence": 22717, "\u0569": 1224, "affiliate": 8727, "from": 2013, "guessed": 11445, "airship": 27636, "merit": 7857, "[unused505]": 510, "machine": 3698, "blanco": 20036, "##power": 11452, "periodicals": 21855, "381": 29335, "##ash": 11823, "\u30ab": 1700, "md": 9108, "##aurus": 17342, "##inho": 29344, "matt": 4717, "barley": 21569, "presidents": 11274, "chickens": 21868, "tunic": 23002, "sham": 25850, "alec": 9752, "dragoons": 28069, "##\u4e00": 30266, "bobby": 6173, "slovak": 12747, "mammalian": 26524, "##trix": 29184, "[unused536]": 541, "##ake": 13808, "flashed": 8373, "burke": 9894, "syriac": 24109, "golfer": 20601, "cartwright": 27513, "minor": 3576, "verb": 12034, "biking": 28899, "##nidae": 29135, "##\u0562": 29767, "winter": 3467, "##sing": 7741, "villiers": 25333, "##pressive": 27484, "retrospective": 15354, "polynomial": 17505, "reads": 9631, "\u6c35": 1894, "1928": 4662, "phantom": 11588, "jump": 5376, "turbine": 14027, "labeling": 28847, "telecom": 18126, "arriving": 7194, "451": 28161, "fielder": 25000, "\u30ca": 1715, "intra": 26721, "off": 2125, "##naut": 24619, "infected": 10372, "topology": 19587, "##\u2f65": 30160, "\u6238": 1857, "spaniards": 20999, "##ux": 5602, "\u0574": 1229, "calendar": 8094, "larger": 3469, "cake": 9850, "blankly": 26344, "pixel": 22138, "inline": 23881, "132": 14078, "lowland": 15234, "cbe": 15852, "jenkins": 11098, "##\u5bae": 30350, "scenery": 17363, "resembling": 15525, "nuremberg": 19346, "gleamed": 25224, "##\ufb01": 30510, "recent": 3522, "constrained": 27570, "##ouk": 27967, "pradesh": 7970, "invest": 15697, "##nda": 8943, "swollen": 13408, "kidnapping": 15071, "[unused261]": 266, "lancashire": 9638, "##nco": 15305, "intervened": 21116, "gunshot": 22077, "##mora": 22122, "formations": 13197, "##bin": 8428, "##nni": 23500, "##geny": 17487, "interceptions": 18387, "##very": 27900, "makers": 11153, "bombs": 9767, "##et": 3388, "backed": 6153, "##chs": 18069, "20th": 3983, "cure": 9526, "##\u0438": 10325, "besides": 4661, "##\u026f": 29688, "##kus": 22332, "wally": 18202, "##sf": 22747, "dirty": 6530, "renew": 20687, "genesis": 11046, "##inas": 15227, "excluded": 12421, "##rion": 14772, "##haven": 14650, "17": 2459, "shooters": 28310, "##\u3055": 30182, "haste": 24748, "craters": 27561, "enrollment": 10316, "outnumbered": 21943, "[unused734]": 739, "spa": 12403, "224": 19711, "##bed": 8270, "operatives": 25631, "qatar": 12577, "schwarz": 29058, "contracted": 11016, "spoon": 15642, "cursing": 19752, "raion": 24235, "memorandum": 20336, "fined": 16981, "spikes": 19547, "overthrow": 16857, "##\u10d9": 29982, "##cope": 16186, "##\u0e17": 29948, "##ations": 10708, "##dus": 17619, "venues": 9356, "##ingham": 16445, "designated": 4351, "ann": 5754, "delivery": 6959, "lookout": 19052, "##py": 7685, "diploma": 9827, "armenians": 20337, "pains": 20398, "##ailed": 17440, "hunting": 5933, "##ifice": 23664, "embodied": 25405, "##itia": 29050, "zeppelin": 22116, "legislation": 6094, "##active": 19620, "ours": 14635, "stalled": 20659, "kimball": 26659, "##izan": 27334, "slaves": 7179, "texas": 3146, "##rang": 24388, "case": 2553, "xl": 28712, "permanently": 8642, "##wr": 13088, "omar": 13192, "peers": 12746, "bat": 7151, "garnered": 13056, "##ichi": 11319, "because": 2138, "possible": 2825, "##uto": 16161, "##\u0431": 29740, "dispatched": 14501, "trumpeter": 28220, "donor": 15009, "inexperienced": 26252, "##i": 2072, "##\u0437": 29744, "wolves": 8588, "streams": 9199, "disbelief": 12537, "haired": 10681, "culinary": 20560, "##minster": 24431, "represent": 5050, "##thermal": 23367, "##urbed": 29595, "282": 26267, "pounds": 7038, "neutral": 8699, "addicted": 23042, "##ose": 9232, "##yya": 19903, "##scent": 27654, "accessed": 11570, "##\uff01": 30512, "##woods": 25046, "noting": 9073, "ton": 10228, "compressor": 29329, "\u062d": 1276, "partisan": 14254, "asleep": 6680, "rita": 11620, "excluding": 13343, "titanic": 20753, "##\u0995": 29889, "rehearsals": 24760, "thereby": 8558, "cousin": 5542, "guild": 9054, "nests": 17415, "gi": 21025, "swindon": 22350, "murdering": 21054, "maddox": 22730, "noctuidae": 24893, "##um": 2819, "music": 2189, "aboriginal": 9757, "##worthy": 13966, "smoky": 20629, "bahadur": 21715, "depicts": 11230, "indicator": 17245, "taboo": 27505, "##sey": 7952, "dewey": 20309, "mis": 28616, "ss": 7020, "interim": 9455, "parasitic": 26045, "builder": 12508, "enthusiastic": 14727, "brittany": 12686, "yd": 21076, "mckenna": 21749, "##\u2264": 30135, "disappears": 17144, "contractor": 13666, "analogy": 23323, "##hunter": 25629, "##\u3068": 30192, "rainforest": 18951, "toulouse": 17209, "garde": 14535, "janet": 9965, "excitement": 8277, "wastewater": 28269, "##rage": 24449, "openly": 10132, "barns": 25684, "pay": 3477, "tombs": 16623, "loyola": 21580, "turbulence": 29083, "angrily": 14136, "##mism": 26725, "acton": 28794, "##la": 2721, "##\u0575": 29777, "barnes": 9957, "vacant": 10030, "transition": 6653, "default": 12398, "crush": 10188, "jingle": 29262, "theorists": 28442, "pt": 13866, "contributor": 12130, "emphasize": 17902, "miners": 11257, "ml": 19875, "throughout": 2802, "defeated": 3249, "climbs": 18881, "basketball": 3455, "contemporaries": 16682, "photography": 5855, "ironic": 19313, "curtiss": 26431, "[unused599]": 604, "##mbs": 29232, "##cion": 10446, "personality": 6180, "neurons": 15698, "forgiven": 24280, "##ones": 21821, "missed": 4771, "erich": 17513, "bikini": 20345, "##kin": 4939, "nicholas": 6141, "shannon": 10881, "dolphins": 13600, "##ih": 19190, "technology": 2974, "scuba": 28651, "logging": 15899, "roles": 4395, "orchestras": 19505, "obligatory": 26471, "scare": 12665, "yet": 2664, "temperance": 23372, "coiled": 24599, "toxicity": 22423, "[unused492]": 497, "##tera": 14621, "ballad": 11571, "routines": 23964, "##als": 9777, "##elli": 13348, "swallows": 26436, "jail": 7173, "alfa": 22989, "northwest": 4514, "purchase": 5309, "301": 19123, "alex": 4074, "ign": 16270, "##ility": 15148, "biographer": 17121, "hyundai": 25983, "diversity": 8906, "extended": 3668, "quartz": 20971, "lens": 10014, "##uw": 25974, "unto": 19662, "##dez": 24601, "convened": 19596, "tia": 27339, "appreciate": 9120, "ontario": 4561, "detecting": 25952, "molina": 25601, "graz": 26918, "st": 2358, "empty": 4064, "cotton": 6557, "formed": 2719, "terribly": 16668, "bizarre": 13576, "manufacture": 9922, "##mate": 8585, "hartman": 26766, "grady": 19011, "30th": 13293, "trailers": 21389, "flashes": 16121, "clauses": 24059, "denotes": 14796, "prototypes": 19599, "ruled": 5451, "owens": 14824, "rabbis": 25602, "transaction": 12598, "mavericks": 28330, "cinemas": 19039, "amiga": 24126, "[unused400]": 405, "yves": 19687, "pistons": 24399, "[unused80]": 81, "goods": 5350, "##its": 12762, "murmured": 7152, "rebels": 8431, "nope": 16780, "fiber": 11917, "303": 19988, "retribution": 25928, "embracing": 23581, "jogging": 28233, "hague": 14575, "##aker": 22626, "##nged": 21558, "injected": 19737, "canonical": 18562, "hygiene": 19548, "crossing": 5153, "file": 5371, "##grating": 28183, "##ostal": 29381, "bulletin": 13146, "syrian": 9042, "krakow": 14576, "norfolk": 7735, "berber": 27514, "cheltenham": 18763, "##ids": 9821, "pin": 9231, "\u0255": 1113, "gonzalez": 10121, "arcade": 10877, "##cated": 12921, "lays": 19764, "bombings": 20109, "asthma": 26180, "welcomed": 10979, "townsville": 27492, "ambitions": 19509, "##lese": 24527, "rector": 10935, "crawled": 12425, "shower": 6457, "##pen": 11837, "fraser": 9443, "[unused377]": 382, "##cao": 20808, "download": 8816, "spite": 8741, "coyote": 20457, "canterbury": 9976, "##raine": 26456, "##uel": 16284, "imagine": 5674, "trunk": 8260, "putnam": 20230, "##\u8033": 30463, "client": 7396, "phosphate": 17344, "##wley": 20609, "geneva": 9810, "[unused801]": 806, "taped": 19374, "darlington": 19667, "##ciation": 23247, "racers": 25791, "successes": 14152, "rebuild": 14591, "##\u044b": 29113, "semitic": 20604, "australians": 15739, "##turing": 16037, "precious": 9062, "teammate": 10809, "skirt": 9764, "eastern": 2789, "footage": 8333, "##ha": 3270, "recruitment": 15680, "##16": 16048, "ecological": 12231, "brace": 17180, "##ka": 2912, "amelia": 11556, "blanc": 18698, "##bina": 21114, "smack": 21526, "\u00b5": 1085, "revision": 13921, "leslie": 8886, "35th": 20198, "goodnight": 22708, "launch": 4888, "terrible": 6659, "marino": 17185, "mae": 11530, "##race": 22903, "##rud": 28121, "##odes": 19847, "surfaced": 15791, "##eux": 20860, "exhaustion": 15575, "moonlight": 11986, "relevant": 7882, "bandages": 27993, "durable": 25634, "heartbeat": 12251, "baroness": 21479, "knowing": 4209, "derived": 5173, "cpu": 17368, "agony": 12812, "dario": 26800, "##cchi": 25955, "remedy": 19519, "truce": 18415, "awarding": 21467, "##zaki": 18637, "##hyllum": 27750, "##pal": 12952, "stillness": 29435, "periodic": 15861, "##meister": 28824, "jane": 4869, "batting": 9640, "mcleod": 25363, "prefix": 17576, "vale": 10380, "\u10d0": 1438, "execution": 7781, "magnus": 10045, "matrix": 8185, "doin": 24341, "##lea": 19738, "sasha": 14673, "##lat": 20051, "accuracy": 10640, "##hua": 14691, "shipments": 24636, "ina": 27118, "##ag": 8490, "parliament": 3323, "##break": 23890, "cumulative": 23260, "##centric": 22461, "\u092e": 1331, "##ulo": 18845, "clashed": 22600, "newly": 4397, "doorbell": 25422, "augustine": 14060, "##usion": 14499, "##erved": 25944, "251": 22582, "rings": 7635, "fledged": 26712, "clasp": 23465, "##atal": 27815, "scarcely": 20071, "captivity": 16187, "[unused140]": 145, "drivers": 6853, "armor": 8177, "hermes": 24127, "[unused401]": 406, "espana": 20678, "buccaneers": 21629, "mccall": 25790, "death": 2331, "pandit": 29331, "administrator": 8911, "welcoming": 18066, "##lar": 8017, "duc": 26363, "304": 23859, "tunnel": 5234, "lying": 4688, "marcus": 6647, "nikolai": 13870, "certificates": 17987, "flirt": 27978, "improves": 24840, "tender": 8616, "coleman": 11608, "1626": 28818, "seneca": 21224, "88": 6070, "##kha": 15256, "\u3001": 1635, "xx": 22038, "cayman": 26164, "phoebe": 18188, "girlfriend": 6513, "grill": 18651, "##odies": 27391, "publishers": 8544, "##og": 8649, "ucla": 12389, "insist": 18292, "madhya": 20841, "##ris": 6935, "maximus": 21692, "terrorism": 10130, "boston": 3731, "ultimatum": 29227, "sack": 12803, "catalan": 13973, "initiative": 6349, "1953": 4052, "##anne": 20147, "spurred": 22464, "carpathian": 26349, "turbulent": 22609, "manager": 3208, "industrial": 3919, "dei": 14866, "##glio": 29480, "##won": 19291, "##uance": 26620, "##\u10d7": 29980, "municipality": 3250, "winfield": 24739, "monde": 23117, "unification": 16905, "vicky": 22845, "\u00a7": 1073, "sw": 25430, "ripped": 9157, "chun": 20979, "##ricted": 20623, "[unused403]": 408, "myanmar": 12620, "292": 25797, "eds": 11985, "loyalists": 26590, "org": 8917, "##\u306e": 30197, "##eki": 26576, "passages": 13768, "##breaker": 21204, "anchor": 8133, "##aha": 23278, "1649": 26538, "##\u0629": 19433, "timetable": 23839, "stratford": 17723, "labrador": 18604, "distal": 29333, "vibration": 17880, "##atic": 12070, "##\u4e8c": 30278, "u": 1057, "fleet": 4170, "##urance": 25863, "rpm": 11575, "traitor": 17328, "flies": 10029, "madden": 24890, "testament": 9025, "flora": 10088, "bubba": 19606, "vt": 28879, "procedures": 8853, "compatible": 11892, "42nd": 21373, "fisted": 28273, "commissioning": 21612, "cocktail": 18901, "differ": 11234, "##uil": 19231, "sphinx": 27311, "disappointing": 15640, "shaken": 16697, "expect": 5987, "premiered": 5885, "void": 11675, "##cton": 28312, "##nting": 24360, "zaragoza": 25744, "annoyed": 11654, "travelers": 15183, "monica": 9018, "##.": 29625, "five": 2274, "\u300d": 1642, "##rret": 27032, "##ching": 8450, "warehouse": 9746, "sudan": 10411, "saved": 5552, "##sies": 14625, "740": 25833, "genes": 9165, "207": 19843, "after": 2044, "tonight": 3892, "lowered": 6668, "##amina": 27651, "##oting": 20656, "ks": 29535, "##\u0f42": 29962, "combat": 4337, "capitol": 9424, "philology": 29286, "boost": 12992, "medial": 23828, "dieter": 27976, "##flight": 28968, "unicorn": 21830, "##lwyn": 29287, "##ogan": 21131, "qualified": 4591, "640": 19714, "tumble": 28388, "stakes": 7533, "##ancy": 11656, "puzzle": 11989, "rey": 12569, "feasibility": 24010, "behaviour": 9164, "inauguration": 17331, "specifically": 4919, "\u5730": 1802, "hamilton": 5226, "mechanical": 6228, "sweeping": 12720, "leopold": 12752, "showered": 23973, "##\u5e7f": 30368, "infiltrate": 29543, "drama": 3689, "pristine": 27375, "tandem": 18231, "##\u2206": 30122, "chili": 20238, "345": 23785, "julio": 15090, "christensen": 24189, "\u2191": 1584, "##lock": 7878, "qualification": 8263, "liga": 8018, "##ross": 25725, "shutting": 17521, "e": 1041, "ions": 15956, "hangs": 17991, "bottled": 26071, "oskar": 28626, "##of": 11253, "kata": 29354, "apex": 13450, "hire": 10887, "##scribe": 29234, "earthquake": 8372, "saxon": 10038, "walk": 3328, "atlantic": 4448, "1913": 5124, "responsibility": 5368, "trio": 7146, "##kovsky": 23829, "georgia": 4108, "1959": 3851, "fetch": 18584, "##asse": 27241, "archaeological": 7611, "secondary": 3905, "responds": 16412, "deciding": 10561, "sauce": 12901, "lynn": 9399, "pronouns": 26028, "attract": 9958, "missiles": 10815, "##jured": 26949, "face": 2227, "esteem": 19593, "137": 14989, "unicode": 27260, "##bha": 22655, "##we": 8545, "##\u539f": 30313, "expense": 10961, "tribute": 7050, "gravitational": 19790, "colton": 21000, "mariano": 22695, "##\u1167": 30010, "##ita": 6590, "benefit": 5770, "shouldered": 29383, "[unused484]": 489, "pune": 16920, "##promising": 25013, "##\u30eb": 30259, "##gging": 12588, "canvas": 10683, "logo": 8154, "sums": 20571, "[unused51]": 52, "decorative": 11584, "countered": 17970, "volley": 28073, "miss": 3335, "gripped": 9672, "435": 24125, "61": 6079, "\u516b": 1771, "sweeney": 21178, "amtrak": 20208, "gymnast": 25055, "impending": 17945, "decrease": 9885, "depictions": 20818, "nancy": 7912, "\u4e0b": 1743, "##amy": 24079, "souza": 26598, "##sen": 5054, "##\u30a1": 30218, "wise": 7968, "catastrophe": 25539, "##rgos": 22280, "communion": 15661, "scandinavian": 17660, "##heater": 27847, "bones": 5944, "metabolic": 21453, "vaults": 28658, "sandwiches": 22094, "[unused145]": 150, "##\u00bc": 29664, "##eo": 8780, "##stems": 29189, "section": 2930, "catalogue": 10161, "tick": 16356, "##made": 21565, "humans": 4286, "100th": 16919, "crust": 19116, "nagoya": 24425, "clustered": 25221, "con": 9530, "died": 2351, "armchair": 29372, "##grants": 27444, "pulls": 8005, "thumbs": 16784, "rightful": 27167, "causes": 5320, "##lion": 18964, "notably": 5546, "twentieth": 9086, "##ei": 7416, "changed": 2904, "gamble": 18503, "1764": 21488, "birthday": 5798, "reich": 14365, "tab": 21628, "rudolf": 12794, "jagged": 18187, "touch": 3543, "stadion": 20756, "partnered": 12404, "##ntal": 15758, "107": 10550, "holt": 12621, "tipperary": 17333, "glenn": 9465, "oyster": 21480, "preston": 8475, "pepsi": 27237, "civilians": 9272, "##lier": 14355, "blaze": 15347, "brunette": 27261, "cairo": 11096, "chassis": 11832, "macmillan": 15434, "stairwell": 22109, "##tify": 27351, "cass": 16220, "arrives": 8480, "waitress": 13877, "##\u1169": 30011, "chiba": 27368, "akira": 21616, "281": 22955, "##$": 29615, "submitted": 7864, "##eg": 13910, "schwartz": 16756, "integrate": 17409, "apprehension": 25809, "##sca": 15782, "records": 2636, "literal": 18204, "voices": 5755, "massey": 21402, "walls": 3681, "expertise": 11532, "##ara": 5400, "equation": 8522, "##nya": 17238, "laptop": 12191, "comprehend": 22346, "dim": 11737, "serious": 3809, "##itarian": 25691, "comparatively": 20172, "insistence": 20616, "large": 2312, "skill": 8066, "abd": 19935, "noticed": 4384, "overwhelming": 10827, "vowed": 18152, "##tino": 25690, "nonsense": 14652, "charley": 20430, "##aman": 23093, "distracting": 25012, "com": 4012, "\u3066": 1665, "\u05e6": 1263, "##el": 2884, "[unused92]": 93, "##cel": 29109, "sikh": 17246, "rosary": 28291, "playoffs": 7555, "\u25aa": 1618, "sustainability": 15169, "doom": 12677, "ended": 3092, "streak": 9039, "##twined": 21077, "##rington": 17281, "##ades": 18673, "quietly": 5168, "dime": 27211, "##\u1d9c": 30046, "ngc": 27645, "mausoleum": 19049, "jacobite": 28725, "gao": 17377, "prequel": 28280, "reorganization": 17118, "shopping": 6023, "##andra": 29159, "compromised": 20419, "##ste": 13473, "automation": 19309, "lebanese": 12592, "becomes": 4150, "gestapo": 26446, "stopping": 7458, "alsace": 24922, "traverse": 20811, "bursting": 21305, "waterford": 17769, "##nig": 25518, "outdoors": 19350, "mickey": 11021, "[unused469]": 474, "fins": 18564, "adapting": 25357, "rye": 20926, "[": 1031, "fragile": 13072, "##urus": 20089, "##ovsky": 21983, "er": 9413, "sobbing": 20040, "faster": 5514, "fold": 10671, "dual": 7037, "diminished": 15911, "blessing": 13301, "regina": 12512, "261": 24441, "lai": 21110, "richmond": 6713, "##lts": 21593, "84": 6391, "excuse": 8016, "shuddering": 25735, "##ological": 10091, "throne": 6106, "##rgen": 25892, "##\u045a": 29763, "patrols": 14703, "\u2015": 1518, "##point": 8400, "sichuan": 20980, "buying": 9343, "##inen": 21820, "[unused562]": 567, "lynch": 11404, "domino": 23968, "[unused669]": 674, "concacaf": 22169, "##emy": 26662, "uniformly": 27423, "intersection": 6840, "[unused901]": 906, "shrugs": 23822, "reopened": 11882, "programming": 4730, "720": 22857, "tough": 7823, "rhode": 9763, "\u2ebc": 1633, "\u0909": 1313, "senate": 4001, "holly": 9079, "government": 2231, "sbs": 21342, "inspiring": 18988, "tuberculosis": 15877, "##bella": 21700, "radcliffe": 22603, "projected": 11310, "dharma": 20669, "frog": 10729, "caste": 14542, "restriction": 16840, "cadence": 23620, "juliette": 24696, "readers": 8141, "bruins": 18159, "##eva": 13331, "intuition": 26406, "\u0447": 1202, "ronan": 18633, "fails": 11896, "protects": 18227, "##bla": 28522, "farmers": 6617, "cortes": 22242, "usb": 18833, "turks": 12896, "morale": 19292, "##raphy": 26228, "\u77f3": 1922, "easier": 6082, "theo": 14833, "rice": 5785, "prof": 11268, "##dicated": 26022, "loaf": 27048, "donnelly": 28317, "notch": 18624, "juice": 10869, "poetry": 4623, "dorsey": 27332, "stew": 20717, "utilization": 27891, "352": 28906, "careful": 6176, "timed": 22313, "##\u0442": 22919, "elected": 2700, "##fully": 7699, "sm": 15488, "mlb": 10901, "pietro": 15541, "[unused736]": 741, "moroccan": 17494, "two": 2048, "luggage": 17434, "foraging": 26912, "favoured": 16822, "salt": 5474, "birth": 4182, "doctrine": 8998, "attractive": 8702, "##merie": 28677, "wisconsin": 5273, "furniture": 7390, "simmons": 13672, "liar": 16374, "engraving": 23501, "tries": 5363, "carousel": 27628, "269": 25717, "attended": 3230, "monterrey": 26843, "##\u0915": 29851, "##\u1d63": 30043, "floated": 13715, "suspiciously": 21501, "cooperation": 6792, "epilogue": 24297, "##rrell": 14069, "ingram": 23231, "transforms": 21743, "##\u771f": 30447, "##age": 4270, "halt": 9190, "wal": 24547, "checking": 9361, "##quest": 15500, "thames": 11076, "dialogue": 7982, "adaptations": 17241, "1977": 3355, "throw": 5466, "cancers": 25409, "gallery": 3916, "fusion": 10077, "nodded": 3368, "gorge": 14980, "scene": 3496, "flair": 22012, "\u4f1a": 1763, "spill": 14437, "disagreed": 18335, "organised": 7362, "dunn": 14145, "provides": 3640, "guard": 3457, "##ndt": 26379, "transforming": 17903, "glanced": 3887, "unconventional": 23693, "choir": 6596, "reintroduced": 28263, "amin": 24432, "vessels": 6470, "africa": 3088, "##bl": 16558, "##\uff0f": 30518, "##em": 6633, "tq": 28816, "##\u30ab": 30226, "warships": 15964, "\u092f": 1332, "\u305d": 1660, "chamberlain": 13904, "##ach": 6776, "smallest": 10479, "treating": 12318, "enthusiasm": 12024, "gaping": 21226, "pleasantly": 27726, "drill": 12913, "custody": 9968, "thanked": 15583, "##istan": 23137, "customized": 28749, "blinked": 7948, "##\u1166": 30009, "soda": 14904, "surveyor": 17169, "wrestle": 25579, "1793": 12387, "serge": 21747, "victims": 5694, "implements": 22164, "professorship": 22661, "jana": 23341, "authentication": 27280, "gladys": 22386, "ascribed": 28025, "##dal": 9305, "##\u7cf9": 30460, "aboard": 7548, "##\u672c": 30402, "economic": 3171, "##kti": 22462, "delaying": 29391, "spreads": 20861, "14th": 6400, "sprung": 22057, "couch": 6411, "43rd": 25747, "hairs": 13606, "learning": 4083, "lennon": 14294, "happy": 3407, "kingston": 9803, "\u2021": 1527, "agencies": 6736, "herbert": 7253, "##mania": 27010, "intimidation": 28973, "\u0580": 1237, "jaime": 14519, "lexington": 14521, "##\u1019": 29973, "hurdle": 27630, "contributors": 16884, "1970s": 3955, "\u9ad8": 1981, "george": 2577, "menace": 19854, "ammonia": 25874, "arab": 5424, "##tra": 6494, "indications": 24936, "snort": 26759, "distributors": 22495, "##bread": 27035, "##\u5cf6": 30359, "##lum": 12942, "streetcar": 21420, "scope": 9531, "##orous": 25373, "mtv": 8692, "buddhism": 11388, "[unused110]": 115, "clause": 11075, "##cot": 24310, "speed": 3177, "##chester": 25322, "\u0445": 1200, "hired": 5086, "crises": 25332, "##\uff0d": 30516, "novels": 6002, "nineteenth": 9137, "teaching": 4252, "shortages": 22623, "historian": 5272, "attracts": 17771, "pornography": 19378, "03": 6021, "influence": 3747, "och": 28166, "pennsylvania": 3552, "malaysian": 11843, "sheldon": 19369, "demonstration": 10467, "reefs": 21484, "scouting": 14299, "##cola": 26289, "han": 7658, "sabah": 22515, "##arty": 23871, "##ango": 23422, "##ssee": 29522, "##veda": 28614, "\u00bb": 1090, "trip": 4440, "coup": 8648, "grim": 11844, "##ema": 14545, "carey": 11782, "accountant": 17907, "[unused8]": 9, "##igate": 28731, "\u3082": 1681, "##\u0127": 29672, "1891": 6607, "rosa": 9508, "travers": 29053, "yell": 14315, "byte": 24880, "\u09b9": 1377, "wilde": 18575, "migrating": 28636, "\u0936": 1336, "siberia": 16881, "stephenson": 19789, "hyderabad": 13624, "lilith": 25576, "223": 20802, "barony": 19365, "##iso": 19565, "visions": 12018, "\u7a7a": 1930, "[unused25]": 26, "124": 13412, "advisor": 8619, "stucco": 27443, "kong": 4290, "flanked": 15874, "same": 2168, "title": 2516, "grams": 20372, "willing": 5627, "protecting": 8650, "leg": 4190, "astrid": 27376, "administered": 8564, "##elia": 13902, "ecosystems": 20440, "pots": 18911, "unpublished": 19106, "strolled": 20354, "##tel": 9834, "taxonomy": 25274, "forsyth": 29434, "\u8cb4": 1953, "wavy": 23098, "##nio": 27678, "\u02b7": 1143, "alone": 2894, "refuge": 9277, "worcester": 12539, "ponds": 16879, "iron": 3707, "##ulus": 11627, "prolific": 12807, "ich": 22564, "##\u0644": 23673, "min": 8117, "spinning": 9419, "hurley": 25124, "gospels": 24131, "fail": 8246, "horticultural": 26235, "basin": 6403, "recommended": 6749, "exist": 4839, "squeezing": 15328, "aviv": 12724, "##plication": 21557, "wits": 25433, "277": 25578, "ensign": 19890, "fra": 25312, "curb": 13730, "newtown": 26382, "erupted": 12591, "nouns": 19211, "drummer": 7101, "regions": 4655, "bitterness": 22364, "leaflets": 27306, "damian": 19507, "engineered": 13685, "inhibition": 23586, "...": 2133, "tensed": 15225, "[unused653]": 658, "invasion": 5274, "breast": 7388, "##lain": 15987, "contexts": 18046, "churchyard": 19812, "keyboardist": 20173, "cottage": 9151, "cancel": 17542, "astonished": 22741, "##thy": 16921, "propulsion": 16404, "buzz": 12610, "lyman": 27587, "abc": 5925, "loud": 5189, "curled": 8188, "\u6211": 1855, "position": 2597, "reality": 4507, "pipe": 8667, "flute": 8928, "cortex": 17132, "commentaries": 21241, "##berg": 4059, "volatile": 20606, "attention": 3086, "fukuoka": 26998, "##orio": 27416, "+": 1009, "longtime": 11155, "subsidies": 21762, "peeled": 20956, "##erre": 28849, "fisheries": 13424, "overall": 3452, "intercepted": 16618, "stellar": 17227, "38th": 22051, "##eers": 22862, "steered": 23424, "[unused729]": 734, "##osta": 28696, "though": 2295, "cosmic": 14448, "swearing": 25082, "##gues": 22967, "gnu": 27004, "translates": 16315, "limbs": 10726, "amplifiers": 28633, "hammersmith": 28420, "cuckoo": 29010, "\u05de": 1255, "duplicate": 24473, "##lase": 25002, "tee": 17170, "##eous": 14769, "compartments": 27998, "##min": 10020, "bain": 28477, "constabulary": 23791, "dawson": 11026, "vc": 18315, "footballer": 4362, "bryan": 8527, "##ater": 24932, "##u": 2226, "##dine": 10672, "##oire": 26250, "colorful": 14231, "emitted": 22627, "900": 7706, "##hen": 10222, "bricks": 14219, "tits": 25671, "\u305f": 1661, "\u6728": 1875, "presents": 7534, "italianate": 25302, "1827": 12309, "valley": 3028, "##ees": 10285, "intermittent": 23852, "##cy": 5666, "spur": 12996, "##mans": 15154, "cheers": 21250, "robbers": 28019, "##rdi": 17080, "hui": 17504, "william": 2520, "everton": 18022, "parks": 6328, "ernest": 8471, "farmland": 16439, "##dha": 17516, "critically": 11321, "preaching": 17979, "meal": 7954, "\u5b9a": 1822, "scores": 7644, "consortium": 12360, "hendrix": 20645, "##\u4e8b": 30277, "##pee": 28084, "##\u5c0f": 30355, "##lem": 16930, "billing": 25640, "honey": 6861, "##duction": 16256, "poly": 26572, "cartoonist": 19659, "carpets": 27997, "\u0e2d": 1421, "warrant": 10943, "stagecoach": 26025, "timbers": 26238, "barber": 13362, "[unused642]": 647, "madeline": 16974, "divides": 20487, "humane": 23369, "alarms": 29034, "\u5fc3": 1849, "seater": 23392, "bodily": 20445, "margarita": 24570, "##\u7701": 30446, "barn": 8659, "muddy": 15405, "responding": 14120, "##ota": 17287, "##\u09a1": 29896, "##hd": 14945, "wounding": 27285, "antony": 16262, "\u30e1": 1726, "revised": 8001, "\u207a": 1544, "##mond": 11442, "intermediate": 7783, "willis": 12688, "album": 2201, "inherited": 7900, "hamlet": 8429, "siena": 23754, "armada": 25306, "##ston": 7106, "una": 14477, "dignitaries": 27960, "flattened": 16379, "forgiveness": 17213, "plates": 7766, "incapable": 19907, "spotted": 7282, "beaux": 20290, "##mission": 25481, "##ana": 5162, "schneider": 15159, "questioned": 8781, "##ood": 17139, "attendant": 16742, "kicks": 14590, "comte": 19758, "##fers": 24396, "holm": 28925, "philipp": 20765, "1983": 3172, "equals": 19635, "meta": 18804, "##ene": 8625, "shed": 8328, "\u0686": 1303, "solid": 5024, "##inates": 28184, "loyal": 8884, "persistence": 28297, "401": 22649, "aristotle": 17484, "conflicts": 9755, "platoon": 13799, "collins": 6868, "billed": 14843, "\u524d": 1776, "##tem": 18532, "reducing": 8161, "##dington": 21504, "##sho": 22231, "organic": 7554, "deacon": 14845, "##ulous": 16203, "arguably": 15835, "threads": 16457, "sawmill": 24744, "clinic": 9349, "cade": 18615, "enabled": 9124, "egan": 27889, "##hein": 26496, "problematic": 18636, "lagoon": 15825, "francs": 24313, "penis": 19085, "reflected": 7686, "##vers": 14028, "why": 2339, "effectively": 6464, "integrity": 11109, "submit": 12040, "ethnicity": 18240, "multitude": 20889, "\u0446": 1201, "raaf": 22709, "[unused789]": 794, "tuscany": 23322, "\u0bc7": 1398, "amore": 26297, "tissue": 8153, "border": 3675, "padua": 24941, "##dale": 5634, "commemoration": 22377, "##\u3057": 30183, "scotch": 18937, "serialized": 27289, "objections": 17304, "noted": 3264, "anniversary": 5315, "jamie": 6175, "blooded": 26064, "cinnamon": 21229, "##making": 12614, "##illon": 20343, "406": 27433, "flickered": 15999, "licence": 11172, "yourselves": 25035, "kildare": 24275, "chief": 2708, "##used": 13901, "##\u03b3": 29721, "marketing": 5821, "purple": 6379, "philosophers": 17586, "andrei": 18125, "signaling": 14828, "##can": 9336, "distance": 3292, "##lub": 27959, "mommy": 20565, "defect": 21262, "eligible": 7792, "##ischen": 24488, "falling": 4634, "operators": 9224, "participant": 13180, "kin": 12631, "\u4eba": 1756, "adventist": 25696, "baby": 3336, "tape": 6823, "singles": 3895, "destined": 16036, "##maid": 28478, "symphony": 6189, "flats": 14201, "nonstop": 25493, "pursuing": 11828, "translation": 5449, "trial": 3979, "timeless": 27768, "##athlon": 17563, "futuristic": 28971, "charms": 24044, "##\u91ce": 30489, "stance": 11032, "dubbed": 9188, "mcdowell": 25005, "pendulum": 28300, "pen": 7279, "##life": 15509, "armagh": 24678, "##\u30cf": 30244, "wah": 22894, "possessions": 13689, "##pd": 17299, "motorsports": 20711, "mainstream": 7731, "##ics": 6558, "##bush": 22427, "sherman": 11011, "fictitious": 23577, "##iri": 15735, "crippled": 24433, "taylor": 4202, "beth": 7014, "panama": 8515, "communicating": 20888, "locks": 11223, "##ssi": 18719, "[unused424]": 429, "dublin": 5772, "acquisition": 7654, "mark": 2928, "variance": 23284, "##rai": 14995, "joao": 16304, "westminster": 9434, "aberdeen": 12080, "webster": 11635, "hostile": 10420, "organist": 16397, "accompany": 12673, "triangles": 27189, "included": 2443, "smacked": 19203, "\u05d2": 1243, "58": 5388, "1656": 28434, "\u0e2a": 1420, "arise": 13368, "##a1": 27717, "##kam": 27052, "[unused548]": 553, "sights": 15925, "conversely": 18868, "bjorn": 24998, "##ices": 23522, "1667": 27643, "interpreting": 25455, "##ered": 6850, "curl": 15390, "lashes": 16008, "\u05be": 1240, "tracing": 16907, "how": 2129, "thousands": 5190, "hotspur": 25985, "storage": 5527, "backing": 5150, "scaling": 25169, "sincere": 18006, "wien": 22782, "109": 11518, "vain": 15784, "deprivation": 29516, "herring": 22103, "groceries": 26298, "csi": 22174, "##lez": 28060, "each": 2169, "[unused226]": 231, "differently": 11543, "spot": 3962, "affects": 13531, "might": 2453, "silently": 8601, "[unused167]": 172, "3rd": 3822, "kato": 27496, "entrance": 4211, "##nant": 16885, "comply": 14037, "bomb": 5968, "vessel": 6258, "correspondence": 11061, "seemed": 2790, "inspirational": 28676, "sounded": 5015, "grandmother": 7133, "ginger": 14580, "\u02b0": 1140, "exile": 8340, "drafts": 28967, "isolation": 12477, "lessons": 8220, "pilgrim": 21214, "pissed": 9421, "coaches": 7850, "##rada": 28510, "fis": 27424, "urges": 23876, "cruise": 8592, "handled": 8971, "seeking": 6224, "rented": 12524, "erection": 13760, "springs": 6076, "examines": 20798, "kendra": 13812, "##gau": 20420, "##tl": 19646, "philosophical": 9569, "dunedin": 22020, "baxter": 14664, "simply": 3432, "pouring": 13053, "[unused496]": 501, "proportional": 14267, "##\u21d2": 30119, "kellogg": 26129, "travel": 3604, "sahib": 23513, "latch": 25635, "##53": 22275, "roberta": 23455, "telecast": 28803, "kyle": 7648, "sidewalk": 11996, "##\u65b9": 30389, "tay": 28117, "rf": 21792, "##ap": 9331, "with": 2007, "\u0dcf": 1408, "fiancee": 19455, "nazi": 6394, "probably": 2763, "edgar": 9586, "remarkably": 17431, "foundry": 19853, "entourage": 25342, "rules": 3513, "carriers": 11363, "offers": 4107, "regretted": 18991, "54th": 29570, "southend": 26104, "fl": 13109, "##agi": 22974, "unfortunately": 6854, "ostensibly": 23734, "##lings": 11227, "surprisingly": 10889, "##tain": 18249, "astronomical": 13674, "##r": 2099, "examinations": 14912, "college": 2267, "seller": 14939, "waistband": 27553, "decrees": 28966, "##\u0ba9": 29923, "caretaker": 17600, "jacqueline": 17551, "injury": 4544, "pod": 17491, "impatiently": 19951, "ch": 10381, "workplace": 16165, "rustling": 29188, "rail": 4334, "whipping": 23016, "respectable": 19416, "jewel": 13713, "fun": 4569, "preserving": 15224, "linden": 22066, "fantastic": 10392, "1786": 17436, "paying": 7079, "yells": 22114, "\u211d": 1579, "praying": 14488, "destiny": 10461, "delight": 12208, "handicap": 15822, "analysts": 18288, "oldies": 26826, "ram": 8223, "speakers": 7492, "72": 5824, "owls": 22388, "##sley": 8002, "48th": 27787, "kidney": 14234, "sword": 4690, "92": 6227, "1689": 22685, "occupations": 23374, "distraught": 25348, "bucks": 14189, "homosexual": 15667, "synthesizers": 22211, "grossing": 18244, "punch": 8595, "leafs": 21349, "##inations": 22045, "inactive": 16389, "cessna": 27664, "##\u6c37": 30421, "##eased": 25063, "tension": 6980, "##\u5185": 30299, "##vating": 26477, "nor": 4496, "tentacles": 24719, "evil": 4763, "##laid": 24393, "\u026f": 1122, "\u099f": 1359, "caitlin": 27555, "mild": 10256, "[unused760]": 765, "whistling": 24350, "poker": 11662, "korean": 4759, "fairness": 26935, "##zic": 27586, "wrist": 7223, "thump": 21324, "artists": 3324, "silvia": 27827, "charging": 13003, "articulated": 20742, "unwilling": 15175, "humidity": 18213, "hope": 3246, "reportedly": 7283, "mere": 8210, "##haya": 26115, "##(": 29619, "hua": 23064, "capitalism": 16498, "##\u57ce": 30330, "winslow": 26600, "[unused450]": 455, "\u09ac": 1368, "smiled": 3281, "[unused32]": 33, "modelling": 19518, "horizons": 24484, "\u5bbf": 1826, "iris": 11173, "uneven": 17837, "organizing": 10863, "spilled": 13439, "follower": 22399, "negotiations": 7776, "##oft": 15794, "pointe": 26119, "barron": 23594, "father": 2269, "commercially": 11088, "802": 23908, "layer": 6741, "swamp": 11963, "justification": 19777, "pump": 10216, "##lster": 29576, "abyss": 22159, "residency": 14079, "wood": 3536, "montagu": 26241, "##\u0448": 29753, "tapes": 13324, "mined": 21846, "smug": 20673, "1879": 7449, "palaces": 22763, "admiration": 17005, "##xt": 18413, "provocative": 26422, "\u98df": 1978, "cisco": 26408, "sal": 16183, "punched": 11696, "transmitted": 11860, "##uber": 21436, "##vs": 15088, "enrichment": 27226, "francois": 8173, "essays": 8927, "servers": 14903, "rwanda": 17591, "lightly": 8217, "muslim": 5152, "scots": 12196, "##quisite": 24871, "##dled": 20043, "upscale": 28276, "##aru": 15728, "brooding": 28902, "##\u0f62": 29970, "##cision": 28472, "beans": 13435, "breeds": 15910, "\u0f0b": 1424, "##plane": 11751, "sanford": 21153, "writers": 4898, "abbreviated": 12066, "allie": 16944, "tre": 29461, "[unused632]": 637, "ocean": 4153, "##ong": 5063, "##tai": 15444, "biology": 7366, "phenomenon": 9575, "##graphic": 14773, "salute": 17664, "##taka": 28412, "aa": 9779, "pieter": 23759, "##hli": 27766, "145": 13741, "wavelength": 19934, "pinnacle": 26007, "subsequent": 4745, "samurai": 16352, "1781": 16788, "tubular": 25147, "lettering": 25782, "targets": 7889, "delegation": 10656, "colossal": 29523, "disappointed": 9364, "wendy": 12815, "\u0631": 1280, "hooper": 23717, "jace": 10352, "ill": 5665, "jax": 13118, "subscription": 15002, "modelled": 23364, "secular": 10644, "##lies": 11983, "capt": 14408, "##ures": 14900, "##nish": 24014, "strikes": 9326, "domed": 29208, "structural": 8332, "##hered": 27190, "##islaus": 25678, "thesis": 9459, "euro": 9944, "utrecht": 18361, "staple": 18785, "##kka": 15714, "[unused778]": 783, "producers": 6443, "scarce": 18782, "sulfur": 17864, "marley": 20326, "21st": 7398, "1999": 2639, "geographic": 9183, "##tie": 9515, "bernstein": 18862, "governed": 9950, "shifters": 21537, "##ezer": 25733, "##\u22121": 27944, "##nostic": 28199, "entry": 4443, "punishment": 7750, "bourbon": 15477, "sacrifices": 18502, "fight": 2954, "##uled": 18696, "yellowstone": 29231, "##\u0268": 29684, "rise": 4125, "pneumonia": 18583, "average": 2779, "moods": 27824, "whitney": 9809, "detective": 6317, "##\u06be": 29844, "abraham": 8181, "non": 2512, "rains": 15811, "##isha": 24032, "pixels": 27725, "##tock": 17406, "wells": 7051, "intend": 13566, "liberated": 19553, "offerings": 14927, "lyle": 21971, "corbin": 24003, "hysterical": 25614, "petitions": 24320, "worship": 7425, "montrose": 24990, "whistled": 26265, "nominal": 15087, "menu": 12183, "##opa": 29477, "##\u043c": 29745, "1876": 7326, "varying": 9671, "compiling": 21953, "concurrency": 24154, "cebu": 23312, "quad": 17718, "relic": 24933, "statistical": 7778, "##izations": 22318, "consultation": 16053, "diablo": 28841, "tori": 23413, "berth": 17064, "passengers": 5467, "ambushed": 22168, "##ub": 12083, "engined": 21235, "##\u30ea": 30258, "warfare": 8309, "acquired": 3734, "##wig": 16279, "ancestry": 11377, "##wear": 16689, "cruises": 23986, "bangladeshi": 24267, "1886": 6929, "240": 11212, "##group": 17058, "mahogany": 23867, "blaming": 24114, "dwellers": 28857, "rosalie": 29564, "refueling": 23026, "\u85e4": 1944, "seismic": 22630, "wainwright": 25305, "fantasies": 21233, "##max": 17848, "anomaly": 28685, "##iography": 26535, "tornadoes": 22668, "##rish": 18774, "690": 28066, "wear": 4929, "moore": 5405, "checks": 14148, "rolf": 23381, "byrd": 17845, "defenses": 13345, "##op": 7361, "##tyle": 27983, "[unused886]": 891, "gr": 24665, "disliked": 18966, "shoving": 15866, "oppressive": 28558, "slight": 7263, "##\u092c": 29865, "##erly": 12561, "internship": 22676, "drumming": 22980, "obstruction": 27208, "sheet": 7123, "roofs": 15753, "yellow": 3756, "russell": 5735, "awaited": 19605, "1759": 21667, ".": 1012, "pasture": 20787, "##cide": 27082, "mute": 20101, "admiral": 5902, "##\u00a9": 29652, "effective": 4621, "marginal": 14785, "mls": 16287, "interval": 13483, "offshore": 12195, "bishop": 3387, "determined": 4340, "##core": 17345, "##ified": 7810, "eagle": 6755, "shaping": 20300, "arizona": 5334, "##un": 4609, "[unused475]": 480, "ladies": 6456, "##hei": 26036, "##rator": 16259, "vowel": 12710, "##\u5fc3": 30375, "wig": 24405, "unsuitable": 25622, "wears": 11651, "trinity": 7124, "fur": 6519, "precinct": 18761, "country": 2406, "##dt": 11927, "munich": 7469, "surveys": 12265, "gdansk": 21942, "sessions": 6521, "##itical": 26116, "shrubs": 18812, "##gc": 18195, "state": 2110, "mention": 5254, "smashwords": 25151, "329": 29567, "improper": 24156, "bmw": 13154, "boeing": 10321, "[unused253]": 258, "compelled": 15055, "murray": 6264, "connects": 8539, "consistency": 18700, "opposed": 4941, "abuse": 6905, "arrest": 6545, "ke": 17710, "1910": 4976, "resources": 4219, "maple": 11035, "tribes": 6946, "cameo": 12081, "android": 11924, "[unused904]": 909, "##estra": 26199, "ornamental": 18200, "bowie": 14598, "stalk": 23899, "188": 19121, "##brook": 9697, "sweat": 7518, "dresden": 12983, "tattoo": 11660, "balcony": 11673, "##eca": 19281, "[unused772]": 777, "pants": 6471, "nighttime": 26031, "##abia": 29039, "caring": 11922, "contributes": 16605, "##ffed": 15388, "raided": 18784, "##sw": 26760, "foremost": 16097, "broadband": 19595, "wesley": 11482, "##rified": 22618, "nicely": 19957, "lena": 14229, "run": 2448, "hasn": 8440, "nicholls": 27043, "fia": 19807, "excuses": 21917, "handheld": 27291, "##movable": 25661, "loans": 10940, "synthesized": 23572, "bassist": 9858, "##ggio": 20650, "raked": 22438, "##lie": 8751, "hellenistic": 27464, "1968": 3380, "elects": 27161, "marko": 28003, "leigh": 11797, "athletes": 7576, "inland": 9514, "scar": 11228, "skylar": 27970, "##tm": 21246, "##'": 29618, "##air": 11215, "recoil": 27429, "happening": 6230, "respond": 6869, "##rsk": 27472, "[unused385]": 390, "markings": 13967, "mythical": 19336, "distinguished": 5182, "imaginary": 15344, "shuttle": 10382, "friction": 15012, "mechanized": 23387, "playwright": 11170, "##ush": 20668, "barker": 12852, "tai": 13843, "wilfred": 26026, "pri": 26927, "276": 25113, "larry": 6554, "ghetto": 17276, "##\u05e7": 29810, "[unused665]": 670, "##hard": 11783, "damien": 12587, "concurrent": 16483, "hare": 14263, "pigeon": 16516, "##vus": 27500, "dissent": 24116, "viral": 13434, "harrington": 19760, "247": 23380, "spirited": 24462, "##\u9673": 30498, "strategic": 6143, "bahn": 17392, "##mament": 28119, "brasil": 21133, "stressed": 13233, "van": 3158, "1683": 27414, "span": 8487, "iona": 22347, "goo": 27571, "##unt": 16671, "sexes": 21024, "[unused784]": 789, "##riz": 21885, "spies": 16794, "northamptonshire": 21367, "lucille": 28016, "occasional": 8138, "stumble": 21811, "1920s": 6641, "staircase": 10714, "buchanan": 14349, "absolute": 7619, "vanished": 9955, "demographic": 15982, "stuffed": 11812, "departing": 15971, "169": 18582, "maddy": 20789, "assassination": 10102, "warped": 25618, "helps": 7126, "belief": 6772, "exports": 14338, "goddamn": 16477, "ky": 18712, "deviation": 24353, "747": 25374, "oakley": 28876, "##hine": 14014, "##ppy": 27659, "entropy": 23077, "rt": 19387, "appropriate": 6413, "knew": 2354, "morris": 6384, "clerk": 7805, "touching": 7244, "[unused407]": 412, "madison": 7063, "wednesday": 9317, "1907": 5528, "##lton": 13947, "descends": 23328, "hickory": 28158, "##\u0631": 17149, "##osis": 12650, "shell": 5806, "insertion": 23851, "emmanuel": 14459, "criticised": 10648, "=": 1027, "carson": 9806, "renee": 17400, "colin": 6972, "continuing": 5719, "refreshing": 27150, "broader": 12368, "kathy": 14986, "##rea": 16416, "nowadays": 13367, "video": 2678, "286": 24921, "utter": 14395, "consequence": 9509, "[unused776]": 781, "##oza": 25036, "soft": 3730, "almighty": 26668, "[unused574]": 579, "appearance": 3311, "##\u09c7": 29917, "##cious": 18436, "par": 11968, "axel": 18586, "pointless": 23100, "##tan": 5794, "bounds": 19202, "##ero": 10624, "fitzroy": 21870, "abandoned": 4704, "symphonies": 29355, "still": 2145, "stay": 2994, "ammunition": 9290, "evaluation": 9312, "##\u0438\u044f": 23483, "sui": 24086, "\u5927": 1810, "ryder": 11731, "execute": 15389, "1713": 27016, "##phones": 19093, "##\u5fe0": 30378, "browser": 16602, "acquiring": 13868, "ju": 18414, "prohibited": 10890, "fuselage": 13478, "peering": 16740, "narayan": 24331, "tonga": 20188, "[unused720]": 725, "##rates": 20370, "czech": 5569, "mcc": 23680, "[unused575]": 580, "1931": 4739, "shoot": 5607, "stairs": 5108, "tapping": 15135, "[unused557]": 562, "hostage": 13446, "ambient": 17093, "philippine": 7802, "calmed": 20869, "hold": 2907, "\u2013": 1516, "europa": 12124, "undertook": 12543, "##anor": 27869, "advanced": 3935, "potential": 4022, "##thi": 15222, "chosen": 4217, "staples": 24533, "ear": 4540, "commentary": 8570, "##osed": 24768, "h\u2082o": 24833, "sprawling": 24199, "##ers": 2545, "cocked": 13179, "\u4fe1": 1767, "##atable": 27892, "defunct": 11984, "population": 2313, "##landa": 24448, "mill": 4971, "orthodoxy": 26582, "gov": 18079, "##lio": 12798, "committee": 2837, "##dh": 16425, "\u307b": 1676, "way": 2126, "venerable": 24541, "\u0d9a": 1403, "ste": 26261, "somali": 16831, "metre": 7924, "humiliation": 21171, "encouraging": 11434, "fantasia": 29203, "apprenticeship": 20448, "busted": 23142, "n": 1050, "seoul": 10884, "frantically": 16460, "liturgical": 19246, "bowman": 19298, "collected": 5067, "ek": 23969, "##agger": 27609, "\u306c": 1669, "##nx": 26807, "##\u6587": 30387, "##mos": 15530, "##ots": 12868, "navajo": 22440, "arm": 2849, "brighton": 10309, "startled": 9696, "yielding": 21336, "\u2096": 1565, "##\u2154": 30110, "paintings": 5265, "oversaw": 14105, "stammered": 28532, "##lete": 25890, "marxism": 27255, "\u0b9f": 1384, "federal": 2976, "rig": 19838, "lima": 12967, "##llin": 21202, "freshwater": 12573, "sonic": 12728, "groves": 21695, "##bians": 26376, "[unused592]": 597, "mein": 24182, "deputies": 11964, "expeditionary": 15372, "shri": 14880, "##wl": 13668, "##thus": 19877, "hobbs": 23748, "martian": 20795, "biceps": 27947, "1995": 2786, "publishes": 12466, "willy": 16172, "vanguard": 18332, "cannon": 8854, "atm": 27218, "signage": 29404, "precedence": 23359, "##tial": 20925, "mayhem": 26865, "mused": 22335, "[unused798]": 803, "conceded": 15848, "\u2261": 1607, "asha": 24595, "tempo": 13657, "##haling": 23896, "##\u00b7": 29661, "##yr": 12541, "had": 2018, "domains": 13100, "##ropriation": 26121, "resin": 24604, "propped": 16863, "ingredients": 12760, "shelter": 7713, "\u76f8": 1919, "abbreviation": 22498, "surf": 14175, "dropping": 7510, "chant": 16883, "[unused842]": 847, "thrilling": 26162, "nikki": 14470, "[unused54]": 55, "cole": 5624, "unhappy": 12511, "mohamed": 14467, "opener": 16181, "orchards": 22976, "valet": 27238, "cheekbones": 27181, "[unused211]": 216, "\u2206": 1594, "straits": 18849, "\u667a": 1869, "1643": 25534, "wipe": 13387, "wcw": 24215, "faulkner": 25109, "323": 25392, "unified": 10562, "##uit": 14663, "\u4e16": 1745, "functioning": 12285, "mohammed": 12619, "east": 2264, "wheeled": 17320, "26th": 14935, "symposium": 17899, "##ilation": 29545, "manufactures": 22027, "pg": 18720, "1655": 28438, "[unused674]": 679, "olympic": 4386, "charting": 17918, "##\uff0c": 30515, "##\u06af": 29842, "\u099a": 1356, "lance": 9993, "sabres": 26969, "emerges": 19391, "musique": 25784, "nova": 6846, "registered": 5068, "incomes": 29373, "faces": 5344, "cantonese": 22241, "tides": 22487, "considerable": 6196, "415": 24690, "\u5929": 1811, "times": 2335, "dying": 5996, "drift": 11852, "matthews": 12351, "##pass": 15194, "##tee": 17389, "1840s": 19308, "gujarati": 26428, "\u306f": 1672, "stopped": 3030, "catalyst": 16771, "katrina": 16864, "##owe": 29385, "tending": 25069, "wolff": 23498, "##nut": 24072, "##ovich": 12303, "20s": 27074, "za": 23564, "##mc": 12458, "associated": 3378, "routes": 5847, "daniels": 13196, "supper": 15264, "heller": 25038, "news": 2739, "ufo": 24321, "\u662d": 1868, "adopted": 4233, "56th": 29087, "##pheus": 22809, "cameroon": 13841, "accurately": 14125, "readings": 15324, "favored": 12287, "\u044b": 1206, "window": 3332, "##finger": 20349, "[unused165]": 170, "##oi": 10448, "northeast": 4794, "meanwhile": 5564, "marking": 10060, "slalom": 19617, "lest": 26693, "gleaming": 18242, "1940": 3878, "[unused698]": 703, "\u060c": 1268, "aka": 9875, "##\uff5e": 30521, "[unused31]": 32, "hesse": 16399, "sf": 16420, "[unused993]": 998, "styles": 6782, "racist": 16939, "##\u09ad": 29905, "##copic": 26461, "##hp": 22269, "##\u6cd5": 30427, "turkish": 5037, "sound": 2614, "1611": 28769, "argentina": 5619, "\u02e3": 1153, "technical": 4087, "##phobic": 20200, "##shaft": 25679, "actions": 4506, "##zio": 12426, "\u30c4": 1712, "price": 3976, "flush": 13862, "kitchener": 27154, "##lley": 25105, "laguna": 18169, "##vances": 26711, "researches": 27338, "maxi": 21510, "commemorate": 13415, "##tone": 5524, "ms": 5796, "noise": 5005, "[unused416]": 421, "1745": 21809, "firearm": 23646, "boyd": 12164, "##bir": 17706, "perfume": 17013, "revolving": 24135, "connected": 4198, "##oise": 23565, "soho": 23771, "##itors": 27287, "outrageous": 25506, "adventurer": 29506, "ignatius": 26841, "fights": 9590, "expectations": 10908, "lawsuit": 9870, "guise": 21980, "investments": 10518, "zero": 5717, "##otto": 23052, "discuss": 6848, "##\u0633": 29824, "foreword": 23059, "renovated": 10601, "hooded": 21592, "specialty": 12233, "gentleman": 10170, "chen": 8802, "supreme": 4259, "abnormal": 19470, "surprise": 4474, "mort": 22294, "zagreb": 12974, "susie": 23917, "tudor": 15588, "sv": 17917, "##cta": 25572, "completion": 6503, "piazza": 22463, "chores": 27091, "chart": 3673, "2000": 2456, "\u03c7": 1177, "nickelodeon": 20814, "##balance": 26657, "##bane": 27543, "##ont": 12162, "examples": 4973, "sum": 7680, "stocks": 15768, "##tose": 22282, "satellite": 5871, "screened": 12238, "sailor": 11803, "##\u09b9": 29913, "bn": 24869, "gripping": 13940, "crouch": 21676, "establish": 5323, "[unused775]": 780, "totaling": 21798, "1899": 6166, "tripped": 21129, "anthem": 11971, "iraqi": 8956, "leftist": 24247, "forward": 2830, "howled": 27489, "candy": 9485, "##rch": 11140, "bedrock": 28272, "[unused318]": 323, "rookie": 8305, "invaded": 10836, "dissipated": 22572, "rents": 28206, "danielle": 18490, "[unused155]": 160, "##hale": 15238, "[unused406]": 411, "183": 18677, "geometridae": 24687, "ain": 7110, "eponymous": 15248, "miracles": 17861, "##cano": 23803, "element": 5783, "ellis": 8547, "gaming": 10355, "canada": 2710, "chemist": 15535, "##<": 29629, "modify": 19933, "activation": 13791, "ahmed": 10208, "##\u0905": 29847, "fairies": 20182, "##gles": 17125, "##cp": 21906, "##\u05d2": 29790, "bologna": 14102, "edmund": 9493, "drip": 27304, "##\u0924": 29859, "massive": 5294, "withstand": 19319, "camping": 13215, "gifford": 29360, "cancellation": 16990, "##ths": 26830, "sacred": 6730, "stick": 6293, "psychotic": 27756, "*": 1008, "hooked": 13322, "ticked": 26019, "\u5b97": 1821, "cherokee": 13796, "##uma": 12248, "depends": 9041, "maj": 16686, "hamid": 24811, "feudal": 16708, "##zone": 15975, "gallant": 26984, "##\u304b": 30177, "yusuf": 23495, "148": 16459, "members": 2372, "spiders": 14160, "##lovic": 29356, "agriculture": 5237, "encoded": 12359, "keystone": 22271, "cap": 6178, "companion": 7452, "##fly": 14151, "adjunct": 20621, "cleric": 29307, "##var": 10755, "stresses": 23253, "tallest": 13747, "hot": 2980, "reflects": 11138, "coward": 16592, "spire": 19823, "dream": 3959, "incurred": 22667, "rattle": 23114, "https": 16770, "smyth": 28103, "##cea": 21456, "lights": 4597, "pensacola": 26073, "grinning": 11478, "doubtful": 21888, "chick": 14556, "twelfth": 11313, "lori": 18669, "\u5317": 1781, "dealt": 9411, "accidents": 13436, "midst": 12930, "159": 18914, "oblivion": 24034, "paralyzed": 22348, "troopers": 26246, "forty": 5659, "shown": 3491, "relies": 16803, "arrogant": 15818, "josef": 12947, "mills": 6341, "paulo": 9094, "##iate": 13143, "martyr": 17216, "authentic": 14469, "hole": 4920, "technicians": 20202, "##icing": 23553, "live": 2444, "introductions": 25795, "sheath": 21867, "[unused941]": 946, "vaguely": 15221, "frankfurt": 9780, "thrive": 25220, "##rick": 11285, "chilean": 12091, "##wife": 19993, "conducts": 17976, "##slow": 26338, "metropolitan": 4956, "hackney": 28425, "[unused468]": 473, "governments": 6867, "march": 2233, "cardiff": 10149, "1842": 10008, "estuary": 18056, "\uff1f": 1994, "nato": 10079, "syria": 7795, "communities": 4279, "strangely": 13939, "warlord": 16579, "jan": 5553, "##imeter": 19198, "exclusion": 15945, "elongated": 17876, "hooves": 28399, "polymer": 17782, "##vu": 19722, "[unused644]": 649, "loose": 6065, "introduction": 4955, "hopped": 17230, "brutal": 12077, "newton": 8446, "##dened": 24589, "exploit": 18077, "commenting": 15591, "##bility": 8553, "1768": 19793, "##ffy": 16329, "dylan": 7758, "certainty": 15855, "[unused163]": 168, "temporary": 5741, "jurisdiction": 7360, "290": 17222, "##put": 18780, "spec": 28699, "##unda": 18426, "paris": 3000, "beliefs": 9029, "lexie": 24123, "resurgence": 26303, "wedge": 17632, "denis": 11064, "##uman": 19042, "##inia": 23309, "\u0291": 1137, "1666": 27407, "java": 9262, "mythological": 21637, "antennas": 26315, "##venting": 26703, "1702": 26776, "reddish": 14182, "##media": 16969, "sought": 4912, "riches": 26768, "jericho": 17309, "lock": 5843, "1727": 25350, "fourth": 2959, "fishing": 5645, "drunken": 15967, "\u30e5": 1729, "rees": 22131, "sparrow": 19479, "advent": 13896, "songwriters": 20602, "risks": 10831, "##rina": 11796, "deng": 26957, "##21": 17465, "breach": 12510, "suppression": 16341, "##uve": 22909, "[unused604]": 609, "overland": 21400, "##mail": 21397, "##ckle": 19250, "##brates": 25258, "[unused554]": 559, "1665": 27676, "##hic": 16066, "680": 23944, "wanting": 5782, "website": 4037, "inflation": 14200, "before": 2077, "suffolk": 12291, "outright": 13848, "loads": 15665, "[unused118]": 123, "strips": 12970, "serb": 20180, "ashok": 28916, "circus": 9661, "concessions": 20638, "picasso": 22457, "[unused936]": 941, "attending": 7052, "\u028b": 1133, "defeat": 4154, "thoughts": 4301, "nationality": 10662, "clusters": 12906, "jefferson": 7625, "agitation": 22356, "[unused828]": 833, "humboldt": 19249, "##urt": 19585, "advisory": 7319, "convent": 10664, "convey": 16636, "potent": 16834, "##ibar": 26656, "realised": 11323, "compton": 18592, "set": 2275, "gymnasium": 11288, "crystal": 6121, "##screen": 18182, "##bbled": 12820, "otis": 18899, "##chemist": 24229, "##fa": 7011, "##oris": 21239, "immigrant": 11560, "enclosure": 17539, "click": 11562, "gmbh": 18289, "##isson": 24077, "correctly": 11178, "insulin": 22597, "##space": 23058, "nobles": 13969, "domenico": 18638, "##ffa": 20961, "chemical": 5072, "hedges": 25840, "fern": 20863, "interventions": 19388, "rubber": 8903, "observers": 14009, "##laze": 24472, "acc": 16222, "midnight": 7090, "heterosexual": 28229, "bianca": 18051, "round": 2461, "##\u0584": 29786, "chains": 8859, "[unused431]": 436, "resonance": 17011, "massage": 21881, "dioxide": 14384, "freeway": 10846, "jozef": 23258, "wb": 25610, "##nberger": 28825, "cover": 3104, "threshold": 11207, "shelters": 17177, "splash": 17624, "molten": 23548, "memorable": 13432, "businessmen": 17353, "[unused672]": 677, "worked": 2499, "confusing": 16801, "##eri": 11124, "hierarchical": 25835, "fringe": 13548, "355": 26271, "plush": 27729, "kiev": 12100, "firefighters": 21767, "##\u00b6": 29660, "orchid": 15573, "clifton": 16271, "lent": 15307, "comprised": 11539, "binds": 20817, "##rrie": 22155, "[unused369]": 374, "\u266d": 1627, "##shi": 6182, "demonstrations": 13616, "beaches": 12212, "clergy": 11646, "samba": 29086, "opera": 3850, "##\u4eba": 30282, "berry": 10498, "vents": 28287, "stuffing": 28652, "##\u03b9": 18199, "\u826f": 1938, "1966": 3547, "[unused499]": 504, "provisions": 8910, "liang": 16982, "kelly": 5163, "\u8857": 1946, "##d": 2094, "successful": 3144, "universities": 5534, "tide": 10401, "saint": 3002, "moderately": 17844, "providing": 4346, "xii": 14371, "full": 2440, "1981": 3261, "##cytes": 27321, "exposed": 6086, "unleashed": 22416, "fide": 26000, "1825": 11384, "poultry": 22468, "modeled": 14440, "understands": 19821, "[unused358]": 363, "jim": 3958, "106": 10114, "assuming": 10262, "cadillac": 20425, "stepmother": 26959, "facts": 8866, "kicker": 22652, "lukas": 23739, "##evsky": 27015, "suzuki": 14278, "resolved": 10395, "paranoid": 19810, "jae": 22770, "disconnected": 23657, "seeded": 13916, "gustave": 27973, "titanium": 23431, "scala": 26743, "tow": 15805, "function": 3853, "rancho": 18123, "cds": 14340, "##sun": 19729, "benches": 19571, "secrets": 7800, "inch": 4960, "tractor": 16358, "pubs": 23598, "duane": 27319, "##fixed": 23901, "additive": 29167, "rear": 4373, "\u2264": 1608, "bb": 22861, "cats": 8870, "##werk": 29548, "martini": 24480, "##ist": 2923, "chevy": 29009, "formation": 4195, "hearings": 19153, "govt": 22410, "hello": 7592, "shipyard": 13858, "##ense": 16700, "1914": 4554, "laughs": 11680, "##uring": 12228, "##\u05d4": 29128, "evolving": 20607, "##uising": 28580, "[unused55]": 56, "samantha": 11415, "schools": 2816, "exodus": 16388, "cigarettes": 15001, "worms": 16253, "##tees": 28313, "simplified": 11038, "[unused90]": 91, "wellness": 25860, "[unused223]": 228, "traveling": 7118, "leap": 11679, "##gam": 22864, "solve": 9611, "hurt": 3480, "##hip": 5605, "##hom": 23393, "1868": 7582, "defences": 16828, "1819": 12552, "\u1169": 1475, "lose": 4558, "prohibition": 13574, "\u8c9d": 1952, "stevenson": 13636, "atrocities": 23482, "##gement": 20511, "##urable": 23086, "chandler": 13814, "mortally": 26495, "mortgage": 14344, "coloured": 11401, "250": 5539, "travelled": 7837, "dudley": 12648, "uniformed": 25189, "##cock": 13959, "ensured": 16316, "incorporates": 12374, "##evich": 16277, "158": 17696, "pandora": 19066, "pulmonary": 21908, "anatomy": 13336, "##ogen": 23924, "madeira": 27309, "126": 14010, "eras": 28500, "reelected": 20847, "##nas": 11649, "hannover": 29209, "u2": 23343, "judd": 20128, "century": 2301, "[unused343]": 348, "lewis": 4572, "height": 4578, "swings": 18755, "tenderly": 26596, "39": 4464, "grid": 8370, "ratings": 8599, "nadia": 14942, "nap": 18996, "coarse": 20392, "670": 25535, "\u9762": 1976, "armed": 4273, "##stis": 29472, "fastest": 7915, "loomed": 24358, "flowed": 13230, "syndication": 26973, "calculus": 19276, "exploits": 20397, "proprietary": 16350, "composer": 4543, "presided": 15506, "[unused26]": 27, "stair": 23788, "shelly": 28360, "melodic": 17187, "##adt": 18727, "gould": 14913, "##der": 4063, "onion": 20949, "thom": 19438, "brigham": 22727, "circulated": 17640, "runway": 9271, "thou": 15223, "##laya": 22923, "arthritis": 27641, "fucking": 8239, "shareholders": 15337, "245": 21005, "wurttemberg": 16346, "seed": 6534, "burned": 5296, "merchants": 10310, "##hui": 20552, "twelve": 4376, "variables": 10857, "##\u098f": 29887, "catch": 4608, "lanterns": 26078, "jimenez": 22790, "\u1d52": 1503, "[unused977]": 982, "orientation": 10296, "priest": 5011, "[unused0]": 1, "[unused410]": 415, "merger": 7660, "devlin": 24389, "vehicle": 4316, "estates": 8707, "waist": 5808, "receives": 8267, "laude": 21602, "##yad": 25152, "salty": 23592, "show": 2265, "permanent": 4568, "zheng": 20985, "occult": 27906, "specimen": 11375, "slater": 17916, "##rani": 21578, "##rek": 16816, "##riety": 27840, "stormed": 16201, "[unused962]": 967, "flopped": 24723, "distinguishing": 20852, "##yt": 22123, "beat": 3786, "metropolis": 18236, "livingston": 14109, "##uously": 28078, "speedway": 10688, "orlando": 10108, "cinderella": 21686, "##dak": 23597, "##zel": 12638, "bolivar": 22118, "##oki": 23212, "236": 23593, "##rard": 25561, "ferns": 25715, "ramos": 18882, "dashboard": 24923, "ind": 27427, "luc": 12776, "hoop": 27669, "\u5b87": 1819, "partnership": 5386, "##wled": 28365, "reins": 19222, "deepened": 20183, "shocks": 28215, "##\u6625": 30393, "incompatible": 25876, "elusive": 26475, "highlands": 11784, "nets": 16996, "areas": 2752, "sample": 7099, "accuse": 26960, "sumo": 28193, "jaenelle": 20757, "straw": 13137, "baronetcy": 25071, "\u014b": 1106, "indicted": 21801, "##rb": 15185, "increases": 7457, "[unused654]": 659, "gangster": 20067, "##rius": 13245, "##cie": 23402, "restored": 5854, "1400": 20652, "nathaniel": 13961, "-": 1011, "director": 2472, "##the": 10760, "mallory": 20468, "##zer": 6290, "material": 3430, "##moral": 22049, "##ng": 3070, "guernsey": 24640, "vibrating": 24987, "temples": 8436, "stalking": 20070, "drastically": 21040, "marylebone": 28537, "##lom": 21297, "waits": 18074, "##ifolia": 29244, "\u897f": 1947, "initially": 3322, "\u110c": 1464, "appointment": 6098, "unesco": 12239, "##iter": 21646, "history": 2381, "des": 4078, "prostitute": 19215, "satisfy": 13225, "byrne": 14928, "##olin": 18861, "ceasefire": 26277, "joseph": 3312, "##ook": 14659, "##ress": 8303, "##ju": 9103, "expansive": 25145, "\u00b1": 1081, "runoff": 19550, "reluctant": 11542, "1873": 7612, "habit": 10427, "1974": 3326, "##fus": 25608, "diagrams": 26309, "evergreen": 16899, "sucker": 26476, "[unused233]": 238, "[unused985]": 990, "nationalities": 24904, "hunan": 27374, "premier": 4239, "cochin": 28982, "sideways": 12579, "salad": 16521, "muster": 20327, "##aus": 20559, "pontifical": 22362, "##oper": 25918, "##\u83ef": 30468, "encouragement": 15846, "henrietta": 20775, "racks": 27259, "[unused338]": 343, "angels": 7048, "##hs": 7898, "blade": 6085, "remarked": 10783, "##bat": 14479, "interception": 17385, "realized": 3651, "li": 5622, "vase": 18781, "danube": 16212, "##\u5c71": 30357, "delighted": 15936, "midtown": 27219, "motif": 16226, "pascal": 17878, "tasting": 18767, "hopping": 26397, "minority": 7162, "grasp": 10616, "sublime": 28341, "critical": 4187, "bunk": 25277, "biological": 6897, "greeting": 14806, "anthony": 4938, "##nent": 21576, "1870s": 14896, "le": 3393, "##ept": 23606, "##standing": 24911, "melee": 27868, "[unused177]": 182, "mace": 19382, "equivalence": 27841, "\u4e8b": 1751, "wasp": 19411, "##oll": 14511, "ubiquitous": 28498, "viva": 20022, "moines": 23286, "##mund": 25574, "berkshire": 15570, "##ast": 14083, "beginnings": 16508, "else": 2842, "ethiopian": 15101, "hindu": 7560, "wiped": 8342, "passion": 6896, "\u898b": 1948, "illustrate": 19141, "##\u0291": 29703, "[unused579]": 584, "ensuring": 12725, "rider": 7945, "punjabi": 17498, "bombed": 18897, "activists": 10134, "grandmaster": 27101, "##grave": 12830, "\u090f": 1314, "eye": 3239, "flyers": 16217, "fully": 3929, "continental": 6803, "[unused873]": 878, "smell": 5437, "babe": 11561, "performing": 4488, "harmonies": 28594, "piston": 16733, "injection": 13341, "azerbaijani": 18325, "hara": 18820, "paisley": 23321, "kat": 10645, "judgement": 16646, "seats": 4272, "[unused804]": 809, "chaplain": 14011, "mabel": 19486, "hispanic": 6696, "secondly": 16378, "thoroughbred": 18359, "configuration": 9563, "gundam": 26152, "management": 2968, "bless": 19994, "enjoyable": 22249, "wiener": 25072, "wisdom": 9866, "cigar": 19135, "vomit": 23251, "active": 3161, "celebrations": 12035, "violinist": 16609, "##cko": 19665, "##mma": 14760, "mla": 18619, "sharply": 9249, "nightly": 22390, "reformation": 13708, "assessment": 7667, "jerked": 8245, "piracy": 24386, "##\u0cbe": 29938, "territorial": 7894, "togo": 23588, "[unused704]": 709, "##ting": 3436, "competition": 2971, "eagles": 8125, "responsible": 3625, "opening": 3098, "coulter": 28293, "northbound": 20055, "posted": 6866, "sellers": 19041, "\u65b9": 1863, "##gent": 11461, "familiar": 5220, "decreases": 17913, "apology": 12480, "fix": 8081, "pathway": 12732, "palette": 27396, "\u1d47": 1497, "bogota": 21240, "programs": 3454, "sons": 4124, "upstate": 29530, "##asi": 21369, "postage": 22981, "##vant": 18941, "cramer": 29433, "hahn": 24266, "1834": 10700, "floating": 8274, "titans": 13785, "armistice": 19125, "schoolhouse": 26301, "partnering": 27001, "##oric": 29180, "free": 2489, "[unused625]": 630, "ito": 23333, "sacked": 14159, "fares": 27092, "##\u30ec": 30260, "eddie": 5752, "##\u0438\u0438": 15414, "indicators": 20390, "spin": 6714, "ireland": 3163, "raise": 5333, "privileges": 14310, "choral": 14564, "rotating": 13618, "above": 2682, "medal": 3101, "chicks": 20649, "##nem": 25832, "douglass": 27485, "aqua": 28319, "penguin": 13987, "##phic": 17926, "[unused847]": 852, "exquisite": 19401, "decorate": 29460, "burton": 9658, "1896": 6306, "binding": 8031, "consideration": 9584, "coffin": 13123, "epsilon": 28038, "##nte": 10111, "\u5fa1": 1847, "\u3093": 1691, "plato": 18858, "##\u0bb2": 29928, "pressed": 4508, "evenly": 18030, "baking": 21522, "1869": 7845, "enraged": 18835, "owing": 11427, "barangay": 20937, "anna": 4698, "labels": 10873, "devoid": 22808, "cornelius": 17354, "decidedly": 27873, "guinness": 17323, "objected": 15959, "assault": 6101, "improvised": 19641, "careless": 23358, "raju": 25098, "belgarath": 21256, "##isman": 20257, "480": 17295, "geology": 13404, "climax": 14463, "1909": 5556, "strawberry": 16876, "store": 3573, "phosphorus": 25473, "##\u6c35": 30420, "visits": 7879, "[unused63]": 64, "converting": 16401, "flirting": 20661, "musee": 18070, "reduces": 13416, "aerospace": 13395, "statement": 4861, "\u05d0": 1241, "hamlets": 21631, "given": 2445, "unopposed": 17123, "uae": 17641, "progressing": 27673, "friendships": 28956, "##ardo": 24649, "[unused13]": 14, "insanity": 19272, "##ados": 28118, "##nail": 25464, "star": 2732, "pendleton": 24349, "coral": 11034, "\u0b9a": 1383, "fearing": 14892, "rogers": 7369, "\u304a": 1650, "monstrous": 21668, "##llen": 12179, "##zes": 11254, "meantime": 12507, "packard": 24100, "flame": 8457, "buddha": 11903, "hiroshi": 26882, "gwen": 11697, "complement": 13711, "paddle": 20890, "cinematography": 16434, "##\u3051": 30180, "selecting": 17739, "geologist": 21334, "transitions": 22166, "author": 3166, "wax": 13844, "##ier": 3771, "fields": 4249, "observed": 5159, "today": 2651, "##\u06cc": 24830, "iii": 3523, "proclaimed": 10116, "[unused75]": 76, "121": 12606, "pac": 14397, "##inking": 29377, "trust": 3404, "remote": 6556, "##vis": 11365, "##stick": 21354, "sensor": 13617, "vacated": 15348, "dominant": 7444, "hen": 21863, "alexa": 24969, "consonant": 18265, "flowing": 8577, "base": 2918, "disrupt": 23217, "abdomen": 13878, "qualifying": 6042, "##vere": 28943, "##\u300c": 30167, "tangible": 24600, "stabilized": 27697, "\u0930": 1333, "wang": 7418, "begun": 5625, "theatres": 13166, "##late": 13806, "johnny": 5206, "\u10d4": 1442, "fleming": 13779, "##\u00f8y": 27688, "ashes": 11289, "lowe": 14086, "dissolution": 12275, "ed": 3968, "##nam": 13129, "##\u30e0": 30251, "made": 2081, "fought": 4061, "estimated": 4358, "##mm": 7382, "superiors": 22983, "emigration": 20387, "anatomical": 28141, "rushed": 6760, "sleepy": 17056, "surprises": 20096, "berlin": 4068, "sheltered": 18304, "francesco": 11400, "poetic": 13805, "mass": 3742, "railing": 15747, "steelers": 15280, "tehran": 13503, "##ert": 8743, "baltic": 11275, "disciple": 17849, "chatting": 22331, "##hman": 13890, "coaching": 7748, "results": 3463, "counted": 8897, "emperor": 3750, "\u9577": 1967, "solids": 26778, "##\u9580": 30494, "danny": 6266, "##ond": 15422, "everyone": 3071, "contacts": 10402, "nuns": 16752, "churning": 26765, "manners": 14632, "##marine": 21966, "salsa": 26509, "##gf": 25708, "##iving": 14966, "gall": 26033, "152": 15017, "atari": 18978, "wept": 24966, "##met": 11368, "prized": 25695, "\u30cf": 1718, "substitutes": 29200, "isaiah": 18850, "[unused386]": 391, "[unused126]": 131, "chambers": 8477, "masonry": 18103, "##hey": 14844, "subcommittee": 18052, "##cco": 21408, "silk": 6953, "guerra": 24698, "macy": 20914, "dominated": 6817, "cote": 17155, "##sei": 20240, "hose": 21290, "involve": 9125, "##ulum": 25100, "##\u203f": 30069, "argument": 6685, "sabbath": 19546, "##drome": 29171, "tricks": 12225, "kamal": 21911, "improved": 5301, "plunged": 16687, "##gold": 21270, "regulators": 25644, "darkness": 4768, "interiors": 20769, "oversees": 22558, "luna": 12909, "muttered": 6250, "productions": 5453, "umar": 27981, "[unused445]": 450, "equivalent": 5662, "enjoys": 15646, "##slin": 22908, "##\u2095": 30093, "thugs": 24106, "taken": 2579, "transports": 19003, "slack": 19840, "##ked": 8126, "victor": 5125, "klein": 12555, "talent": 5848, "##voking": 22776, "1874": 7586, "lump": 15116, "[unused316]": 321, "gabe": 12900, "collaborating": 20295, "un": 4895, "##fort": 13028, "##scope": 26127, "##ising": 9355, "1609": 28058, "humming": 20364, "terrifying": 17082, "1661": 24046, "max": 4098, "sheep": 8351, "310": 17196, "lund": 21860, "##ssed": 29417, "[unused176]": 181, "exploration": 8993, "##kney": 26993, "lime": 14123, "escorted": 13127, "scientist": 7155, "brewer": 18710, "plastic": 6081, "trois": 25527, "substances": 13978, "identical": 7235, "martins": 19953, "brackets": 19719, "punta": 27377, "boredom": 29556, "greyhound": 21220, "intended": 3832, "canadian": 3010, "##nging": 22373, "hardin": 27522, "excessive": 11664, "sinister": 16491, "albanian": 9408, "dot": 11089, "prelate": 26595, "recommendations": 11433, "##biology": 21685, "lobbying": 19670, "##\u0645": 22192, "[unused567]": 572, "horace": 12757, "[unused580]": 585, "camp": 3409, "horrific": 23512, "[unused636]": 641, "pocket": 4979, "nervously": 12531, "2001": 2541, "roller": 11220, "pertaining": 20246, "cemeteries": 20973, "throbbed": 27714, "hooks": 18008, "liaison": 14975, "varsity": 11710, "beatrice": 14807, "lyricist": 19489, "astonishing": 26137, "##hma": 22444, "##\u2077": 30076, "\u0bbe": 1395, "portico": 23104, "chopin": 25479, "1882": 7131, "##harat": 28074, "fortunately": 14599, "leaked": 15748, "tuesday": 9857, "##\u02c8": 29715, "##zia": 12871, "spread": 3659, "southeastern": 8252, "[unused426]": 431, "military": 2510, "adverse": 15316, "tc": 22975, "##tized": 23355, "##national": 25434, "##\u5834": 30332, "pseudonym": 13881, "firms": 9786, "##nta": 12380, "hoped": 5113, "fury": 8111, "hovered": 18190, "graduation": 7665, "shropshire": 19322, "[unused982]": 987, "backseat": 19978, "microscopic": 26396, "helmets": 22674, "leaving": 2975, "uninhabited": 24749, "##oca": 24755, "firstly": 15847, "##aud": 19513, "clinical": 6612, "google": 8224, "concentrated": 8279, "crawford": 10554, "career": 2476, "mauritius": 18004, "clocks": 20940, "within": 2306, "outstretched": 21059, "##\u4ec1": 30284, "omega": 14827, "checkpoint": 26520, "##pment": 24073, "planes": 9738, "nationally": 9582, "slams": 25967, "eighties": 27690, "bats": 12236, "[unused46]": 47, "##ing": 2075, "responses": 10960, "3a": 23842, "rubbish": 29132, "democracy": 7072, "##hill": 7100, "signing": 6608, "profile": 6337, "leah": 14188, "flooding": 9451, "crowns": 24364, "simple": 3722, "hug": 8549, "##opsis": 22599, "residents": 3901, "excellent": 6581, "##\u06d2": 29846, "iso": 11163, "complete": 3143, "sorrow": 14038, "##ssen": 14416, "##iest": 10458, "ir": 20868, "##hi": 4048, "optimization": 20600, "cultures": 8578, "awful": 9643, "invalid": 19528, "toned": 27604, "graeme": 21840, "##rissa": 26571, "poll": 8554, "ck": 23616, "##pol": 18155, "grin": 5861, "rushing": 8375, "gift": 5592, "sob": 17540, "forceful": 28552, "satire": 18312, "surge": 12058, "protectorate": 20394, "##tase": 18260, "compiled": 9227, "lough": 29504, "nectar": 24816, "remixes": 15193, "impressions": 19221, "appleton": 26050, "lied": 9828, "commits": 27791, "localities": 19664, "bodyguards": 25681, "##\u2020": 30061, "length": 3091, "stroll": 27244, "ked": 16135, "rotherham": 27456, "tong": 15740, "oil": 3514, "limerick": 15679, "staffordshire": 17052, "interfaces": 19706, "diana": 8805, "cited": 6563, "nacional": 10718, "carver": 20163, "scripted": 22892, "##ometric": 28993, "slip": 7540, "graffiti": 17990, "rub": 14548, "change": 2689, "mata": 22640, "saturn": 14784, "##uni": 19496, "gatherings": 21403, "##kley": 22315, "\u9752": 1975, "von": 3854, "##ection": 18491, "##cheon": 28099, "bet": 6655, "bladed": 27402, "##\u014b": 29673, "ruined": 9868, "coronation": 12773, "1889": 6478, "epstein": 26646, "conrad": 10931, "laurent": 14718, "pont": 21179, "[unused181]": 186, "slips": 17433, "sire": 15785, "wealthiest": 27809, "repairing": 26296, "ten": 2702, "##fine": 23460, "unfolded": 23959, "dismiss": 19776, "technically": 10892, "elm": 17709, "bytes": 27507, "dates": 5246, "closely": 4876, "xp": 26726, "separately": 10329, "[unused103]": 108, "super": 3565, "modes": 11583, "especially": 2926, "##illo": 10486, "mackenzie": 11407, "seasonal": 12348, "stitch": 26035, "briggs": 15487, "ignoring": 9217, "explored": 10641, "soon": 2574, "galleries": 11726, "1998": 2687, "haley": 16624, "co": 2522, "1742": 25704, "interested": 4699, "sediment": 19671, "departmental": 28912, "focus": 3579, "downstream": 13248, "\u30f3": 1737, "rodeo": 18936, "commands": 10954, "##orro": 29459, "relative": 5816, "rowan": 14596, "##anger": 25121, "bromwich": 27888, "##base": 15058, "##ople": 27469, "medicines": 20233, "cuts": 7659, "ono": 21058, "yer": 20416, "625": 22810, "cultural": 3451, "descent": 6934, "##able": 3085, "yorker": 19095, "pouch": 21445, "hesitate": 16390, "scowled": 17474, "matter": 3043, "##tea": 27058, "cabin": 6644, "project": 2622, "whirled": 17097, "bonnet": 24367, "occasions": 6642, "##\u091a": 29854, "##isse": 23491, "decide": 5630, "thinkers": 24762, "comprising": 9605, "afterlife": 25115, "domestically": 27143, "agra": 29542, "artemis": 19063, "totals": 21948, "rebecca": 9423, "lac": 18749, "##mony": 22847, "musically": 21385, "situated": 4350, "deaths": 6677, "jewels": 15565, "animator": 25132, "sensory": 16792, "nagar": 16395, "tajikistan": 23538, "cleaned": 12176, "##arian": 12199, "##hm": 14227, "##erie": 17378, "##ika": 7556, "armory": 24139, "antagonist": 17379, "knocked": 6573, "hungarians": 24027, "[unused44]": 45, "suburb": 7575, "factory": 4713, "gloss": 27068, "stella": 11894, "##akh": 27573, "emergency": 5057, "##ality": 23732, "##shot": 19040, "chang": 11132, "##amen": 27245, "described": 2649, "substance": 9415, "512": 24406, "reassuring": 21093, "##yp": 22571, "\u0e15": 1411, "tropical": 5133, "romance": 7472, "castes": 26254, "characteristics": 6459, "counts": 9294, "explosives": 14792, "hormone": 18714, "friendly": 5379, "rally": 8320, "sweetheart": 12074, "##mbre": 19908, "furlongs": 26602, "rbis": 23583, "##\u0111": 29671, "broadcast": 3743, "arrondissement": 20522, "entire": 2972, "disturbance": 16915, "icao": 18055, "commune": 5715, "##pool": 16869, "centers": 6401, "pistols": 18248, "##39": 23499, "\u30ce": 1717, "pigeons": 27567, "ewing": 24023, "##\u5b97": 30347, "affirmative": 27352, "marrying": 13516, "states": 2163, "##market": 20285, "virgil": 17270, "reactors": 22223, "poses": 22382, "creditors": 23112, "pledge": 16393, "morrow": 19084, "chests": 28717, "premiere": 6765, "lot": 2843, "3d": 7605, "worries": 15508, "##gart": 27378, "current": 2783, "shortlisted": 21353, "rebellious": 22614, "plc": 15492, "maintaining": 8498, "[unused360]": 365, "mathew": 25436, "##zos": 28370, "forms": 3596, "rockies": 22366, "respective": 7972, "boulder": 13264, "##care": 16302, "disturb": 22995, "##rts": 21217, "stunts": 28465, "rutland": 27780, "##if": 10128, "badger": 24186, "kept": 2921, "survives": 13655, "minds": 9273, "observe": 11949, "##enko": 17868, "junior": 3502, "league": 2223, "clown": 15912, "acknowledges": 28049, "amateur": 5515, "latvian": 14698, "\u6c0f": 1891, "@": 1030, "##elt": 20042, "tomorrow": 4826, "dyed": 28432, "whatsoever": 18971, "asks": 5176, "acquainted": 19056, "gage": 10012, "floppy": 28491, "bart": 12075, "daggers": 24210, "##cards": 17965, "174": 19492, "bangs": 28490, "lizzie": 15860, "##shan": 9688, "reasonable": 9608, "[unused912]": 917, "feels": 5683, "\u30df": 1724, "##case": 18382, "hallmark": 25812, "nitrogen": 14114, "partial": 7704, "furthermore": 7297, "\u0637": 1286, "millions": 8817, "##oma": 9626, "\u116e": 1478, "hz": 22100, "commemorates": 25530, "glaciers": 21193, "##vino": 26531, "300": 3998, "230": 11816, "\u00d7": 1095, "##\u30c1": 30236, "waved": 7147, "##tc": 13535, "##sters": 15608, "madly": 29179, "eco": 17338, "hurting": 11878, "papyrus": 29575, "\u0996": 1354, "map": 4949, "norse": 15342, "village": 2352, "\u062b": 1274, "flank": 12205, "antenna": 13438, "consul": 11801, "##rao": 25667, "[unused903]": 908, "[unused658]": 663, "ds": 16233, "fitch": 26062, "weapons": 4255, "season": 2161, "76": 6146, "regarding": 4953, "mori": 22993, "largest": 2922, "hansen": 13328, "darkest": 23036, "dimitri": 15953, "spoiled": 19582, "##\u1d65": 30045, "[unused157]": 162, "enrolled": 8302, "bug": 11829, "adolph": 28564, "##rce": 19170, "dwarfs": 28984, "demonic": 23170, "##zed": 5422, "##kari": 20224, "chamber": 4574, "peptide": 25117, "##be": 4783, "em": 7861, "breeze": 9478, "fists": 10006, "alternatively": 14084, "purdue": 19749, "sundance": 20140, "exhausted": 9069, "pregnant": 6875, "breaths": 12938, "hodgson": 26107, "##riated": 25475, "options": 7047, "skopje": 29255, "locke": 18343, "\u10d8": 1445, "bishopric": 20664, "wilmington": 17025, "kayla": 26491, "youtube": 7858, "bids": 20723, "[CLS]": 101, "##kou": 24861, "70th": 26934, "collaborators": 21315, "[unused274]": 279, "shares": 6661, "judged": 13224, "printers": 23557, "eighteenth": 12965, "##dry": 21190, "[unused150]": 155, "founders": 8759, "horde": 21038, "pillows": 17860, "intentional": 21249, "af": 21358, "elevated": 8319, "amendment": 7450, "##rated": 9250, "congratulations": 23156, "##brick": 25646, "bilbao": 25427, "[unused975]": 980, "##tral": 21493, "fabrication": 25884, "belly": 7579, "disappeared": 5419, "##egan": 20307, "fall": 2991, "##iba": 18410, "magazine": 2932, "claimed": 3555, "projections": 21796, "##nation": 9323, "volvo": 21074, "thereof": 21739, "sprint": 9043, "cyclones": 26069, "penned": 17430, "[unused670]": 675, "##xes": 20156, "unique": 4310, "##ssing": 18965, "reprised": 22598, "portuguese": 5077, "goldberg": 18522, "partly": 6576, "advancing": 10787, "cu": 12731, "internacional": 27607, "frigate": 15437, "wanda": 20848, "stupid": 5236, "sulfate": 26754, "any": 2151, "[unused162]": 167, "near": 2379, "[unused859]": 864, "honorable": 13556, "minerva": 27383, "parting": 20254, "university": 2118, "##ico": 11261, "##nds": 18376, "muscles": 6650, "likes": 7777, "darker": 9904, "214": 19936, "##sphere": 23874, "66": 5764, "[unused384]": 389, "##hore": 16892, "yugoslav": 12292, "edmond": 21773, "entities": 11422, "cf": 12935, "hearted": 18627, "priesthood": 17911, "tobago": 17247, "isaac": 7527, "applause": 20737, "bwf": 21215, "downstairs": 10025, "notification": 26828, "yoga": 13272, "[unused781]": 786, "##\u30a4": 30221, "##ness": 2791, "crews": 10604, "bolivian": 26075, "jeff": 5076, "[unused204]": 209, "autumn": 7114, "sales": 4341, "paralympic": 17029, "crimes": 6997, "consists": 3774, "stronghold": 16995, "tug": 12888, "\u057d": 1234, "cairns": 21731, "cretaceous": 18122, "##fted": 18915, "ox": 23060, "unpopular": 19657, "sudbury": 26487, "instability": 18549, "suit": 4848, "wrong": 3308, "elements": 3787, "deemed": 8357, "##erative": 25284, "mighty": 10478, "karen": 8129, "messengers": 28938, "collaborator": 18843, "##krishna": 23017, "335": 24426, "nearing": 23454, "malawi": 18137, "shallow": 8467, "##master": 8706, "marquess": 17391, "##ators": 18926, "##uria": 27703, "outlined": 14801, "maintains": 9319, "baronet": 8693, "48": 4466, "mushrooms": 23827, "decreed": 28447, "pinched": 18521, "##chenko": 25872, "performances": 4616, "patrol": 6477, "gorgeous": 9882, "controller": 11486, "flashlight": 15257, "97": 5989, "illumination": 21203, "##ingly": 15787, "contest": 5049, "rowe": 20538, "azerbaijan": 8365, "ultimately": 4821, "##olo": 12898, "discontent": 27648, "cups": 10268, "rifle": 5883, "zimmerman": 27946, "##enbach": 21409, "savanna": 22323, "walton": 14290, "##js": 22578, "guggenheim": 20402, "devils": 13664, "clips": 15281, "afar": 28978, "hanover": 14393, "##utive": 28546, "depth": 5995, "##\u062d": 29820, "torso": 15190, "killers": 15978, "##64": 21084, "initiation": 17890, "subspecies": 11056, "they": 2027, "gregg": 18281, "miguel": 8374, "ninja": 14104, "croatian": 7963, "afternoons": 24738, "inmates": 13187, "debut": 2834, "##ctric": 22601, "fowler": 14990, "batman": 8942, "##\u5e73": 30365, "##\u0baf": 29926, "stamford": 22469, "westbound": 24717, "holiness": 27692, "which": 2029, "buckle": 22853, "clinton": 7207, "healing": 8907, "##ur": 3126, "lea": 12203, "diverted": 18356, "momentarily": 16032, "[unused744]": 749, "##tion": 3508, "experiencing": 13417, "liege": 17766, "undertaking": 18457, "contrasts": 23347, "gangs": 18542, "##gs": 5620, "donate": 21357, "launcher": 22742, "bengali": 11267, "##ajan": 28869, "legends": 9489, "working": 2551, "proceeding": 18207, "deterioration": 26118, "province": 2874, "employ": 12666, "176": 18561, "safely": 9689, "dice": 18740, "1612": 29186, "tongue": 4416, "forster": 21316, "pak": 22190, "tens": 15295, "thor": 15321, "##\u3088": 30210, "##phila": 26083, "##ela": 10581, "##ssel": 21218, "picket": 28972, "engagements": 20583, "toys": 10899, "1809": 12861, "fading": 14059, "##iidae": 15648, "slovakia": 10991, "rankin": 25772, "wolverine": 22162, "predictions": 20932, "cree": 27831, "cricketer": 9490, "\u3088": 1684, "disaster": 7071, "ness": 23384, "pip": 28315, "[unused576]": 581, "ui": 21318, "##poulos": 24662, "woo": 15854, "bathurst": 21897, "1895": 6301, "imp": 17727, "locals": 10575, "idiot": 10041, "intact": 10109, "illuminating": 27816, "simulator": 25837, "losers": 23160, "##cera": 19357, "##rano": 20770, "salon": 11090, "[unused566]": 571, "alto": 10766, "##eman": 16704, "tumor": 13656, "mobilization": 25580, "1782": 16890, "##oning": 13369, "drinks": 8974, "roommate": 18328, "mana": 24951, "spun": 7455, "convictions": 20488, "tiffany": 14381, "##kim": 21138, "clade": 21697, "nape": 23634, "herald": 9536, "youths": 19634, "dire": 18704, "aside": 4998, "kaiser": 15676, "choosing": 10549, "conceal": 19819, "youngest": 6587, "necessary": 4072, "polk": 20819, "##raf": 27528, "finnish": 6983, "##num": 19172, "##rse": 22573, "\u4ecb": 1759, "masonic": 21152, "truths": 23019, "##opus": 24676, "facing": 5307, "##\u1161": 30006, "federation": 4657, "solidarity": 14657, "betty": 9306, "visible": 5710, "tissues": 14095, "##iji": 27821, "ago": 3283, "castles": 15618, "intensified": 15767, "orson": 25026, "rumbling": 26670, "fest": 17037, "primary": 3078, "##il": 4014, "attained": 12754, "dundee": 14252, "##iel": 9257, "barren": 20225, "respects": 17475, "north": 2167, "holding": 3173, "##sitor": 28307, "communists": 13009, "continuum": 22961, "flanking": 24958, "occur": 5258, "##otti": 21325, "coached": 8868, "paste": 19351, "surrender": 7806, "bluegrass": 21286, "judgments": 26186, "##use": 8557, "explosion": 7738, "formally": 6246, "1857": 8204, "##lk": 13687, "cruz": 8096, "nike": 18368, "imperative": 23934, "munro": 20923, "snakes": 12971, "attribute": 17961, "##\u03b7\u03c2": 29155, "awkward": 9596, "\u6c34": 1893, "rumor": 19075, "stores": 5324, "bribe": 26470, "##dicate": 16467, "protege": 28567, "creek": 3636, "asian": 4004, "affection": 12242, "digits": 16648, "vocational": 13099, "gigs": 20929, "##eak": 25508, "historically": 7145, "##duced": 28901, "day": 2154, "shriek": 24795, "zealand": 3414, "##bone": 14417, "specializes": 16997, "no": 2053, "marius": 20032, "##uttered": 23128, "##torium": 24390, "gibbs": 15659, "macbeth": 25182, "##vita": 28403, "tory": 17117, "jc": 29175, "hans": 7003, "##scoe": 28147, "inverted": 20037, "breathe": 7200, "doubled": 11515, "hypnotic": 28322, "enlist": 28845, "##acies": 20499, "tnt": 24048, "##lifting": 26644, "bodied": 22549, "dwight": 14304, "baritone": 14458, "milne": 24377, "##mberg": 29084, "alleged": 6884, "##ans": 6962, "alphabet": 12440, "theologian": 17200, "marriages": 12743, "convention": 4680, "tonnes": 11000, "\u0640": 1290, "violins": 25877, "concepcion": 27331, "vito": 25550, "sharif": 20351, "##47": 22610, "##cz": 27966, "mt": 11047, "entrusted": 18011, "donated": 6955, "founding": 4889, "##ores": 16610, "screwed": 14180, "mason": 6701, "circuits": 13782, "[unused271]": 276, "##shore": 19208, "spelling": 11379, "yacht": 12187, "eliminated": 5892, "payments": 10504, "honour": 6225, "mackay": 17090, "kuwait": 13085, "##uez": 29488, "monitor": 8080, "mechanisms": 10595, "##ign": 23773, "##esian": 25253, "beverly": 12218, "##ulata": 18060, "lancaster": 10237, "##aday": 28039, "anchored": 14453, "natalie": 10829, "shrewsbury": 18174, "[unused411]": 416, "musica": 21137, "gloucestershire": 15905, "[unused777]": 782, "vs": 5443, "##wana": 21761, "odi": 21045, "##holders": 17794, "panties": 12095, "trace": 7637, "clay": 5726, "decided": 2787, "##uls": 28426, "globally": 16452, "[unused652]": 657, "goran": 28356, "joints": 17651, "obscene": 27744, "\u30af": 1702, "##flies": 24019, "\u2077": 1541, "screamed": 7210, "##verance": 21998, "##ga": 3654, "##gren": 13565, "opponents": 7892, "taller": 12283, "entertainment": 4024, "ache": 12336, "ceylon": 16447, "botswana": 19414, "duel": 14216, "##\u0dc0": 29943, "[unused359]": 364, "regents": 22832, "1770": 17711, "senegal": 16028, "##eres": 18702, "cher": 24188, "ti": 14841, "valve": 10764, "[unused334]": 339, "visa": 9425, "##ibly": 17296, "\u98a8": 1977, "diva": 25992, "divinity": 16968, "gills": 29468, "sequel": 8297, "\u0964": 1344, "##ifiers": 28295, "revolution": 4329, "shear": 18330, "neatly": 15981, "goes": 3632, "hazards": 22010, "smelled": 9557, "shells": 10986, "confessed": 14312, "##leaf": 19213, "##vish": 24968, "poor": 3532, "pattern": 5418, "cho": 16480, "again": 2153, "fielded": 20988, "publish": 10172, "##\u0bc1": 29933, "70": 3963, "persecution": 14522, "##rat": 8609, "offended": 15807, "manufacturers": 8712, "echoed": 10187, "flanks": 23547, "cones": 23825, "##9th": 25660, "##biotic": 26591, "enclave": 25867, "imported": 10964, "cares": 14977, "##stadt": 21543, "joey": 9558, "wanna": 10587, "##\u207b": 30079, "territory": 3700, "##itaire": 29422, "emory": 25853, "maguire": 26196, "##enne": 24336, "investigator": 14064, "stabilize": 27790, "##\u05da": 29797, "gamer": 27911, "mikhail": 11318, "antibiotics": 24479, "missionary": 8696, "bounty": 17284, "revolutionary": 6208, "kenneth": 8856, "gastropod": 10953, "emails": 22028, "##\u110e": 30001, "poverty": 5635, "[unused591]": 596, "ebert": 22660, "special": 2569, "[unused135]": 140, "myra": 23020, "doha": 26528, "conspiracy": 9714, "deed": 15046, "[unused707]": 712, "nina": 9401, "isabelle": 13942, "apprentice": 13357, "crafted": 19275, "bathroom": 5723, "goodbye": 9119, "folks": 12455, "wiggled": 26750, "##ind": 22254, "prophets": 23172, "##vac": 24887, "press": 2811, "fulfill": 13883, "##\u0142a": 22972, "##stead": 25647, "baroque": 10456, "supermarkets": 26676, "##rgh": 27172, "carleton": 22273, "go": 2175, "carolyn": 15611, "done": 2589, "[unused746]": 751, "##writer": 15994, "wink": 16837, "manufactured": 7609, "amounted": 18779, "finer": 26954, "celtics": 23279, "computing": 9798, "\u0433": 1183, "ba": 8670, "##monium": 26387, "1949": 4085, "ll": 2222, "\u0baf": 1390, "drilling": 15827, "hailed": 16586, "exchequer": 28889, "essential": 6827, "consolidated": 10495, "dod": 26489, "calderon": 28129, "citizens": 4480, "nippon": 19364, "anarchy": 26395, "karim": 25461, "wider": 7289, "unemployed": 18787, "finland": 6435, "l": 1048, "cooled": 12981, "fiance": 19154, "workshop": 8395, "condemn": 28887, "advocate": 8175, "isles": 14195, "scared": 6015, "1860": 7313, "fuse": 19976, "lap": 5001, "travis": 10001, "bus": 3902, "##tama": 28282, "timor": 19746, "[unused158]": 163, "spouse": 18591, "guerrero": 16938, "collaborate": 20880, "buenos": 9204, "karin": 24537, "##chus": 16194, "manny": 16320, "sax": 19656, "orphanage": 18504, "bungalow": 27563, "##vite": 25217, "morrison": 9959, "persona": 16115, "dyer": 23494, "1777": 16144, "reviews": 4391, "garlic": 20548, "##cina": 28748, "##fire": 10273, "ineffective": 20694, "##\u662d": 30394, "##\u1d43": 30032, "\u751f": 1910, "anglia": 24217, "##cki": 18009, "cuba": 7394, "##iers": 10136, "slick": 13554, "##an": 2319, "heats": 18559, "tulsa": 16631, "radiated": 23000, "proposes": 17146, "skate": 17260, "take": 2202, "minimal": 10124, "mechanics": 9760, "fumble": 19576, "balthazar": 25021, "\u30ed": 1735, "furry": 28662, "##\u5973": 30341, "vienna": 6004, "safer": 13726, "\u099c": 1358, "disappearance": 13406, "revelation": 11449, "harm": 7386, "weimar": 20695, "darts": 17493, "rochester": 10541, "practitioner": 18742, "##bius": 17028, "reminded": 6966, "digger": 28661, "modern": 2715, "respectively": 4414, "##ock": 7432, "prejudice": 18024, "##lars": 28695, "##wire": 20357, "\u09c0": 1380, "fulham": 21703, "##missible": 26770, "providers": 11670, "##chers": 21844, "metabolism": 18089, "##kki": 24103, "[unused188]": 193, "browne": 15005, "liszt": 26273, "developed": 2764, "sings": 10955, "england": 2563, "##oka": 12352, "cookie": 17387, "brain": 4167, "catching": 9105, "mistakes": 12051, "nottinghamshire": 20126, "islam": 7025, "redistribution": 25707, "spawning": 27957, "monkey": 10608, "eun": 26070, "mn": 24098, "##nan": 7229, "rigged": 25216, "fist": 7345, "powerplant": 19526, "encyclopedia": 12204, "##apes": 29040, "pumps": 15856, "gregorian": 25847, "##yla": 23943, "projectile": 25921, "lars": 16357, "archive": 8756, "redundant": 21707, "sudanese": 25603, "##cal": 9289, "conscious": 9715, "borg": 28709, "[unused319]": 324, "luke": 5355, "week": 2733, "##gged": 15567, "conclusions": 15306, "achievements": 10106, "##ri": 3089, "411": 27517, "loft": 19459, "users": 5198, "rage": 7385, "##bbe": 19473, "navigate": 22149, "\u1d49": 1499, "##fied": 10451, "interviews": 7636, "##logue": 24277, "##iot": 25185, "sundays": 14803, "saturated": 23489, "skye": 16590, "##\u028c": 29700, "cries": 12842, "highlighting": 20655, "lawson": 14577, "##\u826f": 30464, "hierarchy": 12571, "optimistic": 21931, "booming": 24716, "fei": 24664, "bond": 5416, "doomed": 20076, "dimly": 25361, "##ivity": 7730, "courthouse": 10816, "yates": 20356, "serves": 4240, "contribution": 6691, "shrine": 9571, "pakistani": 9889, "roche": 20162, "[unused113]": 118, "scream": 6978, "statue": 6231, "##\u0283": 29696, "##\u4eac": 30281, "nikola": 24794, "augsburg": 24362, "##ador": 26467, "mounting": 15986, "commencing": 25819, "lakers": 18264, "##gation": 12540, "##tance": 26897, "hannibal": 24181, "estranged": 24211, "wrists": 12150, "##dek": 24463, "denominations": 17384, "captives": 21496, "frances": 10360, "branded": 11180, "publicity": 11845, "majestic": 22337, "##\u6bd4": 30416, "inevitable": 13418, "neighbours": 14754, "trans": 9099, "europe": 2885, "hepburn": 22004, "creative": 5541, "##oven": 25592, "goodman": 14514, "injuring": 22736, "##rs": 2869, "schmidt": 12940, "legions": 23269, "swedish": 4467, "gentry": 20262, "homme": 26574, "dictated": 23826, "nhs": 17237, "prominent": 4069, "kick": 5926, "sega": 16562, "##\u043a": 23925, "stars": 3340, "punt": 18975, "mel": 11463, "tracker": 27080, "psychologist": 15034, "inhabitants": 4864, "claude": 8149, "crusade": 16282, "december": 2285, "00pm": 27995, "mortimer": 17416, "twin": 5519, "constitutional": 6543, "##hart": 10686, "quiet": 4251, "needles": 17044, "##lde": 17920, "1707": 25029, "improvisation": 24584, "unchanged": 15704, "scents": 29254, "column": 5930, "motel": 14901, "released": 2207, "dull": 10634, "quentin": 15969, "##\u043a\u0430": 28598, "tim": 5199, "##av": 11431, "whether": 3251, "phonetic": 26664, "##user": 20330, "patti": 22732, "federer": 28294, "grumbled": 17030, "perspectives": 15251, "alloys": 28655, "##\u2295": 30139, "filling": 8110, "delays": 14350, "all": 2035, "genevieve": 20245, "denise": 15339, "##bra": 10024, "rehabilitation": 11252, "##khov": 25495, "##ulio": 24825, "talmud": 24380, "nodding": 11863, "writer": 3213, "pursuit": 8463, "williamsburg": 26366, "1840": 8905, "windsor": 10064, "soviets": 15269, "oven": 17428, "musa": 23154, "stolen": 7376, "usa": 3915, "prep": 17463, "denny": 14465, "distances": 12103, "publishing": 4640, "scanned": 11728, "\u30e0": 1725, "progresses": 22901, "favour": 7927, "##ducted": 29510, "[unused508]": 513, "lingered": 17645, "branches": 5628, "subdivisions": 22095, "##\u6ca2": 30424, "gasps": 23813, "extinguished": 27705, "##hed": 9072, "piles": 18526, "rational": 11581, "independence": 4336, "subcontinent": 26125, "recall": 9131, "crawling": 15927, "occupied": 4548, "verve": 29230, "\u0985": 1347, "linguist": 22978, "fitted": 7130, "pumped": 16486, "chilling": 27017, "##pressed": 19811, "horror": 5469, "godfather": 23834, "choose": 5454, "tire": 12824, "2005": 2384, "##ouse": 15441, "combinations": 14930, "weakly": 17541, "concerning": 7175, "shiver": 13277, "##holding": 23410, "maison": 26420, "aware": 5204, "logs": 15664, "truss": 24224, "escorts": 24877, "##\u03c7": 29737, "##hend": 22342, "##\u2076": 30075, "warrington": 23051, "varieties": 9903, "##irs": 18894, "##\u674e": 30403, "amy": 6864, "attributed": 7108, "##nr": 16118, "disperse": 28736, "##ulia": 20922, "forested": 15205, "ride": 4536, "creeping": 18266, "##dor": 7983, "smiling": 5629, "perspective": 7339, "##\u308a": 30212, "ottawa": 8166, "earl": 4656, "descended": 9287, "cuban": 9642, "greenville": 20967, "request": 5227, "tank": 4951, "##rem": 28578, "bella": 12101, "mp": 6131, "snowfall": 26043, "search": 3945, "containing": 4820, "##ef": 12879, "##vier": 14356, "violet": 8766, "feeder": 21429, "##\u05df": 29802, "proposition": 14848, "amanda": 8282, "passes": 5235, "michigan": 4174, "##physical": 23302, "composers": 9929, "exam": 11360, "differences": 5966, "[unused317]": 322, "forts": 15421, "\u702c": 1905, "##rily": 11272, "[unused382]": 387, "##ase": 11022, "hypothetical": 25613, "##\u706b": 30432, "margaret": 5545, "allison": 10786, "enchanted": 22454, "maps": 7341, "##ito": 9956, "disturbed": 12491, "underside": 17313, "levant": 24485, "objection": 22224, "authority": 3691, "credited": 5827, "stylistic": 24828, "including": 2164, "wearing": 4147, "266": 25162, "elderly": 9750, "vernon": 11447, "capable": 5214, "tolerant": 23691, "preview": 19236, "eliot": 16292, "sermons": 20855, "arabic": 5640, "mala": 28935, "pact": 14790, "hospitality": 15961, "visuals": 26749, "\u2265": 1609, "rebel": 8443, "##\u09aa": 29903, "doctoral": 11316, "lavender": 20920, "front": 2392, "##wine": 21924, "prop": 17678, "recounts": 23412, "anhalt": 27088, "appealed": 12068, "chan": 9212, "assent": 27195, "shot": 2915, "persuaded": 11766, "cuff": 26450, "##sam": 21559, "bray": 19743, "##dio": 20617, "##ona": 7856, "thankfully": 16047, "##ple": 10814, "boycott": 17757, "fortification": 23050, "chatter": 24691, "beech": 21760, "##\u0433": 29741, "concord": 16557, "band": 2316, "classic": 4438, "bisexual": 22437, "##tech": 15007, "##ao": 7113, "\u5ddd": 1835, "viaduct": 20596, "noises": 14950, "\u0cb0": 1401, "branching": 23346, "apply": 6611, "##chio": 23584, "cavity": 17790, "[unused726]": 731, "##uchi": 15217, "jamaican": 17851, "willingly": 18110, "##lles": 20434, "##borg": 11755, "##out": 5833, "\u03bd": 1167, "[unused269]": 274, "bouquet": 26700, "duluth": 28218, "750": 9683, "catalonia": 16711, "##vi": 5737, "repealed": 21492, "##\u2500": 30142, "release": 2713, "swept": 7260, "bourne": 15803, "flight": 3462, "##\u110a": 29998, "jaguar": 16490, "handball": 12378, "]": 1033, "##pia": 19312, "\u09b7": 1375, "reformer": 24767, "ropes": 14607, "##witz": 15362, "asking": 4851, "##osity": 25949, "83": 6640, "##anial": 27532, "fast": 3435, "realizing": 9301, "patriarch": 12626, "sullivan": 7624, "robson": 23698, "innate": 25605, "[unused138]": 143, "\u0448": 1203, "everett": 15160, "weary": 16040, "rising": 4803, "##ease": 19500, "##\u5c1a": 30356, "vortex": 23463, "13th": 6122, "granted": 4379, "markus": 23030, "abdominal": 21419, "nutrient": 26780, "19th": 3708, "thirds": 12263, "baskets": 25946, "tanker": 20135, "hapoel": 24208, "##izing": 6026, "reference": 4431, "gardener": 19785, "sniffed": 18013, "pole": 6536, "\u0e01": 1409, "months": 2706, "alf": 24493, "algebraic": 17390, "##inton": 27028, "marine": 3884, "1754": 22593, "[unused232]": 237, "burrows": 22009, "rubbing": 10137, "##stor": 23809, "emblem": 16199, "cong": 26478, "[unused218]": 223, "##ffen": 18032, "##ko": 3683, "severed": 16574, "fled": 6783, "sr": 5034, "caller": 20587, "##kei": 29501, "lyrical": 16376, "[unused590]": 595, "crore": 21665, "guthrie": 19952, "bases": 7888, "##saurus": 22244, "began": 2211, "furnace": 17533, "comprises": 8681, "1779": 17616, "ulrich": 19619, "insulation": 25710, "[unused96]": 97, "ruth": 7920, "log": 8833, "gallons": 18501, "elector": 20374, "\u4f0a": 1762, "views": 5328, "##tec": 26557, "exemplified": 28593, "crawley": 28854, "islamic": 5499, "grabs": 13273, "##\u0452": 29758, "feeding": 8521, "sour": 14768, "##hos": 15006, "##45": 19961, "transfer": 4651, "##ife": 29323, "tis": 22320, "##tte": 4674, "subsequently": 3525, "bryant": 12471, "fife": 20537, "1927": 4764, "fourier": 26899, "haunting": 20161, "regatta": 26848, "daniel": 3817, "cerro": 25498, "[unused687]": 692, "102": 9402, "carrot": 25659, "salim": 27490, "\u306e": 1671, "bentley": 15988, "##yal": 21095, "##zak": 20685, "requires": 5942, "barrier": 8803, "unusual": 5866, "##iti": 25090, "cappella": 23013, "triple": 6420, "robbie": 12289, "1540": 27536, "doctors": 7435, "##ern": 11795, "condom": 20910, "believe": 2903, "[unused637]": 642, "ramon": 12716, "zinc": 15813, "counterpart": 13637, "[unused296]": 301, "##md": 26876, "healy": 25706, "##mmer": 15810, "slipping": 11426, "##ree": 9910, "crystalline": 24628, "##eve": 18697, "rushes": 18545, "##most": 11800, "moths": 14885, "cared": 8725, "##iciencies": 28227, "suburbs": 9435, "kidnap": 22590, "sides": 3903, "##\u1162": 30007, "endured": 16753, "\u0635": 1284, "[unused597]": 602, "approval": 6226, "rover": 13631, "probable": 15596, "caressing": 25296, "##\u0baa": 29924, "spirits": 8633, "37th": 23027, "##zog": 28505, "##ama": 8067, "##jic": 25008, "##\u0f60": 29969, "juan": 5348, "loses": 12386, "polish": 3907, "framework": 7705, "clenching": 23970, "extras": 26279, "glazed": 19724, "effectiveness": 12353, "gain": 5114, "##olt": 27914, "promoter": 15543, "##crats": 23423, "marlins": 27055, "perpetrators": 27675, "##ax": 8528, "topography": 21535, "woven": 17374, "circulation": 9141, "blanket": 8768, "fees": 9883, "newfoundland": 11944, "juliet": 13707, "nawab": 26543, "citrus": 20418, "certificate": 8196, "plasma": 12123, "##worth": 5172, "shook": 3184, "[unused19]": 20, "juliana": 24157, "obtained": 4663, "requested": 7303, "eruption": 17259, "melody": 8531, "nbl": 28013, "hotter": 22302, "##yana": 16811, "dry": 4318, "firing": 7493, "campaign": 3049, "##foot": 13064, "forcefully": 23097, "jars": 25067, "\u30e3": 1728, "rudolph": 18466, "##wright": 26460, "grassroots": 23299, "heard": 2657, "anticipated": 11436, "christi": 21359, "unitary": 22127, "##uan": 13860, "##inn": 23111, "fordham": 27302, "neck": 3300, "axis": 8123, "##drik": 28730, "sober": 17358, "grown": 4961, "affected": 5360, "##rasia": 27839, "[unused589]": 594, "jerking": 22387, "borrowing": 23733, "pr": 10975, "earnest": 17300, "##valent": 24879, "seventeenth": 15425, "copy": 6100, "##jord": 24876, "ns": 24978, "mi": 2771, "##\u0574": 29776, "stall": 13498, "inwardly": 28710, "prostitution": 15016, "1917": 4585, "[unused944]": 949, "##ditional": 27064, "##\u0570": 29775, "organisms": 11767, "##lot": 10994, "step": 3357, "finishes": 12321, "##itis": 13706, "##\u03bf\u03c2": 15297, "restrictive": 25986, "##rial": 14482, "guru": 11972, "aquitaine": 24973, "##dner": 28001, "alexander": 3656, "mule": 20568, "##rys": 24769, "discussed": 6936, "##umb": 25438, "cruelty": 18186, "hilltop": 25566, "cab": 9298, "brien": 9848, "lou": 10223, "strains": 18859, "jennings": 14103, "jens": 25093, "joshua": 9122, "dominance": 13811, "beethoven": 15461, "conversion": 7584, "meant": 3214, "aim": 6614, "heroin": 19690, "\u0e27": 1419, "mastery": 26364, "foam": 17952, "uneasy": 15491, "420": 17442, "constraints": 14679, "carole": 24348, "deposition": 19806, "##bilis": 27965, "aiming": 13659, "prose": 12388, "emmy": 10096, "sinking": 10186, "touches": 12817, "1792": 13414, "scientists": 6529, "autopsy": 24534, "##nse": 12325, "##bain": 29148, "##gna": 16989, "##\u667a": 30395, "[unused67]": 68, "discourse": 15152, "##rge": 20800, "policy": 3343, "dementia": 28767, "\u1d4f": 1501, "snapping": 15790, "following": 2206, "naked": 6248, "ceremony": 5103, "writings": 7896, "[unused69]": 70, "1794": 13199, "pronounced": 8793, "liability": 14000, "battleships": 21327, "slang": 21435, "penetration": 20015, "##wu": 16050, "##\u1d30": 30028, "alabama": 6041, "mystery": 6547, "mendez": 28950, "##glia": 20011, "nassau": 14646, "cale": 21854, "\u79cb": 1929, "##nu": 11231, "[unused130]": 135, "written": 2517, "##itzer": 19253, "ganga": 28646, "##lium": 21816, "##anna": 25789, "##lative": 26255, "##54": 27009, "defamation": 27652, "##zquez": 22938, "##\u548c": 30322, "##rden": 18246, "evaluated": 16330, "grenade": 17038, "294": 28135, "gunn": 22079, "swami": 20087, "artifacts": 10471, "375": 18034, "prism": 26113, "scotland": 3885, "mat": 13523, "fences": 21549, "##note": 22074, "##nic": 8713, "##etz": 26327, "[unused478]": 483, "\u043b": 1190, "dame": 8214, "##tal": 9080, "##ressed": 16119, "avenues": 20859, "\u0917": 1317, "chancel": 16482, "villa": 6992, "wembley": 16538, "frazier": 26551, "##lib": 29521, "evangelist": 24036, "##oux": 28700, "##zong": 13150, "guarded": 13802, "##uded": 13936, "vietnamese": 9101, "prelude": 19508, "fai": 26208, "##\u10dd": 29986, "##eche": 27635, "cameron": 7232, "chet": 25157, "games": 2399, "renumbered": 27855, "orchestral": 13533, "##rst": 12096, "call": 2655, "subjective": 20714, "##\u0f63": 29971, "compounds": 10099, "laurence": 10883, "physical": 3558, "odd": 5976, "##cd": 19797, "##wang": 16600, "expenditures": 22697, "bakery": 18112, "macleod": 23075, "##oga": 18170, "occurs": 5158, "its": 2049, "seize": 15126, "smirked": 18775, "donaldson": 23164, "##dget": 24291, "regional": 3164, "tinted": 25577, "morally": 28980, "##\u0bae": 29925, "1961": 3777, "events": 2824, "drought": 14734, "glow": 8652, "work": 2147, "cornwall": 10387, "gutierrez": 20836, "atv": 29108, "[unused390]": 395, "cook": 5660, "##\u02e4": 29719, "showing": 4760, "linnaeus": 21610, "steamed": 21734, "##hiko": 22204, "##miento": 28883, "##gens": 21230, "##edging": 28002, "business": 2449, "disco": 12532, "\u0142": 1105, "product": 4031, "nietzsche": 28898, "michelangelo": 27701, "replace": 5672, "##\u043e\u0432": 19259, "[unused783]": 788, "advisers": 24205, "[unused836]": 841, "surgeons": 16804, "[unused958]": 963, "colombian": 13598, "v": 1058, "ninth": 6619, "oliver": 6291, "faber": 21720, "threatened": 5561, "enigma": 26757, "porter": 8716, "bandage": 24446, "trainer": 10365, "##\u221e": 30128, "##islav": 19834, "hilt": 21184, "flights": 7599, "treaties": 16013, "6": 1020, "path": 4130, "historic": 3181, "pan": 6090, "[unused699]": 704, "arsenal": 9433, "sanskrit": 11353, "respiratory": 16464, "nail": 13774, "hopeful": 17772, "official": 2880, "insisted": 7278, "connecting": 7176, "fine": 2986, "nearby": 3518, "php": 25718, "native": 3128, "rappers": 28257, "sonny": 13584, "##\u25aa": 30145, "voice": 2376, "retained": 6025, "weekend": 5353, "##oria": 11069, "winters": 12214, "ideas": 4784, "griffith": 14135, "shredded": 29022, "hornets": 24855, "arte": 16185, "cornered": 25878, "weir": 16658, "recommends": 26021, "brent": 12895, "resigned": 5295, "headmaster": 16296, "thinner": 23082, "wondering": 6603, "dressing": 11225, "##dilly": 28832, "##mal": 9067, "groups": 2967, "crisis": 5325, "security": 3036, "restless": 15035, "\u2192": 1585, "dug": 8655, "bragg": 23678, "##iente": 25099, "head": 2132, "bracing": 25919, "##aire": 14737, "watery": 28259, "mukherjee": 27040, "wasted": 13842, "##dah": 18417, "##bing": 10472, "borrowed": 11780, "unmistakable": 24219, "##ru": 6820, "##firm": 27972, "perceptions": 23271, "recruits": 15024, "housemates": 28152, "mountainous": 14897, "##cle": 14321, "screw": 11224, "sync": 26351, "opportunities": 6695, "##\u2075": 30074, "myth": 10661, "\u672c": 1876, "faithful": 11633, "mile": 3542, "confronts": 17628, "playful": 18378, "staggering": 26233, "##gist": 24063, "blows": 13783, "insult": 15301, "dubious": 22917, "giuseppe": 12574, "armored": 10612, "surrounded": 5129, "hawks": 12505, "##gned": 19225, "row": 5216, "mortals": 23844, "role": 2535, "toured": 7255, "taunton": 28181, "aids": 8387, "ian": 4775, "added": 2794, "jockey": 13989, "##vel": 15985, "anytime": 15933, "olympics": 3783, "widen": 21255, "candi": 27467, "accumulate": 27598, "viewer": 13972, "##aja": 22734, "systems": 3001, "wings": 4777, "kahn": 19361, "##clusive": 23633, "newt": 25597, "world": 2088, "payton": 28666, "dynasties": 23014, "modest": 10754, "guiana": 23568,
[...]
