{"\u2581daemon": 13127, "lib": 8326, "\u2581predictable": 24109, "\u2581diagnosis": 12814, "kuta": 24402, "\u2581intercepted": 18990, "\u2581abby": 10178, "\u2581uruguayan": 25291, "\u2581sewer": 16247, "kami": 21165, "mouthed": 24981, "\u2581whit": 5558, "cte": 22447, "\u2581lunch": 4311, "\u2581doug": 7600, "\u2581tortured": 13634, "\u2581narayan": 20616, "sher": 9161, "focus": 23371, "\u2581organization": 1165, "\u2581reduces": 16335, "\u2581carbonate": 24763, "\u2581von": 2110, "\u2581calculation": 19644, "\u2581demonstrating": 16133, "\u2581watching": 1953, "\u2581zhao": 14619, "bg": 19924, "\u2581bond": 3428, "\u2581relieved": 7053, "trix": 17224, "\u2581weren": 4144, "\u2581sadly": 16382, "krist": 26255, "\u2581radioactive": 20461, "\u2581funk": 11275, "\u2581navigate": 20782, "\u2581bark": 8255, "bl": 6287, "\u2581forgetting": 20183, "affirm": 13347, "\u2581pereira": 25871, "blanc": 11806, "michel": 22970, "\u2581suppress": 12451, "cot": 9546, "\u2581detected": 11968, "free": 4639, "wound": 29978, "\u2581gorilla": 21327, "\u2581cheetah": 27574, "\u2581convenient": 12845, "was": 4149, "\u2581mcgregor": 24482, "\u2581pleistocene": 27706, "\u2581phosphor": 26603, "\u2581reported": 1117, "\u2581chapter": 1260, "ay": 3707, "\u2581yield": 11537, "\u2581vanessa": 15255, "\u2581underwent": 9576, "\u2581nikita": 28696, "\u2581montpellier": 29001, "\u2581guerre": 24906, "born": 381, "aram": 14309, "\u2581thicker": 22524, "\u2581mime": 26193, "\u2581bessie": 28553, "\u2581performances": 3200, "southern": 20463, "\u2581southeastern": 8126, "beautiful": 20529, "eni": 12367, "\u2581ramp": 9960, "\u2581california": 751, "la": 531, "\u2581places": 1489, "\u2581shaft": 7244, "attentive": 27457, "\u2581lobbied": 27570, "\u2581apply": 5645, "\u25811689": 26595, "\u2581pencil": 13092, "cta": 20255, "\u2581completing": 6869, "\u2581sami": 16611, "\u2581recognizes": 17839, "\u2581confusing": 18084, "\u2581pry": 12307, "dul": 11203, "\u2581determinant": 28476, "\u2581brasil": 15706, "\u2581somehow": 3625, "\u2581leung": 27449, "\u2581heavyweight": 8139, "tula": 15173, "hk": 11321, "\u2581vincenzo": 25946, "\u2581marital": 26794, "\u2581published": 467, "\u2581area": 217, "\u2581mahler": 28989, "\u2581addresses": 12636, "\u2581armies": 8391, "\u2581sigma": 15020, "\u2581real": 683, "\u2581property": 1354, "\u2581unauthorized": 25881, "\u2581jez": 24119, "\u2581sharpe": 22348, "hma": 22018, "hel": 9180, "\u2581sanity": 22869, "\u2581sedan": 16079, "15": 1193, "\u2581awesome": 13706, "vj": 26083, "eber": 17669, "\u2581malaria": 21399, "368": 26582, "ness": 720, "\u2581reg": 7953, "\u25811949,": 12218, "\u2581der": 2223, "\u2581accidents": 16402, "\u2581triassic": 29369, "\u25811978": 2259, "289": 25139, "\u2581plo": 13593, "\u2581dinosaur": 17616, "\u2581char": 4892, "\u2581divisions": 5519, "\u2581sesame": 26010, "\u2581stevenson": 15094, "\u2581flipping": 21422, "\u2581contradiction": 22201, "hofer": 25786, "\u2581lingering": 18029, "\u2581gar": 3126, "\u2581prosecution": 10907, "construction": 27900, "\u2581messaging": 26437, "\u2581codex": 18666, "because": 4451, "\u2581capped": 16996, "\u2581albania": 10567, "\u2581400": 4353, "\u2581burlington": 17973, "uver": 25033, "gian": 8872, "\u2581flows": 5188, "\u2581cas": 7167, "\u2581armored": 11395, "\u2581gathered": 4744, "\u2581mcgill": 18159, "\u2581prequel": 27517, "\u2581quincy": 18841, "pher": 15256, "\u2581restored": 4617, "\u2581parma": 20531, "\u2581shroud": 29102, "\u2581devi": 10013, "\u2581200506": 19633, "\u2581living": 634, "\u2581darren": 13605, "\u2581commenced": 8133, "\u2581received": 420, "\u2581susceptible": 21371, "\u2581purchasing": 14828, "\u2581simulator": 24565, "beau": 16245, "magic": 21200, "337": 25170, "\u2581contrasted": 24873, "\u2581sexes": 22997, "dus": 10921, "1859": 24520, "\u2581tu": 2289, "\u2581banquet": 18784, "\u2581vijay": 16926, "\u2581caine": 22427, "gruber": 29659, "1683": 27824, "\u2581exeter": 14657, "\u2581wistful": 28622, "\u2581educated": 3977, "hard": 6011, "test": 10543, "\u2581naf": 24092, "hap": 10463, "\u2581adhesion": 29589, "\u2581consecrated": 13205, "ang": 1712, "ship": 2418, "\u2581baj": 22625, "\u2581credibility": 23959, "\u2581watches": 12773, "\u2581surname": 11311, "ono": 9835, "dev": 14438, "\u2581norms": 20146, "\u2581hellenic": 26663, "\u2581dario": 26746, "\u2581no": 90, "but": 811, "\u2581participating": 7723, "\u2581nicknamed": 10829, "\u2581keynes": 22238, "\u2581tyler": 6932, "\u2581zhang": 8597, "\u2581cim": 23522, "\u2581magnate": 24267, "osus": 21919, "amine": 10501, "\u2581outspoken": 24248, "\u2581arthritis": 28004, "\u2581supposed": 2293, "\u2581pay": 1372, "\u2581child": 850, "\u2581compression": 14864, "\u2581degraded": 27762, "\u2581undertaker": 27964, "\u2581arched": 9528, "\u2581literary": 3219, "\u2581allegheny": 23594, "\u2581respect": 2873, "\u2581mathis": 27884, "\u25811987,": 7649, "\u2581she": 39, "\u2581kiss": 1832, "\u2581reveal": 6820, "\u2581involve": 8847, "standard": 15566, "\u2581drown": 20380, "\u2581benin": 23523, "\u2581heads": 4153, "\u2581knees": 3660, "trouble": 29123, "\u2581stared": 1836, "\u2581plateau": 9494, "mmer": 11531, "\u2581thoroughbred": 19495, "\u2581hierarch": 21376, "environment": 28976, "\u2581deny": 9258, "\u2581roderick": 29051, "\u2581dubois": 26514, "81%": 27543, "/2": 15718, "through": 11639, "wing": 3546, "\u2581delaney": 24827, "\u2581dot": 14123, "pr": 4899, "\u2581ghosh": 27737, "\u2581viet": 20344, "ph": 3971, "\u2581leningrad": 18965, "\u2581wages": 14809, "1737": 26989, "mani": 8002, "\u25811905": 4974, "\u2581microscopic": 25624, "\u2581visions": 14766, "\u2581capitalist": 21532, "\u2581direct": 1744, "elli": 4223, "1973": 7648, "\u258187": 10271, "maru": 12119, "\u2581dodgers": 15007, "\u2581citizens": 2888, "\u2581dungeon": 12645, "\u2581clarke": 8134, "\u2581wandered": 14841, "\u2581discontent": 25966, "\u2581biodiversity": 20028, "\u2581ministerial": 21075, "\u2581holds": 2763, "pac": 10055, "\u2581dissuade": 29896, "\u2581consul": 11593, "\u2581pentagon": 21213, "\u2581technological": 10381, "\u2581utilize": 13151, "\u2581missionary": 8839, "\u2581disembark": 27138, "read": 10647, "620": 22571, "1705": 27691, "180": 8888, "feed": 20954, "\u2581helsinki": 14033, "ido": 6470, "\u25811924,": 16045, "\u2581returned": 587, "\u2581cultivate": 27863, "paper": 17945, "ological": 6071, "\u2581exasperation": 29869, "\u2581study": 949, "\u2581driveway": 12263, "lek": 12043, "\u2581nether": 22287, "\u2581elsa": 24680, "\u2581diameter": 5681, "\u2581connecticut": 5124, "\u2581lore": 12977, "\u2581farmhouse": 17695, "\u2581belgium": 4692, "\u2581mercenary": 24666, "\u2581equally": 7634, "tooth": 15808, "\u2581loses": 14745, "kke": 22527, "\u2581gregorian": 27149, "\u25811970": 1133, "\u2581updates": 16779, "conduct": 24573, "\u2581habitation": 28171, "\u2581rovers": 10028, "psy": 16033, "\u25812015:": 19156, "semifinals": 19044, "\u2581crete": 21079, "24%": 25477, "\u2581authors": 5152, "\u25812017,": 1978, "tala": 13864, "\u2581dowry": 28432, "\u2581replace": 3934, "\u2581own": 258, "\u2581ca": 1658, "\u2581kinda": 21096, "urus": 19143, "\u2581cruising": 25338, "\u2581joey": 10208, "\u2581literally": 6949, "\u2581intel": 14635, "club": 16854, "\u25811500": 11059, "\u2581itv": 13025, "\u2581coaching": 7272, "kula": 17596, "\u2581howell": 19386, "\u2581chargers": 21379, "\u2581inherently": 27929, "\u2581situation": 1858, "\u2581dependence": 22506, "\u25815": 331, "\u2581serb": 19378, "\u2581albeit": 15080, "gg": 4572, "350": 15978, "\u2581pneumonia": 20407, "\u2581rabbi": 5452, "\u2581kana": 11596, "\u2581northwestern": 7341, "\u2581catalina": 24954, "\u2581hoffmann": 25904, "\u2581brain": 1964, "\u2581embarrass": 29383, "\u2581circumstance": 26579, "arre": 22374, "\u2581synchronized": 27202, "ento": 17050, "\u2581twice": 2088, "\u2581intentionally": 18140, "\u2581cannibal": 21733, "kim": 17574, "\u2581bolt": 7611, "\u2581lecture": 8143, "\u2581cecil": 10610, "\u2581truman": 17593, "\u2581mastering": 12754, "par": 3574, "\u2581tim": 2574, "hydrate": 23673, "\u2581illuminate": 28101, "\u2581merchant": 5080, "\u2581submerged": 14911, "\u2581mumble": 27079, "\u2581jeffrey": 11432, "\u2581aquinas": 28652, "\u2581sto": 8129, "\u2581defence": 2705, "\u2581troop": 10191, "\u2581pleasure": 3530, "\u2581instances": 13946, "hoku": 22176, "\u2581squeeze": 10202, "\u2581twisting": 13895, "\u2581events": 963, "\u2581tide": 8251, "\u2581reducing": 7974, "301": 18979, "\u2581hopeful": 19562, "nal": 5025, "\u2581punta": 26062, "\u2581moderator": 28142, "\u2581digits": 19076, "teria": 25021, "\u2581healthy": 7714, "\u2581emilia": 19249, "\u2581presenter": 9391, "\u2581tanks": 6707, "\u2581mixture": 7181, "\u2581clandestine": 24481, "cats": 14626, "\u2581norma": 22146, "\u2581stomp": 19866, "\u2581doubles": 7784, "\u2581prey": 7433, "\u2581steady": 5665, "\u2581zoo": 6655, "amp": 10158, "\u2581intercollegiate": 23807, "imposed": 25823, "\u258165": 2074, "\u2581coating": 18449, "jim": 21476, "liffe": 25740, "\u2581jewell": 26707, "2014": 3753, "\u2581ezio": 25585, "\u2581stations": 2138, "\u2581logo": 6449, "\u2581requirement": 8981, "\u2581tat": 8537, "branch": 23014, "\u2581maldives": 26503, "\u2581frustrating": 25568, "\u2581harmon": 15397, "\u2581ghost": 3995, "\u2581twinkle": 23970, "\u2581stella": 12335, "screen": 7187, "\u2581handball": 13164, "\u2581filling": 7702, "\u2581bruise": 24127, "\u2581cochrane": 24278, "95": 3836, "\u2581mukherjee": 28006, "\u2581courthouse": 10909, "\u2581curly": 21056, "\u2581edict": 23004, "\u2581epilepsy": 28405, "\u2581observation": 7182, "\u2581commotion": 25692, "greg": 17565, "\u2581elimination": 10528, "smoke": 26499, "\u2581maximal": 27899, "\u2581ljub": 29022, "\u2581introductory": 26958, "prestige": 15930, "\u2581patting": 27046, "pli": 15540, "1960": 7055, "\u2581macgregor": 29881, "\u2581archaic": 22797, "\u2581diminutive": 29640, "\u2581cruise": 6581, "\u25812002": 1093, "\u2581roman": 1171, "\u2581extinct": 8870, "\u2581hoop": 19155, "\u2581discusses": 18272, "\u2581bellamy": 26705, "tronic": 21758, "\u2581sag": 12644, "\u2581irritating": 27569, "ree": 9495, "manship": 17969, "\u2581supplemented": 23390, "\u2581waters": 4770, "\u2581riley": 7087, "nbl": 25760, "tho": 11927, "\u2581sides": 2570, "\u2581casual": 10093, "207": 20304, "\u2581persistent": 15348, "\u2581conferences": 10462, "\u2581canadian": 1155, "\u2581nero": 20812, "cee": 21553, "\u2581resemble": 14381, "\u2581traditions": 7107, "\u2581allahabad": 29799, "\u2581grun": 14036, "\u2581euler": 28027, "\u2581descriptive": 25508, "\u2581limited": 1317, "\u2581worcester": 14198, "louis": 15003, "\u2581kath": 18663, "\u2581eternal": 10987, "rrh": 18809, "1991": 5361, "\u2581plymouth": 10765, "bus": 3822, "\u2581cuban": 9454, "\u2581connolly": 23662, "\u2581envy": 22525, "nfl": 19766, "\u2581braves": 16085, "\u2581luzon": 24342, "\u2581deformation": 27573, "\u2581oppressive": 28233, "\u2581tunnels": 12026, "\u2581societal": 25949, "\u2581cheque": 28020, "\u2581infantry": 2174, "\u2581pickle": 24509, "tik": 11571, "\u2581displaying": 17418, "their": 18073, "\u2581manchester": 3731, "gami": 17696, "\u2581reservoir": 6452, "\u2581chisholm": 29258, "/100": 24803, "although": 8655, "tin": 2864, "\u2581borders": 5878, "\u2581sniff": 15312, "\u2581mahmud": 25511, "\u2581modes": 12770, "\u2581making": 544, "\u2581governing": 9013, "\u2581incredibly": 13003, "2:00": 21319, "\u2581beginner": 26931, "\u2581volk": 14897, "\u2581hallmark": 25255, "including": 3970, "\u2581ethan": 4975, "sweet": 10902, "\u2581rc": 16462, "\u2581$19": 26322, "\u2581derby": 6473, "\u2581depth": 5204, "\u2581upcoming": 9078, "engage": 23498, "\u2581importance": 3728, "\u2581albin": 24340, "\u2581punishment": 6468, "wan": 3019, "\u2581oil": 1585, "\u2581engraving": 19222, "\u2581marilyn": 16592, "\u2581continuing": 4489, "\u2581parochial": 28172, "\u2581throbbing": 19893, "\u2581mozambique": 19192, "\u2581cancer": 2637, "\u2581luton": 20586, "budget": 25701, "\u2581departing": 18365, "\u2581aristo": 23924, "\u2581hospitality": 18110, "\u258173": 8836, "rf": 8291, "\u2581clump": 23361, "enda": 16776, "\u2581antonia": 25288, "\u2581reputation": 4530, "\u2581asleep": 5718, "\u2581cath": 16593, "\u2581strangle": 26494, "\u2581deafening": 28637, "arum": 19736, "lier": 10491, "\u2581merchants": 11030, "\u2581commuter": 13544, "\u2581lafayette": 16928, "include": 22640, "\u2581dentist": 23098, "\u2581fishes": 24730, "\u2581geneva": 10137, "\u2581grotesque": 27413, "grady": 20978, "\u2581destiny": 11271, "\u2581burgess": 18281, "\u2581decades": 3784, "\u2581steff": 25973, "those": 13577, "\u2581account": 2176, "\u2581mohammed": 13479, "\u2581reeve": 24604, "\u2581schumacher": 24870, "ended": 10726, "\u2581revolving": 27301, "besides": 22356, "eger": 13699, "\u2581potsdam": 27800, "\u2581eureka": 24081, "\u2581megalo": 29345, "\u2581ultraviolet": 28767, "allow": 17976, "\u2581jenkins": 11420, "\u2581nas": 7938, "\u2581aeronautical": 26976, "\u2581grimm": 23675, "\u2581wembley": 18873, "\u2581paddington": 26662, "\u2581out": 70, "nett": 11874, "bora": 20687, "\u2581saucer": 26329, "tion": 3309, "\u2581resources": 2566, "\u2581microscopy": 29714, "\u2581identified": 2889, "\u2581smelled": 9552, "\u2581topological": 24341, "\u2581whack": 27189, "arte": 11430, "kuh": 23321, "ration": 5946, "\u2581justification": 21875, "\u258176": 6914, "\u2581hug": 6512, "\u2581aerodynamic": 23167, "\u2581splitting": 17282, "\u2581metals": 15389, "\u2581miranda": 9506, "\u2581serving": 1799, "\u2581lookout": 20727, "\u2581toledo": 14493, "\u2581acoustic": 5402, "\u2581battlefield": 12004, "\u2581colleagues": 8493, "alexandr": 22962, "\u2581sus": 15273, "\u2581caucasus": 19700, "\u2581siblings": 9485, "\u2581fashion": 3161, "\u2581deputies": 13273, "\u2581probable": 17788, "\u2581libya": 14509, "\u2581bou": 5963, "\u2581forestry": 14831, "\u2581jardin": 22989, "87": 3730, "focused": 20986, "\u2581gershwin": 26957, "\u2581glen": 4467, "owska": 25273, "\u2581unprotected": 29704, "\u2581saber": 22935, "drug": 24587, "\u2581sasha": 16050, "\u2581reflected": 7037, "bey": 12242, "354": 23446, "\u2581amended": 15057, "urea": 24799, "\u2581pretense": 29579, "sequence": 29413, "\u2581regards": 14179, "\u2581aspiring": 24502, "\u2581avoided": 9460, "kuru": 25483, "\u2581twig": 19690, "why": 2256, "\u2581intimacy": 23232, "\u2581taxpayer": 19742, "\u2581cebu": 23325, "\u2581licence": 10899, "cie": 10486, "\u2581nodded": 1564, "\u2581risks": 12176, "\u2581ovation": 29656, "\u2581relationship": 1429, "\u2581cass": 5913, "bodied": 24166, "stand": 10731, "\u2581whereby": 15630, "etz": 11889, "oriented": 6800, "\u2581sword": 2960, "\u2581tang": 6453, "\u2581201011": 15092, "\u2581woody": 16159, "\u2581cheney": 25799, "\u2581keep": 643, "\u2581addiction": 13673, "2,300": 27170, "history": 16853, "\u2581slavery": 9822, "\u2581denounced": 20522, "\u2581cherokee": 16022, "\u2581leicester": 12557, "technic": 27753, "\u2581alien": 5597, "\u2581plain": 3748, ":57": 21770, "\u2581schwartz": 17624, "twenty": 26166, "\u2581experts": 8365, "\u2581pandit": 26896, "\u2581endeavour": 22011, "\u2581stalled": 23863, "\u2581dispense": 25494, "\u2581whales": 20735, "\u2581reports": 2813, "\u2581biochemical": 29633, "\u2581evade": 21579, "cdp": 24770, "opened": 17808, "\u2581unwilling": 14905, "machi": 18529, "\u2581metres": 1866, "\u2581creditors": 25350, "shiki": 24611, "lie": 3844, "\u2581grumbled": 19132, "\u2581bra": 3985, "\u2581pissed": 9421, "\u2581contributors": 20023, "oba": 10595, "ak": 1378, "\u2581sets": 3415, "\u2581array": 7718, "always": 21284, "wani": 21848, "\u2581coughed": 21713, "ribo": 23421, "\u2581et": 2133, "\u2581greene": 11778, "\u2581foe": 16823, "\u2581comments": 7534, "\u2581novo": 16259, "\u25811969,": 9572, "\u2581patriarch": 10686, "\u2581sunni": 19459, "\u2581removed": 1974, "\u2581establishes": 22753, "\u2581vehicle": 2664, "205": 16587, "\u25812006:": 17037, "\u2581demanded": 5239, "\u2581gains": 11897, "\u2581forcefully": 25830, "victoria": 29215, "sexual": 15691, "\u2581busy": 4394, "\u2581webster": 12907, "blo": 7091, "\u2581erect": 13602, "\u2581scenic": 14625, "forth": 15964, "\u2581replacing": 5496, "\u2581fixture": 16564, "\u2581exhaustion": 17343, "rey": 6454, "oder": 17812, "writer": 9657, "\u2581fundraising": 17852, "1887": 22184, "ridae": 22792, "57%": 26653, "wind": 7809, "\u2581gestured": 12288, "\u2581soda": 16207, "anthus": 22054, "\u2581modelled": 25659, "\u2581grew": 1642, "iti": 8793, "acyl": 28686, "ner": 1031, "institut": 13174, "\u2581honorary": 4668, "\u2581flores": 17951, "\u2581oceania": 24198, "\u2581ulcer": 28409, "\u2581nationally": 9966, "\u2581gottfried": 27575, "\u2581broaden": 23356, "\u2581pact": 15729, "\u2581mccarthy": 13719, "driven": 14489, "\u2581villa": 4504, "\u2581marshall": 4526, "\u2581restraint": 18058, "\u2581eternity": 14548, "50,000": 10274, "authored": 14687, "\u2581panties": 13440, "\u2581spoiled": 22782, "\u2581numb": 12875, "\u2581enterprises": 10449, "\u2581sino": 17959, "\u2581dissolution": 13342, "\u2581written": 642, "\u2581observance": 27217, "\u2581ashes": 12040, "1990": 4364, "\u2581thunder": 5710, "\u2581difficult": 1956, "\u2581exploited": 21632, "\u2581tanaka": 24431, "\u2581believe": 985, "\u2581editing": 9510, "fl": 4372, "\u2581matched": 11265, "\u2581piccolo": 28073, "\u2581masovian": 24948, "\u2581marched": 10605, "\u2581trav": 23773, "natal": 11950, "western": 6514, "\u2581marketed": 12822, "safe": 18166, "arc": 16260, "idium": 18325, "\u2581corresponds": 17016, "albert": 20761, "\u2581garment": 14936, "\u2581strategic": 5086, "\u2581sail": 6913, "\u2581accurately": 16353, "\u2581fortunately": 18401, "\u2581gp": 10538, "\u2581motif": 18255, "\u2581oncology": 29223, "\u2581hendrik": 28160, "\u2581reclaimed": 25039, "\u2581rodent": 21241, "326": 25434, "cott": 5987, "\u2581imaging": 13090, "\u2581fib": 14143, "\u2581maximus": 24525, "yne": 5685, "\u2581reinstated": 20545, "\u2581guest": 2427, "\u2581applications": 3767, "\u2581hips": 5830, "\u2581rooted": 19148, "\u2581predominantly": 9066, "\u2581apostol": 29190, "mir": 8635, "\u2581interpersonal": 29873, "nu": 4215, "\u2581females": 2130, "\u2581sniper": 18137, "\u2581beside": 2113, "aku": 12691, "\u2581abbess": 27306, "\u2581rouse": 22070, "\u2581fortune": 5518, "\u2581leverage": 19414, "\u2581bandwidth": 23392, "\u2581cornell": 11600, "\u2581retrieved": 3685, "\u2581warships": 17762, "\u2581quick": 2231, "\u2581granny": 22270, "fly": 9700, "tling": 17734, "from": 2665, "\u2581relocation": 20129, "\u2581etc": 2722, "\u2581neue": 24836, "\u2581starbucks": 28566, "shit": 13643, "74": 3828, "\u2581supper": 17314, "\u2581numer": 15764, "\u25811996": 1371, "\u2581seventy": 11818, "italy": 20614, "crip": 28215, "receptor": 26469, "\u2581unease": 27694, "lights": 15413, "\u2581ferret": 29229, "\u2581maria": 1926, "\u2581skull": 5696, "\u2581melodrama": 23708, "\u2581plays": 1533, "\u2581maneuver": 9893, "\u2581aggressive": 9282, "\u2581alto": 9741, "\u2581intestine": 25785, "pru": 25789, "daughter": 18128, "fuhrer": 22616, "\u2581caucasian": 24897, "closed": 20372, "chik": 20239, "\u2581occupy": 12290, "birds": 14889, "genesis": 24121, "second": 5007, "pian": 19749, "\u2581plato": 18119, "\u2581chola": 26342, "\u2581handed": 3988, "erson": 9050, "\u2581pediatric": 19134, "\u2581telangana": 25449, "\u2581conclude": 18433, "bola": 20546, "\u2581falcons": 17385, "hook": 20378, "\u2581remodeled": 28090, "\u2581give": 590, "pong": 14572, "vik": 8280, "\u2581slayer": 20711, "\u2581crossover": 17602, "lick": 10129, "\u25811977": 2381, "\u2581havent": 12460, "\u2581$": 5579, "\u2581winger": 17916, "mean": 22183, "\u2581welcomed": 11853, "\u2581vocals": 1128, "\u2581cognitive": 11610, "\u2581fighting": 1849, "\u2581mother": 449, "\u2581adjusting": 22209, "\u2581chennai": 13475, "\u2581culturally": 23987, "\u2581dream": 1868, "\u2581mongolia": 15655, "\u2581sage": 9527, "\u2581illinois": 2695, "\u2581ponder": 14197, "\u2581reverted": 18905, "rail": 7301, "\u2581meaningful": 16912, "chandran": 26497, "mian": 12553, "\u2581common": 757, "olle": 22042, "schutz": 23111, "\u2581gunner": 11695, "\u2581jackie": 10756, "side": 1416, "\u2581hussein": 19338, "\u2581attach": 19514, "\u2581isotope": 21288, "\u2581compromised": 22884, "\u2581maggie": 8379, "\u2581pluck": 23560, "cera": 15869, "\u2581lepto": 23701, "\u2581vanishing": 26532, "\u2581record": 571, "ji": 1616, "linda": 15622, "\u2581aged": 4056, "kor": 9062, "\u2581parisian": 24743, "\u2581outdoor": 5666, "\u2581perspectives": 18452, "arr": 20870, "thromb": 26736, "\u2581ulysses": 25569, "\u2581lucknow": 27424, "\u2581travelling": 9024, "\u2581gps": 18298, "\u2581aggression": 17886, "hound": 10851, "\u2581textbook": 19059, "\u2581kernel": 17007, "\u2581pin": 3459, "\u2581madonna": 12257, "\u2581terra": 9195, "\u2581fulbright": 26353, "\u2581vilnius": 23219, "\u2581ecuador": 11259, "\u2581quit": 6489, "global": 26763, "\u2581kel": 10184, "reilly": 15382, "\u2581sustainability": 17491, "\u2581tailor": 19771, "\u2581preference": 9808, "\u2581pill": 11450, "\u2581departed": 7247, "85%": 21853, "\u2581chatting": 25169, "\u2581prima": 14542, "\u2581predicted": 10771, "magnetic": 26601, "piano": 22620, "pore": 11742, "\u2581primetime": 21687, "\u2581liechtenstein": 27798, "\u2581composers": 11126, "\u2581tribes": 5720, "\u2581protocol": 8494, "\u2581dividing": 18542, "\u2581kangaroo": 21335, "210": 11401, "\u2581delay": 7255, "\u2581ascertain": 25566, "\u2581projectile": 21475, "\u2581bennett": 7585, "\u2581defending": 6119, "\u2581deserve": 10009, "\u2581lutz": 26616, "\u2581recapture": 27953, "\u2581pedro": 7047, "\u2581buying": 9459, "68%": 27504, "\u2581evaluating": 26764, "\u2581alf": 14307, "core": 10375, "\u2581rumored": 25625, "\u2581nikolai": 15275, "\u2581dunk": 21315, "rica": 13715, "\u2581$100,000": 21788, "\u2581limousine": 27041, "nder": 16706, "ssa": 8234, "\u2581impacted": 22676, "escence": 22121, "\u2581perry": 5923, "2004": 3084, "\u2581lucrative": 23545, "\u2581cleavage": 27985, "dan": 2793, "post": 6962, "\u2581dispersed": 17587, "\u2581illegally": 20808, "\u2581inductee": 25003, "1841": 26955, "\u2581bulk": 7238, "\u2581kern": 20805, "\u2581constant": 3587, "corn": 8559, "trophic": 25091, "\u2581alberta": 7245, "\u2581lucas": 5047, "\u2581bed": 873, "inger": 11682, "\u2581ligand": 21852, "\u2581edison": 19770, "\u2581retention": 21912, "grenadier": 23777, "\u2581sundar": 23398, "\u2581owed": 14705, "\u2581assyrian": 19923, "\u2581disperse": 27430, "\u2581sneak": 10476, "\u2581neighbouring": 9690, "\u2581canteen": 26665, "kul": 12065, "\u2581revelation": 9988, "ec": 3319, "\u2581budget": 3391, "\u2581emotion": 6691, "industri": 23906, "\u2581comrade": 27565, "112": 19099, "\u2581lesser": 8051, "\u2581yearbook": 26443, "1,800": 22377, "\u2581jenny": 8369, "\u2581feminist": 9704, "pmid": 22203, "\u2581level": 662, "\u2581ribs": 11021, "\u2581dol": 11171, "1936": 11273, "\u2581clusters": 14497, "\u2581demonstrator": 24163, "\u2581fabrication": 25857, "\u25811839": 12057, "\u2581carnival": 11810, "\u25811943,": 10367, "\u2581patty": 21002, "\u2581brett": 12704, "\u2581specializing": 16389, "\u2581lurch": 27677, "\u2581addison": 20995, "\u2581klein": 10201, "pretty": 21542, "leary": 22275, "344": 25952, "\u2581kidney": 13400, "\u25811922,": 15388, "\u2581satisfaction": 10669, "\u2581willow": 10755, "\u2581boundary": 5067, "\u2581forfeit": 19095, "\u2581cure": 8259, "\u2581confident": 9019, "hla": 19175, "pk": 17244, "\u2581authenticity": 24104, "\u2581nectar": 24779, "joined": 22922, "\u2581stretched": 6400, "\u2581motor": 2586, "pb": 13390, "exp": 6899, "\u2581nav": 16048, "\u2581denny": 16541, "129": 13320, "duce": 16041, "guil": 16574, "z": 380, "hyun": 20560, "\u25811846": 10523, "\u2581shit": 2920, "\u2581batista": 29874, "\u2581ranking": 4992, "\u2581oclc": 13246, "lon": 3226, "\u2581naga": 9987, "\u2581stanton": 18376, "minister": 21262, "\u2581verb": 9504, "\u2581gaulle": 27756, "\u2581throne": 4717, "lidae": 21643, "\u2581kerry": 12318, "\u25811974": 2309, "\u2581struggles": 13131, "\u2581toby": 15913, "\u2581ammonia": 25918, "\u2581boxing": 8131, "legged": 17512, "\u2581phyto": 26742, "\u2581inspected": 24066, "ise": 2628, "\u2581limitation": 24943, "\u2581pronounce": 25059, "\u2581scribble": 27607, "ver": 2304, "\u2581umbrella": 13447, "rigan": 23276, "\u2581ball": 1592, "\u25811955,": 12136, "\u2581pc": 5168, "\u2581response": 1627, "\u2581mills": 5324, "\u2581novel": 1211, "\u2581yves": 23902, "\u2581viewer": 16812, "\u2581distorted": 21414, "\u2581boy": 883, "\u2581greatly": 5629, "\u2581marvin": 15801, "\u2581friendly": 4753, "\u2581arrives": 8394, "\u2581workshop": 7873, "\u2581cream": 5262, "\u2581stealing": 12222, "\u2581purana": 27165, "\u2581smiled": 1495, "ston": 3788, "\u2581skyline": 22431, "\u2581inspired": 3054, "\u2581saying": 1148, "builder": 20904, "\u2581orioles": 21847, "\u2581tank": 3569, "hot": 7010, "marked": 22048, "\u2581priest": 3355, "\u2581gage": 10423, "\u2581techno": 18203, "\u2581suggests": 5049, "\u2581godfather": 25793, "\u2581kuch": 26318, "\u2581placing": 5861, "rest": 11466, "\u2581reflex": 14349, "division": 17557, "\u2581women": 364, "yah": 15473, "\u2581author": 1314, "\u2581ipswich": 17813, "\u2581justice": 1557, "\u2581arcadia": 23516, "house": 1682, "\u25811955": 3559, "\u2581trophies": 24581, "\u2581ski": 7185, "\u2581b": 334, "\u2581temporary": 4700, "\u2581dixon": 12696, "\u2581modification": 16135, "\u2581fold": 14629, "\u2581speculate": 26733, "mali": 19430, "\u2581explanation": 5764, "\u2581undoubtedly": 20105, "\u2581adorn": 26003, "\u2581collingwood": 23070, "\u2581annoying": 17610, "\u2581redwood": 26015, "\u2581tires": 14912, "kwa": 16763, "\u2581candidacy": 19912, "\u2581celeste": 23888, "\u2581ideas": 3478, "9780": 25182, "\u2581erin": 11988, "\u2581antonio": 3479, "\u2581spat": 11880, "\u2581manitoba": 11094, "\u2581pyramid": 9565, "\u2581prometheus": 29919, "\u2581marked": 2739, "\u2581fires": 11327, "\u2581assault": 4360, "\u2581bre": 4929, "\u2581overlord": 26572, "central": 6306, "address": 27950, "\u2581acquire": 8942, "\u2581course": 674, "\u2581highly": 2157, "\u2581hut": 7883, "andra": 13977, "regional": 24967, "\u2581emile": 20544, "\u2581esquire": 29812, "\u2581invariably": 27913, "\u2581bohemian": 18778, "\u2581goblet": 27992, "\u2581cricket": 2728, "\u2581falling": 3106, "anni": 15683, "distinguishable": 25502, "\u2581bulldogs": 17410, "\u2581incursion": 27198, "1885": 22021, "\u2581preaching": 21198, "bahn": 9378, "\u2581poke": 23507, "\u2581transition": 4513, "\u2581poked": 20019, "\u2581baker": 4928, "\u25811790": 15345, "\u2581rebuilding": 16633, "\u2581speaking": 3324, "\u2581nuclei": 22139, "\u2581fermentation": 28560, "\u2581evergreen": 18993, "\u2581denied": 5265, "\u2581addressed": 7832, "\u2581retained": 4956, "optera": 24895, "\u2581annapolis": 27242, "245": 21468, "\u2581fidget": 26455, "\u2581ginger": 12101, "\u2581beverly": 13990, "\u2581perimeter": 14824, "\u2581transcribed": 27761, "\u2581editions": 6179, "\u2581grass": 3961, "vio": 13327, "\u2581baden": 14708, "\u2581bobbie": 28157, "evi": 11751, "\u2581stirred": 15272, "\u2581parkway": 13956, "\u2581argus": 26755, "\u2581bp": 17308, "\u2581defeating": 5237, "lton": 7141, "phen": 16012, "\u2581thames": 11622, "\u2581palatine": 24723, "\u2581greenhouse": 17329, "\u2581gra": 5120, "\u2581sulf": 13006, "248": 24135, "ae": 4391, "\u2581domestically": 27658, "thia": 18067, "\u2581doubling": 23961, "cv": 12732, "bashi": 23399, "\u2581railing": 15358, "\u2581scare": 11813, "\u2581mario": 7204, "\u2581scrutiny": 19966, "bm": 13178, "\u2581eyelids": 20335, "\u2581al": 493, "\u2581jealousy": 16290, "\u2581shredded": 29081, "\u2581pipe": 7642, "\u2581marty": 11826, "\u2581opposing": 10488, "\u2581other": 89, "1954": 10326, "uci": 9362, "\u2581strengthened": 15908, "lauri": 27392, "\u2581supremacy": 24580, "\u2581giles": 16542, "\u2581complexity": 12745, "\u2581fantas": 23748, "\u2581dogs": 5091, "\u2581bum": 17151, "\u2581clamp": 20759, "\u2581fall": 1080, "\u2581pulled": 881, "trust": 11592, "\u2581wanted": 417, "\u2581sahitya": 29505, "\u2581heiress": 23137, "\u2581end": 241, "\u2581mala": 7553, "\u2581melrose": 29602, "\u2581deported": 20366, "\u2581diaspora": 19832, "\u2581rowan": 16431, "akin": 17594, "\u2581odisha": 24011, "\u2581honduras": 16745, "\u2581marissa": 24886, "\u2581pietro": 17673, "\u2581intensified": 17903, "\u2581stronger": 5375, "707": 24829, "\u2581106": 11022, "\u2581builder": 14960, "\u2581search": 2122, "atta": 14986, "\u2581rebound": 19455, "\u2581crumbling": 26808, "\u2581schol": 26419, "\u2581cologne": 11964, "izes": 13569, "\u2581suspension": 7853, "\u2581suck": 8466, "article": 20360, "\u2581survivors": 8690, "\u2581fascinating": 20712, "\u2581dragging": 13052, "\u2581cocoa": 24507, "\u2581adjacent": 4209, "fuck": 10517, "\u2581behavioral": 16276, "\u2581homolog": 20902, "\u2581demetrius": 28569, "\u2581stefan": 7277, "\u2581amanda": 8119, "kenne": 22445, "stefan": 28150, "\u2581versus": 5706, "\u2581ibrahim": 14519, "ano": 3571, "\u2581hamilton": 3715, "\u2581passionate": 12637, "\u2581suspended": 5692, "\u2581marx": 14594, "\u2581labs": 17020, "mas": 5250, "\u2581masonic": 24386, "\u2581searching": 5792, "croatian": 26515, "\u2581comet": 15625, "lein": 13535, "\u2581unveiled": 12562, "\u2581expiration": 29529, "\u2581reassuring": 20003, "\u2581shiny": 13091, "\u2581proposal": 5149, "\u2581frescoes": 25646, "deck": 17866, "\u2581romanesque": 20144, "\u2581metropolitan": 3466, "mono": 20027, "\u2581catarina": 29784, "licensed": 27273, "\u2581optical": 9445, "66%": 26922, "\u2581tribunal": 11703, "349": 26116, "\u2581eurobasket": 29312, "000": 3993, "\u2581talking": 1582, "\u2581homo": 9131, "\u2581greatest": 3023, "\u2581weight": 1763, "turned": 19598, "\u2581jake": 3777, "\u2581stuff": 3217, "\u2581licensed": 6392, "\u2581mention": 3794, "\u2581haunting": 22727, "sky": 2397, "\u2581harlem": 17526, "asco": 16568, "\u2581vinci": 23992, "rada": 12779, "\u2581footprint": 18511, "\u2581percussion": 4987, "\u2581newmarket": 24646, "time": 891, "language": 7020, "\u2581assigned": 2467, "\u2581russo": 18484, "\u2581sax": 16070, "\u2581mundane": 25843, "ility": 20901, "\u2581unitary": 24411, "\u2581bosses": 24889, "351": 24930, "\u2581laughter": 6527, "\u2581blaming": 26738, "\u2581leaked": 17719, "47%": 25907, "\u2581qi": 12787, "\u2581patriotism": 28697, "\u2581bishop": 1579, "\u2581compilation": 4868, "\u2581hence": 5796, "\u2581considerable": 5088, "\u2581ports": 9551, "mea": 15052, "\u2581renegade": 23962, "\u2581grille": 22186, "1981": 7023, "\u2581tetra": 11237, "\u25811950,": 13099, "\u2581teasing": 12924, "\u2581disclosure": 21449, "mena": 17688, "246": 21339, "alexander": 27231, "\u2581curator": 12802, "\u2581uplift": 23478, "\u2581assumption": 12027, "\u2581bmw": 14769, "nya": 13165, "\u2581arena": 3495, "\u25811916,": 15304, "\u2581do": 107, "comb": 10204, "\u2581rediscovered": 27542, "\u2581afloat": 29408, "\u2581essence": 11887, "\u2581rotation": 9431, "\u2581fitz": 13953, "334": 24606, "\u2581leblanc": 29893, "\u2581suspend": 25082, "mes": 3845, "\u2581warm": 2059, "\u2581concurrent": 19513, "2/": 9298, "\u2581hotter": 25027, "\u2581vision": 2750, "\u2581$14": 24647, "\u2581authority": 1959, "\u2581schemes": 13185, "\u2581sufficient": 6722, "\u2581flew": 4184, "lieu": 13000, "\u2581blurted": 21873, "\u2581infrastructure": 5282, "litre": 13601, "\u2581ending": 3119, "\u2581patience": 13557, "\u2581kristian": 21793, "schel": 19398, "\u2581prevailed": 22415, "atura": 25263, "rena": 13530, "dead": 14260, "\u2581functioning": 14175, "\u2581chico": 21939, "\u2581haas": 21815, "lei": 10297, "\u2581mvp": 13552, "otte": 16528, "\u2581macmillan": 17929, "\u2581hasn": 9979, "\u2581chronology": 20259, "lough": 11672, "\u2581caracas": 25145, "\u2581marshal": 7583, "\u2581rapp": 18107, "\u2581bal": 3350, "\u2581moves": 4927, "\u2581tissues": 16959, "\u2581symbolism": 24054, "bien": 17367, "\u2581engineered": 16596, "\u2581gather": 7442, "\u2581realised": 12514, "\u2581sway": 17474, "\u2581formats": 13767, "\u2581servants": 9117, "pennine": 28859, "liev": 17837, "\u2581implementing": 17333, "\u2581trudeau": 28834, "\u2581dismounted": 29037, "\u2581india": 739, "\u2581reasons": 2932, "cap": 4666, "\u2581swaying": 25155, "\u2581grade": 2044, "\u2581sah": 16781, "\u2581unspecified": 27005, "\u2581emily": 5220, "\u2581bridges": 7493, "\u2581accessories": 19159, "\u2581dwight": 16183, "bed": 4283, "onyx": 25764, "\u2581cooper": 4486, "\u2581hansen": 15360, "\u2581rendition": 19976, "\u2581reorganization": 19224, "iki": 9674, "\u2581gibraltar": 13085, "\u2581teacher": 2197, "\u2581kramer": 18419, "\u2581kade": 22029, "\u2581celeb": 26780, "\u2581minstrel": 29285, "\u2581braith": 29849, "voor": 17807, "\u2581median": 2245, "\u2581papal": 12973, "everybody": 25444, "\u2581ducked": 15394, "\u2581pere": 18493, "tube": 19302, "dim": 14160, "\u2581jesus": 3121, "\u2581world": 126, "\u2581chiba": 26879, "\u2581count": 2468, "italian": 13346, "gir": 16791, "ical": 4272, "young": 10886, "\u2581cum": 10611, "\u2581pang": 13219, "\u2581institution": 3578, "103": 16949, "\u2581processes": 5102, "g": 263, "\u2581lp": 6759, "\u25811899": 6039, "\u2581testify": 19822, "federal": 28269, "\u2581merely": 5494, "\u2581sweeney": 23491, "\u2581accompanied": 4329, "sperm": 12390, "lun": 10541, "international": 16386, "grossing": 18801, "oria": 15062, "tree": 8101, "\u2581vibe": 18441, "\u2581dealing": 5746, "\u2581sabine": 20521, "\u2581kentucky": 4425, "\u2581subdued": 23285, "\u2581kayak": 24439, "blast": 18818, "\u2581stain": 12260, "\u2581dealt": 9706, "seat": 8324, "uzi": 23073, "\u2581blaine": 22500, "\u2581zimmerman": 23367, "\u2581violence": 3300, "\u2581ruins": 8435, "\u2581tau": 8660, "\u2581picnic": 12227, "carbo": 27947, "\u2581terrorist": 10012, "\u2581gag": 11655, "\u2581hume": 18799, "\u2581patiently": 22036, "\u2581attraction": 8102, "\u2581booster": 22680, "lied": 15450, "\u2581copenhagen": 10088, "\u2581wickets": 10912, "196": 20849, "\u2581amounts": 8545, "\u2581cyclone": 10320, "vie": 7337, "pir": 13976, "\u2581condemn": 18945, "\u2581been": 74, "ovich": 7140, "winged": 17094, "\u2581aramaic": 29580, "\u2581stewart": 4788, "\u2581idiot": 8563, "\u2581honesty": 19907, "rice": 12412, "\u2581scheme": 4276, "hy": 5608, "mish": 10758, "\u2581pursed": 24403, "syllabic": 29760, "\u2581gil": 4730, "\u2581employers": 14028, "\u25812011": 542, "\u2581rooney": 26702, "\u2581reviewers": 18864, "thy": 6412, "\u2581catalan": 14801, "\u2581cartridge": 12873, "\u2581expelled": 10311, "\u2581acqui": 27219, "\u2581cli": 19391, "\u2581appointed": 929, "\u2581qualifies": 29530, "\u2581draw": 2003, "\u2581hotspur": 27394, "\u2581office": 488, "\u2581insight": 9239, "\u2581lily": 6274, "kur": 12806, "jump": 21925, "\u2581brodie": 28249, "\u2581milton": 9775, "\u2581irving": 13861, "\u2581cw": 15739, "\u2581bhatt": 23857, "\u2581[]": 20767, "ies": 1596, "\u2581mansfield": 17855, "\u2581antiquity": 19157, "\u2581kilograms": 21362, "\u2581martha": 8963, "\u2581claude": 9429, "anhalt": 27540, "\u2581complaining": 20154, "\u2581holliday": 29683, "ines": 10652, "\u2581amiga": 24441, "\u2581fedor": 26726, "\u2581kev": 24917, "\u2581signatures": 19506, "\u2581balls": 7152, "\u258184": 9846, "classical": 24031, "\u2581marrying": 15350, "\u2581fascinated": 17452, "lina": 9356, "\u2581bharat": 17154, "\u2581moran": 16378, "\u2581siam": 25367, "\u2581nominal": 17598, "\u2581print": 4793, "\u2581glenn": 9023, "\u2581redundant": 24295, "phy": 8174, "\u2581interviews": 7450, "\u2581plains": 8648, "katsu": 18812, "jeff": 27048, "\u2581prudence": 29813, "\u2581handkerchief": 24804, "\u2581funding": 3234, "\u2581combines": 15339, "\u2581hacking": 25787, "hof": 7693, "\u2581competitor": 13638, "\u2581postwar": 22458, "ahan": 17346, "\u2581patrice": 29338, "municipality": 26762, "grey": 21143, "\u2581kolkata": 15833, "\u2581adorned": 22073, "\u2581scrambled": 15089, "\u2581households": 2219, "\u2581equality": 10337, "\u2581orchid": 13374, "based": 1281, "\u2581wilhelm": 7495, "\u2581cousin": 4191, "syn": 9507, "\u2581ordered": 1905, "parent": 18908, "\u2581kas": 7349, "\u2581risen": 15947, "\u2581bron": 9781, "\u2581explains": 7346, "\u2581seals": 16414, "\u2581xeno": 17744, "\u2581atari": 21753, "\u2581pedestal": 25084, "\u2581mayor": 1840, "\u2581archaeologist": 21352, "\u2581isaac": 6491, "\u2581reins": 20121, "\u2581tug": 9492, "\u2581bodo": 25943, "being": 10554, "dino": 12954, "\u2581proceeds": 11524, "iste": 17012, "\u2581sebastian": 5337, "\u2581conservatives": 14578, "\u2581reprinted": 15815, "\u2581wine": 2667, "\u2581unexpectedly": 16044, "\u2581mere": 8386, "\u2581dilemma": 23314, "\u2581darting": 25680, "\u2581trieste": 27153, "\u2581persuasion": 27513, "\u2581cheerfully": 27585, "\u2581submarines": 13844, "\u2581claus": 17831, "\u2581durham": 9570, "\u2581statues": 12359, "\u2581yadav": 28587, "\u2581portrayed": 5918, "\u2581pal": 4370, "\u2581bands": 4137, "gio": 5449, "am": 765, "\u2581flexibility": 19401, "\u2581scott": 1824, "\u2581feldman": 27033, "\u2581vanish": 21251, "\u2581maddox": 25019, "call": 9200, "\u2581players": 1007, "\u2581ultra": 6885, "daddy": 25078, "\u2581quality": 2190, "\u2581marc": 5208, "\u2581mckay": 17922, "\u2581amused": 12824, "death": 13921, "\u25811951,": 13386, "tan": 2463, "avon": 11511, "\u2581cecilia": 21060, "\u2581homestead": 14003, "\u2581acquired": 2020, "\u2581acceptance": 10156, "ments": 6601, "\u2581giulia": 21960, "qar": 26141, "\u2581intersect": 17822, "\u2581gaming": 10968, "\u2581fails": 13614, "\u2581inhabited": 10099, "\u2581bishops": 8592, "lecommunications": 16312, "\u2581plots": 18205, "\u2581clarify": 23116, "\u2581denoted": 23188, "\u2581craven": 23641, "\u2581mosque": 6963, "\u2581akron": 24940, "\u2581adoration": 29567, "\u2581demonstrated": 6861, "\u2581survives": 16309, "\u2581suggestion": 10910, "\u2581blast": 5805, "\u2581codes": 11358, "\u2581germans": 7688, "chuk": 16565, "mous": 14002, "\u2581churchyard": 21737, "\u2581autism": 22704, "\u2581toilet": 9594, "sworth": 10697, "\u2581spies": 18939, "\u2581jamal": 23699, "\u2581efficacy": 25605, "goldwyn": 29914, "\u2581jewellery": 23895, "rak": 4951, "\u2581masters": 5001, "\u2581liege": 21205, "\u2581huntsville": 29106, "\u2581schneider": 17068, "\u2581panda": 16982, "gana": 17265, "\u2581reconstruction": 7720, "\u2581trenches": 22279, "\u2581purge": 20722, "\u2581pajama": 23358, "\u2581trust": 1527, "\u2581surrey": 10682, "fluoro": 26391, "\u2581dentistry": 27328, "\u25811876": 8048, "338": 25030, "\u2581fleetwood": 25809, "\u2581minesweeper": 27531, "\u2581seminal": 23607, "\u2581demise": 14529, "\u2581replenish": 25988, "\u2581tumbling": 24042, "\u2581kilometres": 1971, "\u2581impeachment": 28728, "harmon": 19130, "\u2581casually": 14964, "books": 13828, "\u2581molo": 26323, "\u2581extraordinary": 9500, "323": 24306, "\u2581sentences": 13453, "\u2581away": 229, "scribing": 28723, "\u2581disappoint": 28927, "\u2581180": 9094, "sec": 14332, "mad": 6817, "\u2581sprout": 22461, "\u2581alderman": 20682, "\u2581eviction": 26872, "ember": 19603, "\u2581five": 355, "ulation": 11123, "\u2581operators": 9475, "\u2581invaluable": 29591, "\u2581victorian": 5634, "98": 3804, "bao": 15353, "equivalent": 20922, "\u2581jstor": 29947, "\u2581envoy": 18315, "\u2581$10": 14737, "\u2581lesley": 25553, "\u2581hamlet": 6974, "\u2581orbital": 14985, "nex": 22420, "enko": 8227, "\u25811859": 9133, "\u2581distracted": 11634, "\u2581cochin": 27604, "\u2581glyn": 23357, "\u2581existential": 27147, "\u2581zeppelin": 23893, "path": 8353, "\u2581campus": 2071, "\u2581sounded": 3583, "\u2581answers": 6709, "\u2581sacramento": 12794, "\u2581consumed": 10936, "\u2581wynn": 20319, "lotte": 19163, "\u2581develops": 13745, "\u2581saratoga": 26181, "\u2581rao": 10440, "\u2581chang": 7955, "\u2581emergency": 3644, "\u2581chop": 17144, "\u2581dvd": 3527, "\u2581scroll": 12159, "1894": 20530, "\u2581toxicity": 25282, "\u2581mentally": 11367, "\u2581vaughan": 16637, "\u2581snort": 22619, "amalgam": 29768, "\u2581duchy": 11636, "\u2581collectors": 16186, "\u2581poole": 21297, "\u2581kitten": 17484, "\u2581ecole": 15131, "\u2581subtropical": 12942, "mora": 21312, "obo": 17110, "\u2581horn": 4318, "\u2581spilling": 21515, "\u2581galloway": 25004, "glamorous": 29438, "\u25811924": 4935, "\u2581slam": 7722, "\u25811927,": 15686, "\u2581elgin": 25198, "\u2581parentheses": 28273, "\u2581incomplete": 14011, "\u2581wales": 1791, "\u2581two": 81, "\u2581hero": 4702, "\u2581stripe": 20186, "\u2581biomedical": 23269, "kopf": 23769, "loading": 16866, "way": 1443, "\u2581kinship": 29521, "\u2581sheer": 14694, "\u2581allan": 9243, "origin": 28486, "\u2581marg": 19996, "\u2581sailing": 8165, "\u2581dusseldorf": 20504, "\u2581nancy": 7477, "\u2581substantial": 6185, "\u25811926": 5147, "\u2581chaired": 13840, "ore": 5377, "\u2581surfaced": 18750, "\u2581acidic": 26324, "\u2581stormed": 18912, "ara": 2704, "\u2581settling": 10179, "\u2581quartz": 20913, "\u2581bono": 23583, "\u2581divergence": 28206, "\u2581particles": 9497, "\u2581scope": 9914, "\u2581apprenticeship": 21669, "pra": 7310, "ncy": 14386, "ame": 8357, "gali": 18014, "\u2581hunters": 10386, "\u2581carolyn": 17919, "jean": 12899, "\u2581bernhard": 21547, "505": 26373, "\u2581units": 1398, "\u2581hundred": 1874, "\u2581runner": 4510, "\u2581marred": 26479, "31": 3513, "soccer": 27546, "gia": 5994, "\u2581flori": 15462, "\u2581correctional": 22951, "\u2581motivation": 11933, "\u2581taste": 3576, "thos": 17084, "\u2581ethel": 19334, "78": 4130, "\u2581progresses": 25512, "\u2581geometric": 13958, "\u2581deposed": 21358, "\u2581constabulary": 26042, "ic": 596, "\u2581loudspeaker": 28892, "\u2581successfully": 3673, "\u2581cent": 5802, "\u2581napoleonic": 22035, "\u2581plastered": 24390, "dele": 24249, "\u2581indicator": 13310, "\u2581alexei": 23683, "\u258110": 332, "vash": 28787, "\u2581adopted": 2527, "\u2581circuits": 17711, "\u2581fokker": 29762, "\u2581across": 464, "\u2581cared": 8997, "\u2581officials": 3055, "\u2581preserved": 6190, "\u2581assignment": 8427, "cino": 18690, "magazine": 27605, "\u2581pigeon": 14720, "aditya": 26466, "\u2581free": 551, "\u2581gotham": 25244, "navi": 16424, "blatt": 22360, "\u2581appreciation": 13298, "hitter": 18459, "\u2581vassal": 18870, "ugg": 21606, "\u2581forever": 3818, "\u2581jane": 3175, "\u2581prof": 8721, "taylor": 29111, "\u2581preferring": 23901, "\u2581matri": 21742, "\u2581shaping": 22635, "\u2581beirut": 17770, "\u2581strips": 15383, "mack": 15571, "\u2581joining": 3765, "hydro": 16658, "\u2581fictitious": 24596, "scenes": 25831, "\u2581strange": 2578, "\u2581strang": 25802, "\u2581schwab": 29216, "intro": 23979, "election": 5033, "\u2581refusing": 11697, "];": 12660, "\u2581cast": 1325, "\u2581molten": 24727, "hil": 11579, "\u2581leighton": 27655, "\u2581mamluk": 29926, "1932": 12023, "\u2581adjective": 20535, "return": 24632, "\u2581relates": 16429, "mai": 14589, "yo": 2408, "385": 22952, "\u2581sears": 21298, "\u2581unsuccessfully": 12194, "\u2581anybody": 11181, "\u2581synth": 13973, "\u25811818": 15087, "rm": 6538, "\u2581police": 698, "\u2581vaccine": 15861, "\u2581slamming": 17781, "\u2581hinted": 24982, "\u2581screaming": 7093, "\u2581pet": 3170, "camera": 24636, "\u2581conifer": 25798, "\u2581vivian": 14137, "\u2581fenn": 27283, "3,500": 20071, "\u2581phones": 14830, "nez": 18361, "\u2581fissure": 28937, "\u2581skill": 6148, "\u2581merciful": 29287, "igen": 20114, "che": 2569, "\u2581concern": 3630, "\u2581concave": 29472, "bri": 5358, "\u2581locality": 10675, "\u2581godwin": 27317, "\u2581counsel": 8206, "\u2581kha": 4358, "\u2581guerrilla": 14054, "royce": 16717, "tension": 25573, "\u2581sixth": 2859, "backed": 18614, "fontaine": 20971, "\u2581essendon": 27103, "tra": 1939, "essa": 15962, "\u2581breakthrough": 13476, "\u2581tubular": 27204, "main": 6232, "\u2581sibling": 24792, "\u2581tiles": 14836, "full": 13727, "\u2581mourn": 17432, "\u2581vertical": 7035, "\u2581contra": 11805, "\u2581kristin": 16868, "jk": 16455, "\u2581cinematography": 18839, "2016": 4508, "\u2581grassland": 16816, "\u2581paxton": 27697, "\u2581sevilla": 28516, "\u2581aleksandr": 18647, "brick": 21406, "\u2581gunfire": 19079, "essential": 24219, "\u2581marginal": 11486, "\u2581hampden": 29171, "\u2581sitcom": 13435, "\u2581gong": 15479, "\u2581loan": 3826, "\u2581dismissed": 6446, "\u2581economically": 18047, "\u2581viktor": 13518, "\u2581financing": 13926, "\u2581recession": 21122, "\u2581feeder": 21634, "\u2581winters": 14502, "\u2581cowan": 26400, "\u2581im": 797, "\u2581helmut": 24679, "\u2581husky": 21301, "possess": 24246, "\u2581serbia": 6665, "\u2581otherwise": 3190, "\u2581samson": 21443, "\u2581afternoon": 3435, "usa": 4940, "\u2581stalin": 11779, "\u2581consolidation": 19666, "\u2581breathed": 8610, "\u2581parapet": 26304, "\u2581walking": 2094, "\u2581above": 784, "\u2581adventure": 5270, "\u2581inquiry": 10218, "liya": 27010, "color": 11282, "mom": 15929, "\u2581unemployment": 13781, "ppel": 15615, "\u2581bent": 4487, "activated": 25344, "\u2581mobility": 14806, "tical": 18142, "xx": 8962, "\u2581enclosed": 12188, "\u2581mid": 907, "\u2581overcome": 9059, "\u2581organized": 2518, "\u2581deputy": 2454, "\u2581mechanical": 4953, "\u2581sweeping": 14269, "\u2581benefice": 29828, "\u2581asked": 411, "\u2581depended": 19961, "\u2581roma": 12254, "\u2581searched": 9036, "gher": 24254, "om": 2636, "\u2581jenks": 17867, "\u2581lem": 10794, "\u2581buffalo": 5915, "ahl": 18382, "\u2581dusk": 18708, "kreis": 18825, "\u2581perplexed": 28983, "\u2581lycan": 26338, "407": 26301, "\u2581hawker": 24456, "ens": 3474, "symmetric": 16367, "cry": 14024, "187": 21027, "kino": 23231, "\u2581challenge": 2404, "zir": 18414, "\u2581interests": 4408, "structural": 29434, "\u2581allegations": 10251, "\u2581via": 1197, "usually": 13075, "zong": 11332, "\u2581vs": 4611, "\u2581rotating": 16164, "\u2581galilee": 29409, "bacterium": 21177, "bring": 16883, "\u2581pronounced": 10540, "ulatus": 26965, "\u2581travancore": 29939, "\u2581loves": 9330, "\u2581novella": 21345, "\u2581gasoline": 16448, "appe": 22306, "\u2581accomplishments": 19662, "abilis": 24715, "\u2581poland": 2040, "\u2581injured": 3866, "\u2581slipped": 4506, "\u2581erected": 6184, "\u2581recover": 7635, "\u2581unlimited": 17222, "\u2581progressively": 22799, "\u2581flak": 26402, "\u2581revere": 25303, "\u2581gleam": 26214, "\u2581nu": 3152, "\u2581wis": 12375, "dies": 10139, "\u2581werner": 15925, "\u2581bahrain": 15975, "ploid": 28700, "dal": 3952, "\u2581tame": 21950, "native": 21525, "\u2581opined": 26545, "\u25811957": 3360, "\u2581gear": 4256, "\u2581google": 8144, "\u2581wrapper": 28051, "\u2581wrestled": 23351, "\u2581cervical": 29243, "shir": 15412, "\u25812005": 812, "qu": 5495, "\u2581temptation": 16891, "\u2581travelled": 7295, "\u2581molecule": 15907, "baud": 24348, "\u2581anna": 2823, "udge": 23644, "\u2581features": 967, "\u2581exclaim": 28316, "\u2581ortho": 17241, "\u2581only": 104, "\u2581favoured": 19395, "\u2581article": 2002, "\u2581empower": 23985, "\u2581assessing": 22822, "opod": 18115, "\u2581vancouver": 6154, "\u2581wilmington": 19559, "\u2581midfielder": 8618, "\u2581modifications": 13922, "\u2581influx": 20211, "hal": 4937, "novic": 18925, "\u2581screenplay": 8413, "ischen": 19204, "\u2581twilight": 15325, "\u2581suspected": 5867, "\u2581rajput": 26754, "\u2581temperatures": 7271, "\u2581slowly": 1447, "\u2581unfavorable": 29666, "stress": 16437, "rhynch": 29507, "\u2581paintings": 3933, "\u2581heir": 7678, "blooded": 27636, "\u2581chrys": 22497, "\u2581dominion": 13892, "border": 24389, "\u2581skepticism": 27670, "\u2581punk": 6769, "sek": 13947, "\u2581heartbreak": 23403, "\u2581wishes": 8803, "zone": 11661, "\u2581guys": 2776, "\u2581climbed": 5505, "\u2581trousers": 17490, "\u2581maroon": 18739, "\u2581casablanca": 26905, "\u2581polgara": 28058, "\u2581drain": 9661, "\u2581remarkably": 20951, "\u2581mage": 12507, "\u2581precise": 11114, "\u2581dong": 11827, "\u2581attract": 7637, "\u2581blossom": 14442, "\u2581humiliated": 26951, "\u2581bhutan": 19281, "\u2581sentiment": 12561, "\u2581orientation": 10245, "\u2581flaming": 18525, "\u2581rhetoric": 19114, "\u2581vinyl": 8833, "\u2581cheering": 26151, "\u2581categories": 6422, "\u2581substantive": 28054, "\u2581saab": 28247, "\u2581curtain": 11668, "\u2581declining": 16534, "\u2581melodies": 18736, "\u2581pontifical": 24498, "\u2581export": 7487, "\u2581rams": 12429, "start": 13680, "lunk": 22033, "\u2581casper": 26137, "\u2581organise": 20119, "purpose": 12060, "\u2581afonso": 29900, "\u2581outcome": 9774, "\u2581wanna": 11024, "\u2581rutherford": 20258, "1860": 23572, "\u2581nigel": 13963, "\u2581patricia": 10047, "\u2581partner": 2417, "\u2581discovery": 4291, "\u2581monks": 10324, "\u2581inflation": 15559, "\u2581who": 72, "\u2581kindly": 22215, "\u2581grit": 18844, "\u2581straining": 24048, "\u2581accordion": 20753, "chel": 8856, "\u2581avengers": 17380, "\u2581stunned": 9956, "\u2581integration": 8078, "etienne": 18575, "\u2581nato": 10826, "\u2581schulz": 27649, "\u2581stunning": 16173, "56%": 26080, "\u2581overseen": 24185, "\u2581hawke": 18424, "\u2581sca": 11583, "\u2581witt": 14709, "data": 18768, "\u2581alone": 1056, "again": 18762, "\u2581topology": 21661, "\u2581col": 3313, "kova": 11238, "\u2581chemist": 15684, "\u2581monumental": 17429, "bow": 12230, "ondo": 18060, "\u2581nativity": 29904, "\u2581sleepy": 19244, "made": 5781, "\u2581des": 1746, "very": 7864, "cons": 12124, "\u2581merrill": 19313, "\u2581mad": 2073, "\u2581auschwitz": 26657, "\u2581johannes": 13429, "\u2581raided": 21674, "ants": 5958, "\u2581bucharest": 16406, "\u2581barb": 10646, "\u2581constable": 12241, "\u2581filthy": 20883, "ado": 5672, "another": 14945, "\u2581veins": 9948, "\u2581queer": 20242, "\u2581coincidental": 24777, "\u2581manual": 5132, "mia": 9043, "inck": 22113, "\u2581violated": 16625, "vati": 19521, "\u2581pour": 9435, "\u2581chemo": 27696, "\u2581survive": 4563, "esteem": 17635, "\u2581earlier": 1201, "\u2581speed": 1362, "75": 3283, "\u2581todd": 6176, "\u2581stumble": 19436, "zhu": 24540, "represented": 28628, "pilot": 17212, "\u2581cf": 10084, "\u2581protein": 4008, "\u2581dewey": 23800, "\u2581unrelated": 17379, "\u2581soprano": 12958, "\u2581trespass": 25841, "mino": 15373, "terrorism": 24141, "\u2581labyrinth": 23412, "\u2581virtual": 6599, "haus": 7972, "\u2581retina": 24325, "\u2581survivor": 13238, "\u2581abdullah": 15758, "\u2581sant": 12987, "\u2581behalf": 5883, "dry": 12611, "this": 1565, "\u2581locations": 4095, "\u2581turmoil": 19558, "\u2581magical": 8090, "\u2581eponymous": 16997, "\u2581neighbors": 11184, "bah": 9779, "\u2581subgroup": 18697, "\u2581pieter": 21323, "\u2581lance": 6825, "\u2581berwick": 25919, "vier": 9397, "\u2581alps": 15085, "\u2581bassett": 27549, "form": 4190, "\u2581verbs": 19363, "\u2581puritan": 23964, "ick": 7030, "\u2581karma": 19486, "\u2581chew": 18013, "\u2581cantata": 21675, "\u2581peaceful": 9484, "\u2581serialized": 27877, "\u2581possess": 10379, "june": 7854, "\u2581expand": 6073, "\u2581theology": 7971, "\u2581stade": 16844, "\u2581randy": 10206, "456": 26204, "\u2581must": 491, "\u2581championships": 1446, "\u2581elsewhere": 6040, "\u2581packages": 16875, "\u2581hill": 948, "\u2581reptiles": 23094, "\u2581piper": 12405, "manager": 22256, "\u2581fi": 6028, "\u2581shrimp": 21043, "\u2581trader": 20413, "\u2581brooks": 8250, "iq": 9908, "\u2581specify": 19077, "georgian": 28942, "\u2581ballots": 19791, ":10": 6608, "\u2581traitor": 15997, "\u2581anatomical": 26506, "uil": 21442, "\u2581angelina": 26743, "transferase": 29021, "\u2581admission": 8050, "\u2581privatization": 26351, "dvd": 20318, "\u2581bis": 7777, "\u2581aerial": 9830, "link": 6258, "cord": 17213, "att": 10303, "\u2581trance": 17793, "\u2581disappears": 20341, "285": 21917, "\u2581austro": 14534, "\u2581mammoth": 25734, "\u2581eco": 11761, "hl": 3712, "crypt": 11435, "ny": 1536, "\u2581nj": 14481, "guide": 17599, "\u2581database": 6018, "\u2581networking": 16230, "880": 25070, "\u2581georgina": 28186, "\u2581calling": 2555, "\u2581tobias": 19187, "\u2581verify": 21012, "collins": 27523, "\u2581lengthened": 29416, "\u2581these": 158, "logue": 21392, "\u25811300": 23635, "dha": 7977, "\u2581jett": 17341, "\u2581packaging": 16850, "\u2581suburban": 9255, "\u2581shutting": 19796, "\u2581muti": 22072, "\u2581cross": 919, "\u2581riga": 18882, "\u2581kiel": 17093, "\u2581mcallister": 28729, "\u2581late": 456, "\u2581viewership": 29802, "\u2581positions": 3062, "\u2581stems": 14181, "\u2581masquerade": 29491, "\u2581cherished": 29065, "\u2581macbeth": 27580, "\u2581seems": 2206, "\u2581contacts": 11894, "\u2581antagonist": 14648, "square": 12300, "\u2581fridge": 19497, "\u2581marsh": 7768, "\u2581petrol": 17840, "\u2581cracked": 10094, "\u2581fin": 4361, "\u2581fox": 2385, "\u2581tx": 20225, "\u2581exercised": 20739, "\u2581denise": 17871, "\u2581throb": 29150, "\u2581leadership": 2399, "super": 8542, "\u2581strasbourg": 20990, "\u2581penelope": 21958, "\u2581exceed": 11976, "\u2581hash": 19170, "logarithm": 29452, "\u2581cries": 13882, "\u2581tweet": 20224, "\u2581ratification": 27164, "\u2581cab": 4846, "\u2581commodities": 24181, "\u2581complaints": 11707, "\u2581crossroads": 19954, "\u2581test": 1289, "list": 5739, "\u2581episcop": 28891, "\u2581tired": 4117, "440": 16403, "\u2581hosting": 10637, "vp": 10924, "ose": 6641, "\u2581disappointing": 17841, "tribute": 14755, "ning": 2981, "\u2581significance": 7294, "\u2581elements": 2065, "cz": 8378, "\u2581people": 148, "card": 6648, "\u2581lex": 13492, "\u2581parsons": 14783, "\u2581dispatch": 14226, "mixed": 21049, "\u2581sensible": 24599, "\u2581trois": 25522, "\u2581erickson": 29003, "\u2581designs": 4748, "\u2581sympathy": 12966, "200,000": 14335, "\u2581esk": 22357, "\u2581plunged": 19761, "1875": 23616, "\u2581curving": 24234, "\u2581equator": 26809, "\u2581downtown": 3722, "enic": 22803, "founded": 7282, "\u2581marco": 7687, "france": 10696, "\u2581comin": 25537, "dri": 12180, "\u2581havre": 29235, "so": 656, "\u2581ithaca": 28294, "\u2581suggest": 5601, "\u2581concerts": 5968, "\u2581quin": 13902, "\u258110%": 12476, "\u2581transported": 10019, "\u2581reims": 29847, "\u2581engraved": 19169, "\u2581bask": 26104, "\u2581whispers": 11998, "\u2581basalt": 23816, "\u2581brightened": 29234, "\u2581resentment": 22208, "\u2581age": 348, "\u2581201112": 14447, "gur": 11147, "\u2581rescuing": 26058, "\u2581trains": 2967, "\u2581veer": 15959, "\u2581amelia": 12749, "\u2581brisbane": 7273, "opoulos": 18803, "world": 4423, "zhi": 8656, "\u2581tak": 13302, "\u2581nylon": 27344, "\u2581daughters": 4909, "\u2581terrain": 9132, "ip": 4307, "szcz": 20940, "\u2581mccormack": 29735, "\u2581clarissa": 26963, "\u2581mckinley": 24283, "\u2581moth": 4317, "\u2581rwanda": 17247, "\u2581martyr": 16100, "\u2581characteristic": 7326, "\u2581reunite": 22329, "\u2581ek": 15351, "\u2581bucks": 15324, "\u2581blindfold": 27734, "\u2581mcgovern": 29555, "\u2581milano": 23862, "\u2581survey": 3431, "\u2581bravo": 20117, "\u2581socialist": 4540, "\u2581geography": 11320, "\u2581wasted": 17835, "\u2581peak": 3059, "\u2581beethoven": 18268, "\u2581yeovil": 29395, "\u2581network": 982, "\u2581naka": 13062, "watt": 17322, "\u2581circles": 7845, "\u2581mersey": 22672, "\u2581granada": 20204, "\u2581step": 1424, "\u2581issuing": 17502, "\u2581certain": 1200, "tom": 6015, "\u2581crusade": 15542, "\u2581berkeley": 8039, "\u2581galerie": 20917, "polli": 26388, "3:30": 25948, "\u2581using": 568, "wehr": 21080, "polynesian": 29253, "\u2581havana": 17381, "\u2581wat": 15553, "\u2581urgency": 21872, "\u2581home": 213, "\u2581pinned": 12957, "\u2581regulatory": 11921, "\u2581responding": 15887, "\u2581dredge": 28283, "five": 4709, "\u2581kre": 8012, "\u2581banking": 8350, "\u2581amenities": 22124, "\u2581eine": 23046, "\u2581genevieve": 23489, "\u2581leg": 1860, "\u2581mul": 6633, "\u2581nymph": 18293, "\u2581implicit": 20290, "\u2581orchard": 12635, "\u2581existed": 4589, "line": 1143, "msa": 22967, "\u2581laughs": 13779, "\u2581phi": 13424, "\u2581governance": 11966, "\u2581wreck": 10221, "\u2581tied": 3802, "\u2581boa": 20361, "\u2581frontal": 22319, "\u2581story": 609, "\u2581though": 362, "\u2581kowalski": 28783, "\u2581struggle": 4697, "fra": 8691, "\u2581favor": 3654, "\u2581relativity": 23490, "\u2581patron": 7419, "\u2581kings": 3768, "\u2581featured": 1070, "\u2581documentation": 13945, "\u2581consonant": 20520, "\u2581gambia": 25212, "\u2581refused": 2453, "2003": 3325, "800,000": 27082, "\u2581variety": 1747, "\u2581raced": 8066, "\u2581venus": 12422, "\u2581recognizable": 22759, "\u2581envelop": 29128, "\u2581admitted": 3297, "\u2581flip": 8805, "rousse": 28357, "\u2581abruptly": 9287, "\u2581protected": 3803, "kai": 7252, "\u2581coke": 16294, "\u2581lend": 13866, "sheet": 17627, "eri": 6137, "acetyl": 22580, "ging": 2762, "gho": 21342, "\u2581importantly": 16922, "\u2581wrath": 16677, "\u2581modular": 20802, "quette": 26115, "\u2581dela": 16293, "cuba": 18347, "\u2581neighbourhood": 9876, "\u2581vito": 23758, "iku": 17501, "thought": 20131, "\u2581honourable": 20502, "\u2581substituted": 20795, "\u2581dish": 8827, "\u2581motors": 10518, "bre": 3692, "\u2581nearly": 1212, "\u2581alvarez": 19070, "\u2581torn": 6999, "\u2581kicking": 11228, "\u2581knight": 3222, "pon": 8782, "\u2581oppose": 13659, "\u2581snap": 6877, "ordinary": 28378, "frequent": 22840, "1987": 6019, "\u2581nightstand": 25269, "tation": 8593, "\u2581already": 614, "\u2581sources": 2662, "\u2581airliner": 26333, "\u2581yorkshire": 6087, "\u2581certification": 10439, "\u2581playing": 791, "\u2581completely": 1524, "\u2581organist": 17283, "\u2581weldon": 28801, "\u2581authorities": 2962, "\u25811933": 4759, "\u2581gigantic": 23051, "\u2581sybil": 27366, "vy": 5903, "\u2581fitzpatrick": 27801, "\u2581laredo": 29564, "\u2581clipper": 23229, "1922": 13556, "530": 21260, "\u2581cancelled": 7404, "sh": 1635, "\u2581coffee": 2364, "\u2581midwest": 15727, "\u2581is": 25, "proc": 15617, "\u2581hesitated": 9246, "\u2581bce": 11411, "\u2581gol": 13442, "\u2581neuroscience": 23982, "\u25811840": 8141, "\u2581nocturnal": 26053, "\u2581scout": 6158, "\u2581hail": 13079, "\u2581fun": 2414, "\u2581italian": 1186, "ilus": 21635, "\u2581jennifer": 7291, "\u2581werewolves": 20866, "\u2581flipped": 9516, "released": 7906, "\u2581recaptured": 26234, "\u2581gifford": 28108, "aro": 7629, "\u2581sem": 12829, "dar": 2542, "\u2581baronet": 7801, "\u2581wally": 22128, "\u2581beckett": 23568, "\u2581logical": 11545, "\u2581bacterio": 29632, "jones": 18994, "governmental": 17424, "pa": 1060, "ffa": 21366, "\u2581hormone": 13996, "\u2581contrast": 3710, "\u2581catherine": 5662, "yuki": 9793, "\u2581professorship": 22858, "foy": 25094, "ellus": 26297, "\u2581telenovela": 24442, "361": 26424, "number": 16299, "koy": 22231, "\u2581torpedoes": 21413, "\u2581defense": 1882, "\u2581daly": 19995, "\u2581andalusia": 25191, "turn": 8169, "\u2581diagnose": 28438, "\u2581fling": 22050, "\u2581albrecht": 25862, "\u2581diversity": 8622, "film": 9051, "\u2581emergence": 16545, "\u2581absorbed": 9334, "placed": 12449, "relax": 29620, "\u2581dust": 4346, "\u2581channel": 1318, "\u2581plc": 16640, "\u2581desk": 2911, "\u2581guardian": 5510, "\u2581spared": 19843, "assisted": 29109, "\u2581cromwell": 18039, "rda": 16319, "uki": 13504, "\u2581mullin": 24698, "bhadra": 27096, "sell": 11322, "\u2581kuhn": 26864, "\u2581chair": 1404, "\u2581bin": 4511, "avo": 13884, "61": 4821, "\u2581ship": 995, "\u2581hiero": 21000, "\u2581chant": 8895, "\u2581mps": 15103, "lur": 14130, "\u2581105": 10126, "\u2581doesnt": 5886, "mizu": 21191, "\u2581camping": 15380, "\u2581yes": 1643, "\u2581aside": 3841, "\u2581diagnosed": 12573, "igan": 8889, "\u2581clink": 27155, "\u2581lifting": 8855, "\u2581patrick": 3294, "\u2581reorganized": 15443, "\u2581harbor": 4809, "\u2581terrace": 8859, "\u2581canoe": 10520, "\u2581instantly": 6064, "romanian": 27362, "\u2581songs": 916, "\u2581dab": 14690, "\u2581zionist": 22986, "rar": 15011, "zona": 22720, "\u2581marjorie": 23546, "\u2581grind": 16913, "\u25812011,": 1567, "\u2581dale": 8711, "\u2581pictorial": 28255, "\u25811945": 2403, "\u2581booth": 7417, "\u2581flowers": 3353, "play": 5438, "\u2581embarrassed": 10920, "pp": 3421, "\u2581breath": 1090, "\u25811988": 1777, ":06": 23163, "chul": 26133, "\u2581plates": 7262, "\u2581xi": 5641, "\u258160": 2083, "\u2581birmingham": 5536, "russia": 18455, "geschichte": 22501, "chryso": 24876, "1964": 8846, "\u2581gang": 3285, "\u2581syd": 21325, "\u2581radiating": 25771, "\u2581recognition": 3514, "jon": 9782, "\u2581kendra": 15398, "deficient": 29044, "\u2581ships": 2034, "vot": 23061, "\u2581akademi": 25698, "\u2581sha": 4116, "january": 9067, "\u2581loser": 9891, "\u2581stripped": 10841, "\u2581andrei": 21257, "ggi": 19086, "dzi": 16422, "\u2581rare": 2890, "gaya": 24433, "\u2581kenny": 8999, "\u2581grate": 26210, "\u2581infidel": 26786, "\u2581initiate": 17014, "\u2581diagonal": 16807, "\u2581strand": 11785, "\u2581diaries": 22232, "\u2581ze": 4972, "\u2581geologist": 19905, "\u2581parole": 16862, "\u2581attempts": 3265, "\u2581names": 1817, "\u2581snarled": 16870, "\u2581tampere": 29129, "\u2581lea": 11107, "\u25811937": 4320, "cliffe": 16647, "\u2581targeting": 15972, "bery": 20945, "\u2581gav": 17815, "position": 9339, "\u2581vicente": 20769, "plex": 11326, "\u2581candle": 11660, "\u2581manoeuvre": 27874, "\u2581disguised": 20446, "5/": 10551, "\u2581alain": 17974, "\u2581kelvin": 25399, "\u2581nec": 19724, ":03": 22336, "\u2581heaved": 22632, "243": 21904, "yard": 3476, "model": 13998, "\u25817": 453, "bag": 8632, "\u2581granville": 26212, "\u2581bugs": 13925, "\u2581failed": 1702, "\u2581someone": 737, "\u2581colonel": 2946, "\u2581intercourse": 25811, "\u2581maize": 23655, "\u2581pleading": 17827, "\u2581trump": 7095, "ved": 4763, "\u2581bloomington": 28011, "kuma": 17141, "\u2581chap": 13724, "\u2581crump": 27702, "\u2581colombian": 14884, "\u2581enclosure": 17155, "\u2581lubeck": 29756, "\u2581destroyers": 15649, "\u2581comforting": 18224, "\u2581shook": 1347, "\u2581torso": 16682, "is": 403, "\u2581straightforward": 22262, "european": 12997, "\u2581everyday": 10789, "\u2581digest": 14779, "2007": 2727, "\u2581disrupt": 14668, "\u2581alison": 14515, "\u2581circumference": 29676, "\u2581does": 630, "\u2581mainly": 2011, "nunciat": 24347, "\u2581publisher": 5916, "\u2581promenade": 26646, "\u2581rai": 6623, "\u2581robbins": 19779, "borne": 11302, "\u2581meadows": 15697, "rag": 11208, "\u2581coolidge": 28496, "au": 1346, "\u2581katy": 18236, "\u2581grandstand": 29054, "\u2581noun": 12072, "\u2581erection": 15511, "\u2581denotes": 17125, "\u2581filters": 21062, "\u2581saskatoon": 26698, "\u2581rampart": 27086, "\u2581celia": 20283, "\u2581indira": 28214, "\u2581nuisance": 28385, "\u2581pallid": 29382, "\u2581baa": 22982, "\u2581rog": 18124, "\u2581savanna": 22341, "\u2581predator": 17019, "\u2581alternate": 4912, "\u2581revert": 24156, "\u2581ju": 3191, "\u2581move": 780, "\u2581involvement": 5679, "ulous": 22717, "\u2581newer": 12372, "swiss": 22808, "\u2581perch": 22286, "\u2581disney": 5243, "\u2581disregard": 20201, "\u2581nathan": 6222, "rg": 8911, "ius": 2366, "\u2581declaration": 7098, "\u2581tee": 10366, "\u2581interspersed": 27320, "\u2581agri": 17152, "\u2581heights": 7161, "\u2581calm": 3562, "\u2581moonlight": 13076, "wack": 21921, "\u2581104": 10896, "\u2581bert": 11502, "crum": 25241, "soul": 16585, "\u2581cocoon": 28152, "\u2581childish": 26433, "\u2581insulin": 24536, "\u2581unearthed": 28348, "\u2581osbourne": 29709, "\u2581prologue": 21528, "\u2581refuse": 10198, "\u2581sligo": 29260, "\u2581celebration": 6669, "\u2581plant": 1321, "\u2581disarmament": 29612, "\u2581easy": 2010, "\u2581choice": 1837, "\u2581realized": 1896, "\u2581citation": 9715, "\u2581pau": 13523, "\u2581miriam": 19402, "\u2581medalist": 12796, "ry": 622, "10%": 20657, "\u2581pigs": 17336, "\u2581commence": 21844, "\u2581gomez": 14391, "vic": 6199, "\u2581barrister": 20661, "\u2581volunteers": 6592, "\u2581ample": 22298, "\u2581directions": 7876, "\u2581sergeant": 5755, "\u2581ely": 15391, "\u2581harbin": 26394, "itt": 10108, "\u2581technically": 12345, "\u2581seduction": 27990, "\u2581randall": 13637, "\u2581check": 2631, ":58": 21655, "\u2581philosophi": 21646, "3,200": 29752, "\u2581smoky": 23475, "\u2581matching": 10120, "\u2581sought": 3477, "\u2581rehearsal": 15006, "\u2581carnage": 28239, "\u2581amnesia": 27497, "grade": 8031, "\u2581pomerania": 21998, "\u2581organisations": 8626, "\u2581fixed": 3535, "temp": 9577, "\u2581edit": 9392, "\u2581santana": 22998, "\u2581falter": 27928, "\u2581developer": 10058, "\u2581nonprofit": 14948, "\u2581shane": 8444, "550": 12763, "\u2581yale": 7464, "\u2581humanitarian": 12164, "\u2581commandant": 17318, "\u2581ravi": 13251, "\u2581obstacles": 18368, "vb": 20468, "\u2581pim": 23877, "\u2581averted": 28956, "\u2581abigail": 18610, "lian": 7757, "\u2581fined": 20397, "terdisciplinary": 20745, "\u2581sundance": 22750, "\u2581conditioning": 19124, "atha": 16560, "\u2581taxonomic": 26381, "fed": 16777, "\u2581oxidize": 29099, "\u2581minu": 27113, "\u2581winchester": 14436, "\u2581szczecin": 28984, "\u2581limitations": 14070, "zaka": 23302, "verlag": 14669, "\u2581galley": 23729, "\u2581scratches": 26903, "\u2581eclipse": 11652, "hama": 15538, "\u2581mat": 4277, "\u2581yan": 8683, "personal": 18160, "\u2581labrador": 22645, "rimmed": 24503, "\u2581culmination": 29222, "\u2581conditional": 21206, "\u2581exploration": 8284, "republican": 28658, "\u2581updated": 6372, "\u2581registrar": 25393, "\u2581commented": 5973, "\u2581famous": 1561, "\u2581dramatic": 6153, "\u2581pom": 16214, "um": 723, "\u2581peeled": 24051, "\u2581rage": 6283, "\u2581gwen": 10380, "\u2581punching": 22249, "\u2581baird": 23456, "\u2581eil": 27896, "jung": 16889, "\u2581alpha": 5705, "\u2581applause": 23726, "\u2581showdown": 26711, "\u2581moreover": 9353, "\u2581varied": 9630, "\u2581biotechnology": 21870, "\u25811979,": 8637, "\u2581damage": 2308, "gged": 15186, "\u2581encountered": 8208, "bender": 23472, "\u2581nak": 13053, "lata": 18147, "\u2581cabo": 20952, "ega": 13681, "\u2581timothy": 11410, "petti": 20525, "\u25811798": 17114, "\u2581sped": 18615, "cbn": 23955, "\u2581strokes": 16817, "\u2581adler": 19254, "sharing": 25213, "\u2581chronicle": 9071, "\u2581booze": 28274, "\u2581uttered": 24072, "\u2581ruthless": 17634, "\u2581architect": 3338, "\u2581attained": 14354, "\u2581snack": 16385, "since": 7412, "\u2581peasants": 15065, "\u2581interval": 14422, "\u2581aurora": 14610, "jc": 15864, "\u2581malawi": 19659, "ananda": 18815, "\u2581quarterfinal": 26257, "\u2581historians": 7489, "\u2581terminate": 17952, "earth": 12322, "\u2581danish": 4708, "\u25811939": 3628, "\u2581retailers": 19609, "\u2581beau": 7821, "board": 2806, "\u2581emma": 4476, "\u2581columbia": 2368, "\u2581lexington": 16090, "\u2581appendage": 29152, "\u2581her": 36, "\u2581narrative": 6503, "\u2581lobby": 8521, "\u2581boo": 9827, "\u2581$10,000": 21756, "\u2581kris": 13446, "\u2581montenegro": 14647, "\u2581tapestry": 27144, "\u2581boiler": 11755, "\u2581pa": 1562, "\u2581mouth": 725, "\u2581some": 109, "\u2581rain": 1938, "\u2581inscription": 8868, "\u2581fortifications": 17199, "nol": 19404, "\u2581smuggling": 23343, "\u2581steel": 1951, "\u2581comedy": 2459, "lob": 10904, "\u2581bowel": 26050, "\u2581spiegel": 28564, "414": 25717, "\u2581midnight": 6373, "\u2581rehabilitate": 28202, "\u2581plan": 944, "\u2581broad": 2748, "\u2581cats": 9471, "\u2581upside": 17439, "ranger": 21187, "\u2581lordship": 21775, "\u2581sensitive": 7830, "\u2581demeanor": 24282, "\u2581accessed": 12904, "\u2581bha": 8191, "\u2581logan": 5116, "\u2581rap": 4888, "\u2581outraged": 26134, "\u2581redevelopment": 18087, "\u2581bohemia": 18701, "\u2581slim": 8824, "\u25811825": 13642, "\u2581briar": 27796, "\u2581consumer": 6461, "\u2581rural": 1758, "\u2581takeover": 16751, "\u2581redesigned": 19807, "funk": 19039, "\u2581neu": 7052, "\u2581clamped": 20637, "\u2581brickwork": 29365, "1918": 12339, "round": 5000, "670": 22730, "\u2581alexander": 2009, "\u2581psychotic": 28296, "\u258129": 1515, "\u2581bursa": 28155, "\u2581descended": 9581, "uze": 20646, "\u2581brightness": 21138, "\u2581xbox": 13800, "\u2581giddy": 29412, "\u2581raid": 6847, "\u2581tottenham": 21179, "\u2581instead": 700, "\u2581norwich": 14536, "\u2581tips": 11034, "activating": 27939, "dot": 12527, "\u2581ascended": 22147, "children": 17853, "\u2581apache": 17140, "\u2581confluence": 15238, "\u2581drained": 12466, "\u2581encourages": 20162, "\u2581loss": 1526, "\u2581hired": 3658, "\u2581shot": 999, "\u2581paco": 27309, "\u2581ghanaian": 27637, "403": 25821, "\u2581okay": 1705, "ravan": 24534, "\u2581burkina": 23914, "\u2581thomson": 12482, "\u2581tucker": 9769, "vol": 5847, "\u2581nowhere": 7651, "\u2581beauchamp": 29671, "\u2581lifestyle": 8937, "\u2581strong": 966, "\u2581discrimination": 9628, "\u2581they": 59, "\u2581everything": 796, "\u2581posted": 6054, "\u2581amphibious": 18635, "\u2581adapt": 9924, "angi": 15998, "\u2581bomber": 10216, "\u2581teaches": 13022, "frater": 29551, "\u2581larger": 1662, "356": 24510, "\u2581organised": 6770, "lle": 6696, "\u2581spying": 25128, "\u2581widely": 2525, "ops": 11314, "kom": 11207, "cf": 8940, "\u2581125": 9917, "\u2581benson": 12808, "\u2581bianca": 21929, "\u2581has": 63, "\u2581rem": 11948, "\u2581solomon": 8857, "\u25818:00": 28770, "\u2581hutch": 18176, "\u2581nutrients": 22455, "\u2581amalgamation": 24098, "\u2581unsteady": 29032, "\u2581conversion": 6263, "arna": 17499, "\u2581dax": 22204, "\u2581reversed": 12951, "\u2581amphi": 22667, "seeded": 14611, "\u2581qualifications": 18752, "\u2581denver": 7173, "\u2581shanghai": 8269, "\u2581becoming": 1535, "\u2581latest": 5736, "\u2581notes": 2434, "\u2581source": 1267, "\u2581indicate": 4342, "\u2581mount": 2149, "\u2581teammate": 11204, "\u2581robb": 17448, "\u2581convincing": 13650, "\u2581viral": 14987, "\u2581generators": 20495, "\u2581jimmy": 4128, "\u2581disguise": 14185, "itta": 18582, "\u2581gemini": 22926, "\u2581invade": 17291, "\u2581pas": 5750, "\u2581hood": 6124, "lain": 10792, "kop": 13454, "lx": 24560, "tis": 3409, "\u2581camps": 7792, "\u2581frey": 15834, "\u2581crimson": 12302, "disc": 9752, "\u25815,": 2508, "\u2581drastic": 27065, "\u2581learns": 11346, "\u2581iron": 1751, "\u2581emm": 22909, "\u2581including": 215, "]": 500, "\u2581contender": 16478, "\u2581cod": 14395, "cranial": 28555, "bila": 26203, "ophi": 17553, "\u2581iris": 11057, "\u2581sweat": 6006, "\u2581geoffrey": 11965, "\u2581element": 4520, "recorded": 12538, "\u2581$35": 25227, "\u2581tighter": 13375, "\u2581cases": 1871, "\u2581shakespeare": 7297, "capital": 21316, "\u2581fencer": 27133, "\u2581axiom": 21148, "automatic": 23465, "\u2581menacing": 23822, "\u2581susannah": 22804, "317": 22051, "\u2581kew": 25441, "\u2581requested": 6602, "\u2581swam": 17832, "\u2581subsidies": 23996, "\u2581bowen": 18505, "\u2581koh": 18848, "\u2581varies": 9803, "\u2581nee": 12616, "\u2581plurality": 28849, "\u2581match": 730, "opathy": 25660, "\u2581segregation": 20536, "\u2581current": 866, "akh": 8499, "\u2581moroccan": 19210, "\u2581denis": 11288, "\u2581godfrey": 20948, "\u2581blackberry": 27367, "st": 384, "\u2581grace": 2784, "59%": 27052, "\u2581wellesley": 26772, "\u2581bases": 8426, "44": 4268, "\u2581muh": 23064, "lets": 11045, "ghost": 24277, "1830": 26861, "\u2581lu": 1612, "\u2581andrew": 2376, "\u2581exists": 5636, "\u2581gerard": 10306, "\u2581syndicate": 17013, "\u2581manga": 7847, "\u2581leicestershire": 22504, "\u2581doorknob": 29115, "sac": 14974, "\u2581bragg": 20402, "\u2581sloping": 26721, "ero": 5103, "\u2581sun": 939, "\u2581talisman": 28844, "accus": 25195, "\u2581corinthian": 22776, "\u2581migrated": 14204, "\u2581lauderdale": 25621, "\u2581strategies": 10272, "intuitive": 24392, "\u2581windows": 1936, "55": 4083, "\u2581shorter": 7622, "\u2581poured": 8336, "\u2581ahmad": 9918, "\u2581boeing": 10665, "according": 18821, "\u2581energies": 21566, "\u2581mcleod": 27388, "\u2581contestants": 11236, "\u2581thor": 7189, "\u2581twelfth": 12447, "\u2581sutherland": 17712, "\u2581cru": 11498, "wn": 6156, "\u2581corri": 20534, "\u2581after": 75, "\u2581huntingdon": 27745, "\u2581devastated": 15667, "\u2581guise": 22681, "\u2581malaysia": 5101, "\u2581essex": 8813, "\u2581threads": 20396, "fon": 10229, "\u2581pathetic": 18512, "iu": 10391, "\u2581expanding": 9393, "\u2581inherited": 7179, "\u2581scot": 14448, "ject": 17759, "\u2581conte": 23986, "\u2581wad": 11941, "\u2581talks": 7837, "cho": 2613, "\u2581beat": 1800, "\u2581morales": 20089, "dara": 15835, "\u2581banished": 23186, "\u2581dive": 8523, "\u2581bulldog": 28463, "\u2581acute": 11194, "sure": 5838, "\u2581muster": 21935, "\u2581trainee": 22065, "ober": 21657, "\u2581achieving": 11784, "\u2581brick": 3529, "\u2581pharmacy": 15785, "\u2581bladder": 24953, "\u258199": 7787, "raja": 16060, "\u2581bounce": 17625, "\u2581mounting": 17022, "\u2581arctic": 10945, "\u2581sampson": 24847, "\u2581bridg": 22885, "\u2581mommy": 24974, "\u2581pak": 14046, "\u2581aqueduct": 23597, "\u25811983": 2082, "\u2581claiming": 5865, "\u2581chi": 1833, "\u2581nacional": 10856, "\u2581abduction": 23301, "\u2581overwhelm": 29793, "\u2581albums": 2675, "\u2581economy": 3038, "\u2581dizziness": 29092, "\u2581scan": 8313, "\u2581monoplane": 29226, "\u2581nit": 13686, "\u2581otter": 18538, "\u2581regina": 13756, "\u2581tape": 5473, "\u2581mapping": 13305, "lion": 14891, "p": 306, "\u2581knowledge": 1918, "11%": 22340, "940": 26784, "\u2581wounded": 4013, "\u2581malay": 12673, "figure": 15951, "\u2581trau": 28117, "\u2581seagull": 28473, "belgium": 29366, "\u2581chocolate": 7118, "\u2581vibrate": 20779, "scribe": 12543, "\u2581attribution": 27040, "\u2581ultimately": 3308, "\u2581bone": 4664, "\u2581reminder": 14973, "\u2581corb": 18649, "jewish": 19555, "\u2581dmitri": 23809, "\u2581scuttled": 29809, "\u2581kick": 4728, "\u2581rounded": 8472, "\u2581embarrassment": 16476, "\u2581ashton": 16167, "\u2581moan": 11353, "\u2581family": 190, "\u2581assassinated": 18891, "\u2581bronze": 2671, "rap": 10817, "\u2581portuguese": 4197, "\u2581aragon": 16175, "\u2581bernardino": 24000, "\u2581kept": 1025, "\u2581corner": 1531, "\u2581soften": 21044, "bul": 9077, "\u2581hydraulic": 15567, "\u2581smackdown": 24758, "\u2581abode": 29340, "\u2581universal": 4172, "\u2581edmond": 16952, "\u2581headwaters": 27205, "\u2581flourished": 21097, "\u2581grasping": 23765, "f": 410, "ia": 549, "\u2581marriage": 1722, "\u25811805": 16678, "\u2581bounced": 15035, "\u2581lillian": 21759, "1976": 7154, "\u2581peers": 14491, "\u2581postponed": 17026, "\u2581sales": 2598, "\u2581alice": 4577, "\u2581nineteenth": 9590, "\u2581rudy": 20221, "cell": 9725, "chow": 12071, "tee": 16778, "\u2581intake": 15253, "\u2581symphonies": 28973, "\u2581poultry": 24209, "pla": 9897, "\u2581idea": 882, "protect": 16265, "\u2581necessarily": 9324, "riel": 17075, "priya": 22187, "\u2581was": 23, "\u2581omni": 14677, "\u2581cape": 3041, "\u2581orthography": 28615, "\u2581accompanying": 11334, "\u2581zu": 6308, "\u2581actress": 2182, "\u2581peculiar": 13193, "\u2581father": 321, "\u2581tasked": 14605, "\u2581wurzburg": 29135, "probably": 14097, "\u2581counterpart": 14661, "\u2581saro": 27650, "touch": 15725, "\u2581omission": 28701, "\u2581competitive": 5707, "hobo": 27698, "general": 3661, "annual": 24661, "\u2581designer": 4742, "patient": 18546, "\u2581expressing": 16621, "\u2581valentin": 13903, "1961": 9920, "\u2581originally": 912, "\u2581shock": 3400, "\u2581tuna": 25719, "\u2581flopped": 26608, "\u2581chewed": 21003, "\u2581isle": 9717, "tl": 7786, "\u2581beasts": 17946, "support": 24168, "\u2581tax": 2225, "\u2581sterile": 27626, "\u2581undeveloped": 29208, "\u2581childbirth": 28096, "\u2581deuce": 29232, "ash": 6031, "\u2581respective": 7390, "\u2581nodding": 13761, "\u2581linden": 20692, "olo": 5335, "\u2581purposefully": 29532, "\u2581toys": 12029, "izer": 11907, "\u2581associates": 9423, "\u2581tent": 6797, "\u2581series": 231, "eric": 14744, "\u2581tokugawa": 24183, "ac": 1738, "\u2581encounters": 12550, "\u2581strung": 26484, "slavery": 27477, "depend": 19038, "\u2581attendance": 3648, "\u2581tradition": 2876, "\u2581bundesliga": 16752, "\u2581gou": 12775, "\u2581spaceship": 23368, "\u2581hunger": 8254, "\u25812006,": 2085, "feld": 5450, "\u2581enormous": 7135, "siphon": 25722, "\u2581completed": 1066, "\u2581distaste": 26978, "\u2581australasian": 28795, "rain": 8664, "\u2581delilah": 26365, "\u2581embedded": 12138, "\u2581nonlinear": 26795, "hom": 9619, "\u2581appraisal": 29713, "\u2581produce": 2213, "nant": 11028, "\u2581movements": 4889, "\u2581huddled": 22979, "\u2581longevity": 28089, "\u2581serenade": 29379, "kah": 15301, "\u2581cheek": 3199, "\u2581deux": 26590, "\u2581queue": 22521, "hiya": 25796, "\u2581injustice": 20406, "uber": 8866, "\u2581securing": 13498, "\u2581andhra": 16813, "\u2581remade": 27115, "\u2581concepts": 8700, "\u2581flat": 1844, "off": 1299, "920": 26637, "mene": 22055, "\u2581[": 636, "\u2581woven": 20570, "\u2581gameplay": 11946, "cook": 20840, "oz": 8531, "\u2581massimo": 28217, "arabic": 9812, "\u2581donations": 12465, "\u2581whisky": 24329, "mini": 6840, "\u2581koda": 23248, "\u2581yuri": 13468, "\u2581flower": 5383, "\u2581hammer": 5416, "\u2581alberto": 13177, "\u2581stirling": 17133, "\u2581wore": 3468, "\u2581nicole": 9409, "\u2581season": 198, "\u2581papers": 3747, "ando": 13869, "\u2581dependency": 26835, "\u2581adversary": 28470, "\u2581bumped": 22315, "\u2581devotees": 24678, "tic": 1786, "\u2581grimaced": 21900, "\u2581bandits": 22468, "\u2581depict": 20444, "vid": 7074, "worker": 22560, "1971": 7813, "\u2581undergoing": 16863, "\u2581dye": 14943, "\u2581pictured": 19774, "illion": 22316, "\u2581re": 302, "\u2581meteorite": 26670, "\u2581venomous": 28907, "\u2581mol": 7570, "thorax": 23434, "4%": 2708, "\u2581telling": 2497, "ucci": 9438, "\u2581mould": 17438, "\u2581jonas": 11080, "\u2581suffer": 6586, "\u2581tensor": 24883, "\u2581entourage": 26906, "\u2581fayetteville": 29390, "\u2581lithuanian": 12327, "neither": 25994, "\u2581chamber": 2707, "2002": 3341, "\u2581honduran": 29399, "03": 3601, "pull": 23289, "\u2581ashamed": 16653, "published": 14639, "\u2581micah": 20567, "kil": 16000, "ile": 3599, "\u2581shoulders": 2441, "\u2581chieftain": 21801, "flower": 11407, "things": 22309, "\u2581warned": 6676, "hardt": 17884, "244": 23168, "\u2581ger": 5389, "gung": 24933, "\u2581namibia": 16187, "\u2581jun": 7446, "\u2581analyses": 19758, "\u2581parana": 25197, "\u2581meantime": 14058, "\u2581mckee": 26068, "\u2581praetor": 26950, "\u2581folding": 14516, "\u2581looming": 25846, "\u2581ver": 2494, "\u2581su": 2538, "\u2581persons": 4280, "\u2581fabric": 6172, "\u2581demolished": 6365, "leader": 15689, "\u2581rumour": 25150, "\u2581velvet": 10786, "1845": 27068, "\u2581municipal": 2896, "\u2581bags": 9089, "\u2581suitcase": 16244, "\u2581whitney": 10029, "\u2581tropical": 3819, "\u2581graduate": 3156, "designed": 20555, "\u2581didnt": 1182, "cen": 8172, "\u2581toast": 13865, "\u2581notation": 15591, "\u258151": 5236, "\u2581ethics": 9998, "\u2581performers": 9877, "avan": 15223, "vina": 14072, "\u2581kobe": 24843, "\u2581nasi": 28136, "bole": 22008, "\u2581ferguson": 12457, "\u2581granting": 18599, "\u2581hindustan": 26574, "\u2581hoax": 27464, "\u2581patronage": 17469, "\u2581residents": 2175, "\u2581calypso": 29537, "\u2581develop": 2803, "\u2581enzymes": 19901, "\u2581glover": 21457, "ment": 1130, "didn": 18771, "\u2581empowerment": 26366, "\u2581hike": 16095, "\u2581ban": 2135, "tyr": 17120, "\u2581mls": 19164, "\u2581wiener": 26106, "\u2581electronically": 28489, "\u2581rav": 14765, "imo": 11947, "\u2581qur": 23686, "\u2581evening": 2089, "\u2581fide": 21832, "quo": 8970, "cliff": 20493, "\u2581rohan": 27955, "\u2581midland": 13418, "800": 8464, "\u2581educate": 17289, "425": 22699, "81": 3980, "\u2581daniels": 15369, "\u2581panorama": 24805, "\u2581grubb": 28478, "\u2581lurking": 26626, "\u25816:00": 26630, "garden": 22272, "\u2581prodigy": 28173, "\u2581biographer": 17434, "gam": 7253, "\u2581wheelbase": 29865, "mine": 7640, "\u2581linking": 12585, "2017": 5235, "\u2581supporters": 5955, "zor": 19795, "pto": 17236, "at": 721, "\u2581meng": 21425, "claim": 22661, "\u2581happens": 5531, "unda": 17030, "\u2581judicial": 7885, "\u2581sal": 3263, "\u2581tombs": 19660, "\u2581u": 287, "\u2581istanbul": 10617, "\u2581microsoft": 7099, "\u2581directory": 16755, "\u2581struggled": 6076, "\u2581steak": 19360, "\u2581defects": 21747, "lima": 22861, "mie": 5970, "oche": 21540, "\u2581reconstruct": 25426, "gent": 7685, "\u2581thur": 11935, "\u2581aircraft": 1147, "market": 10822, "\u2581sacrificed": 22762, "\u2581candlelight": 29334, "\u2581max": 2049, "\u2581rotting": 25029, "\u2581freedom": 2326, "\u2581tagged": 27945, "\u2581colombo": 18715, "\u2581tamil": 4959, "\u2581stiffen": 28376, "\u2581novelty": 24301, "\u2581pottery": 12403, "157": 13187, "\u2581admits": 18102, "\u2581linebacker": 16210, "\u2581broke": 1842, "\u2581particular": 1498, "\u2581influential": 5241, "\u2581manages": 9118, "thra": 11631, "\u2581rented": 13676, "\u2581liga": 7422, "\u2581slut": 24702, "\u2581psychopath": 26153, "yi": 6906, "\u2581narrowed": 7596, "\u2581200304": 23760, "\u2581daze": 28079, "\u2581raf": 4652, "\u2581facial": 14951, "\u2581disability": 13129, "\u2581siege": 5647, "\u2581silhouette": 19263, "\u2581sunglasses": 19816, "\u2581anxiety": 10248, "year": 731, "lake": 11082, "\u2581lengths": 13189, "\u2581obey": 15410, "ogenesis": 22041, "whee": 24588, "\u2581tortricidae": 28105, "\u2581sanctum": 29406, "\u2581reporting": 6670, "bil": 9168, "istic": 3771, "\u2581swirling": 18760, "\u2581boutique": 24196, "hall": 5060, "408": 26621, "\u2581morphology": 21433, "after": 5162, "\u2581gianni": 23972, "\u2581distillery": 26489, "\u2581nepal": 8015, "\u2581palestine": 9030, "\u2581an": 40, "\u2581tyrol": 25378, "\u2581whispered": 2300, "\u2581cel": 11692, "\u2581chandler": 14931, "\u2581dickens": 21590, "ante": 4760, "\u2581moravia": 29607, "\u2581convection": 26472, "onic": 11151, "\u2581republic": 1194, "\u2581iraq": 4903, "\u2581considering": 5154, "\u2581classified": 5110, "\u2581bak": 10917, "\u2581started": 373, "\u2581rotated": 24107, "\u2581oskar": 27348, "\u2581guitarist": 4683, "\u2581rematch": 20847, "\u2581yeomanry": 28383, "\u2581get": 164, "\u2581assam": 14848, "\u2581unification": 20518, "\u2581shutout": 23055, "ter": 815, "\u2581reason": 1215, "\u2581staggering": 27287, "\u2581richmond": 5820, "operative": 9493, "\u2581break": 1442, "\u2581exaggerated": 19200, "\u258182": 9766, "\u2581storing": 25615, "\u2581recoil": 20853, "\u2581benedict": 11462, "oy": 7452, "tepe": 25363, "\u25811987": 1917, "semitic": 18285, "utz": 22017, "elimination": 29309, "\u2581pushing": 5076, "\u2581receiver": 6264, "\u2581grinned": 6083, "\u2581dazzling": 28005, "etta": 8232, "\u2581pleasing": 26942, "pada": 23388, "\u2581owner": 2410, "\u2581uk": 1063, "\u2581spatial": 14472, "network": 24106, "\u2581wealthy": 6574, "\u2581park": 405, "117": 17440, "ques": 13655, "\u2581pizza": 10684, "zig": 16594, "holz": 20647, "\u2581administra": 27932, "\u2581act": 601, "\u2581gritted": 19593, "\u25812019": 10114, "\u2581heavy": 1278, "\u2581usaf": 21106, "tah": 12515, "demo": 19274, "haran": 23843, "2,600": 28800, "\u2581certificate": 6259, "\u2581constitution": 2852, "\u2581holo": 17928, "\u2581ebert": 24126, "\u2581harper": 7531, "\u2581let": 408, "\u25811893": 6397, "\u2581prominent": 2357, "inn": 11789, "\u2581benefits": 5800, "police": 28926, "ova": 3496, "\u2581parks": 6450, "\u2581crop": 9833, "uzu": 24713, "\u2581kunst": 13508, "\u2581soothing": 17252, "\u2581reassure": 17269, "\u2581smallest": 11056, "chin": 6572, "\u2581proportion": 7814, "\u2581adelaide": 6851, "igny": 18629, "lower": 17591, "\u2581partisans": 22403, "\u2581inflict": 23174, "\u2581deed": 16540, "\u2581looks": 1879, "\u2581watershed": 13060, "\u2581eden": 9912, "bella": 15889, "\u2581cheng": 14505, "kovic": 10186, "\u2581cowboys": 13080, "ries": 2829, "ink": 14543, "\u2581labelled": 21854, "\u2581rhodes": 11201, "\u2581columbus": 8950, "ranga": 17708, "\u2581americas": 13501, "\u2581dil": 9658, "\u2581traveller": 24664, "\u2581krishna": 9261, "96": 4060, "\u2581exotic": 13407, "\u2581coerce": 29769, "\u2581adequate": 12870, "\u2581fitness": 11331, "\u2581workforce": 16790, "\u2581bordered": 12681, "\u2581glances": 15525, "\u2581magnesium": 26820, "\u2581rosh": 25437, "obligatory": 27849, "\u2581witchcraft": 23740, "tum": 5633, "\u2581explaining": 10225, "\u2581amar": 16489, "chuck": 22791, "\u2581slash": 14098, "\u2581did": 144, "itu": 12866, "\u2581pelo": 20274, "\u2581room": 337, "\u2581albuquerque": 21730, "lw": 23281, "\u2581kasa": 25718, "frog": 27657, "\u2581provision": 8738, "\u2581due": 397, "\u2581visitors": 4531, "\u2581cattle": 6206, "\u2581crossbow": 25663, "plica": 25971, "\u2581purchase": 3301, "\u2581pattern": 3732, "\u25811865": 6636, "\u2581fo": 4310, "\u2581clam": 15786, "\u2581roadway": 17225, "\u2581columb": 21677, "wort": 20313, "\u2581restarted": 27440, "stru": 11602, "1800": 25408, "\u2581bali": 15079, "except": 10066, "\u2581run": 485, "421": 25406, "\u2581agustin": 26268, "\u25811998": 1315, "\u2581chile": 5947, "\u2581promoter": 14167, "\u2581masked": 20354, "\u2581generous": 12284, "\u2581optics": 25493, "tain": 5851, "\u2581vargas": 23880, "\u2581starter": 11744, "\u2581drilling": 18520, "\u2581striat": 29674, "\u2581investor": 16189, "\u2581cabbage": 28088, "\u2581boxer": 8714, "demon": 20585, "\u2581solved": 15091, "\u2581sarcastic": 24508, "\u2581expire": 25910, "\u2581hinduism": 22413, "\u2581immortality": 22819, "\u2581tandem": 21252, "\u2581obstruct": 24544, "\u2581whistling": 25931, "\u2581sky": 1661, "\u2581netting": 27534, "\u2581enoch": 27639, "\u2581torture": 7897, "\u25811914": 4656, "\u2581echoes": 20709, "\u2581slides": 18066, "\u2581infirmary": 25636, "\u2581inquire": 17096, "lakshmi": 16662, "660": 19748, "\u2581mlb": 13287, "\u2581regular": 1290, "\u2581fond": 7625, "\u2581migratory": 25986, "\u2581unbeaten": 22746, "\u2581python": 20059, "\u2581disorders": 11856, "\u2581virgin": 4701, "kell": 16507, "\u2581geelong": 22097, "\u2581caramel": 29481, "mount": 9780, "\u2581cit": 17100, "\u2581turbines": 21405, "\u2581phosphorus": 27258, "1684": 28928, "\u2581defend": 5589, "\u2581preschool": 23772, "\u2581oscar": 6741, "\u2581yugoslavia": 8508, "\u2581hostile": 10690, "\u2581opted": 13920, "\u2581nightmares": 18157, "\u2581womb": 23579, "\u2581schmidt": 15217, "\u2581strands": 16895, "\u2581stopping": 7048, "\u2581inferno": 24533, "\u2581romans": 13481, "\u2581rpg": 22338, "\u2581flinders": 29238, "\u2581consecutive": 4195, "\u2581jess": 9900, "\u2581atp": 16543, "\u2581chancel": 17664, "234": 20404, "\u2581wipe": 11500, "\u2581crockett": 28768, "\u2581neo": 4368, "perhaps": 11756, "\u2581volcano": 13367, "compatible": 20049, "\u2581drowning": 16832, "app": 7753, "guy": 19979, "\u2581defensive": 4222, "\u2581latched": 29182, "\u2581manning": 12481, "\u2581peek": 14918, "nagar": 6790, "kinetic": 16905, "\u2581complied": 27498, "orum": 11495, "ost": 14367, "\u2581sire": 17530, "\u2581simpler": 19120, "\u2581elsie": 27377, "\u2581dartmouth": 20004, "vind": 19479, "\u2581stance": 10930, "\u2581darius": 16409, "\u2581serves": 2589, "\u2581streaming": 11920, "ked": 4616, "\u2581massachusetts": 2809, "detect": 28262, "yar": 8023, "\u2581industrialist": 21196, "\u2581pag": 19006, "\u2581handcuffs": 28567, "\u2581desolate": 29669, "ly": 102, "\u2581thus": 1086, "\u2581gasped": 8403, "\u2581patrolling": 26638, "tur": 2517, "\u2581chau": 10046, "\u2581relationships": 5833, "\u2581cobb": 16257, "\u2581august": 316, "\u2581concentration": 5686, "\u258178": 8372, "\u2581stamp": 10151, "\u2581marge": 22724, "que": 2005, "\u2581hurled": 25618, "\u2581sidekick": 26554, "\u2581louise": 8219, "\u2581enthusiastic": 16843, "\u2581instructional": 25565, "\u2581selangor": 28932, "\u2581sexy": 7819, "\u2581unnamed": 14550, "ejo": 15456, "\u2581diminished": 17942, "\u2581sze": 18409, "\u2581mountaineer": 20900, "\u2581cotton": 5211, "\u2581lawyers": 10073, "\u2581innocence": 14105, "his": 4398, "\u2581overlook": 20930, "\u2581whisper": 6128, "\u25811991,": 6383, "\u2581kildare": 26094, "\u2581canadiens": 24191, "20%": 21447, "\u2581hushed": 25917, "\u2581constrained": 28751, "respect": 23898, "\u2581syringe": 27622, "\u2581robot": 8288, "london": 12474, "\u2581supportive": 18683, "climat": 24487, "\u2581chill": 7385, "\u2581diseases": 7697, "\u2581gonzaga": 27868, "\u2581sponsorship": 12540, "\u2581unusually": 15200, "bomber": 26548, "\u2581$2": 6439, "\u2581scho": 10252, "\u2581firm": 1904, "\u2581royalist": 18679, "\u2581nebraska": 8574, "\u2581lavish": 20707, "\u2581controlled": 3959, "\u2581sauce": 12182, "\u2581luminous": 27118, "hoo": 8884, "\u2581barron": 25963, "\u2581wrestlers": 16104, "\u2581frenzy": 23430, "\u2581shortlisted": 24269, "\u2581nunn": 26643, "\u2581grounded": 20784, "\u2581galactic": 20869, "\u2581tasmania": 13789, "\u2581redesignated": 12661, "\u2581sipped": 20143, "\u2581de": 121, "\u2581federico": 23429, "\u2581preserve": 6224, "siberian": 24019, "\u2581transistor": 23443, "\u2581impedance": 28272, "bauer": 14190, "\u2581inactivated": 17958, "\u2581masonry": 20964, "\u2581squadron": 1942, "\u2581earning": 6555, "\u2581katz": 18995, "\u2581coloured": 16246, "vm": 20147, "material": 21229, "\u2581rahul": 28621, "ologists": 15196, "\u2581trojan": 19805, "ert": 6767, "\u2581wasn": 526, "1934": 12056, "\u2581kil": 5786, "\u2581glistening": 26770, "\u2581gene": 3194, "\u2581oddly": 17459, "bos": 10349, "050": 22974, "\u2581seminar": 15658, "\u2581legion": 5834, "wait": 8195, "\u2581amid": 12956, "\u2581secondary": 2277, "\u2581endured": 19851, "\u2581commit": 9686, "\u2581expose": 13833, "\u2581ventures": 15828, "intercontinental": 20593, "\u2581agile": 27475, "\u2581movement": 1018, "\u2581trolleybus": 29787, "\u2581lending": 21750, "shot": 7868, "\u2581types": 2551, "mond": 4660, "theoretic": 29805, "1994": 4938, "izz": 17470, "\u2581bypass": 8900, "\u2581head": 157, "\u2581organizations": 2856, "\u2581angus": 12930, "\u2581nairobi": 23651, "\u2581garb": 19646, "iger": 9038, "\u2581exclusive": 6753, "ola": 2268, "\u25811917,": 12643, "chrom": 20151, "together": 21001, "mort": 17523, "\u2581syntax": 22649, "\u2581oath": 10638, "\u2581lehman": 22634, "ruba": 26409, "\u2581articulation": 27818, "\u2581distinctive": 7296, "\u2581demo": 8376, "\u2581affiliated": 6751, "\u2581clo": 7383, "\u2581kisses": 8211, "\u2581surgeons": 20073, "\u2581ascend": 18489, "\u2581inches": 3829, "\u2581mcclellan": 25913, "child": 11287, "\u2581prone": 15957, "\u2581flo": 9319, "\u2581flanders": 15784, "\u2581extraction": 16748, "\u2581palaeo": 24344, "\u2581solidarity": 17351, "\u2581stadium": 1431, "\u2581burbank": 29145, "\u2581promoting": 7248, "sten": 11248, "\u2581lynx": 25107, "\u2581less": 787, "\u2581motorcycle": 7021, "\u2581styx": 23123, "\u2581cody": 15130, "\u2581constantinople": 13038, "\u2581emphasis": 6238, "\u2581$1,000": 28995, "\u2581oversized": 24077, "\u2581monopoly": 18210, "\u2581aggravated": 27178, "\u2581cinematic": 22912, "\u2581fuzzy": 20631, "\u2581concede": 29449, "\u2581neighbor": 12700, "\u2581mistakes": 13623, "ard": 1514, "\u2581jacobs": 12174, "lette": 15030, "\u2581revolves": 21719, "\u2581grateful": 8083, "\u2581comedies": 25271, "\u2581daimon": 28275, "\u2581doors": 3000, "\u2581trapez": 29302, "von": 11956, "\u2581plantation": 10377, "1945": 9518, "\u2581stony": 17911, "unov": 29324, "\u2581scream": 5791, "\u2581equatorial": 23710, "\u2581highland": 11140, "\u2581continuation": 15503, "vector": 28033, "\u2581arrogance": 27179, "\u2581display": 3042, "\u2581wildfire": 26150, "\u2581signals": 7616, "\u2581open": 368, "\u2581maitre": 28854, "\u2581despite": 869, "\u25811970,": 10485, "\u2581outlaw": 11875, "\u2581six": 490, "\u2581absorbing": 24904, "thwaite": 22844, "lje": 24028, "\u2581estrada": 27577, "\u2581thought": 289, "\u2581hysteria": 28971, "\u2581yawn": 17356, "\u2581visits": 7659, "\u2581raising": 5698, "\u2581visited": 3120, "boo": 10858, "\u2581flock": 15055, "\u2581coconut": 16806, "serbian": 17426, "\u2581searches": 19994, "\u2581date": 1231, "\u2581benfica": 28106, "\u2581disciples": 19706, "\u2581cambodian": 25852, "\u2581needed": 851, "\u2581classroom": 10188, "\u2581admiration": 19528, "\u2581whatsoever": 22207, "71": 4241, "\u2581marquess": 19014, "\u2581death": 372, "\u2581patches": 16359, "\u2581brochure": 28189, "\u2581footballer": 2596, "\u2581propagate": 24618, "shell": 15984, "\u2581diversion": 18807, "khi": 14056, "\u2581goodness": 18509, "\u2581francisco": 2086, "\u2581spill": 11318, "\u25814,000": 13845, "\u2581futsal": 25897, "madi": 23062, "\u2581ulster": 12110, "\u2581built": 392, "pass": 6201, "\u2581marino": 18500, "\u2581fighters": 6718, "\u2581calmed": 23060, "\u2581shaggy": 27571, "\u2581plasma": 12677, "\u2581zan": 14662, "\u2581miles": 754, "\u2581adviser": 10430, "chip": 19682, "\u2581rated": 7675, "\u2581dated": 5210, "\u2581luggage": 19133, "\u2581fearing": 17516, "\u2581republished": 27112, "\u2581artery": 19759, "\u2581carrot": 21555, "\u2581flowering": 11550, "costa": 23169, "\u2581sturdy": 25678, "\u2581sake": 8132, "luk": 14602, "\u2581geothermal": 29268, "\u2581hiv": 9926, "\u2581hijack": 21691, "pata": 22954, "\u2581correction": 14608, "\u2581prestigious": 8550, "\u2581mp": 4628, "\u2581pala": 8334, "\u2581neptune": 23129, "\u2581eaves": 25849, "ru": 1820, "\u2581video": 763, "wa": 1608, "\u2581pioneering": 15036, "\u2581land": 476, "\u2581rights": 1096, "\u2581factual": 26947, "\u2581parchment": 23866, "\u2581wiltshire": 19615, "ogni": 22007, "kou": 14390, "\u2581paz": 15986, "\u2581shuffling": 26588, "\u2581landmarks": 19045, "\u2581pollock": 26238, "\u2581frightening": 18903, "\u2581moon": 2121, "\u2581keyboard": 8896, "shima": 9685, "\u2581statistic": 25199, "\u25811949": 3720, "\u2581fink": 26027, "\u2581cesare": 26724, "\u2581organ": 4180, "\u2581slowed": 10024, "\u2581optimization": 21597, "\u2581undertake": 16960, "\u2581transgender": 18983, "\u2581expansion": 3233, "\u2581reelection": 20140, "\u2581affect": 6245, "\u2581change": 753, "holm": 9825, "\u2581footbridge": 28990, "\u2581wentworth": 22693, "\u2581enduring": 19909, "\u2581slapped": 12070, "hampton": 19834, "\u2581drag": 5501, "gum": 13491, "\u2581physicist": 13597, "\u2581martial": 7788, "\u2581schism": 26983, "nbc": 21459, "\u2581decorate": 27117, "oka": 6117, "\u2581tasting": 21637, "\u2581fairies": 23678, "final": 4932, "party": 9635, "concert": 28662, "\u2581southbound": 22807, "\u2581minute": 2038, "\u2581harp": 9669, "ane": 3708, "\u2581twist": 7844, "\u2581position": 649, "\u2581manipur": 29010, "starring": 26089, "\u2581dobson": 27061, "\u2581glow": 6839, "\u2581walther": 28908, "reau": 24085, "\u2581better": 574, "\u2581claim": 2632, "ulin": 22024, "\u2581headed": 2400, "\u2581chestnut": 17665, "\u2581reappeared": 25254, "\u2581brin": 17970, "\u2581very": 253, "\u2581intestinal": 28669, "\u2581thirteen": 6388, "\u2581comparative": 14102, "\u2581metabolic": 23295, "\u2581barclay": 20379, "ali": 5517, "\u2581abilities": 7009, "\u2581gaj": 27223, "\u2581percival": 28420, "8/": 12530, "\u2581lynn": 8339, "\u2581college": 314, "\u2581pulling": 3303, "ini": 2651, "\u2581works": 693, "grass": 14992, "\u2581readership": 29749, "\u2581disappeared": 4115, "\u2581international": 294, "\u2581transmit": 18745, "\u2581castel": 17262, "\u2581similarly": 5843, "\u25811948": 3280, "\u2581kibbutz": 28599, "\u2581comprises": 8595, "\u2581placed": 1037, "\u2581comedic": 23717, "\u2581snow": 2224, "\u2581eli": 8161, "offs": 13328, "\u2581jig": 20202, "\u2581stepping": 9451, "\u2581ambush": 15215, "\u2581kum": 14460, "\u2581weary": 19536, "\u2581cristobal": 29598, "\u258144": 4576, "digger": 22581, "\u2581equipped": 5503, "\u2581ferries": 22015, "\u2581attorney": 2925, "\u2581bank": 965, "ecker": 19066, "\u2581antiquities": 25097, "\u2581damaged": 4514, "obliterat": 27596, "\u2581shoulder": 1395, "\u2581detach": 28683, "\u2581unionist": 16234, "\u2581walter": 3011, "\u2581accidental": 20210, "glyph": 16689, "aria": 5257, "development": 26119, "denominational": 27433, "\u2581moral": 5457, "\u2581imprisonment": 10521, "\u2581eat": 2749, "\u2581supernatural": 11215, "\u2581nowadays": 15694, "\u2581postmaster": 22642, "\u2581kingsley": 25514, "\u2581flashing": 14316, "\u2581bait": 16627, "\u2581harmony": 9941, "\u2581linen": 18756, "\u2581disturbance": 14797, "\u2581aired": 3357, "\u2581street": 446, "\u2581kepler": 29272, "\u2581showcasing": 27515, "\u2581persecuted": 27834, "\u2581finishing": 3718, "burn": 4249, "fiction": 11820, "gine": 22131, "\u2581ravaged": 27972, "\u2581paulo": 8706, "\u2581eaten": 8792, "\u2581poisoning": 18755, "\u2581somewhat": 4131, "iye": 20644, "mobil": 9126, "\u2581foreign": 1228, "\u25811935,": 14301, "\u2581jean": 1907, "\u2581respected": 10861, "\u2581icon": 9801, "\u2581cairo": 11772, "263": 24537, "responsive": 22153, "\u2581papi": 24796, "\u2581investigation": 3193, "conspirator": 21834, "\u2581pearce": 22049, "\u2581seneca": 23431, "eyed": 9256, "\u2581fathom": 25791, "\u2581class": 718, "\u2581blinded": 23967, "wor": 10041, "\u2581curiously": 19385, "\u2581dig": 6131, "mac": 6893, "\u2581escaping": 14700, "aux": 8061, "ege": 12906, "\u2581penetrate": 20309, "\u2581huntington": 18682, "\u2581spent": 1111, "\u2581carcass": 23915, "\u2581demonic": 25869, "457": 26999, "\u2581editors": 12149, "\u2581means": 1108, "\u2581comfortable": 5733, "\u2581genome": 12823, "\u2581archery": 24334, "\u25811883": 7683, "\u2581touchdowns": 10943, "\u2581drive": 1493, "angel": 13539, "\u2581rebuilt": 6465, "stat": 10631, "\u2581joachim": 21094, "\u2581assorted": 28542, "instrumental": 21176, "\u2581commanding": 7560, "dige": 26164, "\u2581scrubbed": 29069, "\u2581metric": 11544, "\u2581yue": 22513, "\u2581wise": 6714, "\u2581new": 78, "\u2581spaces": 7644, "gies": 19008, "\u2581sold": 945, "\u2581cougar": 21272, "\u2581bleach": 25366, "\u2581justify": 17829, "\u2581chemicals": 14679, "graha": 28014, "\u2581discussed": 6078, "\u2581hanna": 10413, "\u2581manipulation": 17561, "\u2581laws": 2975, "\u2581miss": 1501, "\u2581resented": 27772, "\u2581overwhelming": 11276, "cratic": 25944, "\u2581tube": 6273, "\u2581markets": 5406, "\u2581zem": 22600, "\u2581cambridge": 3354, "\u2581crosby": 16185, "\u2581covering": 3846, "\u2581eisenhower": 18919, "\u2581prompting": 18332, "tolerant": 23039, "\u2581asthma": 26719, "mc": 4829, "\u2581kur": 6902, "\u2581greenland": 17496, "ably": 4801, "does": 10739, "59": 3902, "\u2581ji": 7022, "tico": 17983, "\u2581reckless": 18915, "\u2581rainforest": 19122, "ruk": 21427, "\u2581regulate": 13933, "\u2581minimize": 16713, "\u2581jogged": 27690, "\u2581half": 519, "\u2581opinions": 11900, "illon": 13806, "\u2581sut": 21006, "\u2581squadrons": 13372, "\u2581carmichael": 26135, "bha": 12431, "\u2581employee": 7362, "\u2581ce": 4000, "\u2581interfering": 26277, "\u2581south": 180, "\u2581baghdad": 15604, "\u2581outline": 11160, "\u2581silt": 24326, "holder": 12427, "\u2581electronics": 7956, "teur": 20130, "\u2581scientist": 6415, "vla": 18078, "\u2581classmates": 22515, "uzzi": 22217, "\u2581stretch": 6363, "\u2581chit": 14810, "\u2581boys": 1626, "jan": 4098, "\u2581strangely": 16432, "\u2581shelby": 16859, "auer": 12434, "\u2581catalytic": 26586, "\u2581maguire": 27302, "\u2581sense": 1259, "\u2581deal": 1183, "\u2581rampant": 27560, "\u2581entire": 1078, "\u2581purification": 28640, "\u2581accelerating": 28968, "jima": 17316, "\u2581trace": 5565, "\u2581abrupt": 20342, "quercus": 29143, "\u2581smashing": 23789, "\u2581limb": 11757, "17%": 22343, "mag": 9473, "elman": 19965, "brien": 9751, "\u2581decisive": 12123, "\u2581surrender": 6616, "\u2581bos": 11054, "\u2581tad": 11681, "\u2581elector": 14790, "\u2581coherent": 21144, "\u2581ascetic": 28922, "\u2581bowler": 14682, "\u2581guiana": 24746, "\u2581dom": 11859, "also": 2573, "\u2581racine": 29636, "\u2581ostr": 14859, "\u2581guthrie": 22472, "ik": 2883, "\u2581wisconsin": 4078, "\u2581overcame": 28325, "ced": 11014, "\u2581hayward": 22833, "cas": 5949, "\u2581shank": 21585, "\u2581inverness": 25164, "feli": 25320, "\u2581tolkien": 25840, "\u2581fuel": 2881, "\u2581amusement": 9697, "mec": 21380, "\u2581injury": 2966, "going": 13269, "entrepreneurship": 22438, "rov": 6937, "\u2581wichita": 21666, "\u2581slept": 7132, "bulgarian": 22478, "\u2581kiran": 24201, "previously": 17603, "\u2581presidential": 3389, "\u25811891": 6627, "admiral": 19283, "\u2581sonia": 19958, "ei": 5180, "\u2581audiences": 9992, "\u2581student": 1209, "\u2581remix": 5039, "\u2581habitats": 11705, "oci": 16325, "\u2581dynamite": 24146, "\u2581pairs": 7473, "\u2581mccoy": 17780, "\u2581resist": 7983, "shoot": 12511, "\u2581helmet": 8835, "\u2581ignition": 20583, "\u2581boil": 22941, "\u2581steamed": 24309, "\u2581sor": 7779, "268": 23994, "tf": 11720, "\u2581joy": 4512, "\u2581jewish": 2014, "\u2581bartlett": 23097, "\u2581birthday": 4455, "\u2581puebla": 28256, "\u2581nice": 2210, "\u2581disseminate": 27510, "\u2581sofia": 8634, "\u2581basement": 7751, "engineer": 19153, "original": 13989, "cier": 24941, "gle": 4875, "circ": 14022, "\u2581julia": 5423, "\u2581pra": 3865, "\u2581glove": 15305, "\u2581highlights": 13046, "\u2581nehru": 25054, "\u2581intercept": 18324, "erne": 20026, "cran": 26070, "\u25811870": 5560, "\u2581teatro": 19149, "algebra": 29773, "\u2581painter": 3810, "\u2581chan": 6122, "\u2581fru": 13394, "\u2581breakfast": 5319, "\u2581singers": 9004, "\u2581said": 87, "love": 4583, "\u2581burst": 4704, "\u2581td": 15596, "\u2581testified": 17046, "\u2581waived": 18018, "\u2581disclosed": 23700, "\u2581reunification": 28614, "\u2581supercup": 29415, "\u2581winslow": 28170, "\u2581sten": 11471, "\u2581xiv": 18613, "\u2581tahiti": 26628, "\u2581memphis": 10122, "\u2581walks": 7423, "\u2581vertebrae": 27024, "\u2581cao": 15100, "\u2581cockpit": 15023, "learning": 26001, "painted": 19545, "\u2581colbert": 25864, "\u2581robin": 4804, "\u2581turbulence": 28648, "\u2581severn": 26893, "\u2581wires": 17504, "pala": 10447, "tria": 17543, "\u2581lucid": 27547, "\u2581mauro": 28887, "\u2581layer": 5385, "unde": 12239, "\u2581adventist": 24648, "develop": 26051, "\u2581scrape": 23855, "\u2581supposedly": 11731, "\u2581doyle": 11825, "\u2581campground": 26206, ":51": 23090, "\u2581heating": 12398, "\u2581likelihood": 19096, "\u2581mun": 6492, "phil": 9211, "\u2581compulsion": 27640, "\u2581oakland": 8996, "\u2581ufc": 13467, "1874": 23091, "\u2581riddle": 16551, "\u2581uefa": 5693, "\u2581yesterday": 7124, "\u2581psychiatry": 21387, "\u2581colorful": 16136, "\u2581lennon": 16685, "\u2581weekly": 3481, "\u2581architects": 8043, "\u2581tomb": 7344, "yon": 7370, "\u2581clashed": 25374, "\u2581distress": 13402, "adam": 15932, "\u2581bernardo": 23640, "\u2581lat": 14303, "urs": 9679, "\u2581clasp": 18604, "uria": 15866, "\u2581satisfied": 8315, "\u2581freshwater": 13934, "\u2581exposing": 17302, "jia": 12755, "\u2581portrayal": 14095, "\u2581estimates": 10527, "\u2581wireless": 10149, "\u2581deserted": 14446, "\u2581snarl": 17934, "condition": 22141, "blad": 23032, "\u2581this": 48, "inner": 18005, "una": 4140, "military": 20142, "\u2581handsome": 8058, "\u2581recounted": 25235, "\u2581dumb": 9317, "\u2581denim": 27901, "\u25811985": 1981, "\u2581wrap": 8118, "tari": 15732, "\u2581rejoined": 16301, "\u2581steal": 8680, "owed": 20737, "\u2581clad": 15788, "\u2581dominique": 21368, "\u2581chattanooga": 26364, "\u2581burial": 7515, "\u2581witch": 5722, "\u2581atlantis": 19417, "\u258155": 5330, "\u2581staggered": 16674, "\u2581specifies": 27669, "\u2581that": 30, "\u2581odin": 25103, "\u2581ragnar": 28293, "\u2581wiped": 7891, "\u2581weaponry": 25417, "\u2581exhaled": 18751, "horn": 5554, "\u2581quivering": 27293, "\u2581allegro": 28915, "\u2581consciousness": 8298, "lop": 11362, "\u2581cute": 10901, "\u2581receptor": 11997, "guay": 24290, "\u258115,": 3749, "\u2581collecting": 10079, "able": 579, "rom": 8541, "\u2581oblast": 10933, "\u2581stylistic": 22572, "\u2581lawyer": 3672, "\u2581pale": 2908, "fest": 9962, "\u258133": 3534, "43": 4644, "269": 24764, "\u2581analogue": 21574, "\u2581spalding": 29968, "\u2581murder": 2244, "\u2581weinstein": 29628, "ls": 7532, "\u2581optimistic": 24408, "rank": 23083, "\u2581sticking": 15490, "\u2581it": 32, "\u2581gravi": 23213, "\u2581macon": 22493, "\u2581bing": 18080, "\u2581enigma": 27387, "\u2581website": 2271, "\u2581vector": 7497, "ias": 9814, "\u2581victim": 5508, "\u2581entirety": 17777, "\u2581gala": 10725, "\u25812020": 13906, "\u2581prehistoric": 17123, "\u2581curl": 14320, "\u2581basilica": 14089, "\u2581organizers": 21843, "\u2581listened": 7191, "\u2581strongest": 11110, "\u2581person": 840, "\u2581thornton": 16980, "\u2581career": 545, "plane": 10207, "\u2581character": 925, "misunderstanding": 21558, "\u2581obscured": 25543, "\u2581peshawar": 28670, "145": 12374, "\u2581periodically": 19886, "\u2581laundry": 15872, "\u2581subsistence": 27664, "\u2581babies": 11913, "voj": 27790, "\u2581franca": 29237, "\u2581mammal": 25833, "\u2581tales": 6495, "matt": 21965, "\u2581grabbing": 9910, "\u2581equipment": 2181, "\u2581testimony": 11658, "\u2581southern": 775, "\u2581nature": 1444, "hiko": 18566, "\u2581satisfactory": 25549, "\u25811660": 21463, "\u2581heck": 16490, "royal": 16426, "rong": 14271, "gne": 18757, "lade": 18862, "\u2581sophie": 7941, "\u2581hunan": 27527, "\u2581scissor": 24638, "\u2581wind": 1511, "spheric": 26159, "\u2581enhance": 10734, "\u2581serve": 1884, "\u2581kenji": 27343, "ity": 856, "\u2581owned": 1467, "annoy": 28328, "\u2581cadence": 25596, "type": 4474, "lino": 15183, "fear": 26895, "\u2581covington": 28403, "\u2581employment": 5029, "\u2581evolving": 22363, "\u2581goodbye": 9537, "\u2581confederation": 11467, "\u2581attacker": 20627, "\u2581mining": 4243, "\u2581hygiene": 23544, "remember": 18342, "\u2581huxley": 29643, "\u2581suppose": 5787, "\u2581trot": 18537, "oxy": 9229, "\u2581manuscript": 7894, "\u2581naturalist": 18589, "\u2581prevailing": 21861, "\u2581olimpi": 23566, "yeon": 20967, "\u2581entertained": 23711, "\u2581explicitly": 13108, "fran": 26102, "sustaining": 25076, "\u2581priesthood": 20145, "\u2581sloppy": 28582, "\u2581comparison": 6050, "\u2581nico": 8887, "\u2581sort": 2058, "icia": 15269, "\u2581karim": 22119, "\u2581credits": 5748, "\u2581web": 2741, "alam": 12777, "\u2581drury": 28245, "\u2581inferred": 29541, "\u2581boot": 6801, "\u2581sight": 2064, "emme": 24004, "\u2581elderly": 10214, "\u2581validity": 19058, "\u2581fein": 17953, "\u2581containers": 18988, "\u2581eastward": 16123, "\u2581abort": 21557, "\u2581nominations": 10654, "lj": 15664, "\u2581yeo": 23182, "\u2581$5,000": 27564, "\u2581cava": 24073, "\u2581footnote": 29305, "\u2581goblin": 19113, "\u2581wilcox": 25550, "\u2581arriving": 6426, "\u2581extra": 2230, "\u2581bus": 1683, "\u2581exasperated": 26219, "\u2581delta": 6395, "itz": 7565, "360": 19454, "cub": 21684, "\u2581doi": 9829, "\u2581proposes": 20621, "\u2581eggs": 5821, "character": 24589, "\u2581brentford": 27598, "turkish": 17981, "\u2581vai": 17136, "els": 6798, "\u2581val": 3347, "\u2581karate": 18850, "\u2581animation": 6236, "\u2581olaf": 20571, "vino": 19875, "ignac": 26230, "\u2581ei": 8099, "cel": 11040, "\u2581hari": 14703, "apped": 16664, "dini": 16892, "discriminatory": 28877, "\u2581clinton": 6320, "\u2581nazi": 5304, "\u2581shoot": 4376, "8:30": 29398, "\u2581replies": 16287, "\u2581federal": 1058, "\u2581halt": 7278, "\u2581sc": 4729, "\u2581remixed": 20348, "\u2581lucha": 23342, "hack": 22983, "\u2581wyatt": 14392, "\u2581techniques": 4212, "\u2581wiping": 16740, "\u2581horsemen": 26649, "allah": 12209, "\u2581records": 742, "wik": 26593, "139": 14890, "1852": 26573, "\u2581interim": 9997, "gui": 7215, "\u2581bliss": 14999, "\u2581corrosion": 26056, "\u2581spotlight": 19135, "\u2581vitro": 26777, "\u2581detection": 11643, "\u2581immense": 16248, "\u25811857": 9147, "\u2581murders": 10957, "\u2581attacking": 7524, "\u2581shaved": 23424, "\u2581becomes": 2633, "\u2581shrieked": 24362, "\u2581caused": 1497, "\u2581chuck": 6513, "michael": 16590, "\u2581transmitting": 25884, "phase": 20043, "\u2581cbc": 16361, "\u2581louder": 11604, "tory": 14599, "\u2581wicket": 14414, "\u2581tilting": 24382, "\u2581infant": 8470, "\u2581jer": 10438, "\u2581roz": 17052, "\u2581jolly": 25712, "\u2581remains": 1678, "lika": 24047, "\u2581oscillation": 27591, "\u2581burn": 4306, "\u2581zheng": 18852, "bride": 20852, "\u2581koko": 25544, "ura": 3031, "\u2581ensuing": 15296, "\u2581dalai": 28572, "yala": 23494, "\u2581medication": 12001, "\u2581positively": 15582, "\u2581stockings": 27845, "\u2581courtyard": 9860, "po": 1638, "\u2581graceful": 22609, "\u2581lying": 3262, "van": 2686, "\u2581confession": 9799, "dorff": 23042, "athi": 16505, "\u2581carries": 7329, "\u2581rosenthal": 28881, "\u2581marines": 10608, "\u2581rent": 7299, "\u2581nineteen": 13020, "zek": 16221, "/8": 21701, "\u2581ruth": 6313, "\u2581cerambycidae": 14555, "\u2581curling": 12430, "class": 1898, "\u2581weasel": 26773, "northamptonshire": 24242, "\u2581accusations": 14989, "\u2581allotment": 27781, "\u2581quadri": 22397, "chun": 12583, "\u2581kohl": 19310, "\u2581rules": 1761, "\u2581keeper": 12568, "\u2581normandy": 14650, "\u2581extortion": 29916, "\u2581angels": 6614, "\u2581incarnation": 15081, "\u2581hahn": 24418, "\u2581row": 3131, "almost": 18135, "\u2581gaunt": 27792, "\u2581cress": 25794, "\u2581conference": 1199, "\u2581rochelle": 27275, "\u2581bestowed": 19826, "\u2581wolf": 2597, "\u2581biennial": 21334, "\u2581former": 336, "three": 5642, "\u2581campo": 15554, "\u2581cheat": 18585, "historical": 24783, "\u2581nana": 14878, "\u2581studios": 3504, "\u2581deceased": 11781, "taro": 14523, "gawa": 9901, "ware": 5011, "\u2581homework": 22334, "\u2581incorporated": 3678, "\u2581mont": 5374, "lea": 7199, "\u2581trail": 2657, "\u2581treb": 27310, "\u2581boz": 20111, "\u2581italy": 1591, "labor": 20906, "\u2581tur": 6205, "\u2581humble": 16446, "leman": 20213, "\u2581goddamn": 16810, "\u2581uncomfortable": 8675, "\u2581vague": 14800, "\u2581recited": 26168, "\u2581finest": 10887, "sub": 7563, "atomic": 26990, "\u2581rudolph": 20662, "\u2581crystals": 17266, "\u2581moved": 385, "\u2581harrisburg": 26033, "holstein": 20422, "?'": 5663, "840": 25137, "\u25811948,": 11162, "\u2581whitish": 20430, "\u2581skater": 15860, "\u2581dockyard": 24211, "\u2581mystery": 5586, "clad": 16511, "\u2581kau": 15347, "\u2581antibiotic": 20017, "rj": 23008, "\u2581addition": 848, "\u2581burns": 7110, "\u2581vanished": 10546, "\u2581lonesome": 29846, "\u2581emotions": 5911, "\u2581jace": 10258, "\u2581satisfy": 14711, "\u2581vent": 9675, "eu": 5770, "\u2581sanctuary": 8300, "\u2581assimilate": 25491, "vella": 24642, "\u2581eyesight": 29141, "hood": 6075, "\u2581tier": 7197, "uli": 6243, "\u2581dar": 3178, "\u2581statesman": 20469, "\u2581bray": 14959, "\u2581during": 112, "\u2581danced": 12151, "pts": 13531, "\u2581turnpike": 18017, "\u2581hodgson": 27512, "non": 3951, "\u2581harvey": 7180, "\u2581yamaguchi": 29870, "\u2581wiggle": 19918, "aime": 27335, "\u2581merlin": 17009, "\u25811939,": 10573, "\u2581debut": 893, "\u2581williamson": 16400, "skog": 28781, "nav": 18343, "example": 29041, "holding": 14681, "\u2581napkin": 20398, "\u2581francaise": 20716, "ection": 20842, "\u2581bodies": 2576, "\u2581cc": 8093, "zhan": 23095, "\u2581wiley": 21577, "\u2581epstein": 27402, "\u2581slid": 3295, "kho": 19596, "\u2581organising": 23826, "mode": 15570, "awi": 18467, "\u2581dim": 5937, "\u2581production": 637, "\u2581rhino": 18642, "ettes": 16116, "\u2581ashby": 27997, "\u2581straw": 12920, "\u2581profess": 23145, "\u2581wanda": 23586, "dick": 15323, "319": 24178, "\u2581kla": 10110, "\u2581kr": 9645, "\u2581watercolour": 28393, "\u2581wrecked": 21589, "glauco": 29610, "\u2581piracy": 28181, "\u2581fau": 12850, "\u25811797": 18543, "\u2581vet": 13796, "\u2581mirrors": 17298, "\u2581networks": 5540, "alpha": 22480, "degree": 17513, "\u2581triggered": 15164, "\u2581beautiful": 1632, "\u2581courage": 8177, "\u2581outskirts": 14121, "\u2581lace": 9993, "woman": 6857, "fuse": 13072, "\u2581recalled": 6671, "\u2581roxy": 26408, "\u2581kannada": 16972, "\u2581inquiries": 28238, "fb": 13478, "\u2581connie": 20479, "\u2581exempt": 11459, "\u2581genetically": 22102, "shire": 5042, "acion": 13911, "\u2581overdose": 26090, "\u2581nigerian": 12541, "\u2581di": 926, "\u2581hawthorne": 25647, "\u2581dolly": 23026, "\u25811923,": 16160, "\u25811989,": 6794, "\u258123": 1137, "\u2581containing": 3503, "\u2581stubble": 25772, "\u2581stryker": 26647, "citizen": 28530, "\u2581fl": 8631, "\u2581prison": 1934, "\u2581extent": 5674, "\u2581dumont": 26448, "\u2581consideration": 9888, "\u2581minority": 6480, "\u2581tucson": 20537, "\u2581metabolism": 20505, "\u2581crawled": 13536, "ische": 9238, "\u2581tahir": 28605, "literally": 19760, "168": 13434, "george": 16162, "\u2581began": 260, "\u2581humanoid": 26339, "ogram": 20476, "captain": 16143, "\u2581currie": 20392, "\u2581poem": 4629, "ered": 8519, "\u2581tumble": 21065, "\u2581specialist": 8084, "zan": 6220, "\u2581applying": 11989, "\u2581argo": 17728, "wolves": 27603, "\u2581nitrate": 27735, "24": 1996, "nosed": 26752, "\u2581preparatory": 15852, "\u2581revisit": 29755, "\u2581rustle": 26247, "\u2581withdrew": 5978, "\u2581centennial": 17697, "\u2581enters": 8104, "\u2581torquay": 29856, "\u2581terrell": 29930, "\u2581bar": 748, "try": 5840, "opolis": 23526, "ois": 7795, "scientific": 28161, "\u25811": 137, "\u2581equivalent": 4602, "cursive": 24244, "\u2581insist": 20061, "\u2581arrogant": 17722, "borg": 6706, "\u2581rugby": 2362, "\u2581cheered": 26416, "\u2581wolves": 8732, "\u2581lodged": 23278, "\u2581finished": 842, "\u2581semester": 13738, "\u2581precaution": 20474, "dame": 23021, "\u2581coinciding": 29696, "\u2581timor": 19850, "1844": 26943, "\u2581ailment": 28796, "\u2581barrel": 7624, "\u2581fixtures": 19914, "ikka": 25377, "\u2581clergy": 11625, "\u2581occult": 23166, "eb": 7665, "\u2581towel": 8666, "\u25811829": 14452, "century": 2995, "strate": 17962, "az": 4925, "\u2581scooped": 23681, "laine": 16062, "cor": 4966, "cree": 15993, "lig": 12828, "\u2581admirer": 24303, "vika": 26783, "\u2581salute": 16188, "ples": 18534, "\u2581yi": 7679, "\u2581montane": 22685, "\u2581ornamentation": 29503, "\u2581trustees": 9416, "\u2581primitive": 11473, "anti": 5578, "empt": 14228, "ans": 5950, "\u25811944,": 8459, "\u2581wondering": 5712, "\u2581peaks": 13353, "\u2581krakow": 16537, "\u2581oblivious": 20970, "waiting": 24725, "\u2581advancement": 12624, "\u2581lost": 529, "\u2581cummins": 29898, "\u2581nim": 11547, "\u2581osteo": 24020, "\u2581ranging": 7657, "\u2581upanishad": 27987, "pan": 3206, "map": 15022, "\u2581menzies": 28899, "\u2581gratitude": 17887, "\u2581bologna": 16836, "\u2581angel": 2710, "\u2581jakarta": 16383, "\u2581scorer": 11219, "\u2581keys": 5534, "\u2581taekwondo": 28406, "lift": 10805, "eyn": 23119, "lessly": 9687, "\u2581bryson": 27291, "\u258168": 7936, "\u2581gaze": 1759, "\u2581135": 14027, "\u2581mauri": 22347, "\u2581lid": 8009, "\u2581flask": 28972, "ize": 2952, "\u2581brittany": 13770, "hf": 18526, "\u2581team": 173, "\u2581middleton": 20359, "\u2581baptism": 17166, "\u2581sonny": 15818, "\u2581finally": 722, "\u2581crept": 14249, "dasht": 29126, "\u2581humanist": 23890, "\u2581quarantine": 26937, "\u2581sagged": 27009, "\u2581lyceum": 29194, "\u2581alerted": 24884, "\u2581marguerite": 18319, "\u2581mused": 25446, "\u2581serbian": 6816, "\u2581quotation": 22786, "\u2581plague": 12338, "\u25811916": 5202, "\u2581factions": 15713, "li": 1210, "\u2581usher": 19566, "one": 849, "\u2581violet": 8125, "\u2581list": 968, "\u2581regarding": 3467, "\u2581billings": 24514, "\u2581clique": 29125, "\u2581puts": 11179, "\u2581daryl": 24478, "\u2581rho": 9270, "\u2581mainland": 7828, "\u2581regain": 10464, "\u2581beads": 21157, "sa": 1229, "\u2581expensive": 5381, "arranged": 23273, "115": 19275, "\u2581na": 1775, "self": 8411, "clear": 18600, "tier": 5259, "ucker": 16567, "burmese": 15813, "\u2581motioned": 14539, "\u2581doorbell": 27319, "tile": 9802, "lada": 24714, "\u2581snapped": 4853, "\u2581peter": 936, "physical": 23274, "\u2581ruiz": 21333, "1904": 17205, "\u2581finalized": 26117, "\u2581punched": 12953, "ivan": 20720, "\u2581married": 567, "\u2581england": 648, "\u2581bush": 3382, "\u2581creak": 17003, "\u2581quote": 16371, "\u2581kaufman": 21650, "\u2581ribbon": 9162, "\u2581ripley": 26998, "\u2581advocates": 15171, "\u2581elevator": 6026, "educated": 24693, "\u2581abbreviated": 15902, "\u2581northumberland": 19223, "\u25811915": 5267, "je": 1969, "\u2581eliminated": 4783, "\u2581stern": 6053, "\u2581removing": 9096, "ids": 9178, "documentary": 29754, "\u2581summarized": 24438, "\u2581montrose": 26788, "\u2581bakery": 21569, "kin": 1767, "\u2581talent": 4565, "hole": 5359, "\u2581fierce": 8465, "\u2581flap": 14926, "\u2581picasso": 24043, "\u2581deacon": 14775, "\u2581aroused": 21069, "\u2581human": 585, "\u2581subordinate": 12377, "\u2581gargoyle": 25447, "\u2581bancroft": 28589, "\u2581sinclair": 12720, "209": 19580, "street": 13376, "\u2581brescia": 28241, "\u2581apostolic": 12615, "yaku": 16027, "\u2581odz": 19389, "09": 2545, "\u2581prentice": 26428, "ignon": 28063, "\u2581heal": 13014, "\u2581eileen": 22346, "\u2581forested": 17180, "muslim": 23444, "\u2581blond": 8013, "special": 11118, "\u2581tessa": 14580, "\u2581arabic": 6663, "\u2581smear": 25042, "\u2581huron": 23074, "palli": 21204, "\u2581rudd": 21502, "\u2581plentiful": 29157, "\u2581surprised": 2948, "\u2581blocking": 11828, "\u2581hy": 4085, "aeus": 20081, "\u2581patrol": 5273, "\u2581touching": 6652, "\u2581doncaster": 21757, "met": 5909, "\u2581boots": 5894, "\u2581ridley": 24203, "alis": 8046, "\u2581participation": 5625, "\u2581hastings": 13857, "\u2581excelled": 24737, "\u2581koch": 12148, "priest": 24310, "\u2581poised": 25251, "\u2581courtier": 26798, "\u2581sloane": 20112, "\u2581cavall": 28720, "\u2581malaya": 19487, "\u2581samaj": 29227, "\u2581bulgarian": 7803, "\u2581farms": 9003, "\u2581advisor": 6721, "\u2581solid": 2941, "dicating": 28480, "associate": 23009, "\u2581libel": 23867, "\u2581loosened": 24690, "\u2581culture": 1365, "\u2581wagner": 10661, "hyster": 26912, "wrenching": 29436, "\u2581nebula": 23922, "\u2581apertura": 28616, "\u2581undertook": 13886, "\u2581possibilities": 13086, "\u2581rough": 4182, "ger": 1674, "\u2581sh": 5527, "rod": 6526, "\u2581regent": 9851, "induced": 21711, "alva": 19085, "\u2581antrim": 26226, "\u2581segregated": 26855, "\u2581explore": 8594, "\u2581tugged": 11212, "\u2581computation": 21683, "\u2581immortal": 10163, "ign": 9693, "\u2581convey": 11266, "\u2581sensational": 26519, "callaghan": 29231, "rian": 5008, "\u2581laboratory": 4746, "\u2581retains": 16793, "\u2581rojas": 29498, "scale": 5093, "\u2581hi": 4148, "wulf": 21344, "\u2581fluent": 19252, "major": 14071, "\u2581allies": 6255, "\u2581sheath": 16279, "\u2581grants": 8886, "\u2581below": 1021, "whatever": 13515, "\u2581lock": 3991, "\u2581ava": 13656, "\u2581imagery": 15051, "\u2581warden": 13764, "hanna": 27092, "\u2581pitiful": 28694, "kram": 24223, "\u2581refurbished": 21086, "\u2581bafta": 24825, "\u2581galle": 18408, "\u2581platt": 14254, "\u2581saving": 7599, "\u2581negotiate": 15172, "\u2581symptom": 26639, "\u2581spring": 1573, "\u2581deliver": 5879, "261": 22591, "\u2581resided": 13519, "\u2581pioneers": 15432, "\u2581incessant": 29934, "\u2581ankles": 18257, "\u2581jamaican": 19678, "\u2581probation": 19892, "\u2581collage": 21499, "\u2581madrigal": 29558, "\u2581inform": 10361, "\u2581cale": 17355, "\u2581budge": 24722, "\u2581inc": 3016, "ure": 4221, "\u2581disgust": 13658, "\u2581chappell": 29189, "\u2581nfl": 4101, "\u2581reliance": 22995, "\u2581observatory": 10176, "\u2581pulpit": 24522, "\u2581okrug": 29645, "\u2581taken": 658, "\u2581fiddle": 12759, "\u2581bikini": 21359, "\u2581swelled": 24086, "\u2581sausage": 22076, "\u2581kathryn": 23329, "\u2581nobel": 11072, "\u2581measurement": 11688, "\u2581oleg": 25926, "ve": 195, "\u2581rotate": 21448, "1913": 14997, "\u2581inclination": 22893, "heath": 21857, "\u2581triumphant": 22078, "\u2581men": 304, "\u2581explored": 11252, "caliber": 17145, "\u2581fiesta": 25754, "\u2581outstanding": 4012, "\u2581videos": 6610, "\u2581container": 12147, "271": 24363, "\u2581seating": 12011, "\u2581legally": 10524, "\u2581arguments": 10553, "\u2581genealogy": 27969, "idad": 22253, "mitra": 22878, "shed": 7399, "cili": 14327, "\u2581fortunate": 22446, "\u2581alvaro": 26661, "ix": 4028, "\u2581gradient": 17442, "\u2581librarian": 12793, "\u2581patton": 20161, "\u2581virtue": 10128, "\u2581roland": 7744, "\u2581worcestershire": 23315, "\u2581overnight": 12341, "washington": 26580, "util": 14255, "\u2581associated": 1598, "\u2581urged": 10032, "\u2581neat": 15956, "\u2581scully": 27846, "\u2581belle": 7240, "\u2581rambling": 29179, "\u2581silvia": 27773, "ro": 661, "\u2581pack": 3607, "\u2581entre": 21673, "consul": 27230, "\u2581mythology": 12201, "\u2581bol": 7397, "\u2581responses": 13231, "\u2581objective": 7038, "\u2581urban": 1980, "\u2581seafood": 25713, "\u2581unnatural": 21228, "\u2581trenton": 20006, "\u2581raked": 24624, "\u2581hunched": 22743, "vin": 2511, "\u2581resigned": 3861, "\u2581origin": 2986, "make": 11115, "\u25811968": 2388, "\u2581case": 610, "\u2581landscapes": 14899, "\u2581palma": 20825, "rik": 6639, "\u2581leroy": 21930, "\u2581auditor": 19172, "mik": 11753, "mash": 21168, "\u2581guido": 20966, "\u2581united": 181, "\u2581chimed": 28508, "\u2581rubbish": 28898, "ud": 3192, "\u2581starting": 1422, "\u2581niagara": 17085, "shade": 27209, "\u2581lanka": 6293, "\u2581version": 615, "700": 7915, "www": 6483, "\u2581references": 7231, "\u2581$100": 18162, "\u2581shrugged": 5225, "\u2581vowels": 17159, "\u2581dislike": 18686, "\u2581monmouth": 19063, "\u2581nod": 6425, "\u2581cyrillic": 18671, "\u2581apo": 15309, "2": 135, "\u2581cites": 20036, "\u2581volta": 25462, "\u2581image": 1961, "\u2581kabul": 23310, "\u2581evan": 8451, "\u2581beyond": 1701, "zow": 19271, "\u2581vortex": 25674, "\u2581sharks": 12711, "\u2581piazza": 24778, "\u2581levin": 18863, "\u2581snuff": 27579, "chen": 5549, "\u2581utility": 10082, "\u2581salvatore": 20327, "phra": 13314, "ggio": 14642, "uu": 19612, "\u2581mom": 1641, "\u2581expectations": 11870, "wit": 15826, "\u2581baptized": 22814, "\u2581republican": 2235, "\u2581proudly": 21048, "\u2581petro": 11251, "\u2581fear": 1719, "\u2581esther": 16865, "\u2581about": 88, "\u2581throughout": 892, "\u2581aeronautic": 24874, "\u2581cynical": 26687, "\u2581fusiliers": 28363, "\u2581desert": 3703, "curring": 28119, "\u2581fruit": 3809, "\u2581genesis": 13172, "\u2581necessitat": 22486, "\u2581cardboard": 22965, "\u2581vinny": 28852, "\u2581sparsely": 27281, "\u2581dj": 3857, "tachi": 18695, "\u2581hussain": 21704, "\u2581publicity": 13141, "gua": 15258, "\u2581eighty": 14203, "\u2581buena": 23923, "\u2581rhea": 26306, "\u2581applied": 2435, "60": 3374, "enza": 14812, "\u2581possesses": 16820, "\u2581paddy": 19206, "\u2581silent": 2690, "hail": 19496, "1916": 15116, "\u2581ecumenical": 24985, "\u2581liao": 21565, "\u2581thoroughfare": 27471, "\u2581munoz": 26250, "\u2581chose": 3305, "\u2581smirked": 21638, "\u2581constraint": 28804, "\u2581worthless": 25829, "an": 210, "\u2581$13": 25527, "\u2581loeb": 27927, "\u2581hanuman": 29199, "\u2581education": 565, "\u2581disaster": 5302, "\u2581kenneth": 8757, "\u2581practical": 5713, "\u2581whimper": 22028, "\u2581dreadful": 23033, "\u2581integrating": 24529, "conference": 23670, "\u25811906": 5058, "alco": 16874, "union": 17162, "effect": 21295, "\u2581proposition": 12566, "\u2581sentence": 5123, "fid": 15817, "advert": 22898, "\u2581brand": 2209, "tam": 4919, "\u2581erased": 25513, "\u2581pending": 16440, "\u2581compute": 23909, "\u2581radha": 23146, "enhancing": 23267, "\u2581cling": 24264, "\u2581hole": 3990, "\u2581choreographed": 25667, "\u2581huffed": 26690, "\u2581morphological": 23652, "70": 3318, "\u2581fallout": 25766, "\u2581recess": 16091, "\u2581quarries": 27305, "\u2581burden": 9505, "rai": 9618, "building": 11783, "\u2581penguins": 20897, "\u2581frail": 24561, "\u2581kilda": 24603, "\u2581gunslinger": 27873, "\u2581solemn": 15068, "\u2581shadows": 5327, "ded": 7424, "aran": 11313, "hydroxy": 17240, "ographer": 15174, "head": 1743, "990": 26281, "\u2581months": 818, "\u2581photos": 7064, "\u2581giving": 1438, "yaz": 15859, "\u2581schizophrenia": 27004, "identified": 29467, "sel": 3434, "\u2581select": 5407, "\u2581bast": 16198, "\u2581dundas": 29320, "\u2581runs": 1461, "1931": 12563, "\u2581permits": 17446, "\u2581hiram": 27190, "\u2581slew": 28340, "ding": 3258, "\u2581gradually": 5305, "\u2581upstream": 15657, "\u2581tooth": 11109, "\u2581tag": 3383, "augh": 17750, "xia": 9907, "champion": 14540, "\u2581reopen": 21398, "lp": 5478, "\u2581blessing": 11930, "\u2581dolores": 24284, "\u2581uneasy": 18689, "\u2581reclamation": 28537, "hani": 14917, "\u2581meridian": 19631, "aught": 12647, "\u2581ladies": 5481, "\u2581kicker": 22654, "\u2581unequal": 26961, "\u2581engraver": 26223, "stan": 6114, "1,600": 20918, "ellen": 20996, "\u2581congo": 9055, "\u2581dump": 11424, "\u2581autopsy": 26067, "\u2581census": 975, "\u2581fled": 5523, "\u2581mock": 10506, "caro": 17324, "\u2581fell": 1139, "\u2581lau": 7164, "freedom": 26823, "\u2581mang": 17200, "\u2581clement": 8473, "\u2581uniforms": 12594, "laz": 17575, "\u2581maccabi": 24776, "6": 379, "pyr": 12142, "zel": 5801, "\u2581tex": 14012, "\u2581hartford": 15425, "\u2581urb": 27683, "1,100": 21884, "odes": 13225, "\u2581teammates": 15354, "\u2581marion": 9689, "\u2581miller": 3022, "\u2581expedition": 4293, "\u2581vigorously": 24251, "\u2581baffled": 29027, "\u2581depot": 7382, "\u2581lorraine": 16297, "\u2581shay": 13450, "\u2581hotel": 1454, "\u2581shell": 3593, "\u2581accessible": 7342, "221": 20041, "\u2581mindanao": 26266, "\u2581protagonist": 8798, "\u2581kalli": 27352, "333": 20165, "\u2581nov": 16112, "\u2581anti": 1082, "\u2581feast": 8875, "\u2581accelerator": 24484, "\u2581pornography": 22769, "\u2581service": 365, "\u2581futbol": 29617, "\u2581frame": 3523, "\u2581forbid": 23041, "\u2581druze": 29464, "\u2581iranian": 6874, "udin": 25497, "146": 13948, "\u2581kindergarten": 13470, "something": 9099, "\u2581financier": 25295, "\u2581whipping": 24709, "kow": 11247, "\u2581inheritance": 13852, "\u2581rutland": 28819, "\u2581receptors": 16851, "\u2581altitude": 7128, "\u2581axis": 8577, "\u2581burt": 20377, "\u2581vibrant": 19340, "\u2581gulp": 21627, "\u2581marley": 22709, "\u25811826": 14942, "object": 23793, "iro": 8412, "crawl": 24916, "\u2581finland": 5613, "\u2581stove": 15426, "\u2581flagship": 11422, "\u2581oster": 19919, "nata": 13702, "\u2581specification": 14177, "\u2581racehorse": 23942, "\u2581mae": 7361, "\u2581felicia": 24591, "\u2581chain": 2858, "\u2581exhale": 27268, "\u2581characterized": 6683, "\u2581hurley": 28194, "vfl": 15041, "\u2581pledge": 16354, "\u2581incentive": 15071, "\u2581colonization": 22365, "\u2581delphi": 23030, "19%": 25733, "\u2581lagos": 19205, "oph": 9976, "first": 3552, "\u2581dealer": 11774, "\u2581to": 20, "\u2581pine": 4624, "\u2581members": 443, "\u2581slaves": 6476, "\u2581motown": 25778, "vya": 21962, "gade": 19199, "\u2581flicker": 18709, "\u2581migrant": 22987, "\u2581district": 256, "\u2581competing": 5649, "\u2581normal": 1826, "section": 10579, "\u2581bipolar": 29101, "\u2581closely": 3368, "\u2581dean": 2875, "\u2581teenager": 11096, "1929": 12747, "wie": 15633, "finder": 18639, "\u2581improving": 9273, "99": 3483, "responsibilities": 10525, "\u2581aubrey": 22617, "\u2581deter": 15190, "bomb": 18502, "\u2581range": 978, "\u2581stitches": 26018, "monger": 28841, "\u2581streak": 6227, "\u2581ponce": 22189, "\u2581bore": 6225, "of": 1041, "\u2581tub": 7909, "\u2581stepped": 1973, "\u2581zombie": 13007, "du": 2323, "\u258125,": 4109, "\u2581jared": 8307, "\u2581discontinued": 8921, "\u2581mothers": 11452, "illi": 16566, "\u2581immunity": 17746, "\u2581versailles": 20650, "hv": 21109, "evan": 20084, "cella": 18004, "\u2581venice": 7520, "ws": 10268, "\u2581grant": 2048, "\u2581terror": 6032, "1733": 27815, "\u2581projection": 11607, "\u2581causes": 4047, "\u2581activist": 6646, "\u2581conjunction": 9558, "\u2581journalists": 8910, "\u25811847": 10775, "\u2581governorship": 27930, "season": 4015, "\u2581structured": 17784, "\u2581jaime": 16721, "\u2581pel": 10747, "\u2581stab": 13179, "\u2581swa": 10143, "\u2581diverted": 21074, "254": 21435, "february": 9513, "\u2581shoe": 9719, ":22": 21660, "\u2581extrem": 13851, "\u2581seem": 2260, "\u2581giulio": 29646, "\u2581practically": 7839, "\u2581phelps": 23360, "\u2581vertices": 21235, "\u2581suggesting": 8946, "\u2581weakly": 21250, "\u2581florence": 7243, "usha": 20859, "\u2581blended": 23147, "\u2581travelers": 17473, "\u2581sergey": 21573, "brach": 27857, "rach": 9676, "qf": 25047, "ranging": 24225, "\u2581huddersfield": 23050, "jala": 26815, "\u2581delightful": 26518, "\u2581tributary": 8716, "\u2581clemson": 28548, "semitism": 29451, "\u2581debuted": 5003, "\u2581revealed": 2204, "\u2581eighth": 5148, "\u2581themes": 6876, "\u2581evangelist": 19977, "\u2581wilder": 20312, "\u2581practise": 27954, "\u2581packet": 12795, "\u2581pretty": 1772, "\u2581pairing": 23028, "\u2581big": 580, "\u25811971,": 9139, "\u2581vicky": 24452, "\u2581moss": 8188, "\u2581reviewer": 13059, "opti": 25458, "\u2581snoop": 22562, "\u2581celebrations": 13463, "\u2581paso": 18792, "critical": 21522, "mul": 10965, "490": 22115, "sik": 16496, "\u2581coven": 19790, "\u2581loch": 12620, "\u2581mare": 9048, "\u2581bally": 17021, "watch": 9054, "\u2581ale": 17773, "\u2581compose": 18217, "\u2581henchmen": 28603, "\u2581electro": 6435, "tz": 2796, "\u2581pleaded": 13364, "\u2581suicidal": 27437, "\u2581kota": 19984, "cerat": 20684, "\u2581musical": 1457, "\u2581bott": 20569, "rough": 19899, "\u2581possessive": 20636, "\u2581subsp": 25500, "1704": 27584, "\u2581flu": 6777, "\u2581constantly": 7545, "\u2581350": 12053, "\u2581saa": 18194, "\u2581asturias": 27304, "okay": 4779, "\u2581seizure": 16138, "\u2581operational": 5656, "\u2581jesuit": 11564, "\u2581synthesizer": 11506, "\u2581flawed": 26248, "iaceae": 20314, "\u2581soldier": 3994, "father": 12328, "\u2581brewer": 14062, "\u2581masjid": 28540, "8,000": 7586, "\u2581malvern": 28075, "ethnic": 26975, "\u2581opposed": 3499, "\u2581littered": 26851, "\u2581fault": 4173, "window": 27508, "\u2581radial": 16306, "\u2581marina": 9514, "\u2581undivided": 29442, "\u2581express": 2999, "beam": 17869, "\u2581swimming": 4685, "\u2581evolved": 7339, "\u2581challenges": 7595, "\u2581rarity": 29563, "\u2581evans": 5161, "\u2581historically": 6246, "rating": 15073, "\u2581pachy": 28467, "231": 19903, "4": 300, "\u2581increases": 7104, "\u2581allied": 4969, "\u2581prostitution": 16765, "\u2581botswana": 23068, "306": 23668, "\u2581vowel": 14253, "73": 4440, "\u2581vessels": 5411, "rier": 10574, "\u2581cheerleader": 26412, "wh": 18664, "\u2581restaurant": 3284, "\u2581bud": 6815, "ui": 5661, "\u2581thunderstorm": 23876, "\u2581boise": 24958, "bani": 18243, "\u2581cavendish": 25768, "\u2581amelie": 27158, "retta": 24615, "\u2581sandra": 14259, "\u2581monta": 17135, "\u2581stabilize": 16890, "\u2581vertigo": 28814, "\u2581application": 3010, "\u2581see": 196, "\u2581obedience": 25119, "\u2581verona": 22465, "\u2581clapton": 26188, "\u2581player": 517, "\u2581mara": 7606, "\u2581elliot": 13134, "228": 21283, "bottom": 22389, "\u2581nixon": 12175, "\u2581oldham": 21694, "\u2581guiding": 17273, "\u2581glint": 17078, "\u2581pri": 4566, "ned": 3725, "\u2581rebecca": 9873, "zai": 14655, "\u2581revealing": 8476, "\u2581probe": 13044, "\u2581fei": 14400, "\u2581quilt": 20577, "\u2581tibet": 14291, "pathi": 19812, "\u2581dana": 11478, "\u2581householder": 6685, "\u2581insistent": 26720, "pos": 12551, "\u2581davidson": 13950, "\u2581radiator": 28479, "\u2581adam": 2406, "\u2581tomas": 13048, "\u2581nelson": 4637, "\u2581ambiguous": 22154, "\u2581erotic": 14212, "\u2581blackhawks": 28812, "\u2581barcelona": 7607, "\u25812011:": 15606, "\u2581fraternity": 15638, "\u2581designate": 24124, "\u2581fitting": 11857, "\u2581hin": 9349, "secretary": 20244, "\u2581placid": 25008, "\u2581stanford": 8382, "1902": 18053, "\u2581indicating": 7950, "aged": 8030, "\u2581kamal": 19258, "\u2581injunction": 22758, "barra": 18603, "54": 3963, "covered": 14851, "\u2581accelerated": 16878, "sen": 1264, "\u2581borrowed": 13074, "\u2581pile": 6551, "\u258143": 5016, "\u2581precinct": 18974, "lst": 24239, "\u2581identifies": 17165, "\u2581ages": 5520, "\u2581ubiquitous": 28784, "\u2581weymouth": 29859, "pie": 9903, "1,000": 12055, "\u2581zhejiang": 28288, "\u2581vantage": 27822, "\u2581fishermen": 19443, "\u2581destinations": 16821, "1847": 27111, "\u2581reid": 8788, "schau": 22218, "78%": 26496, "\u2581intact": 10572, "\u2581unnoticed": 25750, "\u2581poverty": 4500, "dum": 12617, "\u2581warmer": 19102, "\u2581mori": 10958, "mot": 7662, "http": 21127, "\u2581projects": 2314, "\u2581summa": 18074, "dora": 12578, "kid": 14927, "\u2581soils": 15940, "\u2581shouting": 12274, "\u2581botanist": 17817, "\u2581juliet": 15316, "\u2581rca": 15445, "\u2581leno": 22046, "\u2581prae": 25853, "\u2581garden": 1986, "\u2581load": 6305, "\u2581shares": 5945, "gla": 9984, "\u2581supervised": 15581, "\u2581unwanted": 21095, "\u2581confiscated": 19947, "subscribe": 20330, "\u2581garfield": 23067, "\u2581plank": 15953, "\u2581morale": 21838, "\u2581flit": 25028, "\u2581victims": 4397, "\u2581emotional": 6090, "\u2581philosopher": 7724, "\u2581developed": 885, "acting": 16273, "have": 5815, "\u2581booker": 19717, "\u2581blonde": 8603, "\u2581pounded": 15716, "zero": 15938, "\u2581peering": 19588, "\u2581billboard": 3304, "\u2581untouched": 24059, "\u2581speak": 1960, "\u2581cat": 2008, "\u25811991": 1586, "fox": 18219, "\u2581similar": 835, "inski": 12099, "\u2581hz": 24710, "\u2581throwing": 6033, "\u2581#": 6926, "\u2581purpose": 2131, "\u2581associations": 10642, "easing": 16524, "\u2581broker": 14930, "drama": 15423, "light": 3130, "\u2581psyche": 24238, "ol": 1823, "\u2581decor": 17650, "enthusiastically": 25878, "\u2581benches": 22905, "\u2581140": 10008, "\u2581raceway": 24558, "\u258110,": 3266, "\u2581sack": 10098, "\u2581honorable": 15665, "\u2581smoldering": 29642, "\u2581driven": 5355, "\u2581there": 80, "\u2581congressional": 7403, "edition": 22056, "\u2581wakefield": 18746, "\u2581hartley": 23653, "ened": 6319, "bye": 13180, "\u25811930,": 15733, "\u2581vil": 13877, "\u2581vamp": 11487, "\u2581vera": 10970, "\u2581buddies": 26530, "\u2581impress": 15992, "\u2581quorum": 29744, "open": 10157, "wise": 10474, "pit": 7328, "\u2581magnet": 11657, "idae": 3127, "\u2581treating": 13749, "\u2581musee": 19734, "\u2581dow": 14103, "\u2581password": 20884, "\u2581libyan": 21220, "letter": 19535, "\u2581bout": 8244, "\u2581patsy": 28062, "west": 2264, "\u2581wardrobe": 20405, "\u2581schedule": 4345, "\u2581larsen": 23684, "37": 3555, "\u2581mankind": 17060, "hachi": 25495, "british": 16352, "\u2581quest": 7769, "\u2581antelope": 28306, "\u2581futuristic": 29776, "\u2581scotland": 2207, "\u2581vehicles": 3128, "\u2581ras": 7172, "\u2581continental": 5859, "\u2581blow": 4459, "\u2581regulation": 7513, "7,000": 8586, "\u2581contemporary": 2152, "\u2581conviction": 8988, "\u2581celest": 24888, "\u2581liturgical": 21885, "\u2581genes": 9114, "\u2581holdings": 10916, "cet": 10312, "\u2581functionality": 18548, "\u2581sewage": 23085, "\u2581pickup": 15181, "241": 21658, "build": 29361, "member": 6990, "\u2581assembling": 29418, "\u2581swap": 17150, "\u2581gluco": 18442, "rival": 25109, "\u2581grenada": 28673, "\u2581consequence": 9348, "\u2581hall": 554, "ket": 7572, "ground": 8810, "\u2581offer": 1994, "\u2581distance": 1583, "roc": 16911, "kau": 20136, "\u2581clayton": 12885, "\u2581dining": 7348, "\u2581soaring": 26436, "anu": 13334, "\u2581producing": 4081, "\u2581corrugated": 27236, "\u2581rector": 10911, "\u2581cardinals": 9404, "\u2581dried": 10237, "\u2581gale": 10085, "\u2581muck": 25872, "gard": 7632, "kind": 11008, "\u2581mingled": 27136, "\u2581unitarian": 24879, "\u2581dismantled": 19729, "ried": 11942, "\u2581groan": 11723, "\u2581goodwin": 22432, "orthodox": 24227, "\u2581weir": 18866, "\u2581trans": 2982, "\u2581educator": 9224, "\u2581barked": 20582, "\u2581baha": 10217, "\u2581hoot": 24744, "tek": 10124, "\u2581deutsche": 11176, "\u2581changes": 1693, "still": 8073, "nan": 3198, "\u2581genuine": 10701, "\u2581teleport": 20820, "\u2581sim": 4861, "\u2581adjust": 14328, "\u2581monitoring": 8984, "gier": 24437, "\u2581tenth": 7364, "et": 1198, "\u2581sucking": 15291, "marxist": 16943, "\u2581daimyo": 29829, "\u2581adrian": 6074, "\u2581ghosts": 13050, "\u2581serena": 16295, "\u2581books": 964, "\u2581literate": 27146, "\u2581champions": 2361, "\u2581semifinals": 11552, "\u2581terrorists": 19090, "\u2581nor": 2127, "binding": 22260, "\u2581harding": 17017, "\u2581maha": 6421, "\u2581trainer": 9088, "chem": 17660, "\u2581tubes": 12213, "community": 28360, "order": 7861, "\u2581stag": 13841, "\u2581jeanne": 16031, "sei": 10740, "mbe": 10045, "vf": 21441, "\u2581maintaining": 8215, "store": 16828, "\u2581preview": 16121, "\u2581concealed": 16454, "bong": 18367, "walk": 10915, "\u2581blueprint": 26272, "\u2581mundi": 27029, "ban": 4059, "lish": 18491, "\u2581regroup": 25261, "\u2581tutorial": 29724, "\u2581accommodation": 9955, ",000,000": 11623, "\u2581propose": 17873, "\u2581distracting": 26160, "pneuma": 27014, "\u2581discomfort": 19937, "rao": 18791, "\u2581proceedings": 8678, "rock": 4651, "\u2581konstantin": 20334, "\u2581delayed": 8241, "\u2581illicit": 26589, "pil": 10091, "\u2581cloud": 4005, "\u2581gave": 492, "\u2581li": 2093, "149": 14663, "\u2581squash": 17998, "\u2581purple": 5541, "poor": 15979, "\u2581shake": 4657, "\u2581magnetic": 7877, "\u2581bangalore": 16584, "bhai": 21859, "\u2581contentious": 29059, "\u2581#4": 14048, "ble": 2854, "\u2581reign": 3897, "america": 12909, "doc": 13799, "\u2581hiding": 5314, "\u2581gross": 5311, "\u2581finn": 6370, "\u2581violations": 15753, "\u2581xu": 10942, "1944": 12243, "\u2581simone": 16450, "\u2581fibre": 17607, "\u2581sweet": 2092, "\u2581cleaner": 19585, "\u2581bloody": 6107, "\u2581major": 394, "\u2581kingdoms": 16222, "\u2581whether": 1472, "\u2581buoy": 19732, "\u2581wu": 4814, "vietnam": 27434, "\u2581greensboro": 28230, "\u2581stalker": 24468, "\u2581arabia": 9385, "ancy": 10821, "\u2581welcome": 5575, "\u2581aspects": 4842, "\u2581aquatic": 12039, "penny": 27243, "\u2581become": 533, "\u2581tennessee": 4049, "\u2581estates": 8723, "\u2581conway": 17413, "\u2581jim": 2170, "\u2581reflections": 20498, "ecki": 21407, "\u2581crag": 22849, "\u2581euro": 4669, "ologie": 13331, "\u2581bhp": 24976, "\u2581anatomy": 14994, "\u2581represented": 1622, "\u2581diocese": 4308, "\u2581sava": 16723, "\u2581surrealist": 29310, "\u2581unified": 11496, "\u2581gothenburg": 25453, "bel": 3512, "grat": 15125, "hopper": 16700, "ianus": 22180, "\u2581bahia": 23889, "\u2581colleges": 7357, "\u2581clinched": 21036, "zw": 22263, "\u2581philanthropy": 29641, "aids": 19092, "cav": 11039, "\u2581bautista": 28727, "\u2581collar": 8203, "\u2581attributes": 13422, "\u2581abdominal": 23733, "\u2581melancholy": 25472, "\u2581discard": 26251, "bbins": 29011, "note": 10280, "\u2581hyderabad": 14479, "17": 1053, "\u2581leyte": 28251, "\u2581michel": 7195, "\u2581helpful": 15600, "bla": 10754, "\u2581membrane": 9702, "\u2581omega": 17705, "\u2581seaplane": 27423, "\u2581could": 110, "regulated": 27432, "\u2581bedrock": 28048, "\u2581ryder": 13013, "\u2581gerais": 27830, "tank": 12592, "attached": 28484, "uff": 5386, "\u2581nibble": 25228, "\u2581auditorium": 11815, "\u2581secrecy": 22615, "\u2581powered": 7462, "\u2581strain": 8302, "\u2581paired": 14029, "\u2581bosnian": 19115, "\u2581cameo": 13941, "\u2581bartender": 17074, "b": 220, "rio": 5741, "\u2581mabel": 21712, "\u2581marga": 23035, "\u2581dissident": 23875, "\u2581promises": 12247, "\u2581kenyan": 21153, "\u2581wild": 1808, "dae": 14957, "\u2581painting": 2469, "\u2581insurgents": 23063, "\u2581method": 2109, "\u2581insisted": 6619, "\u2581arent": 14144, "dren": 15234, "\u2581bhopal": 29255, "\u2581expeditions": 17842, "\u2581peg": 16699, "olu": 18687, "haq": 22811, "\u2581pulp": 16205, "\u2581felony": 25452, "aren": 19573, "\u2581eased": 11952, "onia": 6155, "like": 1403, "\u2581reduce": 4136, "\u2581reform": 3202, "dh": 9756, "\u2581crashing": 14604, "\u2581constructing": 18660, "\u2581parnell": 27539, "\u2581tenants": 16126, "\u2581hostilities": 20014, "title": 22235, "\u2581stowe": 26814, "\u2581squat": 15033, "\u2581honoured": 18030, "\u2581approached": 4132, "\u2581thighs": 9336, "atsu": 22246, "\u2581qualitative": 27819, "\u2581eyelashes": 27003, "\u2581wood": 1370, "\u2581parking": 4271, "\u2581candy": 9963, "\u2581cooperative": 9455, "\u2581custodian": 29528, "\u2581doubt": 3063, "itude": 16731, "\u2581handy": 20277, "\u2581kaz": 10113, "\u2581millet": 28229, "\u2581directing": 10329, "\u2581forewings": 14702, "\u2581catering": 21816, "\u2581nonetheless": 9964, "\u2581assassinate": 26642, "\u2581sec": 9265, "\u25811837": 11823, "ganj": 19290, "\u2581penned": 21035, "8": 457, "\u2581notably": 4371, "\u2581probability": 10177, "\u2581samuel": 3536, "\u2581cull": 19075, "\u2581lenny": 23364, "\u2581rumors": 12168, "\u2581snuggled": 27182, "aca": 9721, "\u2581military": 611, "\u2581ag": 11342, "\u2581navy": 1393, "\u2581causeway": 24349, "\u2581carriageway": 29249, "\u2581choose": 3538, "titled": 10492, "\u2581estranged": 27288, "\u2581ordeal": 24566, "\u2581simon": 2214, "\u2581monastic": 18638, "\u2581inspiration": 6180, "\u2581hamas": 21594, "\u2581blackpool": 20192, "(": 5, "\u2581ker": 7002, "rax": 23148, "owner": 10705, "\u2581edith": 14537, "\u2581staple": 12337, "hydr": 19877, "\u2581compiler": 21486, "degenerate": 28310, "organ": 6826, "phonic": 22085, "\u25812008:": 15573, "historic": 29895, "\u2581transmitter": 10783, "\u2581semp": 28135, "\u2581stayed": 2791, "\u2581grandparents": 16630, "\u2581130": 9489, "\u2581good": 254, "\u2581point": 454, "\u2581invest": 15032, "\u2581face": 276, "\u2581acknowledged": 8933, "\u2581laurel": 11568, "\u2581defeated": 1420, "625": 21735, "\u2581spartan": 15194, "\u2581macdonald": 11016, "\u2581lbf": 22751, "\u2581sutra": 24541, "\u2581subtract": 27031, "\u2581trading": 5205, "\u2581reserves": 8480, "\u2581dial": 11601, "\u2581negatively": 22288, "rata": 13561, "slovene": 17382, "\u2581brigade": 2322, "\u2581occidental": 26196, "\u2581pride": 5364, "\u2581described": 745, "\u2581aboard": 7211, "\u2581ventral": 23827, "\u2581triumph": 9232, "\u2581commended": 24749, "\u2581plotting": 22716, "\u2581edible": 23210, "troop": 21361, "\u2581smyth": 22742, "peace": 18025, "\u2581scattered": 7471, "rhone": 24372, "\u2581delight": 12220, "ethylene": 25005, "\u258197": 9427, "\u2581levine": 20988, "\u2581same": 205, "musik": 17261, "\u2581merri": 16148, "iflora": 27386, "\u2581verge": 15574, "two": 3734, "frac": 15891, "\u2581spartak": 27612, "\u2581keeping": 2882, "\u2581joins": 10612, "\u2581felipe": 20440, "\u2581piotr": 26591, "har": 2269, "\u2581bethany": 19419, "\u2581hard": 552, "\u2581shore": 3944, "\u2581practicing": 13640, "naw": 19453, "\u2581annette": 25014, "\u2581aunt": 4553, "\u2581interrogate": 24353, "\u2581malik": 15905, "\u2581soup": 11554, "\u2581charts": 5158, "\u2581sat": 847, "\u25813,": 1979, "\u2581drinks": 9553, "\u2581mob": 7327, "family": 13819, "\u2581baronetcy": 27488, "\u2581smoke": 3371, "\u2581manipulated": 22953, "\u2581goalkeeper": 9172, "\u2581clients": 7421, "caria": 27411, "\u2581abolish": 23376, "2005": 2835, "\u2581freud": 19083, "\u2581circular": 8155, "bek": 14188, "containing": 26425, "cac": 15734, "\u2581plenty": 7062, "\u2581motives": 19887, "\u25811954,": 12446, "\u2581prevent": 2501, "\u2581actors": 4977, "\u2581devastation": 26805, "\u2581perfection": 16275, "\u2581villar": 24819, "\u2581messy": 21503, "\u2581taut": 20473, "\u2581farewell": 15710, "\u2581wavy": 25229, "\u2581turkmenistan": 27887, "\u2581construct": 6960, "\u2581rican": 13983, "\u2581velez": 29569, "\u2581pretend": 8019, "\u2581$3": 5341, "\u2581tru": 8600, "\u2581upgrade": 9483, "\u2581solely": 9748, "\u2581teaching": 2540, "\u2581subterranean": 28747, "\u2581trends": 14947, "\u2581encyclopedia": 13084, "\u2581doctors": 6995, "\u2581artifact": 22929, "\u2581conformation": 28315, "pine": 20845, "\u2581radar": 6262, "\u2581layla": 21973, "\u2581enthusiasm": 13255, "\u2581frederic": 14106, "\u2581carmarthen": 29661, "\u2581possessing": 22182, "bib": 16930, "\u2581resin": 22839, "\u2581stopped": 1175, "1655": 28076, "\u2581contributes": 19481, "\u2581stir": 13216, "\u2581reinforcement": 26374, "\u2581roller": 9929, "\u2581da": 1331, "mounted": 20042, "\u2581privy": 16449, "\u2581comprise": 18327, "\u2581ladder": 9864, "\u2581nasal": 18950, "\u2581gilded": 26792, "accept": 28050, "\u2581mcdowell": 27572, "\u2581qualifying": 5212, "\u2581uh": 10863, "athlete": 23458, "\u25811889": 6500, "\u2581stratford": 21396, "\u2581maurice": 8089, "ation": 857, "\u2581withdrawal": 10443, "ngo": 17011, "\u2581strengthening": 18410, "\u2581logistic": 29586, "\u2581painters": 14182, "\u2581timberlake": 29233, "\u2581styling": 23020, "alina": 18977, "\u2581treatise": 14592, "iously": 18190, "\u2581astronaut": 15226, "930": 25617, "\u2581ga": 4369, "him": 9639, "\u2581mgm": 18845, "treat": 13581, "\u2581hardly": 5943, "\u258181": 9871, "\u2581primal": 23513, "constant": 29639, "1725": 26846, "208": 19793, "ras": 6102, "\u2581ground": 666, "\u2581michele": 18012, "\u2581mormon": 13685, "\u2581coax": 23619, "u": 291, "\u2581russia": 1902, "\u2581fix": 6098, "\u2581qualification": 7558, "igo": 10215, "\u2581pacifist": 29647, "\u2581reporters": 13751, "\u2581nikol": 29552, "originally": 14475, "\u2581theodor": 17373, "\u2581angeles": 1558, "\u2581heading": 4582, "\u2581hollis": 24833, "\u2581issues": 1549, "\u2581industrial": 2163, "neal": 18823, "\u2581disappointed": 9644, "\u2581underworld": 15308, "\u2581loops": 19661, "las": 4830, "\u2581breaks": 7947, "\u2581guarantee": 9120, "\u2581davies": 9249, "unk": 17081, "\u2581telegram": 24832, "83": 4736, "prime": 21108, "ka": 657, "kg": 16901, "\u2581intrigued": 21415, "\u2581goldberg": 20383, "\u2581contemplating": 27412, "mira": 15008, "\u2581hierarchy": 14417, "\u2581like": 101, "\u2581growl": 11739, "\u2581hutchinson": 19873, "\u2581cort": 14510, "\u2581desirable": 19461, "\u2581abdel": 22277, "\u2581accounts": 5310, "\u2581pelt": 21090, "\u2581organs": 13159, "ought": 22536, "\u2581explosion": 5920, "\u2581differential": 12086, "\u2581reinforced": 11922, "scoring": 23629, "big": 6407, "walking": 25002, "wak": 15751, "osaur": 16084, "\u2581flickering": 22399, "\u2581dickson": 24787, "metro": 27176, "\u2581100": 808, "\u2581initiatives": 12049, "\u2581beep": 22899, "\u2581inconsistent": 22380, "tsu": 9556, "ewski": 21512, "\u2581sarah": 3069, "1995": 4488, "sha": 3162, "cos": 10460, "\u2581bristle": 24900, "\u2581verde": 14944, "\u2581composite": 12639, "\u2581incremental": 29977, "\u2581lowest": 6543, "\u2581unfortunately": 6200, "\u2581mia": 8919, "\u2581mono": 4129, "\u2581quill": 22441, "\u2581trent": 7056, "\u2581describing": 7153, "\u2581extension": 3896, "\u2581astonishment": 26021, "\u2581softball": 14401, "\u2581vasquez": 29780, "\u2581honda": 13462, "ona": 5207, "\u2581punish": 11067, "pok": 18722, "\u2581ignatius": 27934, "\u2581chase": 3473, "\u2581original": 501, "\u2581mata": 12031, "thoracic": 29167, "\u2581morrison": 10189, "\u2581clue": 8906, "\u2581feathers": 13666, "lead": 11846, "ozo": 17897, ":02": 21825, "\u2581co": 326, "\u2581musc": 21967, "\u2581honolulu": 18811, "\u2581bubba": 23393, "\u2581sepals": 28368, "\u2581citizen": 5931, "\u2581bartholomew": 22502, "\u2581raven": 7542, "uncharacteristic": 29959, "\u2581finance": 3711, "\u2581paragraph": 20599, "\u2581osman": 23438, "\u2581rooms": 3662, "\u2581enabling": 13168, "\u2581joyah": 28153, ";": 73, "\u2581torres": 14483, "\u2581stupid": 3553, "\u2581sediment": 12654, "\u2581tehran": 13728, "\u2581libertadores": 28103, "\u2581cowboy": 12992, "\u2581pleased": 7130, "atus": 8796, "\u2581smeared": 27661, "christ": 13190, "\u2581spread": 1789, "alia": 10060, "\u2581reno": 14780, "\u2581determine": 3746, "\u2581charted": 13850, "\u2581masks": 18992, "\u2581dai": 7655, "\u2581onwards": 10195, "\u2581ferro": 17944, "\u2581kingdom": 1102, "\u2581episcopal": 8604, "\u2581kitt": 18913, "\u2581wed": 12914, "hide": 19522, "ectomy": 24265, "\u2581tattoo": 10116, "\u2581harvest": 10602, "\u2581las": 3695, "218": 18665, "flake": 19921, "\u2581arranging": 22026, "\u2581shut": 2218, "\u2581length": 1476, "\u2581pinnacle": 24949, "teacher": 14616, "\u2581disastrous": 18678, "\u2581permitting": 26739, "\u2581sv": 11209, "\u2581frequently": 3086, "\u2581homosexual": 15262, "\u2581concussion": 24393, "lett": 11536, "\u2581unlock": 16497, "oxide": 20272, "\u2581croix": 23190, "\u2581cdp": 9643, "\u2581fernandez": 13212, "\u2581exist": 3182, "\u2581goddess": 6915, "\u2581phone": 1132, "enter": 13679, "\u2581accepting": 10894, "\u2581cafe": 6241, "\u2581mundo": 26100, "jol": 15461, "\u2581fairly": 6647, "\u2581nissan": 19540, "escent": 19472, "lim": 8585, "\u2581pasha": 16127, "\u2581roam": 18963, "user": 16704, "\u2581hellenistic": 28471, "\u2581downstream": 14658, "ugi": 22059, "\u2581mustache": 27793, "fc": 7061, "\u2581topics": 7569, "\u2581tasmanian": 23755, "\u2581dalmatia": 25753, "\u2581psychological": 7848, "\u2581pm": 6736, "uddin": 13503, "\u2581width": 9456, "\u2581african": 1180, "mat": 5146, "\u2581linn": 21580, "\u2581destroying": 10498, "\u2581corbin": 25574, "\u2581kaladin": 25662, "enlightened": 29487, "looking": 7940, "\u2581hyper": 5443, "\u2581exchange": 1950, "\u2581close": 543, "\u2581definitely": 4939, "\u2581illness": 6761, "\u2581demetri": 25677, "\u2581oswald": 18322, "\u2581maitland": 27075, "\u2581guild": 6886, "\u2581till": 3924, "ride": 11891, "\u2581vanity": 21498, "\u2581ferrara": 28586, "\u2581prostitute": 14443, "\u2581cost": 1516, "\u2581asking": 3379, "\u2581epoch": 24612, "fel": 6660, "apa": 7738, "\u2581questioned": 8673, "\u2581sloop": 26286, "lm": 10363, "\u2581burgos": 29804, "\u2581tech": 6145, "berk": 15371, "\u2581scars": 15547, "\u2581buckinghamshire": 23763, "\u2581revised": 7886, "\u2581faisal": 27199, "aglia": 23608, "\u2581mortality": 14451, "\u2581sticky": 19087, "\u2581jeff": 3292, "\u2581industry": 1230, "lance": 21920, "\u2581taxation": 17331, "\u2581vigil": 18360, "\u2581senate": 2280, "\u2581dorsal": 13370, "\u2581judi": 25231, "\u2581plunge": 22212, "rang": 13119, "\u2581bahadur": 23598, "\u2581harassment": 18486, "\u2581eh": 16177, "\u2581stuart": 6187, "arka": 20326, "leben": 20539, "\u2581outweigh": 29951, "\u2581mick": 9155, "\u2581becky": 17217, "about": 6901, "\u2581forehead": 4841, "\u2581paralympics": 17949, "kov": 4287, "\u2581degree": 1168, "\u2581rallied": 25637, "lander": 10313, "\u2581tri": 2286, "\u2581horatio": 28069, "dollar": 19043, "\u2581ancient": 1593, "\u2581joseph": 1540, "\u2581decree": 7925, "\u2581tanzania": 12032, "\u2581bracket": 19543, "\u2581plywood": 29424, "\u2581mutated": 29891, "\u2581azores": 28618, "\u2581engage": 7479, "\u2581natalie": 12216, "\u2581southampton": 12593, "avi": 5271, "joe": 19838, "\u2581union": 667, "\u2581resonance": 18366, "ifolium": 29932, "\u25811919": 4545, "gi": 2234, "\u2581specialists": 19546, "\u2581pivot": 20670, "\u2581excited": 7178, "\u2581archives": 8111, "chairman": 18754, "\u2581turn": 805, "\u2581grapes": 19306, "\u2581depths": 11898, "\u2581chor": 12024, "\u2581zamora": 28716, "\u2581garnet": 25593, "\u2581yeast": 22788, "\u2581precious": 9583, "\u2581madurai": 29221, "nothing": 8297, "\u2581noon": 10995, "\u2581pyotr": 29779, "weiler": 21098, "\u2581defiance": 22919, "\u2581showcased": 24207, "\u2581atmosphere": 6341, "\u2581shanti": 29335, "\u2581liquid": 4189, "\u2581monterey": 23036, "little": 9113, "\u2581mocking": 18446, "\u2581cheerful": 20373, "ocyte": 18655, "\u2581threshold": 11361, "breg": 28381, "\u2581stoke": 8697, "\u2581garage": 6242, "\u2581thrill": 13355, "eus": 9739, "\u2581isabella": 10939, "\u2581imprisoned": 8314, "\u2581adhesive": 28345, "\u2581arcade": 10414, "\u2581hammond": 11730, "\u2581notre": 13271, "\u2581eredivisie": 29880, "ody": 18200, "yle": 12496, "\u2581courier": 19418, "\u2581trails": 10399, "\u2581snake": 6358, "esch": 18454, "\u2581celestial": 20425, "\u2581collection": 1206, "\u2581attitudes": 16510, "struct": 10346, "\u2581selena": 22382, "african": 24656, "cloud": 19174, "\u2581chronological": 22075, "\u2581depend": 12547, "\u2581here": 235, "resistant": 14474, "\u2581charlotte": 4420, "\u25811871": 8044, "gno": 17036, "iensis": 21708, "\u2581almanac": 27788, "broke": 27682, "vi": 1755, "\u2581insignia": 18577, "\u2581deposited": 16114, "\u2581session": 3723, "\u2581deck": 4061, "2%": 2603, "\u2581songwriting": 16049, "\u2581empowered": 27485, "\u2581blackish": 24797, "guru": 27222, "\u2581connection": 2760, "\u2581prospect": 8263, "\u25813": 203, "\u2581posed": 15760, "\u2581stored": 8214, "\u2581museo": 22557, "\u2581rubbing": 10516, "homogeneous": 24845, "rhiz": 20203, "\u2581shaun": 17112, "belt": 16199, "kei": 15455, "\u2581vuelta": 26870, "kyung": 27296, "phae": 18311, "\u2581javanese": 28738, "\u2581britannica": 29621, "\u2581reviewed": 10072, "\u2581reinhard": 25560, "\u2581distraction": 14408, "\u2581cleopatra": 25183, "dour": 23118, "tle": 5866, "\u2581hindwings": 18170, "\u2581pyro": 19167, "\u2581obstruction": 25262, "\u2581stepmother": 26967, "ori": 5985, "db": 9007, "icus": 10382, "\u2581skating": 10552, "\u2581lisbon": 13319, "\u2581ricci": 26099, "\u2581royalties": 27541, "funded": 19679, "\u2581paraguayan": 28596, "\u2581nevertheless": 5715, "natural": 17232, "\u2581aegean": 28260, "\u2581badly": 5730, "\u2581takes": 1384, "\u2581disk": 8582, "\u2581mitch": 10648, "\u2581drives": 10396, "220": 18411, "\u2581hamm": 16641, "\u2581retrieval": 28419, "\u2581judges": 6072, "\u25811882": 7365, "blood": 11262, "\u2581flesh": 4263, "\u2581relentless": 18616, "\u2581biographical": 19519, "\u2581parkinson": 22003, "sculpt": 26124, "\u2581analyzed": 19214, "moving": 17847, "\u2581sao": 6580, "\u2581paris": 1162, "\u2581highlands": 12900, "flies": 22106, "465": 25651, "\u2581considerations": 20478, "\u2581qua": 7131, "\u2581chairman": 1757, "\u2581baking": 24812, "\u2581israel": 2285, "ln": 16600, "\u2581treason": 16237, "\u2581vicar": 10411, "\u2581solitary": 16053, "\u2581turks": 14728, "\u2581zealand": 1577, "cke": 13316, "dionysi": 28545, "\u2581mercantile": 26697, "\u2581cathedral": 3453, "mitsu": 15593, "\u2581ranked": 2989, "\u2581officers": 2041, "\u2581swat": 18279, "\u2581jefferson": 6811, "mh": 17305, "\u2581primera": 17139, "dragon": 20433, "\u2581cray": 19908, "\u2581bain": 18528, "administratively": 28052, "\u2581ecstatic": 29259, "mme": 18072, "cc": 3384, "\u2581veracruz": 25120, "\u2581id": 4924, "\u2581x": 993, "vascular": 19926, "acker": 21209, "\u2581indicates": 6475, "brew": 13712, "\u2581disputed": 12697, "charge": 10813, "\u2581miz": 20454, "\u2581bald": 8344, "\u2581alleviate": 24165, "\u2581barbecue": 26076, "\u2581acacia": 26386, "\u2581volcanic": 11525, "\u2581engulfed": 26241, "\u25817,": 2915, "\u2581lure": 14411, "\u2581galileo": 24129, "\u2581paranormal": 22798, "\u2581sanction": 26534, "\u2581lloyd": 5684, "35": 2599, "sse": 9557, "\u2581rides": 14267, "\u2581conqueror": 23796, "\u2581wong": 12685, "\u2581housekeeper": 23828, "\u2581cardigan": 29570, "\u2581labourers": 25598, "\u2581overhead": 8860, "\u2581bur": 3472, "\u2581swallowed": 6561, "\u2581tap": 5526, "\u2581grading": 26816, "\u2581percy": 12204, "\u2581discography": 29800, "\u2581spear": 8657, "\u2581ocean": 2144, "\u2581greenwich": 16030, "\u2581dorothy": 10433, "\u2581seized": 7919, "quechua": 29343, "\u2581sir": 927, "french": 8047, "\u2581sphere": 9228, "gran": 23192, "\u2581drool": 27008, "\u2581cliff": 6754, "\u2581corruption": 7858, "\u2581duarte": 29236, "\u2581octopus": 24299, "\u2581cardiovascular": 24444, "\u2581reconstructed": 16994, "ug": 5127, "\u2581strict": 8170, "\u2581symbol": 4678, "cyto": 16483, "\u2581dortmund": 24772, "ations": 7504, "video": 14785, "\u2581josiah": 26432, "aa": 6887, "\u2581loading": 12797, "gy": 2687, "\u2581milan": 5798, "\u2581fragmentation": 28698, "\u2581sons": 2616, "\u2581confronts": 20831, "\u2581chesterfield": 25725, "bench": 26359, "\u2581internal": 3117, "\u2581monica": 9103, "amma": 12435, "\u2581kor": 4435, "lithuanian": 26516, "\u2581bathroom": 4248, "\u2581so": 86, "zinger": 24288, "rhythm": 23179, "ike": 7660, "\u2581nobility": 12436, "\u2581payne": 14680, "\u2581fila": 19198, "\u2581goggles": 29156, "\u2581modeled": 16822, "\u2581disqualified": 16398, "\u2581merrick": 28481, "conductor": 27233, "\u2581increased": 1644, "grin": 23244, "\u2581outward": 13711, "\u2581freestyle": 10304, "\u2581oppressed": 29615, "\u2581objectives": 12471, "emer": 14168, "hungary": 21072, "\u2581rustic": 21933, "zar": 7351, "\u25811824": 14146, "4,000": 11348, "brau": 27142, "\u2581shapes": 12129, "metric": 15321, "\u2581settler": 20822, "\u2581presently": 14431, "\u2581earrings": 28352, "\u2581plastic": 4495, "\u2581sands": 17399, "486": 26289, "breaking": 16038, "\u2581guangdong": 23940, "\u2581sparrow": 18876, "\u2581subcommittee": 20159, "\u2581moh": 9785, "guest": 22695, "\u2581americans": 4878, "\u2581mug": 9160, "\u2581queen": 1178, "\u2581tallinn": 24243, "\u2581changing": 4226, "\u2581renal": 25604, "\u2581cooperation": 5876, "\u2581postpone": 28576, "\u2581deaths": 7251, "\u2581governments": 7706, "\u2581xiao": 12628, "enden": 20317, "\u2581sonic": 14758, "\u2581song": 338, "\u2581nate": 8661, "\u2581tends": 14261, "wada": 22826, "\u2581illuminating": 28125, "dou": 7663, "\u2581espionage": 24258, "\u258137": 4294, "\u2581driver": 2425, "\u2581separate": 1725, "\u2581praised": 4537, "enfeld": 20987, "\u2581annie": 8179, "quality": 15583, "\u2581shaking": 4324, "\u2581culminated": 18961, "\u2581likely": 1720, "tro": 3996, "civil": 21485, "\u2581peaked": 5726, "bas": 6093, "\u25811979": 2188, "\u2581hank": 7562, "\u2581stash": 24542, "\u2581featherweight": 27593, "\u2581tweak": 28769, "independent": 17390, "\u2581palacio": 28298, "\u2581sunset": 10619, "doro": 25181, "\u25811966": 2755, "tempered": 24307, "\u2581willing": 4452, "kanta": 28503, "\u2581colliery": 22362, "\u2581explained": 2897, "\u2581siegel": 27769, "bor": 6157, "\u2581determined": 2734, "46": 3516, "ocracy": 25346, "\u2581melissa": 9859, "\u2581congenital": 27919, "\u2581wager": 27030, "\u2581markers": 19482, "\u2581clumsy": 25184, "\u2581novelist": 9784, "151": 15533, "\u2581ti": 4174, "\u2581pundit": 29688, "\u2581bit": 1142, "\u2581seize": 16073, "\u2581cocktail": 18816, "\u2581unite": 17327, "\u2581abram": 15966, "nobu": 17111, "\u2581claire": 5275, "\u2581#1": 4253, "\u2581longest": 5646, "fah": 24768, "\u2581basel": 15934, "\u2581vizier": 28309, "\u2581creator": 9247, "\u2581dub": 7309, "\u2581offence": 17360, "\u2581portraying": 19379, "\u2581drip": 24663, "ler": 1252, "\u2581brandenburg": 18696, "\u25811931": 5013, "\u2581ornamental": 20012, "\u2581wj": 25360, "\u2581marti": 21139, "directional": 19393, "67%": 24997, "\u2581disbelief": 13792, "\u25811821": 14243, "bend": 21091, "\u2581potassium": 21223, "\u2581fowler": 16973, "1949": 10729, "\u2581amos": 16326, "\u2581horde": 18429, "\u2581ob": 5122, "\u2581aarhus": 28364, "!!!": 28116, "\u2581parodies": 29623, "\u2581evolution": 5680, "\u2581question": 1301, "\u2581ser": 4245, "\u2581lark": 21751, "\u2581repairs": 10695, "\u2581include": 468, "\u2581landing": 3090, "pacific": 15228, "\u2581july": 313, "dhar": 11007, "\u25811852": 10253, "\u2581hardy": 9764, "\u2581bellowed": 27751, "\u2581restricted": 7079, "ch": 673, "\u2581sash": 23470, "\u2581scala": 25975, "\u2581fa": 1399, "definitely": 19185, "\u2581lungs": 9091, "\u2581decline": 5215, "\u2581devise": 29276, "cena": 18949, "\u2581ghetto": 19037, "\u2581bela": 17789, "\u2581wicked": 9840, "modal": 20756, "\u2581synonymous": 24459, "\u2581seventeenth": 17880, "provence": 21897, "strand": 19219, "\u2581rebels": 8485, "\u2581maximum": 2979, "\u2581smelt": 21469, "tered": 10919, "\u2581destination": 6970, "\u2581goat": 14434, "\u2581worthy": 14358, "\u2581rounds": 5839, "lorn": 23485, "kimi": 28631, "ating": 1880, "\u25811977,": 9791, "son": 528, "imper": 12579, "\u2581spell": 4762, "jitsu": 27381, "\u2581looking": 699, "\u2581air": 282, "vari": 8220, "\u2581measuring": 9937, "\u2581salamanca": 28952, "\u2581applies": 13169, "lom": 13517, "ographie": 23674, "home": 8167, "solid": 23666, "leon": 17562, "\u2581mili": 20374, "\u2581feel": 583, "\u2581box": 1649, "\u2581start": 799, "\u2581iowa": 4985, "anga": 7619, "\u2581pic": 9327, "\u2581font": 9978, "ophora": 21636, "\u2581cavan": 22658, "gallon": 26294, "axton": 22990, "\u2581cl": 10842, "\u2581curt": 12722, "\u2581playstation": 9586, "\u2581management": 1097, "\u2581campuses": 14695, "chamber": 21290, "\u2581twinned": 27331, "llo": 6880, "\u2581airlift": 20762, "\u2581impart": 24314, "\u2581fastened": 26029, "\u2581sequel": 6998, "park": 9407, "\u2581burton": 9759, "\u2581conversation": 2735, "\u2581hermitage": 26201, "1933": 12143, "\u2581chic": 20867, "\u2581kale": 21818, "\u258111,": 3404, "lender": 21607, "72": 4009, "\u2581extensions": 17529, "\u2581siegfried": 26891, "1843": 28074, "\u2581excuse": 6658, "\u2581taxi": 7380, "\u2581nausea": 19098, "ice": 3568, "df": 8736, "\u2581braunschweig": 29824, "\u25812004:": 19309, "bell": 7401, "\u2581serbs": 19239, "\u2581st": 354, "\u2581lenses": 17717, "\u2581abandoning": 23303, "\u2581whatever": 2099, "chemical": 16417, "rca": 13419, "\u2581wwf": 20844, "\u2581moron": 24932, "\u2581carousel": 27374, "\u2581jogging": 28833, "k": 197, "\u2581bentley": 17960, "shiro": 18676, "\u2581jr": 2000, "ement": 9632, "record": 14953, "\u2581drought": 15510, "\u2581exiting": 24999, "\u2581vin": 9730, "\u2581mou": 11901, "135": 17161, "\u2581robson": 25463, "azole": 28493, "\u2581himachal": 29375, "glu": 13161, "\u2581czar": 25909, "toxic": 18044, "near": 14114, "\u2581pr": 5396, "\u2581tapped": 11218, "\u2581nearest": 6557, "\u2581sinking": 10679, "\u2581murmur": 12864, "\u2581opportunities": 5699, "\u2581refugees": 8790, "\u2581amherst": 22872, "\u2581troll": 12782, "\u2581fayette": 29052, "trop": 9284, "\u2581beach": 1625, "\u2581guidelines": 12629, "\u2581coral": 9524, "\u2581winced": 18220, "\u2581feder": 17895, "qaeda": 21240, "\u2581quell": 23247, "\u2581gill": 5667, "\u2581ruc": 24593, "04": 3277, "\u2581birds": 3751, "\u2581cardiac": 17445, "\u2581reiterated": 28711, "\u2581andrews": 9479, "\u2581entity": 9252, "powered": 9844, "\u2581maka": 21622, "\u2581browne": 18204, "\u2581youth": 1546, "\u2581watkins": 19367, "\u2581witches": 13742, "\u2581fe": 3686, "\u2581photographed": 18300, "\u2581destroyer": 9971, "\u2581confederate": 6570, "\u2581abbot": 10480, "\u2581ann": 4161, "kun": 10290, "\u2581commission": 1312, "\u2581precisely": 11628, "\u2581nagpur": 28431, "\u2581latter": 1932, "\u2581dau": 18758, "hello": 11515, "\u2581pillars": 16282, "\u2581multiple": 1886, "\u25811964": 2677, "\u2581independence": 2772, "\u2581bruce": 4171, "\u258132": 2512, "$": 4403, "\u2581isbn": 1488, "\u2581edgar": 9170, "\u2581sei": 8546, "\u2581springs": 5264, "\u2581farm": 1937, "\u2581waist": 4373, "\u2581martinique": 28592, "\u2581designers": 12760, "ap": 2552, "\u2581catastrophe": 25912, "\u2581sinha": 25381, "\u2581total": 600, "\u2581called": 227, "\u2581chinese": 1116, "\u2581gram": 7594, "oku": 9266, "\u2581gryph": 29791, "\u2581ron": 4446, "phony": 22031, "\u2581index": 4348, "\u2581shipment": 17666, "\u2581heroes": 7084, "\u2581occurring": 10428, "\u2581gre": 5604, "\u2581hospital": 980, "\u2581chef": 8915, "oso": 11231, "\u2581battles": 7933, "\u2581ford": 7905, "\u2581pep": 11841, "haya": 16270, "mic": 5410, "\u2581probing": 28222, "\u2581jerzy": 28460, "\u2581thigh": 10585, "\u2581math": 5057, "\u2581sucker": 25061, "\u2581pistol": 6810, "\u2581josie": 18403, "\u2581complete": 1279, "\u2581mohawk": 23481, "\u2581sickening": 28392, "\u2581sludge": 29720, "\u2581sakura": 20226, "jp": 12851, "door": 8432, "\u2581suburb": 6659, "\u2581predict": 9584, "\u2581foolish": 12596, "\u258122": 1024, "\u2581cannon": 6689, "\u2581penal": 16197, "\u2581complications": 14030, "\u2581invaded": 11469, "\u2581nottinghamshire": 23495, "\u2581counterattack": 23414, "\u2581lights": 3411, "\u2581stu": 12519, "\u2581lives": 1551, "\u2581resident": 5321, "\u2581choking": 21014, "\u2581texan": 18728, "1880": 20385, "\u2581escarpment": 28302, "\u2581cohesive": 29611, "gc": 10362, "\u2581porcelain": 20124, "\u2581chute": 27351, "maybe": 5138, "\u2581frustrated": 10645, "\u2581invoked": 26252, "\u2581revenge": 6299, "\u2581screenwriter": 11993, "\u2581cosmo": 12582, "\u2581avatar": 22234, "\u2581praying": 16690, "\u2581bump": 9797, "\u2581wastewater": 28312, "\u2581planning": 2334, "ear": 10717, "\u2581molina": 24007, "\u2581chilly": 26242, "spawn": 22860, "\u2581burnett": 15297, "\u2581rivers": 5117, "\u2581thakur": 27635, "\u2581escort": 7345, "\u2581gadget": 25661, "political": 14158, "\u2581huff": 16268, "\u2581flow": 3312, "\u2581scowl": 16129, "document": 28132, "\u2581prominence": 12880, "\u2581lansing": 24084, "\u2581fiend": 28399, "\u2581customs": 7999, "\u2581steamship": 23605, "\u2581bruno": 10691, "\u2581tolerance": 15220, "\u2581proto": 9347, "\u2581oman": 17519, "\u2581levels": 2216, "\u2581caledonia": 21530, "\u2581bullock": 25069, "\u2581investigating": 12490, "\u2581abu": 6793, "\u2581abd": 11249, "lub": 19827, "ochreous": 24977, "\u2581copper": 5504, "biotic": 26103, "share": 16608, "\u2581visibility": 19476, "\u2581respondents": 26544, "\u2581wheel": 3556, "\u2581journalism": 7857, "\u2581smartphone": 21421, "\u2581rath": 14902, "\u2581201718": 16171, "\u2581sudan": 11132, "\u2581oss": 19504, "\u2581prevalent": 17584, "\u2581similarity": 17204, "brid": 20744, "\u2581generalized": 22173, "\u2581fae": 17250, "247": 22549, "which": 2140, "\u2581weakness": 12063, "\u2581recycled": 24689, "\u2581gregor": 14318, "academic": 28524, "\u2581clashes": 20218, "\u2581chronicler": 26917, "\u2581hungarian": 5046, "\u2581tugging": 19783, "haj": 16563, "\u2581farming": 6982, "\u2581kicked": 5437, "\u2581inhibit": 15182, "guang": 19061, "\u2581adept": 24454, "\u2581lunatic": 25974, "el": 532, "\u2581gloom": 17990, "growing": 19064, "\u2581jay": 3361, "such": 4289, "\u2581hear": 990, "\u2581vince": 12502, "\u2581mg": 11791, "haut": 20561, "\u2581share": 1891, "183": 12081, "\u2581mcdonnell": 25416, "rajan": 18111, "\u2581accumulate": 25481, "\u2581civil": 1038, "\u2581nolan": 14875, "\u2581mora": 10285, "\u2581developments": 11884, "\u2581tender": 6437, "\u2581theorem": 9532, "ashi": 12365, "\u2581accused": 4125, "\u2581feminine": 14283, "\u2581exchequer": 28930, "\u2581quebec": 4107, ",": 15, "\u2581spice": 11717, "\u2581elvis": 13804, "\u2581matthews": 13915, "\u2581alvin": 19768, "\u2581disease": 2515, "\u2581kuk": 24158, "\u2581setting": 2697, "\u2581#8": 23751, "\u2581inverted": 22442, "\u2581gates": 5596, "\u2581fragile": 14480, "\u2581greco": 20349, "\u2581cala": 18917, "\u2581kiwi": 26993, "1926": 13363, "\u2581quantum": 8511, "uto": 11780, "ion": 872, "\u2581spanish": 1273, "\u2581maclean": 24569, "\u2581hideous": 23214, "\u2581utrecht": 21807, "eck": 7673, "\u2581maternal": 11934, "\u2581race": 764, "\u2581lowland": 13827, "\u2581thoughtfully": 22914, "\u2581jason": 2924, "\u2581elk": 14292, "\u2581pianist": 8633, "\u2581negligence": 27760, "\u2581cathode": 29949, "\u2581boss": 4054, "2,100": 29979, "\u2581nuts": 13771, "\u2581detained": 17137, "\u2581portico": 24015, "\u2581larkin": 25984, "\u2581missile": 6699, "\u2581identities": 17686, "\u2581swivel": 23206, "\u2581tuft": 20315, "\u2581gestapo": 27183, "\u2581nar": 6588, "250": 9798, "donnell": 18306, "\u2581interpreter": 19336, "\u2581general": 297, "\u2581diff": 20811, "hh": 10681, "\u2581equip": 24270, "\u2581napoli": 26154, "\u2581hugged": 10935, "\u2581stemmed": 29431, "\u2581together": 429, "ult": 10368, "\u2581shrubs": 21088, "\u2581sera": 17472, "\u2581stout": 20532, "\u2581albatros": 29117, "\u2581churchill": 11838, "\u25811794": 17070, "\u2581oxford": 2845, "\u2581rapidly": 4805, "last": 8558, "36": 3775, "\u2581cuckoo": 27235, "\u2581encode": 20523, "\u2581spur": 6844, "\u2581stumbled": 10282, "\u2581methodist": 8230, "\u2581manager": 1382, "\u2581kyoto": 18048, "fine": 7509, "\u2581waste": 4600, "shape": 25096, "\u2581weep": 24863, "30%": 12334, "2018": 8277, "\u2581renounce": 22425, "\u2581classics": 10980, "\u2581drank": 11878, "\u2581catches": 12195, "\u25811776": 17210, "nari": 20066, "\u2581theaters": 14627, "\u2581fan": 2514, "\u2581toddler": 26635, "\u2581lunged": 20921, "\u2581spans": 16967, "stream": 11260, "dow": 17779, "wife": 13611, "\u2581categorized": 23346, "\u2581hey": 8409, "urian": 18880, "organized": 19256, "\u2581pedagogical": 29513, "ault": 9708, "\u2581state": 146, "480": 16318, "marc": 17294, "\u2581taiwan": 5850, "\u2581buffet": 21754, "\u2581canning": 25088, "\u2581tight": 2618, "rta": 16968, "ozzi": 21076, "<unk>": 1, "nev": 14644, "station": 10839, "\u2581bouncer": 28121, "\u2581tossing": 17238, "\u2581nawab": 24548, "\u2581barely": 2886, "\u2581trigger": 7286, "\u2581disappearing": 16797, "\u2581muj": 20706, "\u2581practised": 23023, "\u2581consequent": 26498, "\u2581endo": 16172, "\u2581sideways": 14287, "rop": 13483, "\u2581baba": 12623, "knowledge": 28774, "\u2581ranks": 6309, "\u2581buddhist": 7012, "\u2581sharma": 15489, "\u2581bluish": 28681, "\u2581discussing": 10988, "\u2581underground": 3879, "ized": 1333, "\u25811951": 3813, "\u2581weeks": 1342, "\u2581bab": 8514, "\u2581enabled": 9338, "pso": 25355, "elles": 15821, "hang": 7065, "\u2581sig": 8858, "1908": 17337, "\u2581lawson": 16311, "chi": 1594, "\u2581michelle": 9555, "\u2581third": 422, "\u2581apple": 4037, "\u25811884": 7322, "\u2581otto": 7406, "\u2581creature": 5461, "\u2581partly": 5794, "\u2581courtney": 16979, "\u2581khz": 20325, "\u2581implant": 16093, "\u2581tighten": 19658, "\u2581viewpoint": 19502, "\u2581statue": 4819, "\u2581briefly": 3224, "\u2581leased": 12792, "\u2581malibu": 28099, "\u2581liberty": 6139, "\u2581plaster": 15842, "\u2581corporations": 13548, "fan": 7491, "\u2581teamed": 14860, "\u2581pedestrian": 12394, "heinz": 17581, "\u2581watanabe": 29592, "\u2581councils": 15914, "\u2581peabody": 23234, "\u2581proverb": 24368, "\u2581hissed": 11962, "\u2581taliban": 19756, "cp": 7439, "vigne": 27250, "\u2581cedric": 27601, "goo": 16111, "\u2581dispersal": 27705, "\u2581appeals": 9143, "\u2581vega": 16191, "\u2581hostility": 20610, "away": 5533, "\u2581beren": 23222, "\u2581marrow": 26361, "\u2581dunkirk": 29035, "\u2581felici": 29504, "\u2581galaxy": 9358, "\u2581pounding": 10267, "\u2581cro": 4880, "193": 21879, "\u2581rival": 4989, "\u2581butter": 8270, "\u2581shooting": 3511, "\u25811968,": 8851, "\u2581rotten": 11573, "\u2581days": 509, "\u25811963": 3024, "\u2581period": 620, "\u2581eyewitness": 26145, "\u2581lick": 15948, "\u2581var": 4033, "331": 23791, "do": 537, "\u2581mateo": 21582, "vn": 16578, "zak": 12325, "\u2581renowned": 8218, "\u2581aspiration": 19426, "shing": 9325, "ott": 10649, "\u2581rhythmic": 15717, "\u2581expressions": 13832, "\u2581loads": 19069, "\u2581monkeys": 19777, "andro": 19554, "\u2581fugue": 28805, "sian": 10760, "06": 3370, "\u2581infamous": 15865, "\u2581odd": 4210, "\u2581shoving": 18578, "eh": 4362, "\u2581lord": 1068, "\u2581engaged": 3659, "hull": 19371, "\u2581trick": 5514, "\u2581masses": 12537, "\u2581encompass": 26631, "lamp": 20293, "\u2581gur": 8239, "registered": 24911, "\u2581europe": 1002, "\u2581meals": 14233, "\u2581prayers": 13889, "\u2581neolithic": 22503, "\u2581release": 830, "rea": 9994, "\u2581racist": 19941, "html": 15895, "kel": 5444, "kl": 11234, "kani": 23140, "\u2581medallist": 26634, "\u2581lease": 9140, "\u2581locker": 11953, "pedia": 26132, "\u2581swipe": 27246, "\u2581iran": 2585, "\u258170": 3201, "\u2581spilled": 15281, "cular": 20163, "gul": 15628, "\u2581descendants": 8568, "\u2581knives": 15013, "vl": 15143, "player": 14049, "\u2581perspective": 6531, "\u2581helm": 10219, "\u2581continually": 16609, "[MASK]": 4, "mentioned": 27036, "\u2581tuition": 17736, "\u2581manhattan": 6406, "\u2581outnumbered": 25035, "sley": 7193, "\u2581slat": 22490, "\u2581prime": 1621, "\u2581gun": 1223, "\u2581muk": 15271, "\u2581closing": 4239, "campus": 21783, "\u2581inventory": 13875, "\u2581leaving": 1107, "tab": 15783, "\u2581reactions": 10408, "\u2581harmful": 20297, "\u2581casualties": 8463, "\u2581salem": 12863, "\u2581circus": 9783, "\u2581shaw": 6779, "\u2581meiji": 24815, "\u2581compared": 2428, "winter": 17684, "\u25811,500": 13667, "\u2581solving": 17533, "\u2581kilo": 25427, "standing": 10465, "\u2581regenerate": 29608, "bamba": 26970, "puram": 16886, "\u2581shogun": 28740, "\u2581maud": 16975, "\u2581stranded": 20721, "\u2581tractor": 15374, "\u2581revive": 19576, "pack": 8573, "\u2581mar": 1423, "neau": 24495, "451": 24466, "\u2581hed": 7003, "\u2581vasily": 26385, "\u2581dudley": 14040, "\u2581dreamer": 24262, "\u2581hire": 10039, "\u2581confidential": 16941, "\u2581cal": 3550, "\u2581bail": 9193, "\u2581dysfunction": 22880, "\u2581cursor": 29588, "\u2581mas": 4885, "\u2581rubble": 19541, "\u2581swedes": 28830, "mour": 19623, "flash": 26694, "\u2581lexical": 29180, "\u2581recreation": 8363, "900": 10289, "chir": 18557, "\u2581summer": 697, "\u2581teach": 5348, "\u2581arises": 21461, "beard": 23542, "\u2581constraints": 16747, "\u2581canucks": 28213, "chancellor": 21616, "\u2581flea": 22603, "\u2581asia": 2394, "\u2581counter": 2105, "\u2581confirmed": 2842, "\u2581hepatitis": 28175, "\u2581biker": 24882, "\u2581soon": 651, "\u2581everton": 20876, "\u2581creatures": 6733, "\u2581rolf": 20958, "\u2581janet": 10458, "\u2581mentions": 10292, "\u2581metre": 12324, "izing": 3335, "hout": 24220, "our": 4110, "\u2581populous": 23464, "\u2581hull": 5542, "\u2581caroline": 7726, "\u2581initial": 2104, "som": 10723, "\u2581skate": 14184, "\u2581witnesses": 9364, "\u2581tidal": 17189, "ks": 4020, "\u2581providers": 13488, "444": 26457, "\u2581ganga": 23738, "criminal": 27862, "\u2581interpreted": 10394, "\u2581cemeteries": 23727, "\u2581furlong": 21310, "\u2581behind": 439, "\u2581steve": 2228, "ridge": 6404, "\u258158": 7216, "\u2581cadillac": 23183, "\u2581shatter": 16925, "\u2581brad": 5413, "ack": 8735, "bruck": 18457, "\u2581monty": 21575, "\u25811875": 7922, "\u2581subsided": 28037, "\u2581symmetry": 17191, "\u2581$24": 27722, "ai": 3622, "lap": 11873, "fifth": 19311, "\u2581towards": 1016, "\u2581sharon": 11144, "obscur": 24193, "\u2581horrible": 9244, "\u2581communication": 3291, "\u2581py": 7103, "jn": 19180, "\u2581institute": 934, "\u2581forgot": 9564, "1,2": 15793, "\u2581friedman": 20000, "later": 4877, "\u2581guinea": 5283, "\u2581richter": 22736, "\u2581vial": 23679, "\u2581caffeine": 29114, "\u2581plough": 23468, "\u2581enlarged": 13114, "\u2581persia": 19238, "\u2581millennia": 27427, "\u2581resort": 4765, "\u2581droplets": 27292, "\u2581channing": 29549, "\u2581prohibition": 14110, "\u2581douglas": 3633, "\u2581treacherous": 27390, "\u2581aaa": 15916, "\u2581brawl": 19574, "\u2581mile": 2037, "\u2581users": 3878, "\u2581notion": 7834, "liga": 10011, "\u2581emb": 11911, "formatted": 29850, "\u2581anymore": 3375, "dream": 16206, "\u2581loans": 12332, "vaux": 27132, "\u2581ellis": 8431, "\u2581brevi": 21895, "\u2581lorenzo": 13801, "pee": 17216, "\u2581mash": 13333, "\u2581michelangelo": 28056, "\u2581ho": 2189, "mf": 13235, "\u2581rufus": 21032, "\u2581gay": 3398, "ty": 1084, "\u2581intimate": 9191, "laden": 14415, "\u2581resembling": 18353, "\u2581creating": 2936, "\u2581voltaire": 29925, "\u25812001:": 20083, "ris": 2777, "\u2581pele": 25532, "led": 1294, "\u2581grandfather": 4757, "\u2581studio": 1120, "\u2581kristen": 24217, "\u2581suspect": 7551, "\u2581ranger": 12499, "\u25811974,": 8684, "phyll": 21128, "\u2581marcello": 28802, "\u2581titular": 14342, "\u2581attempting": 6314, "cip": 11526, "\u2581specimen": 11770, "ovan": 23571, "\u2581assuming": 11704, "\u2581abusive": 22785, "\u2581horticulture": 29368, "ress": 9058, "mon": 2111, "\u2581simulation": 10926, "\u2581knowing": 2506, "\u2581aug": 15204, "\u2581diverse": 6951, "\u2581bat": 3570, "dip": 18032, "\u2581po": 2353, "\u2581brushing": 14671, "\u2581vor": 11150, "\u2581antioch": 17874, "\u2581consistent": 8224, "graf": 12461, "rp": 6952, "\u2581resolute": 27886, "\u2581traces": 10738, "\u2581texts": 6381, "\u2581theft": 14722, "\u2581clark": 3618, "\u2581searing": 27119, "lands": 6493, "vox": 22611, "\u2581european": 733, "\u2581malaysian": 12971, "\u2581ralph": 5776, "nigg": 27980, "\u2581warehouse": 8308, "yuk": 20034, "\u2581boiled": 20898, "\u2581serpent": 16405, "\u2581countess": 12684, "\u2581successive": 12002, "\u2581edwin": 9943, "\u2581morgue": 29279, "52%": 24628, "\u2581conscious": 10806, "mar": 1615, "\u2581summary": 14740, "\u2581schlo": 23557, "\u25812016,": 1812, "\u2581breast": 5871, "\u2581earth": 1073, "ifies": 12970, "\u2581nomenclature": 25838, "\u2581sean": 4722, "excluding": 14938, "\u2581paperback": 15338, "\u2581issued": 2212, "\u2581innovation": 7666, "raman": 18016, "\u2581furrowed": 23577, "\u2581buzz": 9122, "\u2581cove": 10809, "\u2581rescued": 10327, "\u2581fortification": 24221, "\u2581quickly": 976, "\u2581endorsed": 12943, "\u2581madeline": 19986, "ge": 834, "\u2581anguish": 21289, "297": 25901, "\u2581strength": 2169, "aga": 5193, "\u2581argent": 15629, "\u2581obsession": 19548, "\u2581dependencies": 29411, "\u2581imperative": 25186, "\u2581dion": 18035, "\u2581malmo": 25387, "\u2581peruvian": 17409, "\u2581cad": 8762, "\u2581darkened": 15652, "\u2581tenant": 18536, "\u2581mahatma": 29540, "1980": 5209, "\u2581tricks": 13747, "\u2581ministries": 19653, "\u2581reprised": 25459, "\u2581peregrine": 29778, "\u2581retailer": 22943, "\u2581phenomena": 12297, "\u2581according": 496, "\u2581heaven": 4469, "\u2581garlic": 22436, "\u2581succeed": 7952, "\u2581antenna": 9845, "\u2581heidelberg": 19112, "\u2581executives": 17103, "\u2581wren": 17585, "quen": 16694, "320": 12402, "\u2581antigua": 27171, "monte": 21417, "\u25814,": 2193, "\u2581comprehend": 21910, "ina": 1673, "\u2581decreased": 11382, "\u2581stigma": 19368, "\u2581ped": 12855, "technical": 22307, "\u2581gillespie": 23894, "\u2581saturn": 14649, "\u2581vinegar": 28638, "\u2581rosenberg": 22601, "\u25811958": 3330, "\u2581dialogue": 6402, "\u2581darkness": 3269, "\u2581strategist": 29330, "hij": 26517, "\u2581differently": 12670, "\u2581emirates": 16144, "\u2581duval": 21987, "1,400": 23457, "colour": 26723, "\u2581sorry": 1875, "\u2581overwhelmed": 15076, "\u2581texture": 12714, "\u2581messina": 28331, "\u2581dennis": 5731, "\u2581roberts": 6904, "evil": 16262, "\u2581relevance": 24144, "\u2581proven": 8829, "\u2581fyodor": 29743, "\u2581ritual": 8074, "272": 23381, "\u2581crises": 26614, "radio": 11129, "\u2581mir": 5877, "\u2581arabs": 18390, "\u2581headlights": 21538, "\u2581drake": 7209, "\u2581paths": 12074, "\u2581green": 647, "ien": 6288, "\u2581leap": 10336, "\u2581pound": 11168, "\u2581blanchard": 27621, "\u2581setback": 23149, "\u2581planets": 12695, "scu": 17763, "\u2581haji": 22734, "\u2581fortress": 6908, "\u2581following": 249, "\u2581against": 149, "edited": 17629, "\u2581zeke": 21318, "bes": 11296, ":56": 23235, "\u2581improved": 3999, "\u2581campaigns": 8433, "raj": 7671, "hmm": 15530, "\u2581websites": 13931, "\u2581jury": 5272, "\u2581limburg": 29522, "\u2581fading": 16099, "93": 4069, "lyn": 4859, "\u2581relocated": 6822, "brown": 9446, "\u2581wilde": 19314, "cert": 17580, "mitte": 18568, "\u2581eyeball": 26759, "\u2581wool": 6564, "\u2581betrayed": 12886, "\u2581observing": 16987, "\u2581neither": 3028, "raga": 17554, "\u2581pollution": 11483, "\u25811912,": 16036, "\u2581xuan": 21203, "pond": 17738, "\u2581merritt": 28065, "\u2581stutter": 22558, "\u2581shrunk": 28713, "\u2581stoic": 24556, "\u2581mendez": 29242, "\u2581decommissioned": 16161, "\u2581imagined": 7827, "\u2581coma": 13987, "lu": 2377, "\u2581chamberlain": 16083, "emon": 18062, "\u2581turnover": 22103, "\u2581anxiously": 26309, "\u258120": 434, "\u25812009:": 15366, "\u2581koz": 18103, "bass": 10043, "illian": 27121, "oshi": 14885, "\u2581falk": 21584, "holders": 11119, "\u2581exile": 7461, "\u2581agents": 5125, "\u2581tatar": 19362, "\u2581exquisite": 20013, "\u2581buildings": 1374, "stead": 6849, "\u2581protecting": 8718, "\u2581kumar": 8447, "\u2581homeland": 11177, "\u2581shelved": 29427, "\u2581karen": 7512, "\u2581atlas": 11986, "hee": 12533, "coat": 10640, "\u2581sporting": 6833, "\u2581herb": 11893, "iche": 17425, "\u2581unique": 2619, "\u2581windmill": 22789, "\u2581sn": 8912, "286": 24046, "h": 252, "\u2581football": 435, "latin": 10577, "\u2581jack": 1040, "99%": 26014, "\u2581inaugurated": 11683, "rahim": 22817, "\u2581register": 2243, "\u2581arc": 4686, "\u2581elephants": 19243, "steel": 24287, "\u2581hooker": 18197, "\u2581whine": 20973, "\u2581reggae": 17258, "\u2581planes": 10372, "\u2581sp": 3782, "\u2581evil": 3215, "\u2581$4": 6664, "gaku": 20063, "\u2581award": 450, "\u2581duluth": 28865, "\u2581ymca": 28124, "\u2581dip": 11453, "ren": 2789, "\u2581deliveries": 25340, "pol": 7332, "thi": 7343, "numbered": 24651, "\u2581invasion": 3572, "\u2581alex": 2155, "content": 25424, "\u2581quark": 28449, "\u2581cloth": 6628, "\u2581village": 399, "\u2581callum": 18381, "scotland": 27011, "efficient": 23702, "\u2581nara": 16153, "\u2581accessibility": 25737, "\u2581valve": 11291, "ld": 6252, "stra": 5253, "\u2581robinson": 4991, "compa": 18415, "\u2581wagg": 18804, "\u2581resolving": 28687, "\u2581gresham": 29543, "\u2581amend": 19247, "\u2581waves": 5097, "\u2581overlap": 15406, "\u2581tuxedo": 29556, "rick": 4869, "\u2581billy": 3769, "\u2581sculpture": 5515, "\u2581eugen": 14176, "ida": 3405, "\u2581battered": 21243, "\u2581transfer": 2617, "\u2581*": 1637, "\u2581plaintiff": 16328, "\u2581medals": 6112, "\u2581ignorance": 20949, "1967": 8515, "xing": 18222, "\u2581nintendo": 10562, "\u2581buff": 17354, "plant": 17345, "\u2581cruisers": 20260, "\u2581accentuat": 28957, "\u2581ditt": 28958, "3:1": 26923, "kw": 19277, "\u2581fossil": 9981, "7/": 9816, "bari": 11650, "\u2581criticizing": 23900, "\u2581thu": 14808, "\u258141": 4390, "\u2581stirring": 20477, "\u2581mine": 1114, "\u25811792": 16521, "thomas": 21184, "randa": 24138, "commun": 14869, "elling": 17042, "\u2581notices": 17528, "\u2581fresno": 23639, "\u2581medial": 24388, "\u2581refurbishment": 25278, "\u2581eddie": 4646, "778": 24658, "\u2581newsletter": 17782, "\u2581surrounded": 3736, "hunting": 24852, "\u2581ellen": 8767, "\u2581dont": 1049, "th": 96, "iest": 10727, "\u2581tolerate": 14723, "\u2581interception": 19525, "en": 219, "yan": 2817, "vald": 21337, "\u2581grotto": 28498, "\u2581armenia": 10666, "\u2581blades": 11397, "\u2581wingspan": 9197, "\u2581inhibitor": 16014, "\u2581cristina": 24427, "\u2581skimmed": 28707, "\u2581civilization": 9274, "\u2581exceptionally": 20056, "malo": 21114, "israeli": 21728, "\u2581pediment": 26871, "\u2581initiative": 5153, "\u2581gained": 2528, "\u2581ultrasound": 27840, "\u2581sacked": 16427, "\u2581ecological": 12996, "\u2581parrot": 18329, "\u2581collaborated": 8321, "\u258154": 5896, "\u2581pervert": 28002, "jian": 13283, "\u2581sled": 19328, "\u2581oxygen": 6838, "\u2581pitched": 9928, "\u2581fielding": 18231, "\u2581charges": 4498, "\u2581singapore": 3701, "\u2581confirmation": 15939, "\u2581arundel": 26920, "\u2581facts": 10459, "\u2581analyze": 16051, "\u2581motto": 12884, "\u2581excellence": 7812, "\u2581electrified": 21037, "\u2581instituted": 17344, "eros": 14968, "\u2581inviting": 17076, "\u2581cerebral": 20879, "\u2581virginia": 1614, "nee": 4356, "\u2581sylvia": 14726, "\u2581bench": 5689, "\u2581hernandez": 15046, "oza": 20551, "\u2581sensory": 19946, "asiatic": 22976, "\u25811962": 3018, "\u2581montevideo": 26316, "eaux": 14693, "ya": 1046, "\u2581oklahoma": 4733, "\u2581signed": 908, "darshan": 27507, "\u2581eddy": 19106, "ers": 445, "\u2581bottles": 12619, "\u2581ros": 4949, "\u2581binding": 8728, "\u2581album": 244, "arro": 14238, "\u2581nokia": 24294, "\u2581hans": 4800, "\u2581framed": 12276, "\u2581alistair": 26382, "\u2581aqua": 14299, "\u2581pontiac": 27060, "\u2581individuals": 1883, "\u2581senegal": 15485, "\u2581reprisal": 29002, "duc": 8484, "dov": 19123, "\u2581estonian": 13244, "\u2581rule": 1828, "\u2581popular": 844, "rot": 11699, "\u2581promise": 3340, "\u2581durban": 26098, "\u2581consecration": 26431, "\u2581partially": 5933, "\u2581linguistic": 13171, "\u2581averaging": 17376, "\u2581missiles": 11822, "leg": 6727, "uva": 15328, "\u2581heineken": 29815, "\u2581learn": 2484, "\u2581benton": 19699, "\u2581body": 358, "oe": 8018, "\u2581ap": 8442, "\u2581ukraine": 4981, "\u2581flush": 15017, "\u2581transformers": 21970, "\u2581avant": 16451, "\u2581attack": 991, "\u2581lodge": 5793, "cruci": 22010, "\u2581gillian": 25859, "lithic": 17865, "\u2581walpole": 29766, "\u2581monday": 5745, "\u2581aires": 9283, "\u2581prague": 8882, "\u2581rosen": 10735, "\u2581intervals": 15899, "dari": 20588, "\u2581reich": 8221, "on": 218, "\u2581coal": 3507, "\u2581racism": 16999, "\u2581prince": 1296, "\u2581joaquin": 18714, "\u2581sincerely": 27325, "\u2581sociologist": 23017, "\u2581snails": 15563, "\u2581gulf": 4737, "\u2581newscast": 15069, "\u2581clarinet": 11939, "\u2581residue": 16249, "\u2581diablo": 28664, "\u2581preparing": 7575, "\u2581altar": 8160, "bbe": 13813, "\u2581snare": 26403, "\u2581fraudulent": 26501, "\u2581bidder": 28198, "\u2581set": 309, "\u2581communicate": 8709, "\u2581asphalt": 17933, "\u2581sound": 646, "\u25811600": 17704, "\u2581forth": 5882, "\u2581kilkenny": 20002, "\u2581fifteenth": 18967, "\u2581roads": 3956, "\u2581colors": 5268, "\u2581kaye": 25116, "\u2581reconciliation": 19240, "\u2581hip": 3688, "316": 19983, "\u2581clearly": 2885, "\u2581intensify": 28163, "united": 12378, "\u2581lei": 9395, "\u2581zimbabwe": 11417, "\u2581thankfully": 18477, "\u2581clermont": 28055, "\u2581unter": 19269, "\u2581funded": 6726, ":32": 22783, "\u2581launched": 1601, "\u2581dead": 828, "ografi": 25866, "ste": 6100, "\u2581nieuw": 29201, "bat": 4900, "\u2581trou": 26894, "\u2581stable": 4521, "327": 24090, "hearted": 13936, "brecht": 24644, "\u2581barton": 14127, "\u2581inflorescence": 24528, "\u2581businesses": 4426, "iko": 7427, "\u2581flight": 1690, "\u2581disband": 21533, "\u2581maas": 24682, "\u2581amsterdam": 7066, "\u2581bribe": 17564, "\u2581cave": 3542, "\u25811928": 4790, "\u2581peck": 13228, "\u2581effect": 1590, "raz": 13932, "\u2581kuala": 18623, "\u2581intercity": 22697, "\u2581sticker": 25991, "\u2581ill": 1838, "\u2581blouse": 19529, "\u2581compress": 26060, "swamy": 25630, "\u2581opposite": 2794, "\u2581competitors": 10558, "science": 14738, "\u2581airship": 25072, "ira": 3517, "\u2581cummings": 24512, "california": 26883, "capitul": 27766, "\u2581lor": 9297, "\u2581anastasia": 21913, "point": 3132, "nico": 18942, "\u2581bosnia": 8987, "\u2581fanatic": 24908, "broadway": 22387, "\u2581psychedelic": 20363, "\u2581congestion": 22686, "sex": 6353, "\u2581consultant": 7381, "\u2581manufacturer": 7094, "\u2581ordinance": 15588, "\u2581swindon": 24669, "\u2581reed": 5749, "\u2581prom": 11443, "\u2581envelope": 9127, "\u2581raaf": 26052, "ifolia": 16423, "197": 21968, "wala": 17392, "\u2581documentaries": 18391, "\u258121,": 3887, "weight": 8696, "nabi": 25627, "\u2581decoration": 11824, "\u2581franciscan": 18496, "\u2581premature": 17769, "\u2581scud": 26757, "\u2581word": 833, "ifica": 24831, "uda": 5729, "\u2581for": 26, "\u2581illegal": 5143, "arn": 10818, "\u2581track": 792, "\u2581eventual": 9314, "director": 10197, "\u2581lumber": 11174, "\u2581hirsch": 20680, "\u2581cronus": 29605, "\u2581jem": 17510, "\u2581tectonic": 27025, "\u2581boiling": 18356, "\u2581indicated": 4151, "56": 3776, "\u2581candidates": 4074, "aris": 14688, "\u2581philanthropic": 26587, "\u2581resides": 12631, "sc": 3862, "\u2581mccall": 20982, "\u2581swirl": 23919, "\u2581platforms": 6843, "bile": 16833, "\u2581sea": 598, "\u2581graduates": 11916, "\u2581accountability": 20172, "\u2581reap": 24118, "330": 13509, "\u2581eloquent": 29999, "hawa": 20471, "\u2581incarceration": 28862, "\u2581flynn": 14893, "\u2581norris": 16950, "dap": 20472, "mont": 3984, "hava": 20648, "\u2581topographic": 20871, "\u2581friday": 4619, "\u2581intervened": 23575, "\u2581dots": 17900, "\u2581ensured": 18437, "\u2581gaius": 22040, "\u2581midlands": 14896, "\u2581number": 234, "\u2581correct": 4456, "\u2581travis": 10483, "\u2581quirk": 19321, "\u2581penultimate": 26567, "1:30": 27925, "\u2581nicholls": 27342, "\u2581settle": 6080, "lorenz": 23287, "\u2581letting": 4252, "\u2581rulers": 12401, "\u258180": 2972, "\u2581thrust": 5777, "\u2581catalyst": 17072, "ing": 68, "\u25812,": 1604, "2,500": 12974, "belle": 18691, "\u2581moody": 16988, "\u2581tipp": 24931, "abba": 13100, "\u2581burroughs": 27043, "\u2581cities": 1920, "\u2581preceding": 11673, "\u2581vale": 6749, "\u2581hampshire": 6249, "\u2581attending": 6237, "\u2581andorra": 28644, "\u2581tuvalu": 29942, "etic": 9329, "\u2581patrols": 17775, "\u2581christy": 23528, "\u2581consist": 7929, "\u2581macro": 9069, "rok": 13627, "\u2581tragic": 13730, "tracks": 8293, "\u2581dodging": 29902, "\u2581upright": 10395, "\u2581betting": 21699, "\u2581stock": 2070, "\u2581pon": 10629, "\u2581true": 1151, "\u2581dail": 24963, "\u2581catching": 9436, "\u2581tendon": 24704, "\u2581gulped": 27379, "\u2581ascent": 17142, "\u2581york": 305, "\u2581mariana": 22225, "fleet": 23721, "\u2581glob": 19060, "\u2581chopra": 28531, "\u2581cash": 3392, "\u2581isabelle": 16080, "\u2581diagnostic": 16458, "odont": 15809, "\u2581secession": 22518, "\u2581conce": 23998, "fired": 21972, "\u2581invested": 12269, "plo": 13221, "\u2581stefano": 21277, "fm": 5223, "\u2581mcki": 25815, "\u2581wwe": 13196, "\u2581even": 166, "under": 4579, "\u2581knoll": 26186, "\u2581advocated": 13043, "\u2581scripts": 17505, "\u2581compassion": 17652, "\u2581engineers": 5379, "tract": 19915, "\u2581territory": 1955, "find": 19811, "\u2581awakening": 19725, "\u2581stretches": 16077, "\u2581codename": 27100, "\u2581grenade": 14444, "\u2581kon": 5191, "\u2581homeless": 12320, "\u2581curious": 7686, "jj": 17419, "\u2581aimee": 26189, "\u2581snoring": 29765, "1886": 22437, "\u2581refer": 5017, "modul": 19673, "eke": 18031, "columbian": 27453, "\u2581organizational": 14823, "\u2581uganda": 8986, "\u2581fragrance": 24041, "\u2581zoe": 10347, "\u2581bucuresti": 29510, "wag": 14609, "\u25811:": 6352, "umu": 21841, "\u2581furnish": 28856, "\u2581scalar": 28960, "wiz": 23527, "\u2581dependent": 9063, "\u2581kink": 21835, "\u2581misunderstood": 29000, "tb": 11872, "\u2581kita": 16327, "\u2581stream": 3766, "\u2581treatments": 16749, "\u2581breakout": 26581, "\u25812021": 26111, "\u25819": 561, "cona": 21698, "\u2581harder": 5229, "\u2581boycott": 16617, "://": 6903, "\u2581bathtub": 29402, "universita": 25106, "dell": 5491, "\u2581regional": 1254, "\u2581whirled": 19702, "\u2581suspects": 14993, "\u2581indicative": 26928, "sal": 8266, "\u2581doing": 845, "\u2581patriarchate": 29692, "\u2581successor": 4558, "viv": 12102, "\u25811952,": 12935, "\u2581sensual": 18481, "\u2581blackburn": 14606, "\u2581constance": 19168, "\u2581isfahan": 29142, "patrick": 24345, "\u2581burrell": 29910, "\u2581linear": 6745, "\u2581running": 946, "\u2581economics": 4532, "77": 4536, "marie": 13118, "211": 19347, "\u258138": 4158, "\u2581hung": 3540, "233": 21799, "\u2581joyce": 12675, "\u2581implication": 26273, "\u2581presidency": 8644, "\u2581jazz": 2444, "\u2581remember": 1518, "\u2581loki": 25908, "\u2581begin": 2348, "\u2581bhavan": 29837, "bir": 10071, "\u2581strongly": 5020, "\u2581employ": 13125, "\u2581payments": 11161, "antoni": 17768, "\u2581urine": 20619, "\u2581affects": 15476, "\u2581sardinia": 21505, "\u2581significantly": 5085, "\u2581grandchildren": 16739, "\u2581downloadable": 27795, "\u2581rates": 5332, "\u2581videotape": 27841, "\u2581burglar": 23764, "\u2581noticeably": 26233, "\u2581suffragan": 29017, "\u2581survived": 3750, "hen": 6077, "259": 23864, "\u2581cells": 2934, "terminal": 20907, "\u2581layers": 9124, "\u2581pull": 2201, "23": 2001, "\u2581rogers": 6924, "\u2581comm": 11951, "\u2581ethnicity": 21647, "\u2581repertory": 23204, "\u2581saxe": 23788, "\u2581triangle": 8676, "\u2581nora": 13565, "\u25811956,": 11795, "\u2581scenery": 19788, "\u2581recruit": 12595, "\u2581jet": 4797, "\u2581iraqi": 8567, "hau": 11729, "\u2581longing": 17710, "\u2581visible": 4560, "\u2581folded": 6085, "\u2581dhan": 21975, "\u258125,000": 17803, "\u2581seymour": 14970, "\u2581answering": 11777, "hg": 18187, "\u2581checking": 9886, "range": 8366, "\u2581grosvenor": 29983, "\u2581northeast": 3422, "\u2581quoting": 28146, "\u2581nasser": 26152, "de": 546, "\u2581custom": 5816, "\u2581internacional": 27641, "\u2581psychologist": 13729, "\u2581car": 349, "iyar": 22109, "777": 25081, "\u2581threatening": 9811, "\u2581farmland": 17160, "eon": 11572, "\u2581phonograph": 29867, "\u2581clinch": 24471, "\u2581stakeholders": 24757, "\u2581pis": 15197, "\u2581blasted": 22129, "feasible": 23707, "epa": 14189, "uh": 6496, "\u2581seeming": 18517, "\u2581500,000": 18907, "\u2581hogg": 25976, "\u2581warwick": 15177, "\u2581khor": 27524, "ii": 2865, "\u2581cain": 11902, "brother": 11876, "\u2581jeopardy": 28304, "\u2581views": 4146, "6,000": 7696, "\u2581savage": 8296, "elo": 6923, "emma": 23690, "\u2581hide": 3077, "\u2581arboretum": 26005, "\u2581nina": 9749, "\u2581bac": 11099, "nate": 8820, "tors": 10778, "\u2581dover": 15967, "190": 12021, "shish": 27509, "remix": 23667, "\u2581exam": 11796, "infini": 23025, "\u2581gutierrez": 23865, "\u2581450": 15402, "\u2581mcbride": 21851, "\u2581nurture": 27499, "\u2581199899": 27297, "\u2581pol": 4827, "\u2581adjoining": 14894, "\u2581yarn": 23419, "!'": 13466, "middle": 17927, "\u2581workplace": 16932, "\u2581refrigerator": 18748, "mata": 12724, "\u2581tir": 12156, "\u2581mammals": 13107, "\u2581entropy": 25587, "\u2581admiralty": 16110, "\u2581bbc": 2313, "102": 16284, "\u2581cannes": 16586, "\u2581crest": 8579, "\u2581shouts": 18344, "\u2581sup": 11128, "feu": 20528, "\u2581telegraph": 9041, "\u2581preston": 7918, "\u258193": 9711, "\u2581fundamental": 6377, "\u2581texas": 1338, "\u2581preface": 20910, "\u2581wilkes": 23338, "\u2581bertrand": 23709, "\u2581reversing": 28829, "clar": 12078, "feature": 26956, "\u2581grid": 7354, "guilla": 29072, "\u2581inhabitants": 3356, "\u2581gt": 9509, "\u2581roo": 12764, "rrie": 23466, "\u2581criminals": 14430, "\u2581plumage": 27787, "\u2581hai": 8349, "\u2581spook": 19229, "vv": 20492, "\u2581emeritus": 13622, "\u2581walls": 2021, "\u2581andres": 17943, "\u2581maternity": 26263, "\u2581electrode": 21159, "\u2581spa": 6954, "\u2581struck": 3395, "\u2581tavern": 12144, "\u2581nap": 12348, "adi": 6622, "\u2581softened": 18914, "\u2581spores": 25817, "\u2581sheldon": 22349, "case": 10325, "\u2581breaking": 3892, "\u2581empties": 29863, "ria": 2548, "\u2581van": 1019, "\u2581breeders": 23558, "\u2581entirely": 2894, "\u2581malicious": 24231, "\u2581burundi": 27535, "\u2581eroded": 25529, "\u2581deletion": 28916, "\u2581brady": 10146, "\u2581amnesty": 18304, "\u2581knesset": 28365, "\u2581groom": 13399, "ain": 6890, "\u2581peasant": 14567, "\u2581biosphere": 29356, "\u2581foot": 1749, "\u2581pupils": 6806, "\u2581pharma": 18583, "\u2581mau": 7418, "\u2581grimace": 25873, "\u2581dyer": 24035, "\u2581edouard": 25017, "\u2581waterford": 21279, "\u2581inscriptions": 14501, "\u2581accredited": 12357, "\u2581grimly": 24893, "aille": 19860, "rated": 7432, "\u25811835": 12025, "chl": 17633, "\u2581ruled": 4238, "abc": 21880, "\u2581exiled": 16744, "lace": 16029, "\u2581lam": 11108, "\u2581invite": 10275, "\u2581centenary": 20029, "\u2581fellow": 1657, "\u2581revolver": 18497, "boy": 5352, "\u2581appetite": 20594, "\u2581fragmented": 27338, "\u2581praise": 7214, "\u2581writing": 1174, "\u2581montreal": 4400, "\u2581criminal": 2977, "reich": 17694, "\u2581georges": 15996, "vor": 5771, "\u2581persecution": 15005, "\u2581jin": 5627, "\u2581shaky": 16934, "\u2581limp": 9508, "\u2581emilio": 21850, "cru": 13057, "\u2581wesleyan": 22294, "\u2581aromatic": 25089, "\u2581affecting": 13808, "\u2581galli": 15212, "\u2581kron": 17828, "\u2581freddie": 18372, "\u2581intensive": 13633, "\u2581sydney": 2278, "\u2581trapped": 7249, "\u2581boards": 8755, "\u2581niels": 28606, "\u2581retribution": 26890, "\u2581cereal": 18796, "\u2581frequencies": 14798, "\u2581screamed": 6275, "\u2581tilt": 15900, "ionic": 18680, "\u2581berlin": 2296, "\u2581moffat": 27157, "\u2581hil": 12045, "\u2581recreate": 21119, "tag": 8628, "\u2581floors": 9169, "male": 15210, "\u2581invited": 3227, "oste": 16805, "\u2581maynard": 23845, "\u2581sylvester": 22669, "\u2581walker": 3764, "xiu": 28465, "\u2581oboe": 21934, "\u2581provost": 21357, "\u2581capacity": 2301, "\u2581brighter": 19231, "\u2581pond": 6162, "\u2581judah": 25822, "lost": 13404, "\u2581bruised": 21353, "\u2581refill": 28268, "tone": 7117, "\u2581menace": 21388, "\u2581squirm": 18171, "\u2581los": 1213, "\u2581meets": 5224, "\u2581bolster": 23259, "\u2581factories": 11814, "\u2581postage": 25040, "\u2581salad": 14754, "performed": 24915, "\u2581nails": 11191, "\u2581cretaceous": 20257, "\u2581wizard": 10276, "\u2581consequently": 8730, "\u2581hour": 1671, "\u2581mayo": 16642, "\u2581everett": 17328, "\u2581anzac": 28500, "\u2581labor": 2583, "\u2581essential": 5832, "\u2581ten": 652, "\u2581genocide": 16194, "ben": 4205, "\u2581roach": 22023, "\u2581horizontal": 10095, "\u2581magma": 26775, "\u2581moat": 24108, "ij": 9999, "?": 60, "\u2581singh": 4613, "18%": 23501, "modern": 11959, "\u2581wah": 16346, "nta": 10985, "\u2581universally": 24365, "greek": 10461, "\u2581stylish": 27872, "\u2581vineyard": 20418, "pea": 7081, "\u2581criticized": 5280, "\u2581seraph": 26485, "\u2581len": 10655, "\u2581volga": 27148, "\u2581monotypic": 28625, "\u2581incorrectly": 22870, "\u2581innovative": 9406, "ann": 8636, "\u2581vegetarian": 23624, "blu": 24989, "\u2581colchester": 22659, "\u2581relax": 9738, "\u2581surveillance": 10130, "\u2581remaining": 1846, "\u2581swell": 18621, "\u2581epic": 7269, "\u2581pari": 19498, "\u2581central": 521, "\u2581impossibly": 28921, "\u2581strickland": 29420, "ja": 1004, "\u2581adrenaline": 17433, "\u2581continues": 2622, "\u2581territories": 5435, "\u2581abortion": 11418, "\u2581collaborator": 13755, "huang": 27214, "\u2581decent": 12238, "\u2581choices": 10978, "fall": 5660, "\u2581directive": 15626, "logged": 19287, "\u2581liberal": 2456, "\u2581boogie": 24708, "\u2581anticipate": 27967, "\u2581therapies": 29352, "asser": 22220, "\u2581centers": 6301, "\u2581wholly": 13978, "\u2581fragment": 14847, "conscious": 17471, "\u2581followers": 8518, "mph": 18860, "\u2581mute": 20562, "\u2581nemo": 28504, "bia": 5732, "root": 14032, "uggle": 27400, "\u2581crocker": 29789, "\u2581dividend": 26483, "\u2581reinforcements": 16343, "\u2581arm": 813, "ric": 2988, "12": 918, ":28": 22585, "agu": 14972,
[...]
